<unk>	0
<s>	0
</s>	0
▁a	-0
▁e	-1
▁A	-2
an	-3
et	-4
zo	-5
er	-6
▁zo	-7
ar	-8
en	-9
▁ar	-10
ad	-11
ez	-12
ha	-13
on	-14
ur	-15
▁ha	-16
▁S	-17
enn	-18
▁g	-19
▁c	-20
▁s	-21
el	-22
us	-23
in	-24
▁o	-25
▁b	-26
▁d	-27
ro	-28
ant	-29
▁k	-30
re	-31
▁an	-32
▁eo	-33
▁M	-34
où	-35
ll	-36
▁1	-37
▁m	-38
zh	-39
▁B	-40
or	-41
ra	-42
un	-43
▁Al	-44
▁Ar	-45
is	-46
ezh	-47
▁ur	-48
▁gant	-49
▁p	-50
ou	-51
al	-52
▁oa	-53
▁bet	-54
▁C	-55
it	-56
▁R	-57
as	-58
▁P	-59
am	-60
▁K	-61
▁D	-62
ho	-63
▁I	-64
▁eus	-65
▁T	-66
▁St	-67
adoù	-68
▁l	-69
at	-70
▁G	-71
▁st	-72
▁F	-73
añ	-74
▁E	-75
00	-76
êr	-77
ed	-78
ol	-79
▁An	-80
es	-81
vet	-82
il	-83
▁hag	-84
▁un	-85
▁J	-86
ia	-87
▁L	-88
▁H	-89
▁ma	-90
hi	-91
ik	-92
▁W	-93
▁v	-94
▁ev	-95
▁2	-96
ari	-97
▁N	-98
▁U	-99
ec	-100
ic	-101
az	-102
roll	-103
▁de	-104
▁t	-105
om	-106
anet	-107
lo	-108
har	-109
▁19	-110
hoari	-111
our	-112
▁penn	-113
▁Stadoù	-114
▁stroll	-115
and	-116
▁en	-117
iz	-118
ak	-119
iv	-120
ac	-121
he	-122
ag	-123
erezh	-124
ab	-125
▁V	-126
ev	-127
st	-128
ri	-129
Uanet	-130
der	-131
▁In	-132
arzh	-133
ing	-134
mer	-135
loaz	-136
av	-137
▁evit	-138
▁O	-139
▁Ab	-140
ex	-141
▁strollad	-142
rou	-143
▁(	-144
ann	-145
avet	-146
ell	-147
ew	-148
▁lec	-149
onerezh	-150
▁vez	-151
ij	-152
oz	-153
ek	-154
ot	-155
oc	-156
▁sonerezh	-157
ub	-158
iñ	-159
ber	-160
merik	-161
em	-162
▁di	-163
▁3	-164
▁Ad	-165
0.	-166
▁Mar	-167
agn	-168
▁Un	-169
▁New	-170
loazet	-171
▁deus	-172
ay	-173
ton	-174
adenn	-175
▁Ind	-176
▁al	-177
orn	-178
eg	-179
▁kloazet	-180
se	-181
ian	-182
iad	-183
ist	-184
all	-185
ion	-186
uzh	-187
ig	-188
▁n	-189
▁evel	-190
raet	-191
pagn	-192
ill	-193
um	-194
id	-195
ud	-196
hw	-197
ul	-198
kêr	-199
ip	-200
uz	-201
ent	-202
▁maez	-203
ir	-204
ok	-205
barzh	-206
ch	-207
▁As	-208
▁mar	-209
▁Amerik	-210
rez	-211
war	-212
▁sk	-213
▁Ur	-214
▁ouzh	-215
▁graet	-216
io	-217
ap	-218
▁y	-219
▁tre	-220
benn	-221
▁f	-222
▁Aar	-223
▁10	-224
res	-225
im	-226
▁da	-227
izh	-228
tin	-229
▁kenn	-230
son	-231
▁Ak	-232
▁200	-233
ioù	-234
ank	-235
▁yezh	-236
▁At	-237
os	-238
red	-239
tel	-240
▁krou	-241
exas	-242
ut	-243
▁he	-244
hêr	-245
▁'	-246
▁5	-247
▁kavet	-248
ie	-249
ham	-250
▁km	-251
▁Ro	-252
▁Texas	-253
▁kêr	-254
▁met	-255
▁war	-256
ington	-257
oud	-258
▁Alan	-259
ter	-260
▁r	-261
▁FC	-262
01	-263
hoariet	-264
▁marvet	-265
iver	-266
aka	-267
ov	-268
▁4	-269
ash	-270
63	-271
harr	-272
▁em	-273
erv	-274
▁ra	-275
hir	-276
adur	-277
ta	-278
▁Alf	-279
▁unan	-280
hn	-281
▁De	-282
met	-283
▁er	-284
od	-285
▁Ac	-286
hl	-287
ib	-288
ien	-289
ne	-290
ug	-291
▁dre	-292
▁Alex	-293
▁Ander	-294
end	-295
▁vro	-296
ge	-297
ran	-298
qu	-299
▁krouet	-300
th	-301
▁gw	-302
▁Amerika	-303
hañ	-304
▁sa	-305
▁Jo	-306
ard	-307
▁Y	-308
▁Aaron	-309
▁stour	-310
▁11	-311
▁Wash	-312
000	-313
▁gom	-314
▁etel	-315
le	-316
▁parzh	-317
ervij	-318
raok	-319
bert	-320
ask	-321
pad	-322
ouzh	-323
▁Rom	-324
bann	-325
▁servij	-326
▁ober	-327
▁Washington	-328
ive	-329
▁deiz	-330
ow	-331
lant	-332
▁Tur	-333
▁strolladoù	-334
harn	-335
op	-336
ah	-337
▁hir	-338
ond	-339
ont	-340
▁"	-341
aou	-342
ico	-343
iana	-344
ama	-345
arn	-346
oll	-347
▁Am	-348
▁Adam	-349
if	-350
ras	-351
onn	-352
ore	-353
aned	-354
▁Mad	-355
▁Ch	-356
▁Martin	-357
ack	-358
vro	-359
ett	-360
▁re	-361
▁gêr	-362
ma	-363
▁El	-364
▁6	-365
ezet	-366
ver	-367
000.	-368
▁And	-369
ena	-370
ork	-371
rew	-372
rem	-373
▁AI	-374
hom	-375
lin	-376
bet	-377
hwez	-378
yl	-379
▁Par	-380
acon	-381
ons	-382
hiadur	-383
antoù	-384
▁niver	-385
6.	-386
▁ro	-387
▁anv	-388
▁diouzh	-389
alc	-390
-1	-391
bur	-392
▁saoz	-393
▁embann	-394
▁John	-395
▁Sk	-396
▁0	-397
▁Bak	-398
▁Spagn	-399
ob	-400
▁Cl	-401
alif	-402
ston	-403
▁savet	-404
aliforn	-405
8.	-406
▁York	-407
▁ebet	-408
anadoù	-409
ivez	-410
▁Alexand	-411
de	-412
ner	-413
▁live	-414
por	-415
pagnun	-416
sey	-417
▁ivez	-418
▁Unanet	-419
ara	-420
zel	-421
ezi	-422
neus	-423
anc	-424
▁Su	-425
3.	-426
▁Kaliforn	-427
▁Alb	-428
▁II	-429
▁deiziad	-430
ers	-431
rin	-432
rid	-433
ilh	-434
ang	-435
▁pe	-436
ys	-437
eks	-438
erzh	-439
ilip	-440
▁16	-441
▁18	-442
rezh	-443
hus	-444
▁niverenn	-445
iet	-446
ris	-447
▁Albert	-448
▁dreist	-449
▁Alfred	-450
5.	-451
evel	-452
tal	-453
▁Ant	-454
las	-455
▁AID	-456
hoarier	-457
▁hirder	-458
ñv	-459
do	-460
ong	-461
oued	-462
▁vo	-463
▁Atlant	-464
og	-465
▁Aston	-466
▁pennañ	-467
▁h	-468
▁gen	-469
2.	-470
▁Af	-471
tres	-472
▁kar	-473
ord	-474
illi	-475
ison	-476
▁embannet	-477
isc	-478
dul	-479
▁7	-480
ina	-481
eo	-482
zer	-483
▁Ag	-484
▁195	-485
illiam	-486
▁Abdul	-487
▁William	-488
▁aoz	-489
rivet	-490
abour	-491
▁Mend	-492
out	-493
man	-494
▁mor	-495
▁Ital	-496
ustin	-497
ilipin	-498
▁Filipin	-499
rik	-500
▁Ake	-501
akaet	-502
▁Akeem	-503
▁Indez	-504
▁8	-505
hel	-506
▁199	-507
iañ	-508
1.	-509
▁201	-510
▁gan	-511
00.	-512
▁Indiana	-513
onezi	-514
hlub	-515
▁17	-516
ff	-517
eor	-518
ost	-519
▁Indonezi	-520
000.0	-521
▁Mat	-522
▁Stroll	-523
4.	-524
▁Ap	-525
ation	-526
rezel	-527
▁gompagnun	-528
▁Jer	-529
▁Anders	-530
▁En	-531
burg	-532
▁brezel	-533
entañ	-534
▁Man	-535
asket	-536
▁25	-537
pi	-538
▁labour	-539
▁Jersey	-540
▁treug	-541
▁Z	-542
hit	-543
▁AIDA	-544
▁am	-545
▁Jon	-546
634	-547
omz	-548
▁Bar	-549
ura	-550
erm	-551
▁kantoù	-552
bloaz	-553
isa	-554
▁Aarhus	-555
▁Mal	-556
▁Er	-557
oun	-558
ck	-559
any	-560
▁amerik	-561
ity	-562
▁Re	-563
zour	-564
▁La	-565
▁Se	-566
pl	-567
▁Dan	-568
▁Turk	-569
▁bacon	-570
▁Geor	-571
▁Andrew	-572
ezhañ	-573
arth	-574
ords	-575
sis	-576
han	-577
azh	-578
▁bl	-579
▁tizh	-580
holl	-581
▁sen	-582
are	-583
ja	-584
▁Ah	-585
▁Bl	-586
hire	-587
ennoù	-588
▁arver	-589
▁192	-590
nij	-591
ene	-592
tic	-593
port	-594
▁Austin	-595
reiz	-596
vezh	-597
ourien	-598
est	-599
horn	-600
▁For	-601
▁genre	-602
▁Italia	-603
▁Anderson	-604
▁Strollad	-605
).	-606
▁kennasket	-607
▁198	-608
▁gou	-609
que	-610
ust	-611
▁ardo	-612
▁komz	-613
▁Rec	-614
▁Lond	-615
▁Amerikaned	-616
▁karrez	-617
▁9	-618
eun	-619
ott	-620
one	-621
raz	-622
land	-623
lec	-624
▁1634	-625
▁Unan	-626
reg	-627
▁12	-628
▁Afrik	-629
ace	-630
urn	-631
▁bras	-632
▁Records	-633
amp	-634
▁treuz	-635
▁Whit	-636
avezet	-637
ru	-638
▁Pr	-639
▁skrivet	-640
▁14	-641
ae	-642
bezh	-643
▁193	-644
▁stourm	-645
lli	-646
▁Georg	-647
▁reizh	-648
dan	-649
ret	-650
orzh	-651
vill	-652
▁j	-653
▁15	-654
SA	-655
▁brasañ	-656
eur	-657
▁IS	-658
▁:	-659
ron	-660
ezañ	-661
▁Mic	-662
▁Rib	-663
erc	-664
ella	-665
▁sav	-666
ennad	-667
▁Jones	-668
▁metrezh	-669
▁do	-670
ein	-671
▁Ang	-672
icoff	-673
▁stad	-674
iaz	-675
ville	-676
ada	-677
ock	-678
par	-679
▁end	-680
▁skol	-681
harned	-682
▁Ribicoff	-683
▁Ber	-684
aj	-685
9.	-686
ylv	-687
▁Afrika	-688
▁Madrid	-689
▁Gu	-690
amant	-691
▁rock	-692
▁White	-693
una	-694
▁Wil	-695
▁boued	-696
7.	-697
ational	-698
▁Aoz	-699
ros	-700
ania	-701
▁She	-702
aol	-703
hip	-704
evez	-705
▁taol	-706
ouez	-707
ean	-708
▁27	-709
ales	-710
iezh	-711
▁Adams	-712
▁Chi	-713
10	-714
hor	-715
▁Ay	-716
rant	-717
▁Bat	-718
olf	-719
▁Kan	-720
▁Mendris	-721
gan	-722
ey	-723
ya	-724
plij	-725
▁seniñ	-726
▁anvet	-727
▁Mendrisio	-728
▁strolladenn	-729
▁AC	-730
▁kev	-731
▁pennet	-732
▁im	-733
▁rann	-734
ennadenn	-735
▁Ser	-736
▁blus	-737
▁ep	-738
▁vezañ	-739
▁bezañ	-740
ria	-741
▁ko	-742
▁Ram	-743
drin	-744
pard	-745
▁City	-746
▁Shepard	-747
▁anavezet	-748
ern	-749
26	-750
▁31	-751
▁implij	-752
36	-753
ero	-754
los	-755
hank	-756
ollo	-757
▁amzer	-758
ess	-759
ino	-760
ire	-761
edia	-762
▁gomz	-763
chu	-764
Donn	-765
▁Pol	-766
Donnell	-767
92	-768
own	-769
▁US	-770
onsin	-771
▁Penn	-772
▁aozer	-773
▁Apollo	-774
ick	-775
▁lod	-776
isconsin	-777
het	-778
hio	-779
▁All	-780
▁Rou	-781
▁Ohio	-782
▁Tran	-783
▁Wisconsin	-784
▁Hir	-785
hell	-786
ram	-787
▁AF	-788
so	-789
ita	-790
oul	-791
aman	-792
raham	-793
▁Abraham	-794
ens	-795
▁endalc	-796
0000	-797
▁Aldrin	-798
▁der	-799
▁pa	-800
▁Char	-801
her	-802
▁Kaliforni	-803
▁Sc	-804
sylv	-805
▁Bean	-806
▁Hall	-807
sylvania	-808
▁Pennsylvania	-809
▁NA	-810
ered	-811
istan	-812
▁NASA	-813
adem	-814
ikov	-815
vroioù	-816
-3	-817
▁Kêr	-818
▁Car	-819
".	-820
▁Sa	-821
hant	-822
▁brem	-823
eksand	-824
▁Aleksand	-825
aid	-826
ine	-827
ini	-828
▁23	-829
▁Abel	-830
-2	-831
ozh	-832
uzz	-833
▁AL	-834
MA	-835
ue	-836
kas	-837
ola	-838
▁of	-839
▁Gres	-840
arc	-841
▁el	-842
▁The	-843
▁Turner	-844
▁Ob	-845
itar	-846
▁Izel	-847
aya	-848
▁Ol	-849
harzh	-850
lakaet	-851
Sanadoù	-852
inc	-853
mañ	-854
abet	-855
henn	-856
▁Anv	-857
▁rak	-858
uk	-859
▁Asi	-860
▁Inter	-861
ilom	-862
▁Alp	-863
▁See	-864
▁chom	-865
▁spagn	-866
▁Pal	-867
roc	-868
lliot	-869
▁Elliot	-870
▁Col	-871
▁dud	-872
▁Albany	-873
ier	-874
▁mil	-875
▁Mo	-876
▁lodenn	-877
roù	-878
▁Buzz	-879
▁Arian	-880
▁kentañ	-881
▁DC	-882
▁000	-883
▁Amer	-884
▁gwenn	-885
▁Alison	-886
▁Izelvroioù	-887
▁sin	-888
▁servijet	-889
▁Akron	-890
▁eil	-891
aouer	-892
▁Sing	-893
▁GMA	-894
ous	-895
▁Ana	-896
▁Sport	-897
▁Intern	-898
▁Atlanta	-899
▁International	-900
99	-901
esk	-902
ija	-903
▁Bo	-904
▁Bu	-905
▁Ma	-906
▁Alv	-907
▁Wer	-908
-0	-909
ago	-910
ital	-911
uburn	-912
renn	-913
▁Auburn	-914
sip	-915
55	-916
ilene	-917
indan	-918
ica	-919
uet	-920
▁Ta	-921
imet	-922
ivers	-923
▁holl	-924
udi	-925
ezia	-926
▁Abilene	-927
▁Madison	-928
▁stourmet	-929
haj	-930
hast	-931
ummet	-932
▁Q	-933
ach	-934
▁Ju	-935
▁Dav	-936
▁Singap	-937
ins	-938
uqu	-939
ectic	-940
erque	-941
ecticut	-942
uquerque	-943
▁Kalifornija	-944
Un	-945
▁Hy	-946
eron	-947
more	-948
▁Conn	-949
▁Akita	-950
▁Fel	-951
▁tra	-952
harya	-953
rouiñ	-954
eler	-955
hoazh	-956
▁epoc	-957
▁Kreiz	-958
▁ardoer	-959
ich	-960
▁dindan	-961
▁Albuquerque	-962
▁Alc	-963
▁raktres	-964
▁Connecticut	-965
ande	-966
▁echu	-967
▁Ahmet	-968
▁Acharya	-969
▁anezhañ	-970
apis	-971
▁196	-972
▁Singapour	-973
rab	-974
▁arveret	-975
▁treuzkas	-976
ep	-977
▁et	-978
▁Atlantic	-979
▁Sri	-980
▁sinet	-981
▁Hirder	-982
▁gompagnunerezh	-983
ana	-984
sav	-985
▁arzour	-986
añs	-987
hat	-988
▁Te	-989
▁Vir	-990
aceae	-991
▁Stad	-992
▁Obama	-993
▁Hel	-994
▁emg	-995
▁amerikan	-996
▁Mc	-997
rist	-998
▁Malezia	-999
▁gompagnunezh	-1000
▁Mis	-1001
hwezh	-1002
ademia	-1003
▁NR	-1004
▁Mah	-1005
▁Barack	-1006
▁deuet	-1007
▁X	-1008
▁Pa	-1009
▁Bro	-1010
/2	-1011
ty	-1012
eral	-1013
▁Arm	-1014
▁Elzel	-1015
▁traoù	-1016
▁Mex	-1017
alcio	-1018
angal	-1019
▁Kanada	-1020
88	-1021
po	-1022
amm	-1023
iel	-1024
vel	-1025
▁Dem	-1026
▁Arch	-1027
▁Calcio	-1028
uay	-1029
▁Der	-1030
sp	-1031
00.0	-1032
shire	-1033
▁Skol	-1034
11	-1035
var	-1036
treset	-1037
▁London	-1038
higan	-1039
▁Sp	-1040
ater	-1041
ienn	-1042
▁Jor	-1043
oneiz	-1044
ares	-1045
hall	-1046
inia	-1047
▁Archit	-1048
▁Karn	-1049
ettura	-1050
▁Garth	-1051
▁Architettura	-1052
ft	-1053
heim	-1054
▁urzh	-1055
▁moneiz	-1056
▁Anaheim	-1057
▁Michigan	-1058
ign	-1059
▁AFC	-1060
▁Romeo	-1061
▁Rid	-1062
roun	-1063
▁Har	-1064
angalore	-1065
▁Aleksandr	-1066
obl	-1067
▁stered	-1068
ast	-1069
voud	-1070
▁Town	-1071
▁Virg	-1072
dam	-1073
▁bar	-1074
▁bremañ	-1075
▁Virginia	-1076
▁Bangalore	-1077
60	-1078
sb	-1079
ranc	-1080
▁Black	-1081
▁kevre	-1082
oza	-1083
umm	-1084
▁az	-1085
▁mer	-1086
sippi	-1087
▁Taib	-1088
▁Tenn	-1089
▁labourat	-1090
wer	-1091
▁Del	-1092
werzh	-1093
▁Park	-1094
▁Trane	-1095
▁SC	-1096
tain	-1097
▁Mahm	-1098
▁Media	-1099
rouniezh	-1100
07	-1101
▁Le	-1102
isco	-1103
▁Bur	-1104
▁Chic	-1105
ingham	-1106
ira	-1107
med	-1108
ster	-1109
▁Ass	-1110
▁pre	-1111
▁Aost	-1112
▁Baku	-1113
oup	-1114
▁Is	-1115
▁Pak	-1116
▁gwel	-1117
▁heul	-1118
andeja	-1119
otrouniezh	-1120
anan	-1121
▁San	-1122
ht	-1123
ues	-1124
eksik	-1125
eveland	-1126
▁Abarth	-1127
▁Cleveland	-1128
sk	-1129
aba	-1130
▁Mos	-1131
▁kevreañ	-1132
33	-1133
97	-1134
▁Ba	-1135
▁Gre	-1136
▁Asad	-1137
▁Lank	-1138
▁Univers	-1139
4,	-1140
ubl	-1141
▁Deiz	-1142
▁Kavet	-1143
▁Angola	-1144
abr	-1145
penn	-1146
▁Jam	-1147
▁1963	-1148
▁2000	-1149
Uanadoù	-1150
▁Mahmud	-1151
▁Pakistan	-1152
rad	-1153
zoù	-1154
▁20	-1155
▁Pl	-1156
egun	-1157
rouet	-1158
▁Alfa	-1159
▁Hamp	-1160
▁Hampshire	-1161
▁diw	-1162
ataka	-1163
ewell	-1164
▁Kong	-1165
▁leun	-1166
jas	-1167
unk	-1168
▁Cam	-1169
▁Juan	-1170
▁milimet	-1171
▁-	-1172
evañ	-1173
ings	-1174
▁Ben	-1175
▁Urug	-1176
▁Lanka	-1177
▁Karnataka	-1178
bri	-1179
hwec	-1180
oude	-1181
▁1000	-1182
duk	-1183
jax	-1184
per	-1185
dukat	-1186
▁Serie	-1187
ry	-1188
oli	-1189
hann	-1190
▁Charl	-1191
▁doare	-1192
ley	-1193
▁Ajax	-1194
▁Rann	-1195
▁z	-1196
azz	-1197
lev	-1198
udn	-1199
▁Kov	-1200
▁Ray	-1201
▁lañs	-1202
▁Ababa	-1203
▁Adolf	-1204
▁Prudn	-1205
▁anezh	-1206
▁Antares	-1207
▁Prudnikov	-1208
▁amerikaned	-1209
▁SV	-1210
▁103	-1211
▁Inc	-1212
▁Mon	-1213
ignit	-1214
regiñ	-1215
savet	-1216
▁Rayel	-1217
BQ	-1218
iy	-1219
ipe	-1220
nes	-1221
luna	-1222
▁komzet	-1223
go	-1224
ilhet	-1225
▁NRBQ	-1226
▁Atlas	-1227
ouezenn	-1228
▁Chicago	-1229
BN	-1230
anco	-1231
ding	-1232
odge	-1233
▁den	-1234
▁Road	-1235
▁Aless	-1236
sissippi	-1237
bor	-1238
tar	-1239
▁Lou	-1240
▁Osb	-1241
▁bann	-1242
inignit	-1243
▁Felipe	-1244
▁Mexico	-1245
▁Osborn	-1246
▁krouiñ	-1247
▁Bandeja	-1248
▁AIDAluna	-1249
▁Mississippi	-1250
43	-1251
SN	-1252
ai	-1253
▁Louis	-1254
▁paisa	-1255
▁Osborne	-1256
▁u	-1257
gen	-1258
▁ISBN	-1259
▁James	-1260
▁implijer	-1261
▁Alexandra	-1262
8,	-1263
oug	-1264
ador	-1265
amer	-1266
▁Hun	-1267
▁Hong	-1268
udding	-1269
▁Dodge	-1270
▁Meksik	-1271
▁edukat	-1272
▁merour	-1273
▁26	-1274
▁ku	-1275
aska	-1276
▁Bion	-1277
▁deoc	-1278
▁Agnes	-1279
▁AZ	-1280
▁du	-1281
▁Jav	-1282
▁uhel	-1283
▁Ridge	-1284
▁Ariane	-1285
oy	-1286
▁13	-1287
▁aet	-1288
▁Holl	-1289
▁Hous	-1290
▁ISSN	-1291
▁Jenn	-1292
▁Alfons	-1293
▁Jennings	-1294
▁ganaouer	-1295
95	-1296
▁Sam	-1297
isaire	-1298
▁Franc	-1299
▁kregiñ	-1300
▁Johnson	-1301
▁Teisaire	-1302
80	-1303
vaz	-1304
▁Ill	-1305
inois	-1306
arajas	-1307
hankad	-1308
▁Bionico	-1309
▁chomlec	-1310
eb	-1311
Unanet	-1312
▁Christ	-1313
▁Illinois	-1314
olis	-1315
ouel	-1316
vred	-1317
▁191	-1318
▁ist	-1319
otter	-1320
▁Chin	-1321
yshire	-1322
iG	-1323
ano	-1324
iGas	-1325
▁Ath	-1326
▁Sol	-1327
▁Arou	-1328
byshire	-1329
▁AmeriGas	-1330
vr	-1331
ger	-1332
illa	-1333
perm	-1334
▁Sar	-1335
▁Java	-1336
▁Bacon	-1337
▁Gresian	-1338
bl	-1339
ight	-1340
▁kil	-1341
▁Eliz	-1342
amerik	-1343
▁vevañ	-1344
▁Adolfo	-1345
96	-1346
dez	-1347
▁Ly	-1348
andw	-1349
rank	-1350
▁arm	-1351
▁tom	-1352
▁Sara	-1353
▁Romagn	-1354
▁Alberto	-1355
uel	-1356
horf	-1357
▁Acta	-1358
ilomar	-1359
▁Romagnoli	-1360
link	-1361
sevel	-1362
▁Dall	-1363
▁Alessio	-1364
▁Aostria	-1365
era	-1366
iat	-1367
lint	-1368
▁Gro	-1369
abama	-1370
▁Rock	-1371
▁Klink	-1372
▁Dallas	-1373
▁lakaet	-1374
ourm	-1375
▁Kol	-1376
atraz	-1377
▁Ayers	-1378
▁Alabama	-1379
),	-1380
wak	-1381
erez	-1382
part	-1383
▁Add	-1384
▁tit	-1385
arcas	-1386
▁Eric	-1387
▁gall	-1388
▁Acura	-1389
▁Flint	-1390
▁Jouel	-1391
▁Hyperm	-1392
▁Christian	-1393
ix	-1394
rit	-1395
way	-1396
▁Av	-1397
▁dis	-1398
▁Adis	-1399
bal	-1400
ves	-1401
▁AM	-1402
▁lev	-1403
yland	-1404
▁Londrez	-1405
▁Sarawak	-1406
▁Hypermarcas	-1407
aset	-1408
ñvel	-1409
▁Vis	-1410
▁Whe	-1411
▁Verm	-1412
▁Foran	-1413
15	-1414
24	-1415
atr	-1416
hem	-1417
unc	-1418
▁Gor	-1419
▁Pet	-1420
▁rou	-1421
aball	-1422
▁ofis	-1423
▁Moore	-1424
▁levra	-1425
▁Maryland	-1426
▁&	-1427
ade	-1428
iva	-1429
pool	-1430
▁Dub	-1431
▁Mary	-1432
▁roet	-1433
▁Athens	-1434
▁Dublin	-1435
37	-1436
ce	-1437
rizh	-1438
abeth	-1439
▁Mosk	-1440
kantoù	-1441
▁Forre	-1442
▁Caball	-1443
▁Caballero	-1444
▁Elizabeth	-1445
ji	-1446
ahra	-1447
▁pep	-1448
▁fall	-1449
andant	-1450
Barajas	-1451
▁Alaska	-1452
▁Alcatraz	-1453
▁so	-1454
lerc	-1455
▁Ala	-1456
▁desk	-1457
▁orin	-1458
▁Bakewell	-1459
▁Blackpool	-1460
▁RS	-1461
ship	-1462
zhañ	-1463
▁Alaa	-1464
▁Jorj	-1465
▁Robert	-1466
▁Vermont	-1467
▁Township	-1468
ny	-1469
Bro	-1470
ral	-1471
akar	-1472
▁Blues	-1473
▁Polon	-1474
oblanco	-1475
▁grouiñ	-1476
▁arouezenn	-1477
▁Derbyshire	-1478
CO	-1479
aer	-1480
agg	-1481
olo	-1482
rosa	-1483
▁Ert	-1484
▁Mas	-1485
ersus	-1486
▁Dagg	-1487
▁Zitar	-1488
▁Versus	-1489
▁devezh	-1490
▁Ertegun	-1491
▁Zitarrosa	-1492
ane	-1493
▁Po	-1494
bach	-1495
olog	-1496
▁AMC	-1497
▁baj	-1498
▁Audi	-1499
▁Coun	-1500
▁Alfredo	-1501
▁Forrest	-1502
▁Gorbach	-1503
homandant	-1504
47	-1505
ouet	-1506
abank	-1507
▁Werft	-1508
lington	-1509
▁Chinabank	-1510
ink	-1511
▁Kl	-1512
▁Bir	-1513
▁Lar	-1514
▁ped	-1515
▁pen	-1516
▁Asam	-1517
▁Kant	-1518
▁Pres	-1519
▁Nevez	-1520
▁stoured	-1521
-01	-1522
▁Dr	-1523
▁197	-1524
▁Bav	-1525
iadis	-1526
iadoù	-1527
olenn	-1528
▁servijout	-1529
▁Georgiadis	-1530
hak	-1531
barn	-1532
hoar	-1533
onda	-1534
▁ber	-1535
▁2006	-1536
▁Alam	-1537
▁Oreg	-1538
▁Demok	-1539
▁Honda	-1540
▁Wheeler	-1541
▁Alexandre	-1542
▁Aotrouniezh	-1543
00.0.	-1544
▁Ayam	-1545
▁Deer	-1546
▁diaz	-1547
▁rizh	-1548
harnad	-1549
▁Bavari	-1550
▁County	-1551
▁Sportiva	-1552
16	-1553
29	-1554
LC	-1555
emor	-1556
itra	-1557
onis	-1558
▁250	-1559
▁Cra	-1560
▁Real	-1561
▁Adonis	-1562
▁ho	-1563
levr	-1564
oway	-1565
▁Allen	-1566
▁heilhet	-1567
▁Holloway	-1568
abin	-1569
âret	-1570
▁Ard	-1571
▁stil	-1572
▁Sabin	-1573
▁sandw	-1574
▁saozh	-1575
up	-1576
ioc	-1577
▁Ne	-1578
laka	-1579
▁Birm	-1580
▁Abner	-1581
▁diwezhañ	-1582
▁ganerezh	-1583
fa	-1584
rak	-1585
▁Ham	-1586
erona	-1587
ietro	-1588
ouezh	-1589
▁Club	-1590
▁Mark	-1591
▁yaou	-1592
entina	-1593
varaya	-1594
▁Pietro	-1595
▁Birmingham	-1596
uc	-1597
eed	-1598
osa	-1599
▁Aj	-1600
pill	-1601
▁Bel	-1602
▁troc	-1603
ernand	-1604
▁Press	-1605
▁Alpena	-1606
▁Oregon	-1607
14	-1608
uzet	-1609
▁Wal	-1610
▁metal	-1611
▁Ajoblanco	-1612
esh	-1613
abat	-1614
usia	-1615
▁Ras	-1616
▁Wat	-1617
pillar	-1618
▁Alvah	-1619
▁Frank	-1620
▁Krouet	-1621
▁Watson	-1622
▁Meksiko	-1623
▁stummet	-1624
vesvaraya	-1625
▁Asilomar	-1626
06	-1627
CLC	-1628
▁0.	-1629
▁Gl	-1630
ware	-1631
▁Mil	-1632
▁per	-1633
zhiad	-1634
▁Luna	-1635
▁ital	-1636
▁Adare	-1637
▁Bella	-1638
▁pedas	-1639
▁oberiñ	-1640
56	-1641
89	-1642
▁Fl	-1643
▁GT	-1644
▁101	-1645
▁600	-1646
▁Met	-1647
porzh	-1648
▁Braz	-1649
▁2006.	-1650
▁preuz	-1651
ado	-1652
▁Meur	-1653
bennie	-1654
▁lâret	-1655
▁galloud	-1656
▁yaouank	-1657
▁Albennie	-1658
▁levraourien	-1659
ôg	-1660
rup	-1661
utt	-1662
▁in	-1663
▁alc	-1664
stella	-1665
▁Craig	-1666
mus	-1667
▁VI	-1668
ountain	-1669
▁Brazil	-1670
aterpillar	-1671
LX	-1672
hoy	-1673
ney	-1674
riz	-1675
etta	-1676
▁TLX	-1677
▁dib	-1678
▁Doug	-1679
▁Kont	-1680
▁daou	-1681
▁AIDAstella	-1682
be	-1683
rom	-1684
▁Ef	-1685
abad	-1686
▁Gen	-1687
▁Glen	-1688
▁Mont	-1689
▁OCLC	-1690
ave	-1691
▁21	-1692
ekel	-1693
ruis	-1694
▁2014	-1695
▁Addis	-1696
▁eilenn	-1697
▁Daggett	-1698
▁steredenn	-1699
At	-1700
ve	-1701
eus	-1702
▁Mi	-1703
▁Roma	-1704
▁jazz	-1705
▁Cruis	-1706
▁Alamagn	-1707
▁Charlie	-1708
▁Caterpillar	-1709
46	-1710
ym	-1711
art	-1712
ila	-1713
men	-1714
▁pl	-1715
▁Arg	-1716
▁Day	-1717
▁Antwer	-1718
▁bajenn	-1719
▁Colmore	-1720
Ar	-1721
uli	-1722
▁Es	-1723
esse	-1724
▁107	-1725
▁Lev	-1726
▁Row	-1727
gabat	-1728
▁skor	-1729
▁kennad	-1730
▁pennadenn	-1731
▁Visvesvaraya	-1732
ph	-1733
▁Pri	-1734
▁che	-1735
hgabat	-1736
▁skrid	-1737
ani	-1738
Rosa	-1739
▁100	-1740
▁Mag	-1741
otive	-1742
▁2009	-1743
▁Palae	-1744
▁Fountain	-1745
án	-1746
iek	-1747
llo	-1748
▁52	-1749
deiñ	-1750
hard	-1751
▁164	-1752
hajji	-1753
▁ALCO	-1754
▁doar	-1755
▁soud	-1756
arillo	-1757
▁Alder	-1758
▁Andra	-1759
▁Andrews	-1760
▁Amarillo	-1761
▁Binignit	-1762
▁Palaeont	-1763
aw	-1764
itm	-1765
▁ke	-1766
ettys	-1767
remen	-1768
omotive	-1769
▁Verona	-1770
ettysburg	-1771
05	-1772
Qu	-1773
▁Iq	-1774
▁Eur	-1775
▁Atat	-1776
▁Levy	-1777
▁Iqbal	-1778
▁Arzour	-1779
▁Stourm	-1780
▁lañset	-1781
73	-1782
izi	-1783
zerb	-1784
▁Lum	-1785
avout	-1786
iller	-1787
▁Alama	-1788
▁Arouez	-1789
▁Miller	-1790
▁gouarn	-1791
▁Gettysburg	-1792
▁reizhiadoù	-1793
LA	-1794
600	-1795
arg	-1796
att	-1797
jan	-1798
igre	-1799
▁Bor	-1800
▁ELA	-1801
▁Gub	-1802
▁Koc	-1803
▁Rad	-1804
▁ritm	-1805
Atlant	-1806
▁nigre	-1807
▁Scales	-1808
▁Skrivet	-1809
▁soudard	-1810
CC	-1811
CCN	-1812
bio	-1813
emat	-1814
kins	-1815
onal	-1816
▁Ric	-1817
atric	-1818
▁Norzh	-1819
▁nevez	-1820
▁Gubbio	-1821
▁Rouman	-1822
▁gomzet	-1823
▁heñvel	-1824
atriciana	-1825
gor	-1826
bury	-1827
ourc	-1828
ramm	-1829
urns	-1830
xein	-1831
▁Alk	-1832
▁Hop	-1833
▁LCCN	-1834
▁hini	-1835
▁Burns	-1836
▁Marri	-1837
xeinoup	-1838
▁Helena	-1839
▁Uruguay	-1840
0,	-1841
br	-1842
ale	-1843
eng	-1844
choy	-1845
▁van	-1846
▁1955	-1847
▁Abub	-1848
haretta	-1849
▁Iwerzh	-1850
▁Efxeinoup	-1851
▁Alpharetta	-1852
nabr	-1853
oull	-1854
▁300	-1855
▁Can	-1856
▁Agra	-1857
▁Brou	-1858
▁Asser	-1859
▁Milan	-1860
▁istor	-1861
ananaman	-1862
▁Batchoy	-1863
mir	-1864
atez	-1865
aidjan	-1866
▁Azerb	-1867
▁Alderney	-1868
▁Aozadenn	-1869
▁Marriott	-1870
09	-1871
oa	-1872
▁$	-1873
bus	-1874
ilm	-1875
berg	-1876
ense	-1877
oust	-1878
▁Air	-1879
▁all	-1880
▁Irak	-1881
▁gitar	-1882
▁hollek	-1883
▁Matador	-1884
▁Abubakar	-1885
▁edukatour	-1886
91	-1887
au	-1888
acc	-1889
ans	-1890
bar	-1891
him	-1892
yet	-1893
▁44	-1894
▁Ex	-1895
alle	-1896
apan	-1897
ulia	-1898
▁Big	-1899
▁Fre	-1900
▁loc	-1901
▁rannvro	-1902
▁Bananaman	-1903
12	-1904
AI	-1905
enk	-1906
evo	-1907
oga	-1908
enha	-1909
osta	-1910
▁Sky	-1911
▁Sum	-1912
eland	-1913
▁Gant	-1914
▁Gany	-1915
▁cheñ	-1916
openha	-1917
▁evezh	-1918
▁ardeiñ	-1919
amerikan	-1920
▁Ganymed	-1921
▁gouarnamant	-1922
77	-1923
▁34	-1924
▁Jr	-1925
▁Ty	-1926
publ	-1927
▁hip	-1928
▁pop	-1929
▁Baade	-1930
▁norzh	-1931
St	-1932
ke	-1933
ais	-1934
ark	-1935
sal	-1936
▁0-	-1937
▁Lu	-1938
orno	-1939
▁Kar	-1940
▁Glas	-1941
derick	-1942
inland	-1943
▁Bakso	-1944
▁perzh	-1945
▁Chievo	-1946
▁gwerzh	-1947
openhagen	-1948
▁Ashgabat	-1949
añv	-1950
dor	-1951
elv	-1952
▁ol	-1953
▁AIP	-1954
▁Adv	-1955
▁LaS	-1956
▁Lee	-1957
▁1036	-1958
▁1910	-1959
ivorno	-1960
▁Angel	-1961
▁sevel	-1962
▁Walter	-1963
▁Georgie	-1964
▁LaSalle	-1965
▁derouet	-1966
▁Frederick	-1967
▁Azerbaidjan	-1968
irey	-1969
▁Aur	-1970
▁Hot	-1971
▁Hunt	-1972
publik	-1973
▁Airey	-1974
▁Kolom	-1975
▁Neave	-1976
▁Guiana	-1977
▁Turkia	-1978
▁Poaceae	-1979
▁dibabet	-1980
▁Roumania	-1981
▁est	-1982
Quaid	-1983
▁kuit	-1984
▁rumm	-1985
Amerik	-1986
▁Demokra	-1987
▁Houston	-1988
▁McQuaid	-1989
▁bennadenn	-1990
98	-1991
hiz	-1992
tur	-1993
▁Br	-1994
▁ALV	-1995
▁Ema	-1996
▁Loc	-1997
Arena	-1998
▁Frew	-1999
▁Wolf	-2000
▁gwer	-2001
▁marv	-2002
waydan	-2003
▁stred	-2004
sterdam	-2005
▁Ardmore	-2006
▁Cruises	-2007
▁Tennesse	-2008
▁sandwich	-2009
▁Arlington	-2010
▁Arouezenn	-2011
AL	-2012
BS	-2013
rañ	-2014
▁te	-2015
pira	-2016
▁Ara	-2017
▁DBS	-2018
▁Gur	-2019
▁Per	-2020
▁hop	-2021
▁liv	-2022
▁pat	-2023
▁Dent	-2024
▁treuzh	-2025
▁Adisham	-2026
▁Arapira	-2027
▁Camilla	-2028
▁Livorno	-2029
▁Tennessee	-2030
▁Copenhagen	-2031
▁Amatriciana	-2032
▁(6	-2033
▁kg	-2034
hamb	-2035
▁Aet	-2036
▁Cla	-2037
▁Kat	-2038
parzh	-2039
▁Barb	-2040
▁Sand	-2041
iadenn	-2042
▁goude	-2043
▁emgann	-2044
Atlantik	-2045
dw	-2046
ão	-2047
ech	-2048
▁22	-2049
▁47	-2050
hamp	-2051
vrer	-2052
▁Arc	-2053
▁Bay	-2054
▁Green	-2055
▁Manor	-2056
▁Guruli	-2057
▁Jwaydan	-2058
harnadenn	-2059
▁Greenville	-2060
▁Efxeinoupolis	-2061
▁1.	-2062
anel	-2063
enue	-2064
aware	-2065
hwiad	-2066
ornôg	-2067
▁titl	-2068
estley	-2069
▁Avenue	-2070
▁pudding	-2071
▁Priestley	-2072
ni	-2073
dav	-2074
yth	-2075
icia	-2076
árez	-2077
▁Arab	-2078
▁Stat	-2079
▁etre	-2080
ilight	-2081
▁Suárez	-2082
▁Delaware	-2083
▁Locomotive	-2084
hol	-2085
▁Tw	-2086
hara	-2087
hyth	-2088
itas	-2089
hythm	-2090
▁Ardo	-2091
▁pres	-2092
oulenn	-2093
▁Emaon	-2094
▁kennet	-2095
▁Angeles	-2096
▁Barboza	-2097
▁Twilight	-2098
ezz	-2099
▁Pena	-2100
▁koaz	-2101
ezzane	-2102
▁Costa	-2103
▁Antioc	-2104
▁Lumezzane	-2105
04	-2106
74	-2107
0.0	-2108
▁Gw	-2109
▁Ann	-2110
▁Rod	-2111
range	-2112
remia	-2113
▁Kriz	-2114
▁Saoz	-2115
▁reiz	-2116
quense	-2117
▁Asunc	-2118
▁Jorjj	-2119
▁Ardoer	-2120
▁Marvet	-2121
▁Orange	-2122
▁cheñch	-2123
▁Williams	-2124
zny	-2125
▁Val	-2126
hambra	-2127
tonbury	-2128
▁Grozny	-2129
▁Rhythm	-2130
▁Werder	-2131
▁enroll	-2132
▁Antioch	-2133
▁Finland	-2134
▁Arapiraquense	-2135
ami	-2136
▁Dy	-2137
fenn	-2138
ment	-2139
outh	-2140
zmir	-2141
▁Dim	-2142
idant	-2143
ilomet	-2144
partak	-2145
▁Dales	-2146
▁Bremen	-2147
▁Wilder	-2148
▁Richard	-2149
▁Spartak	-2150
▁Turkmen	-2151
▁Alhambra	-2152
ze	-2153
▁ni	-2154
itat	-2155
orid	-2156
spaz	-2157
ylde	-2158
▁Bob	-2159
▁Pro	-2160
▁pol	-2161
davad	-2162
▁Gufa	-2163
▁heng	-2164
salami	-2165
▁Amdavad	-2166
▁Academia	-2167
pia	-2168
▁Im	-2169
itiy	-2170
adesh	-2171
itiyat	-2172
▁Khara	-2173
▁kiloù	-2174
▁Realez	-2175
▁penner	-2176
▁Amsterdam	-2177
▁Abdulsalami	-2178
▁Kharaitiyat	-2179
7,	-2180
dev	-2181
vez	-2182
para	-2183
plos	-2184
▁Eus	-2185
▁Ter	-2186
ouenn	-2187
▁trede	-2188
plosion	-2189
▁uhelañ	-2190
▁Pradesh	-2191
▁Argentina	-2192
▁Explosion	-2193
/3	-2194
Am	-2195
The	-2196
hil	-2197
moù	-2198
briñ	-2199
ttar	-2200
▁Los	-2201
hatta	-2202
radab	-2203
▁5600	-2204
▁Hess	-2205
▁Main	-2206
▁reol	-2207
▁Kovac	-2208
▁Madin	-2209
arghatta	-2210
▁Abradab	-2211
▁Alexander	-2212
▁soudarded	-2213
▁Alexandria	-2214
▁Hessarghatta	-2215
52	-2216
hill	-2217
tica	-2218
ounel	-2219
▁Chir	-2220
▁alma	-2221
▁56009	-2222
▁Fylde	-2223
▁Uttar	-2224
▁Attica	-2225
▁Filipinoù	-2226
ón	-2227
enc	-2228
▁29	-2229
hnan	-2230
izal	-2231
maar	-2232
uner	-2233
▁Ace	-2234
▁bro	-2235
ances	-2236
▁Alvis	-2237
▁Zahra	-2238
▁Ampara	-2239
▁Parker	-2240
hornadoù	-2241
▁Advances	-2242
/1	-2243
LT	-2244
acy	-2245
hoc	-2246
und	-2247
Marc	-2248
agor	-2249
ance	-2250
ator	-2251
elez	-2252
evid	-2253
▁BLT	-2254
▁Pop	-2255
Marce	-2256
anaha	-2257
irond	-2258
hakris	-2259
▁keitat	-2260
▁yezhoù	-2261
anahalli	-2262
irondack	-2263
▁Alkmaar	-2264
▁Dimitra	-2265
▁Elzelad	-2266
▁Chirikov	-2267
▁Montevid	-2268
▁Unanadoù	-2269
hakrishnan	-2270
▁hengounel	-2271
▁Adirondack	-2272
▁Radhakrishnan	-2273
-4	-2274
ca	-2275
ly	-2276
264	-2277
▁110	-2278
▁Hum	-2279
▁Kad	-2280
▁koad	-2281
▁Bobina	-2282
▁DeMarce	-2283
▁Montevideo	-2284
BC	-2285
kle	-2286
rot	-2287
▁kl	-2288
alli	-2289
ouad	-2290
sink	-2291
uren	-2292
▁Gal	-2293
▁Sal	-2294
▁Camp	-2295
ogaard	-2296
▁Delta	-2297
▁frant	-2298
▁Buuren	-2299
▁Daniel	-2300
▁Boogaard	-2301
▁Republik	-2302
eon	-2303
eud	-2304
iro	-2305
▁Ku	-2306
▁su	-2307
akov	-2308
▁Inf	-2309
▁Mor	-2310
▁for	-2311
▁ket	-2312
▁Chum	-2313
kentañ	-2314
▁Malay	-2315
hoariad	-2316
hwezhañ	-2317
▁gentañ	-2318
▁heuliañ	-2319
▁Chumakov	-2320
▁milimetr	-2321
devanahalli	-2322
.,	-2323
ač	-2324
pop	-2325
▁8.	-2326
harz	-2327
ione	-2328
oyal	-2329
▁Acc	-2330
▁Sin	-2331
▁mat	-2332
amilh	-2333
ennet	-2334
kleur	-2335
▁AZAL	-2336
▁Kovač	-2337
▁media	-2338
94	-2339
uf	-2340
ial	-2341
▁1,	-2342
aezh	-2343
enos	-2344
▁Bol	-2345
elvin	-2346
oviet	-2347
sinki	-2348
▁Bath	-2349
▁Gris	-2350
▁Marc	-2351
▁Michel	-2352
▁Mendoza	-2353
▁Helsinki	-2354
▁Glastonbury	-2355
76	-2356
ile	-2357
▁01	-2358
▁Sy	-2359
acob	-2360
gari	-2361
uart	-2362
▁deb	-2363
▁soñ	-2364
acter	-2365
ester	-2366
ulton	-2367
▁Andal	-2368
▁Indie	-2369
▁Stuart	-2370
▁bennad	-2371
▁aozadur	-2372
rantville	-2373
▁stroller	-2374
pe	-2375
oto	-2376
elso	-2377
tone	-2378
▁Bill	-2379
▁Mari	-2380
elsohn	-2381
▁Anton	-2382
▁Monoc	-2383
▁Parag	-2384
▁maezh	-2385
▁Carlos	-2386
▁Meurzh	-2387
▁Bertone	-2388
▁doarezh	-2389
▁savadoù	-2390
▁Grantville	-2391
▁Mendelsohn	-2392
18	-2393
AC	-2394
atu	-2395
iag	-2396
▁UT	-2397
ican	-2398
▁Jar	-2399
▁Sch	-2400
▁Tom	-2401
▁ruz	-2402
athan	-2403
azhet	-2404
erala	-2405
▁AIDS	-2406
▁ment	-2407
▁Armin	-2408
iagonal	-2409
▁familh	-2410
▁Jonathan	-2411
▁Character	-2412
anv	-2413
▁Et	-2414
alon	-2415
vers	-2416
▁Tor	-2417
hastr	-2418
udiom	-2419
▁disk	-2420
▁oabl	-2421
▁Baked	-2422
▁Memor	-2423
▁goust	-2424
helleun	-2425
▁Kerala	-2426
▁metroù	-2427
▁Claudiom	-2428
▁preuzant	-2429
▁Francisco	-2430
48	-2431
bêr	-2432
enz	-2433
arez	-2434
chur	-2435
reet	-2436
tion	-2437
▁Pow	-2438
▁Tar	-2439
▁bak	-2440
ancer	-2441
esena	-2442
▁Sina	-2443
▁Stev	-2444
▁Arros	-2445
▁Baths	-2446
▁Brant	-2447
▁barre	-2448
▁Dancer	-2449
▁Street	-2450
▁Katalon	-2451
▁American	-2452
▁drekleur	-2453
▁presidant	-2454
▁Turkmenistan	-2455
pat	-2456
biat	-2457
bour	-2458
biata	-2459
enkad	-2460
hemat	-2461
▁Etio	-2462
▁Mars	-2463
▁arme	-2464
▁benn	-2465
▁mart	-2466
church	-2467
ellion	-2468
▁Asher	-2469
▁estez	-2470
▁Cesena	-2471
▁penyet	-2472
otterdam	-2473
rabbiata	-2474
▁Mathemat	-2475
▁gwerzher	-2476
▁milimetroù	-2477
gu	-2478
▁.	-2479
max	-2480
viz	-2481
▁Ot	-2482
Soto	-2483
enir	-2484
guez	-2485
▁185	-2486
▁Tab	-2487
ociaz	-2488
▁1089	-2489
▁Fall	-2490
▁Mass	-2491
▁Tama	-2492
▁klub	-2493
lakaat	-2494
▁11264	-2495
▁Phill	-2496
▁Baymax	-2497
▁Kavout	-2498
▁barrek	-2499
Amerikan	-2500
ociazione	-2501
9,	-2502
lu	-2503
788	-2504
mad	-2505
ple	-2506
urk	-2507
▁30	-2508
atto	-2509
▁Gaz	-2510
▁los	-2511
iadur	-2512
irage	-2513
▁1923	-2514
▁Gras	-2515
▁Publ	-2516
▁Vand	-2517
▁Vinc	-2518
▁Davut	-2519
▁DeSoto	-2520
▁Agustin	-2521
▁Phillip	-2522
▁Vincent	-2523
▁ofisiel	-2524
▁Paraguay	-2525
▁gantennad	-2526
▁University	-2527
jo	-2528
cup	-2529
hub	-2530
lor	-2531
sen	-2532
▁5.	-2533
▁AE	-2534
▁BBC	-2535
▁Com	-2536
obend	-2537
▁1099	-2538
▁1706	-2539
▁henn	-2540
accone	-2541
enberg	-2542
▁Aenir	-2543
▁Samar	-2544
▁mizal	-2545
▁Grasso	-2546
▁Virage	-2547
▁diazez	-2548
▁Agremia	-2549
▁Bahajji	-2550
▁arverañ	-2551
▁Diagonal	-2552
▁Vandenberg	-2553
▁Claudiomaccone	-2554
oaz	-2555
rys	-2556
tor	-2557
▁3,	-2558
ibal	-2559
irst	-2560
raoz	-2561
▁Daw	-2562
▁Sid	-2563
▁Sil	-2564
▁kan	-2565
hienn	-2566
▁Bras	-2567
▁Jack	-2568
▁Ober	-2569
▁gran	-2570
▁Elist	-2571
▁Sibal	-2572
▁banan	-2573
▁Dawson	-2574
▁Potter	-2575
▁Sidcup	-2576
▁kelvin	-2577
▁skapis	-2578
▁Batagor	-2579
▁kennaset	-2580
▁Demokratel	-2581
▁martourien	-2582
lop	-2583
otr	-2584
▁Ai	-2585
▁Co	-2586
▁Sh	-2587
iden	-2588
rañs	-2589
▁Kuz	-2590
▁Pen	-2591
▁erg	-2592
aylor	-2593
▁Jaya	-2594
000.0.	-2595
▁1955.	-2596
▁2014.	-2597
▁Aires	-2598
▁Arbor	-2599
▁Peter	-2600
▁laezh	-2601
hwezhoù	-2602
obendas	-2603
▁Buenos	-2604
hompagnun	-2605
▁Rotterdam	-2606
WC	-2607
8.8	-2608
tan	-2609
zon	-2610
▁mm	-2611
ouiñ	-2612
▁Arr	-2613
▁Blo	-2614
▁Jal	-2615
▁Mer	-2616
▁NWC	-2617
▁Tit	-2618
▁amz	-2619
▁1996	-2620
▁1998	-2621
▁Hero	-2622
Zeland	-2623
▁Allan	-2624
▁etrew	-2625
▁Gazett	-2626
▁Suarez	-2627
▁berraet	-2628
gw	-2629
tun	-2630
ção	-2631
▁28	-2632
▁35	-2633
iput	-2634
▁Bum	-2635
▁Vik	-2636
▁Tyus	-2637
▁soñj	-2638
▁Disco	-2639
iputera	-2640
▁Fulton	-2641
▁desket	-2642
▁Alcobendas	-2643
▁Bumiputera	-2644
eñ	-2645
är	-2646
gie	-2647
hig	-2648
jar	-2649
▁Em	-2650
▁Gr	-2651
giea	-2652
hioù	-2653
izel	-2654
▁Hip	-2655
▁Nep	-2656
800.0	-2657
ingen	-2658
jarat	-2659
thpop	-2660
▁1963.	-2661
▁Hygiea	-2662
▁Neptun	-2663
▁ardoet	-2664
ga	-2665
▁So	-2666
elle	-2667
eyer	-2668
gerz	-2669
onso	-2670
tram	-2671
▁700	-2672
▁737	-2673
▁Leg	-2674
▁net	-2675
▁Hera	-2676
▁Miri	-2677
▁Rams	-2678
3000.0	-2679
▁Meyer	-2680
▁kloaz	-2681
▁Manila	-2682
▁Public	-2683
ernandez	-2684
▁Bertram	-2685
▁Hernandez	-2686
▁Arrabbiata	-2687
RA	-2688
jab	-2689
odi	-2690
▁He	-2691
adeg	-2692
evar	-2693
ixma	-2694
▁ACM	-2695
▁sal	-2696
▁vêr	-2697
ridge	-2698
sburg	-2699
▁1999	-2700
▁Deur	-2701
attoor	-2702
▁Sixma	-2703
▁Tirst	-2704
▁obern	-2705
▁skrit	-2706
▁17068.8	-2707
▁Douglas	-2708
▁Romance	-2709
▁Samaras	-2710
▁etrewel	-2711
▁stilist	-2712
▁Phillips	-2713
▁Tirstrup	-2714
▁ouzhpenn	-2715
▁Palaeontolog	-2716
777	-2717
usi	-2718
▁32	-2719
▁AS	-2720
anac	-2721
eter	-2722
iant	-2723
ited	-2724
vann	-2725
▁399	-2726
▁Mak	-2727
10777	-2728
olini	-2729
uttik	-2730
▁2005	-2731
▁Long	-2732
▁Math	-2733
▁Sarv	-2734
▁Teks	-2735
▁gram	-2736
▁Ahmad	-2737
▁Assad	-2738
▁Elvel	-2739
▁Esaou	-2740
▁Terek	-2741
▁gourc	-2742
▁Kadhim	-2743
▁Kuttik	-2744
▁gwelet	-2745
▁Saranac	-2746
▁National	-2747
RE	-2748
da	-2749
dia	-2750
ood	-2751
orf	-2752
▁FD	-2753
▁Me	-2754
anil	-2755
itik	-2756
quia	-2757
reek	-2758
roaz	-2759
▁AEK	-2760
▁Hor	-2761
▁Pun	-2762
acuel	-2763
▁Dani	-2764
▁Eras	-2765
▁Jens	-2766
▁Silv	-2767
apalli	-2768
elekel	-2769
▁Jarama	-2770
▁Punjab	-2771
acuellos	-2772
▁Antonis	-2773
▁Erasmus	-2774
▁Gujarat	-2775
▁Pudding	-2776
▁banniad	-2777
▁kennvro	-2778
▁Sarvapalli	-2779
▁Paracuellos	-2780
▁Palaeontologica	-2781
",	-2782
6,	-2783
IT	-2784
NAI	-2785
bev	-2786
eiñ	-2787
ice	-2788
iom	-2789
anek	-2790
hiañ	-2791
▁Fig	-2792
▁Hus	-2793
▁Shi	-2794
NAIRE	-2795
eksey	-2796
neria	-2797
stock	-2798
▁1101	-2799
▁1927	-2800
▁Bund	-2801
▁Cast	-2802
▁Jose	-2803
▁Lira	-2804
▁golo	-2805
▁gwar	-2806
▁tomm	-2807
ioquia	-2808
▁ENAIRE	-2809
▁Morgan	-2810
▁arverr	-2811
▁Aleksey	-2812
▁Georgia	-2813
▁Rostock	-2814
▁Shivers	-2815
▁patatez	-2816
▁Figneria	-2817
▁Polonica	-2818
31	-2819
te	-2820
▁w	-2821
▁Cu	-2822
cher	-2823
emin	-2824
mond	-2825
pinc	-2826
plet	-2827
yine	-2828
▁Way	-2829
▁1928	-2830
▁Alba	-2831
▁trec	-2832
ematis	-2833
▁2009.	-2834
▁Frañs	-2835
▁Lydia	-2836
▁Manch	-2837
pincott	-2838
▁Moyine	-2839
▁Renkad	-2840
▁Staten	-2841
▁hegerz	-2842
▁rummet	-2843
▁saozeg	-2844
▁Wilkins	-2845
▁Alexandr	-2846
▁Clematis	-2847
▁Antioquia	-2848
▁Manchester	-2849
70	-2850
84	-2851
93	-2852
gio	-2853
-15.	-2854
▁Kub	-2855
▁Lec	-2856
▁Lip	-2857
▁May	-2858
▁Nik	-2859
▁zil	-2860
ching	-2861
▁Falc	-2862
▁seni	-2863
▁Enter	-2864
▁Hotel	-2865
▁diell	-2866
hoarioù	-2867
kattoor	-2868
▁Sergio	-2869
▁anezho	-2870
▁Kuching	-2871
▁bremanel	-2872
▁labouret	-2873
▁skorapis	-2874
▁Lippincott	-2875
▁Kuttikkattoor	-2876
439	-2877
nal	-2878
▁Pu	-2879
bast	-2880
heed	-2881
maez	-2882
▁Joe	-2883
▁Nar	-2884
▁Ste	-2885
azvaz	-2886
▁1950	-2887
▁Stan	-2888
▁Suñv	-2889
hattan	-2890
hornad	-2891
▁Julia	-2892
▁pevar	-2893
▁Applet	-2894
hoarvezh	-2895
tainment	-2896
▁Antwerp	-2897
▁Akademia	-2898
▁Entertainment	-2899
,7	-2900
54	-2901
5-2	-2902
amb	-2903
▁36	-2904
alla	-2905
edel	-2906
eeds	-2907
foll	-2908
unan	-2909
▁Bal	-2910
▁Cas	-2911
▁1913	-2912
▁Lock	-2913
deburg	-2914
onnais	-2915
▁moull	-2916
kilomet	-2917
▁Afonso	-2918
▁Harbor	-2919
▁amzerv	-2920
▁Ataturk	-2921
▁urzhiañ	-2922
▁2014-15.	-2923
▁Lyonnais	-2924
▁Magdeburg	-2925
45	-2926
AM	-2927
yes	-2928
▁Ph	-2929
oudi	-2930
rich	-2931
▁Cow	-2932
▁Des	-2933
▁Rah	-2934
▁Corn	-2935
▁Diaz	-2936
▁Euro	-2937
▁berr	-2938
▁jabr	-2939
▁oliv	-2940
dweeds	-2941
igator	-2942
lamant	-2943
▁Reyes	-2944
▁foran	-2945
ersburg	-2946
hampion	-2947
▁Cowper	-2948
▁Krouiñ	-2949
▁Sebast	-2950
▁Urugada	-2951
▁Sonerezh	-2952
▁Manhattan	-2953
▁emgoulenn	-2954
-3.	-2955
ler	-2956
▁3.	-2957
ando	-2958
hais	-2959
ilmi	-2960
zout	-2961
▁252	-2962
▁Pin	-2963
▁dou	-2964
endam	-2965
▁2015	-2966
▁Kenn	-2967
▁Paul	-2968
▁pezh	-2969
Soviet	-2970
amaneg	-2971
hanaer	-2972
▁Biden	-2973
▁Hilmi	-2974
▁Powys	-2975
▁Stell	-2976
▁reter	-2977
ernando	-2978
▁Island	-2979
▁Philip	-2980
ottingen	-2981
▁Pinhais	-2982
▁Andalusi	-2983
▁Fernando	-2984
▁Parlamant	-2985
▁Wildweeds	-2986
▁Stellendam	-2987
▁Soldevanahalli	-2988
bul	-2989
ics	-2990
kes	-2991
nam	-2992
▁"1	-2993
▁af	-2994
alls	-2995
hore	-2996
oueg	-2997
▁Fri	-2998
▁Med	-2999
▁Was	-3000
▁dos	-3001
▁Bers	-3002
▁roue	-3003
hiphol	-3004
hlouad	-3005
renner	-3006
▁Aozer	-3007
▁House	-3008
▁Lahore	-3009
▁United	-3010
▁italik	-3011
▁Bersatu	-3012
▁Jorjjia	-3013
▁Polonia	-3014
▁Rannvro	-3015
▁Appleton	-3016
▁Lockheed	-3017
▁Schiphol	-3018
eil	-3019
hed	-3020
ies	-3021
ulo	-3022
yan	-3023
▁Du	-3024
▁Ra	-3025
agle	-3026
arol	-3027
brel	-3028
harc	-3029
ouer	-3030
▁Old	-3031
▁bed	-3032
▁tak	-3033
ertel	-3034
▁Brom	-3035
▁Khor	-3036
▁Stou	-3037
▁egor	-3038
▁foll	-3039
▁teñv	-3040
edrich	-3041
▁David	-3042
▁Semin	-3043
▁Solan	-3044
▁kaset	-3045
bloazet	-3046
▁azezet	-3047
▁Hamburg	-3048
▁Michele	-3049
▁Asuncion	-3050
▁Marcolini	-3051
fen	-3052
ona	-3053
hari	-3054
idro	-3055
rann	-3056
vent	-3057
▁Glo	-3058
▁Mot	-3059
▁Pes	-3060
▁Por	-3061
▁Wid	-3062
aoudi	-3063
iomay	-3064
▁Funk	-3065
▁Lars	-3066
▁Wasp	-3067
▁Boris	-3068
▁Dykes	-3069
▁Izmir	-3070
tarella	-3071
▁ofiser	-3072
▁peniet	-3073
▁Deiziad	-3074
▁Tennant	-3075
▁oberiant	-3076
▁parzhioù	-3077
▁Mattarella	-3078
▁Asociazione	-3079
▁skridennadenn	-3080
72	-3081
Eur	-3082
ato	-3083
kar	-3084
▁Di	-3085
▁109	-3086
▁Hal	-3087
▁Pan	-3088
▁Rut	-3089
Europ	-3090
▁Soho	-3091
▁brou	-3092
▁dour	-3093
averal	-3094
ileiro	-3095
mussen	-3096
voudel	-3097
▁1986.	-3098
▁Casey	-3099
▁Boston	-3100
▁Isidro	-3101
▁Sinaek	-3102
▁Stadenn	-3103
▁Suñvrad	-3104
▁diertel	-3105
▁gwerzoù	-3106
▁politik	-3107
▁Friedrich	-3108
▁Rasmussen	-3109
▁Brasileiro	-3110
25	-3111
/36	-3112
alb	-3113
baj	-3114
imo	-3115
ony	-3116
sha	-3117
▁SB	-3118
6063	-3119
9255	-3120
ague	-3121
aput	-3122
gwel	-3123
ijer	-3124
otta	-3125
▁Fen	-3126
▁Mol	-3127
▁Que	-3128
▁Sus	-3129
Zahra	-3130
anant	-3131
hanol	-3132
ilton	-3133
ruppo	-3134
▁1097	-3135
▁West	-3136
eonato	-3137
shafen	-3138
▁0-439	-3139
▁Halim	-3140
▁Haput	-3141
▁Japan	-3142
▁Kuzet	-3143
▁Sumat	-3144
▁douar	-3145
▁Gruppo	-3146
▁Susana	-3147
▁krouer	-3148
000000.0.	-3149
▁diazezet	-3150
▁edukatourien	-3151
die	-3152
nei	-3153
oln	-3154
▁RO	-3155
harg	-3156
oglu	-3157
stan	-3158
zhoù	-3159
▁151	-3160
▁Fer	-3161
▁Nix	-3162
▁fuz	-3163
▁son	-3164
angra	-3165
▁2001	-3166
▁Jano	-3167
▁Linc	-3168
▁Ward	-3169
▁Inizi	-3170
▁Jorge	-3171
▁memor	-3172
medabad	-3173
stanbul	-3174
▁Inraoz	-3175
▁Johann	-3176
▁Lincoln	-3177
▁spagnol	-3178
partamant	-3179
▁Davutoglu	-3180
CA	-3181
nt	-3182
bai	-3183
ban	-3184
les	-3185
▁ez	-3186
6391	-3187
oloù	-3188
▁Lig	-3189
▁Lok	-3190
▁Meu	-3191
▁Mum	-3192
umber	-3193
▁Rose	-3194
▁aozh	-3195
▁Bengo	-3196
▁Humph	-3197
▁Vicia	-3198
▁Mumbai	-3199
000000.0	-3200
▁Jackson	-3201
▁Sumatra	-3202
▁Ahmedabad	-3203
▁Agremiação	-3204
▁cheñchadenn	-3205
▁Friedrichshafen	-3206
Amm	-3207
age	-3208
▁03	-3209
▁Ga	-3210
▁Ic	-3211
edad	-3212
osun	-3213
pace	-3214
señv	-3215
▁186	-3216
▁211	-3217
▁Yin	-3218
▁and	-3219
endra	-3220
pique	-3221
rosse	-3222
ylvia	-3223
▁Cand	-3224
▁Fiat	-3225
▁Modi	-3226
▁fret	-3227
▁goud	-3228
▁test	-3229
Ammann	-3230
helloù	-3231
neider	-3232
▁Davis	-3233
▁Icolo	-3234
▁Paisa	-3235
▁Popov	-3236
▁Tosun	-3237
Telekel	-3238
▁Kornôg	-3239
▁Sylvia	-3240
▁Istanbul	-3241
▁Narendra	-3242
▁Schneider	-3243
▁gwerzherenn	-3244
rk	-3245
sa	-3246
inn	-3247
ors	-3248
▁KW	-3249
adel	-3250
avan	-3251
kara	-3252
lenn	-3253
onny	-3254
roma	-3255
▁12.	-3256
▁Mel	-3257
▁Sec	-3258
Broez	-3259
erson	-3260
▁1993	-3261
icitas	-3262
▁Croma	-3263
▁Jonny	-3264
▁Ankara	-3265
▁Nation	-3266
▁Pesaka	-3267
▁Charles	-3268
▁bouedad	-3269
▁trevred	-3270
▁Humphrys	-3271
▁armerezh	-3272
▁Canaveral	-3273
▁Felicitas	-3274
▁Gottingen	-3275
42	-3276
FK	-3277
gg	-3278
òs	-3279
/28	-3280
8-1	-3281
ala	-3282
ghe	-3283
ürk	-3284
▁45	-3285
▁88	-3286
hizh	-3287
utte	-3288
▁Egg	-3289
▁PFK	-3290
▁Rol	-3291
gheau	-3292
onder	-3293
onica	-3294
endorf	-3295
ersham	-3296
▁1932.	-3297
▁Apple	-3298
▁Arròs	-3299
▁Parzh	-3300
▁Peron	-3301
▁Rutte	-3302
▁ardoñ	-3303
▁Kontra	-3304
▁lañsañ	-3305
▁Atatürk	-3306
▁Bergheau	-3307
▁Canonica	-3308
▁reizhiad	-3309
▁Oldendorf	-3310
iba	-3311
lov	-3312
▁$.	-3313
▁sp	-3314
hand	-3315
hlad	-3316
oris	-3317
▁Cap	-3318
▁Men	-3319
▁Mik	-3320
▁enn	-3321
ocado	-3322
▁bank	-3323
espace	-3324
hajlov	-3325
▁Deram	-3326
▁Crosse	-3327
▁Siomay	-3328
▁Stered	-3329
▁Teksas	-3330
▁Trance	-3331
▁naoudi	-3332
▁pennad	-3333
aversham	-3334
▁560090.	-3335
▁Appleon	-3336
▁Larcher	-3337
▁mediaoù	-3338
▁yezhioù	-3339
▁Haputale	-3340
▁Mihajlov	-3341
▁Monocacy	-3342
▁enlakaet	-3343
▁berradenn	-3344
▁Arianespace	-3345
83	-3346
ind	-3347
kin	-3348
rie	-3349
▁Az	-3350
▁Ir	-3351
▁Qu	-3352
adoi	-3353
etst	-3354
ezoù	-3355
hwel	-3356
inco	-3357
▁Dol	-3358
▁Ger	-3359
6391)	-3360
▁1932	-3361
▁Aust	-3362
▁Croc	-3363
▁Imst	-3364
▁Ryan	-3365
▁Vein	-3366
▁funk	-3367
▁pesk	-3368
000000	-3369
10777)	-3370
apolis	-3371
rietst	-3372
▁Badoi	-3373
▁Bures	-3374
▁Doris	-3375
▁Paulo	-3376
▁Valls	-3377
ticinco	-3378
▁Manuel	-3379
▁(66391)	-3380
▁Crocier	-3381
rietstown	-3382
▁binignit	-3383
▁Faversham	-3384
▁Veinticinco	-3385
326	-3386
add	-3387
hap	-3388
hav	-3389
iye	-3390
zhi	-3391
zia	-3392
▁(4	-3393
▁Fi	-3394
-416	-3395
acif	-3396
bank	-3397
qadd	-3398
▁ARA	-3399
▁Est	-3400
▁Otk	-3401
▁osp	-3402
6063)	-3403
enner	-3404
ezhat	-3405
hakur	-3406
hreiz	-3407
kreiz	-3408
▁1918	-3409
▁Belj	-3410
▁Mayo	-3411
▁Mike	-3412
▁Saab	-3413
▁lamm	-3414
acific	-3415
iction	-3416
qaddum	-3417
▁Grove	-3418
ezhatoc	-3419
harzhañ	-3420
▁Arabek	-3421
▁Borman	-3422
▁debriñ	-3423
▁savlec	-3424
▁Metapan	-3425
▁Pacific	-3426
▁ospital	-3427
ianapolis	-3428
▁Crociere	-3429
▁Harrietstown	-3430
▁;	-3431
-3,	-3432
1.6	-3433
VAC	-3434
hen	-3435
iap	-3436
ids	-3437
▁63	-3438
ermo	-3439
▁295	-3440
▁Cit	-3441
▁Lun	-3442
▁Sao	-3443
▁lig	-3444
▁tap	-3445
esing	-3446
itiba	-3447
orida	-3448
▁1962	-3449
▁Bolt	-3450
▁HVAC	-3451
▁Jazz	-3452
▁Wick	-3453
▁epok	-3454
▁glas	-3455
▁kant	-3456
hargañ	-3457
▁131.6	-3458
▁25326	-3459
▁Botta	-3460
▁Foyal	-3461
▁Kalla	-3462
▁Mario	-3463
esinghe	-3464
▁Thakur	-3465
▁(66063)	-3466
▁Palermo	-3467
▁Wickrem	-3468
▁niveren	-3469
▁reizant	-3470
▁(410777)	-3471
▁Elistral	-3472
▁Kataloni	-3473
▁Parkersburg	-3474
▁Strolladenn	-3475
▁aotrouniezh	-3476
▁implijerion	-3477
▁Indianapolis	-3478
▁Wickremesinghe	-3479
che	-3480
edo	-3481
hun	-3482
odo	-3483
oko	-3484
▁AT	-3485
▁cm	-3486
kant	-3487
opis	-3488
usuf	-3489
▁190	-3490
▁Cor	-3491
▁III	-3492
▁mun	-3493
homas	-3494
▁1994	-3495
▁Aden	-3496
▁Joko	-3497
▁Lanc	-3498
▁Olim	-3499
barneg	-3500
▁1634:	-3501
▁Jusuf	-3502
▁Plant	-3503
▁anvel	-3504
▁goull	-3505
▁netra	-3506
▁roman	-3507
▁stumm	-3508
▁Beljik	-3509
▁George	-3510
▁Moskou	-3511
▁Thomas	-3512
▁Viking	-3513
▁Widodo	-3514
▁Broudez	-3515
▁Florida	-3516
▁deizlevr	-3517
▁Palaeontol	-3518
AG	-3519
TU	-3520
Uz	-3521
HAM	-3522
oit	-3523
rol	-3524
▁38	-3525
▁49	-3526
▁Sw	-3527
etti	-3528
pedo	-3529
ubur	-3530
▁Här	-3531
▁Kir	-3532
▁Red	-3533
▁Wor	-3534
adier	-3535
ogson	-3536
oulañ	-3537
oupin	-3538
▁Isab	-3539
▁RHAM	-3540
▁pref	-3541
hoarzh	-3542
▁Johns	-3543
▁Subur	-3544
▁pouez	-3545
92000.0	-3546
▁Härtel	-3547
▁Malezi	-3548
▁Stadio	-3549
▁oberzh	-3550
hwezhiad	-3551
▁Burbank	-3552
▁Hopkins	-3553
▁Newport	-3554
▁Tarrant	-3555
▁Torpedo	-3556
▁Isabelle	-3557
▁Suburban	-3558
▁Fenchurch	-3559
▁Richardson	-3560
02	-3561
85	-3562
IV	-3563
ipz	-3564
kov	-3565
▁Io	-3566
▁Je	-3567
▁TC	-3568
▁VK	-3569
asan	-3570
▁HIV	-3571
▁Lak	-3572
▁kre	-3573
▁lat	-3574
higbe	-3575
ipzig	-3576
▁1001	-3577
▁Cent	-3578
▁Hein	-3579
▁Indi	-3580
▁Kent	-3581
▁hent	-3582
▁post	-3583
rotrin	-3584
▁Parad	-3585
hantenn	-3586
▁Lakaet	-3587
▁Pogson	-3588
▁Leipzig	-3589
umberland	-3590
▁253260.0	-3591
kilometroù	-3592
▁Petrotrin	-3593
ail	-3594
giz	-3595
uss	-3596
wez	-3597
▁Or	-3598
▁ti	-3599
apon	-3600
leau	-3601
uben	-3602
vazh	-3603
ward	-3604
▁MTU	-3605
▁Roy	-3606
▁War	-3607
▁bre	-3608
amani	-3609
herty	-3610
ouroù	-3611
uncan	-3612
▁film	-3613
▁mizh	-3614
▁Arena	-3615
▁Brook	-3616
▁Japon	-3617
▁Ranil	-3618
▁Wiley	-3619
▁ennañ	-3620
▁gouzh	-3621
▁kilog	-3622
▁latin	-3623
rington	-3624
▁Broude	-3625
▁Duncan	-3626
▁Plante	-3627
▁deskiñ	-3628
▁gwelus	-3629
ompagnun	-3630
▁Kloazet	-3631
▁Rouleau	-3632
▁ergraet	-3633
▁Alligator	-3634
▁Dougherty	-3635
aet	-3636
wan	-3637
▁4,	-3638
▁Go	-3639
▁Pi	-3640
▁Sv	-3641
▁ec	-3642
enep	-3643
erce	-3644
▁Pav	-3645
Texas	-3646
ilhoù	-3647
kopis	-3648
lopou	-3649
oudez	-3650
▁1930	-3651
▁Jeff	-3652
▁Piaz	-3653
▁Vout	-3654
▁gang	-3655
▁gwaz	-3656
▁jamm	-3657
▁17000	-3658
▁2015.	-3659
▁Gozon	-3660
▁Kuzel	-3661
▁Maran	-3662
▁Marys	-3663
▁Nikos	-3664
▁elvel	-3665
▁pepis	-3666
▁Ferenc	-3667
▁Rahman	-3668
lopoulos	-3669
▁Akhigbe	-3670
▁Cornell	-3671
▁Piazzia	-3672
▁Voutsis	-3673
▁Danamani	-3674
▁Prokopis	-3675
▁Wolfsburg	-3676
▁Cumberland	-3677
▁Marysville	-3678
▁Pavlopoulos	-3679
bi	-3680
-0.	-3681
bab	-3682
gêr	-3683
lug	-3684
▁87	-3685
▁Fo	-3686
▁ef	-3687
5426	-3688
Kalb	-3689
lein	-3690
obel	-3691
▁277	-3692
▁But	-3693
▁Gar	-3694
▁Gêr	-3695
▁Sen	-3696
▁Tel	-3697
doria	-3698
ernán	-3699
▁Gard	-3700
▁Gren	-3701
▁Samp	-3702
▁Guner	-3703
▁Perzh	-3704
▁kreiz	-3705
▁porzh	-3706
▁475426	-3707
▁Genver	-3708
▁Hernán	-3709
▁Pierce	-3710
▁Prusia	-3711
▁deraou	-3712
▁Gazette	-3713
▁Hungari	-3714
▁Rolando	-3715
▁Heinlein	-3716
▁titouroù	-3717
▁Accademia	-3718
▁Hernández	-3719
▁Sampdoria	-3720
▁Campeonato	-3721
AS	-3722
ef	-3723
Tek	-3724
hid	-3725
osi	-3726
ouz	-3727
▁(1	-3728
▁70	-3729
eset	-3730
houl	-3731
umai	-3732
▁610	-3733
▁Ilo	-3734
▁Tan	-3735
▁avr	-3736
ckbus	-3737
▁AFIT	-3738
▁Graz	-3739
▁Plak	-3740
▁Troc	-3741
▁Veil	-3742
▁Wien	-3743
▁mask	-3744
bridge	-3745
gwerzh	-3746
varosi	-3747
▁1957.	-3748
▁Husey	-3749
▁Polak	-3750
▁Yacob	-3751
▁dreuz	-3752
ckbuster	-3753
▁Butuner	-3754
▁Etiopia	-3755
▁Halimah	-3756
▁Seminar	-3757
▁servijit	-3758
▁arzourien	-3759
▁galloudet	-3760
▁Blockbuster	-3761
isk	-3762
ión	-3763
▁2.	-3764
▁Vf	-3765
arny	-3766
rago	-3767
rans	-3768
▁Aug	-3769
▁Gra	-3770
▁Alma	-3771
▁Flem	-3772
▁Klub	-3773
▁Korn	-3774
▁Pall	-3775
▁arlo	-3776
▁efed	-3777
eudenn	-3778
hoadoù	-3779
▁Drago	-3780
▁Ebrel	-3781
▁Rodri	-3782
▁endal	-3783
▁epoch	-3784
▁Benoit	-3785
▁DeKalb	-3786
▁Taylor	-3787
▁Titans	-3788
▁Antwerg	-3789
▁Galicia	-3790
▁Massimo	-3791
▁Steuben	-3792
ottingham	-3793
▁Anavezet	-3794
▁Hamilton	-3795
▁kilogramm	-3796
hompagnunerezh	-3797
51	-3798
71	-3799
Al	-3800
In	-3801
uj	-3802
aus	-3803
ute	-3804
▁Ok	-3805
-176	-3806
hanc	-3807
hili	-3808
otus	-3809
tech	-3810
ujah	-3811
well	-3812
▁Olm	-3813
▁Ros	-3814
▁aot	-3815
▁eur	-3816
▁ost	-3817
inein	-3818
zroaz	-3819
▁103.	-3820
▁Arem	-3821
▁Marv	-3822
▁Sved	-3823
▁Tsip	-3824
▁bobl	-3825
fennoù	-3826
iapsis	-3827
oridis	-3828
ritiye	-3829
▁2005.	-3830
▁Lotus	-3831
▁Makis	-3832
▁Stern	-3833
▁blues	-3834
▁munut	-3835
▁Alexis	-3836
▁Barkov	-3837
▁Gausia	-3838
▁Shumai	-3839
▁Valenc	-3840
▁donder	-3841
▁echuet	-3842
▁metrez	-3843
▁spagno	-3844
▁Bellion	-3845
▁Carroll	-3846
▁Tsipras	-3847
▁Voridis	-3848
▁Otkritiye	-3849
▁skridennad	-3850
▁Ferencvarosi	-3851
tr	-3852
937	-3853
ere	-3854
kem	-3855
ball	-3856
raoc	-3857
ukum	-3858
▁320	-3859
▁Nov	-3860
▁bas	-3861
▁ton	-3862
eller	-3863
night	-3864
nobel	-3865
olina	-3866
▁9000	-3867
▁Prab	-3868
▁Tony	-3869
▁azez	-3870
▁bern	-3871
▁evez	-3872
▁mañv	-3873
▁meur	-3874
▁skap	-3875
0000.0	-3876
hannis	-3877
ukumar	-3878
▁1996.	-3879
▁chili	-3880
▁invez	-3881
▁Motors	-3882
▁Swords	-3883
▁arvezh	-3884
▁lazhet	-3885
▁63800.0	-3886
▁Fallujah	-3887
▁Rodriguez	-3888
▁Solanales	-3889
DE	-3890
DEN	-3891
Hun	-3892
dal	-3893
ide	-3894
vij	-3895
viv	-3896
▁5,	-3897
▁CO	-3898
▁MB	-3899
▁Sé	-3900
▁av	-3901
▁br	-3902
788)	-3903
acid	-3904
hlin	-3905
paty	-3906
▁159	-3907
▁Gos	-3908
▁Tex	-3909
▁Van	-3910
▁dro	-3911
▁lit	-3912
genet	-3913
ravet	-3914
▁164,	-3915
▁Fior	-3916
▁Head	-3917
▁Lviv	-3918
▁Perm	-3919
▁punk	-3920
dalene	-3921
▁Amkar	-3922
▁Burev	-3923
▁CODEN	-3924
▁Iulia	-3925
▁Mason	-3926
▁Série	-3927
▁azeiñ	-3928
▁moulañ	-3929
▁pennan	-3930
hoariant	-3931
▁Huseyin	-3932
▁Karpaty	-3933
▁dibarzh	-3934
▁koazhet	-3935
▁moullañ	-3936
▁savadur	-3937
▁spagneg	-3938
▁Iohannis	-3939
▁arloadoù	-3940
▁elfennoù	-3941
▁kelvinoù	-3942
▁Cambridge	-3943
▁Accrington	-3944
21	-3945
rí	-3946
-13	-3947
-2)	-3948
get	-3949
its	-3950
mar	-3951
usc	-3952
▁po	-3953
aout	-3954
atar	-3955
ford	-3956
prez	-3957
uzhn	-3958
▁(15	-3959
▁210	-3960
▁546	-3961
▁Eat	-3962
elloù	-3963
herzh	-3964
▁Palo	-3965
▁Seco	-3966
ematik	-3967
izhiad	-3968
ournal	-3969
▁Barny	-3970
▁China	-3971
▁Jacob	-3972
▁Super	-3973
▁goued	-3974
▁Aoziañ	-3975
▁Eaters	-3976
▁Hotell	-3977
▁folenn	-3978
▁ganaer	-3979
▁kuitañ	-3980
▁(15788)	-3981
▁Sinthpop	-3982
▁enlakaat	-3983
▁McDonnell	-3984
▁Burlington	-3985
--	-3986
bre	-3987
don	-3988
ema	-3989
oye	-3990
riñ	-3991
uma	-3992
▁77	-3993
▁97	-3994
▁Od	-3995
▁ac	-3996
▁mu	-3997
azet	-3998
eare	-3999
enet	-4000
havn	-4001
hout	-4002
iano	-4003
▁Giz	-4004
▁Pre	-4005
▁Sat	-4006
▁dim	-4007
Nevez	-4008
▁Plym	-4009
▁Pont	-4010
▁Rand	-4011
▁gres	-4012
eareas	-4013
hammer	-4014
▁Medal	-4015
▁Qatar	-4016
▁Yuzhn	-4017
▁deret	-4018
▁mater	-4019
Hungari	-4020
▁August	-4021
▁Berlin	-4022
▁Cameron	-4023
▁Journal	-4024
▁Kanadeg	-4025
▁granola	-4026
▁Plymouth	-4027
▁Yuzhnoye	-4028
▁0-439-176	-4029
▁Hamburger	-4030
▁Amerikanek	-4031
▁Fiorentina	-4032
▁Kalifornia	-4033
▁Ponteareas	-4034
,0	-4035
3.9	-4036
tre	-4037
▁Ev	-4038
▁Vi	-4039
▁Ya	-4040
apho	-4041
gant	-4042
rata	-4043
ties	-4044
▁Min	-4045
▁rom	-4046
9255)	-4047
izade	-4048
▁1850	-4049
▁Bako	-4050
▁Dona	-4051
▁Mosc	-4052
▁Pagn	-4053
▁ewez	-4054
▁plad	-4055
aphosa	-4056
kornôg	-4057
▁Demak	-4058
▁Jalan	-4059
▁Rannv	-4060
▁Satem	-4061
▁digor	-4062
▁dramm	-4063
▁feset	-4064
▁foued	-4065
▁Falcon	-4066
▁Steven	-4067
▁Texans	-4068
▁gweled	-4069
▁marmoù	-4070
▁(19255)	-4071
▁Pagnell	-4072
▁tomatez	-4073
hankadenn	-4074
hornadenn	-4075
▁Rasizade	-4076
▁munutenn	-4077
▁Jefferson	-4078
▁Magdalene	-4079
▁Ramaphosa	-4080
▁diwezhatoc	-4081
03	-4082
Ta	-4083
na	-4084
400	-4085
AID	-4086
aoz	-4087
eol	-4088
▁53	-4089
▁55	-4090
▁Li	-4091
▁as	-4092
5-20	-4093
aram	-4094
ecor	-4095
leri	-4096
oger	-4097
otte	-4098
▁162	-4099
▁ACF	-4100
▁Gad	-4101
▁nud	-4102
annet	-4103
eague	-4104
endic	-4105
eoles	-4106
hajan	-4107
onejo	-4108
▁1933	-4109
▁1995	-4110
▁Fort	-4111
▁Gran	-4112
▁Mexi	-4113
atezoù	-4114
ríguez	-4115
▁Auron	-4116
▁Deani	-4117
▁Klaus	-4118
▁Kotte	-4119
▁Krist	-4120
▁Lokke	-4121
Europek	-4122
Tekoloù	-4123
enepura	-4124
▁Almond	-4125
▁Conejo	-4126
▁Errata	-4127
▁Placid	-4128
▁Sendic	-4129
▁Stoger	-4130
▁rannad	-4131
▁Airport	-4132
▁Arctech	-4133
▁Mahajan	-4134
▁Sumitra	-4135
▁poaceae	-4136
▁Aureoles	-4137
▁Jayaward	-4138
▁Amerikaet	-4139
▁Rodríguez	-4140
▁Jacksonville	-4141
▁Jayawardenepura	-4142
.)	-4143
34	-4144
ci	-4145
dy	-4146
5.3	-4147
hai	-4148
rer	-4149
roe	-4150
▁04	-4151
amez	-4152
char	-4153
ucci	-4154
▁Cur	-4155
▁Rak	-4156
▁dil	-4157
▁lin	-4158
andon	-4159
llins	-4160
orenn	-4161
touez	-4162
ussel	-4163
ymach	-4164
▁Arme	-4165
▁Dave	-4166
▁Kore	-4167
▁Luft	-4168
▁Patr	-4169
▁Puig	-4170
▁brun	-4171
▁dalc	-4172
▁peur	-4173
ventus	-4174
▁Creek	-4175
▁Meneg	-4176
▁Scott	-4177
▁pepiz	-4178
ennadoù	-4179
hitleri	-4180
▁Adenan	-4181
▁Danizi	-4182
▁Gerard	-4183
▁Monroe	-4184
▁Montre	-4185
▁Person	-4186
▁Seagle	-4187
▁echuiñ	-4188
▁elfenn	-4189
▁granit	-4190
▁kavout	-4191
ymachine	-4192
▁Brandon	-4193
▁Cullins	-4194
▁Jalisco	-4195
▁Kolombi	-4196
▁Panucci	-4197
▁Patrick	-4198
▁Silvano	-4199
▁Asunción	-4200
▁Juventus	-4201
▁Lufthavn	-4202
▁aozadenn	-4203
▁istorienn	-4204
▁ouzhpennañ	-4205
▁Greymachine	-4206
Bl	-4207
ić	-4208
kg	-4209
-17	-4210
/21	-4211
eal	-4212
ekt	-4213
iko	-4214
mil	-4215
▁24	-4216
▁78	-4217
▁AW	-4218
atch	-4219
dwin	-4220
enaw	-4221
etts	-4222
gann	-4223
homm	-4224
üner	-4225
▁120	-4226
▁Dot	-4227
▁Laz	-4228
▁MBA	-4229
▁sam	-4230
▁vou	-4231
achus	-4232
borzh	-4233
himov	-4234
metal	-4235
tenaw	-4236
▁King	-4237
▁Laun	-4238
▁lerc	-4239
▁wech	-4240
helman	-4241
▁1962.	-4242
▁Belga	-4243
▁Dynam	-4244
▁Edwin	-4245
▁Loyal	-4246
▁Reddy	-4247
▁Serge	-4248
▁Tyrol	-4249
▁breud	-4250
oughlin	-4251
▁Dothan	-4252
▁Indiek	-4253
▁Rashid	-4254
▁Wilson	-4255
▁postel	-4256
▁Austral	-4257
▁Penarol	-4258
▁pouezus	-4259
achusetts	-4260
▁Amerikañ	-4261
▁Franklin	-4262
▁Karolina	-4263
▁Montreal	-4264
▁Rakhimov	-4265
▁stereded	-4266
▁dreuzfoll	-4267
▁galloudoù	-4268
▁periapsis	-4269
▁Oberhelman	-4270
▁Departamant	-4271
▁Massachusetts	-4272
3-	-4273
5)	-4274
5,	-4275
ba	-4276
5.0	-4277
ass	-4278
dro	-4279
izo	-4280
ota	-4281
ula	-4282
▁Aw	-4283
▁DA	-4284
anda	-4285
parz	-4286
stor	-4287
ufin	-4288
▁Dig	-4289
▁McL	-4290
▁Nor	-4291
▁oet	-4292
aiser	-4293
sisch	-4294
umbus	-4295
vador	-4296
vrenn	-4297
▁Hard	-4298
▁Live	-4299
▁Pain	-4300
▁Worl	-4301
▁amañ	-4302
▁arve	-4303
▁blas	-4304
hariad	-4305
linenn	-4306
▁01-01	-4307
▁1956.	-4308
▁Artur	-4309
▁Europ	-4310
▁Kuban	-4311
▁Space	-4312
▁mufin	-4313
▁Kaiser	-4314
▁Knight	-4315
▁Sergey	-4316
Taqaddum	-4317
▁daolenn	-4318
▁Alamaneg	-4319
▁Asherton	-4320
▁Atlantik	-4321
▁Salvador	-4322
▁bakewell	-4323
▁breudeur	-4324
▁embanner	-4325
▁Universed	-4326
▁McLoughlin	-4327
▁Mathematica	-4328
67	-4329
ín	-4330
1.2	-4331
2.8	-4332
bad	-4333
boc	-4334
esl	-4335
gef	-4336
iti	-4337
lun	-4338
nod	-4339
sex	-4340
upé	-4341
yde	-4342
▁33	-4343
▁SA	-4344
Khor	-4345
egoù	-4346
hobl	-4347
ibar	-4348
ical	-4349
igib	-4350
mark	-4351
romm	-4352
zhet	-4353
▁8.3	-4354
▁Tec	-4355
▁Tic	-4356
▁Tud	-4357
▁dem	-4358
▁des	-4359
▁rap	-4360
Izmir	-4361
eslig	-4362
hubad	-4363
▁2004	-4364
▁3500	-4365
▁Belg	-4366
▁Cape	-4367
▁Syst	-4368
▁gwir	-4369
▁hant	-4370
▁peoc	-4371
hangra	-4372
hlabad	-4373
ibbert	-4374
lantañ	-4375
▁16000	-4376
▁1930.	-4377
▁1981.	-4378
▁Clyde	-4379
▁Danem	-4380
▁Maine	-4381
▁Maliz	-4382
▁Roger	-4383
▁Salem	-4384
▁World	-4385
▁afrik	-4386
▁damez	-4387
▁emgav	-4388
igibbet	-4389
▁Europa	-4390
▁Franco	-4391
▁Lancia	-4392
▁Luanda	-4393
▁Lunion	-4394
▁Ticino	-4395
▁debret	-4396
▁sambal	-4397
ashville	-4398
▁Esaouiñ	-4399
▁Sandesh	-4400
▁Bundeslig	-4401
ibbertigibbet	-4402
23	-4403
ša	-4404
4.0	-4405
900	-4406
CAO	-4407
adh	-4408
eym	-4409
fal	-4410
ián	-4411
led	-4412
nie	-4413
rop	-4414
▁is	-4415
-130	-4416
0756	-4417
edon	-4418
elin	-4419
hont	-4420
otyl	-4421
▁194	-4422
▁280	-4423
▁Dis	-4424
▁Far	-4425
▁Tre	-4426
Black	-4427
arien	-4428
iniša	-4429
▁1799	-4430
▁Angl	-4431
▁Coll	-4432
▁Desk	-4433
▁Fres	-4434
▁ICAO	-4435
▁Room	-4436
▁merc	-4437
▁pell	-4438
▁prez	-4439
harneg	-4440
otball	-4441
rommet	-4442
▁2000.	-4443
▁2011.	-4444
▁2016.	-4445
▁70634	-4446
▁Aniti	-4447
▁Awadh	-4448
▁Essex	-4449
▁Marte	-4450
▁Sands	-4451
▁takel	-4452
eymouth	-4453
iverenn	-4454
prenner	-4455
▁440756	-4456
▁Siniša	-4457
▁gwarez	-4458
otyledon	-4459
▁Bhangra	-4460
▁Enporzh	-4461
▁Stanley	-4462
▁gresian	-4463
▁maezioù	-4464
▁preuzel	-4465
▁Columbus	-4466
▁Hungarica	-4467
▁Sebastián	-4468
▁Sehitleri	-4469
▁Mihajlović	-4470
▁labourerez	-4471
▁servijadoù	-4472
▁politikerez	-4473
▁Flibbertigibbet	-4474
17	-4475
2,	-4476
-11	-4477
elk	-4478
gew	-4479
lar	-4480
meg	-4481
min	-4482
oek	-4483
▁07	-4484
▁FK	-4485
abel	-4486
aper	-4487
ario	-4488
heuz	-4489
hoga	-4490
iner	-4491
inor	-4492
isch	-4493
ival	-4494
korn	-4495
quez	-4496
öger	-4497
▁108	-4498
▁AWH	-4499
▁Lam	-4500
▁Tim	-4501
▁pro	-4502
aoueg	-4503
raero	-4504
▁1500	-4505
▁5594	-4506
▁Brit	-4507
▁Koln	-4508
▁seur	-4509
Taylor	-4510
gewood	-4511
yahoga	-4512
▁1927.	-4513
▁1989.	-4514
▁Chall	-4515
▁Ernie	-4516
▁Gloom	-4517
▁Lazio	-4518
▁Olimp	-4519
▁Steve	-4520
▁diwar	-4521
▁emgef	-4522
▁rannc	-4523
bellion	-4524
elkhand	-4525
▁Balder	-4526
▁Brooke	-4527
▁Queens	-4528
▁Roudez	-4529
▁anavet	-4530
▁barrezh	-4531
▁Armerezh	-4532
▁Challinor	-4533
▁Nashville	-4534
▁Ridgewood	-4535
▁skolennad	-4536
▁stilistel	-4537
ompagnunezh	-4538
▁ouzhpennet	-4539
▁Bundelkhand	-4540
1,	-4541
3,	-4542
57	-4543
58	-4544
As	-4545
yk	-4546
158	-4547
407	-4548
ebi	-4549
hlo	-4550
kub	-4551
oba	-4552
uso	-4553
wal	-4554
▁6,	-4555
Stad	-4556
anoù	-4557
chup	-4558
ener	-4559
eret	-4560
ield	-4561
kenn	-4562
park	-4563
rike	-4564
▁AlV	-4565
▁Hec	-4566
▁led	-4567
▁pri	-4568
Broaz	-4569
berto	-4570
ezhet	-4571
itoba	-4572
▁1426	-4573
▁Amar	-4574
▁Dane	-4575
▁Iuso	-4576
▁Lega	-4577
▁Liga	-4578
▁Maez	-4579
▁Olym	-4580
▁bron	-4581
▁kana	-4582
▁lira	-4583
▁plas	-4584
▁roll	-4585
hemmoù	-4586
neuzet	-4587
pennet	-4588
▁1966.	-4589
▁Afara	-4590
▁Anbar	-4591
▁Billy	-4592
▁Bront	-4593
▁Samez	-4594
▁Trans	-4595
▁Union	-4596
▁tapet	-4597
imetroù	-4598
▁Bhajji	-4599
▁Strike	-4600
▁Stöger	-4601
▁bankel	-4602
▁ginein	-4603
▁Harbour	-4604
Blackwell	-4605
▁Cuyahoga	-4606
▁Humberto	-4607
▁Manitoba	-4608
hoariadenn	-4609
▁Sebastian	-4610
▁Sportpark	-4611
▁Nottingham	-4612
hompagnunezh	-4613
▁440756000.0	-4614
Ur	-4615
3.0	-4616
722	-4617
911	-4618
alo	-4619
ame	-4620
had	-4621
hal	-4622
int	-4623
onz	-4624
▁00	-4625
▁08	-4626
▁hy	-4627
apán	-4628
ayas	-4629
botr	-4630
hael	-4631
hiad	-4632
ieto	-4633
ombe	-4634
omst	-4635
▁288	-4636
▁373	-4637
▁Gwe	-4638
▁Sty	-4639
▁les	-4640
3.722	-4641
akles	-4642
ennai	-4643
itour	-4644
phins	-4645
rique	-4646
▁1907	-4647
▁2160	-4648
▁Gonz	-4649
▁Ruth	-4650
▁Toek	-4651
▁tost	-4652
▁vent	-4653
annvro	-4654
▁Nieto	-4655
▁Oktor	-4656
▁Paris	-4657
▁Roude	-4658
▁Urich	-4659
▁bronz	-4660
▁elekt	-4661
▁ganet	-4662
▁indie	-4663
▁kanañ	-4664
▁seurt	-4665
▁voest	-4666
itouenn	-4667
▁600407	-4668
▁Irland	-4669
▁Penyet	-4670
▁Portal	-4671
▁gouezh	-4672
▁Chennai	-4673
▁Enrique	-4674
▁Michael	-4675
▁Oberour	-4676
▁Visayas	-4677
▁avocado	-4678
▁goustur	-4679
▁leuniañ	-4680
▁teñvder	-4681
▁Dolphins	-4682
▁Hollande	-4683
▁Infraero	-4684
▁Toekomst	-4685
▁Katalonia	-4686
▁Rebellion	-4687
▁Monocotyledon	-4688
,3	-4689
65	-4690
ts	-4691
0-0	-4692
200	-4693
abi	-4694
cam	-4695
dre	-4696
ege	-4697
gal	-4698
uda	-4699
yam	-4700
yss	-4701
▁60	-4702
▁Gi	-4703
▁ST	-4704
075)	-4705
edun	-4706
gomz	-4707
mera	-4708
pine	-4709
▁(29	-4710
▁11.	-4711
▁Kiz	-4712
▁Peñ	-4713
▁lim	-4714
▁mms	-4715
arned	-4716
aster	-4717
briad	-4718
ffalo	-4719
ialel	-4720
ionis	-4721
space	-4722
zhoaz	-4723
▁Cupé	-4724
▁Daou	-4725
▁Gang	-4726
▁Macc	-4727
▁Wyss	-4728
▁Zamb	-4729
▁Zuma	-4730
▁laka	-4731
▁name	-4732
camore	-4733
tiesel	-4734
▁1983.	-4735
▁Bloom	-4736
▁Chute	-4737
▁Kiril	-4738
▁Perón	-4739
▁Valer	-4740
▁maskl	-4741
▁Academ	-4742
▁Oliver	-4743
▁Samuda	-4744
▁Styria	-4745
▁kevenn	-4746
▁lesanv	-4747
▁vouzer	-4748
▁(29075)	-4749
▁Buffalo	-4750
▁Jorjjie	-4751
▁Maccabi	-4752
▁Valenci	-4753
▁arzhiad	-4754
▁oberioù	-4755
hastouenn	-4756
▁1513.722	-4757
▁Aktiesel	-4758
▁Australi	-4759
▁Candombe	-4760
▁Castilla	-4761
▁Sycamore	-4762
▁Philippine	-4763
vd	-4764
-9.	-4765
/32	-4766
528	-4767
603	-4768
749	-4769
ata	-4770
bem	-4771
epa	-4772
ika	-4773
ish	-4774
sta	-4775
▁7.	-4776
▁Na	-4777
-01.	-4778
3.0.	-4779
City	-4780
aleg	-4781
back	-4782
bell	-4783
eing	-4784
hlal	-4785
ioca	-4786
▁556	-4787
▁Aze	-4788
▁Bib	-4789
▁Eng	-4790
▁Fut	-4791
▁Ont	-4792
▁São	-4793
▁USA	-4794
▁UTC	-4795
▁not	-4796
alaer	-4797
arter	-4798
askat	-4799
bably	-4800
cilla	-4801
eleon	-4802
field	-4803
ident	-4804
parad	-4805
ransl	-4806
rethe	-4807
▁1957	-4808
▁4410	-4809
▁Cant	-4810
▁Cham	-4811
▁Just	-4812
▁Reiz	-4813
▁Roet	-4814
▁View	-4815
▁barm	-4816
▁does	-4817
▁need	-4818
angled	-4819
dorman	-4820
edeleg	-4821
hladoù	-4822
market	-4823
option	-4824
▁1933.	-4825
▁37351	-4826
▁39971	-4827
▁Ahvaz	-4828
▁India	-4829
▁Rabad	-4830
▁Turin	-4831
▁Washp	-4832
▁arepa	-4833
▁debut	-4834
▁ligad	-4835
edouezh	-4836
hwezher	-4837
▁179942	-4838
▁288749	-4839
▁Globem	-4840
▁Solent	-4841
▁doarer	-4842
▁hanter	-4843
▁oberat	-4844
▁transl	-4845
hanaouer	-4846
iadurioù	-4847
optional	-4848
▁Afrikañ	-4849
▁General	-4850
▁Metapán	-4851
▁Nedeleg	-4852
▁Ontario	-4853
▁Rouelez	-4854
▁rouedad	-4855
▁Bavarian	-4856
▁Curitiba	-4857
▁Rabadash	-4858
▁alamaneg	-4859
▁probably	-4860
▁Addiction	-4861
▁Chameleon	-4862
▁Newmarket	-4863
▁Globemaster	-4864
▁Mathematics	-4865
▁translation	-4866
6-	-4867
zi	-4868
-03	-4869
196	-4870
5-4	-4871
80-	-4872
Soz	-4873
ahn	-4874
aza	-4875
ect	-4876
ije	-4877
lot	-4878
mor	-4879
veg	-4880
▁09	-4881
0.0.	-4882
adal	-4883
barz	-4884
▁AFB	-4885
▁Esp	-4886
▁Kez	-4887
▁Nij	-4888
▁Vic	-4889
▁kem	-4890
▁tor	-4891
5-425	-4892
ajara	-4893
bezañ	-4894
elije	-4895
hamer	-4896
▁1989	-4897
▁2013	-4898
▁Port	-4899
▁VIAG	-4900
▁Work	-4901
▁daol	-4902
▁heñv	-4903
▁hyun	-4904
▁oaet	-4905
▁stok	-4906
azvred	-4907
chewan	-4908
ederal	-4909
eghlal	-4910
▁2006,	-4911
▁Graet	-4912
▁Metal	-4913
▁Oddie	-4914
▁Plaza	-4915
▁koant	-4916
8-1-416	-4917
annvann	-4918
▁Castle	-4919
▁Ganges	-4920
▁Goslar	-4921
▁Guadal	-4922
▁Saskat	-4923
▁efedet	-4924
morcilla	-4925
▁Grenada	-4926
▁Quarter	-4927
▁Whitman	-4928
▁Wolfman	-4929
▁perapis	-4930
iversitas	-4931
▁Aurakles	-4932
▁Campbell	-4933
▁Deizlevr	-4934
▁Demokrat	-4935
▁Dynamics	-4936
▁Weymouth	-4937
▁bouedenn	-4938
▁emgannoù	-4939
▁enlinenn	-4940
▁enrollad	-4941
▁Kornelije	-4942
▁Academical	-4943
▁Aleksander	-4944
▁Prabukumar	-4945
▁enrolladoù	-4946
8-1-4165-425	-4947
▁475426000.0	-4948
▁Guadalajara	-4949
▁Saskatchewan	-4950
iu	-4951
6.0	-4952
8.0	-4953
USA	-4954
igh	-4955
low	-4956
rav	-4957
tiz	-4958
▁46	-4959
▁57	-4960
5589	-4961
80,7	-4962
alez	-4963
beat	-4964
enza	-4965
esel	-4966
falt	-4967
hiet	-4968
iaol	-4969
illo	-4970
sand	-4971
▁Arz	-4972
▁Eal	-4973
▁Qiu	-4974
▁Reg	-4975
▁Suv	-4976
▁VfL	-4977
▁web	-4978
60363	-4979
ezhoù	-4980
hadoù	-4981
iktur	-4982
ology	-4983
▁250.	-4984
▁3180	-4985
▁Drum	-4986
▁Gwel	-4987
▁Isis	-4988
▁Olus	-4989
▁Shir	-4990
▁Viet	-4991
▁Walt	-4992
▁anav	-4993
▁saus	-4994
000.0,	-4995
asanjo	-4996
kastiz	-4997
pennañ	-4998
robeat	-4999
▁1928.	-5000
▁1976.	-5001
▁2004.	-5002
▁Rusia	-5003
▁Thema	-5004
▁Xiaol	-5005
▁bloaz	-5006
adennoù	-5007
ilometr	-5008
▁135589	-5009
▁660363	-5010
▁Boeing	-5011
▁Candle	-5012
▁Infant	-5013
▁Mellow	-5014
▁Moscow	-5015
▁Poales	-5016
▁Quezon	-5017
▁italek	-5018
▁stadoù	-5019
▁Belgaum	-5020
▁Genvrer	-5021
▁Shirley	-5022
▁Vietnam	-5023
▁broudez	-5024
▁gangsta	-5025
▁gantenn	-5026
▁Obasanjo	-5027
▁Xiaolong	-5028
▁Aozilomar	-5029
▁Ealdorman	-5030
▁Quarterly	-5031
▁tomatezoù	-5032
Universitas	-5033
▁441092000.0	-5034
/27	-5035
968	-5036
ati	-5037
bro	-5038
pie	-5039
sas	-5040
▁41	-5041
▁Za	-5042
2.33	-5043
3329	-5044
emer	-5045
hkin	-5046
idad	-5047
kvar	-5048
skap	-5049
ters	-5050
usel	-5051
uwer	-5052
vard	-5053
ydor	-5054
▁18,	-5055
▁ATK	-5056
▁Igo	-5057
▁Luc	-5058
▁Mec	-5059
▁Mul	-5060
▁Orb	-5061
▁Pic	-5062
▁Tob	-5063
▁Uel	-5064
▁Wol	-5065
Tekel	-5066
arhus	-5067
ecorp	-5068
ering	-5069
▁AlCO	-5070
▁Blvd	-5071
▁Book	-5072
▁Enda	-5073
▁Karl	-5074
▁Sous	-5075
▁Stro	-5076
▁Taro	-5077
▁Trin	-5078
▁plak	-5079
▁zili	-5080
1000.0	-5081
akarta	-5082
amater	-5083
antina	-5084
voudig	-5085
▁1862.	-5086
▁Anvet	-5087
▁Colon	-5088
▁Donal	-5089
▁Fland	-5090
▁Kenny	-5091
▁Kesel	-5092
▁Saozh	-5093
▁Spall	-5094
▁javan	-5095
▁limin	-5096
▁nijer	-5097
▁paper	-5098
▁savig	-5099
2.33968	-5100
nalillo	-5101
▁523329	-5102
▁Igorot	-5103
▁Kansas	-5104
▁Kluwer	-5105
▁Kravet	-5106
▁Tobago	-5107
▁arouez	-5108
▁genver	-5109
▁tremen	-5110
hanceler	-5111
▁560090,	-5112
▁Brousel	-5113
▁Jakarta	-5114
▁Luciano	-5115
▁Orbital	-5116
▁Wolters	-5117
▁franteg	-5118
▁genvrer	-5119
▁reoliet	-5120
▁Goslarer	-5121
▁Olmpique	-5122
▁Olusegun	-5123
▁Paradenn	-5124
▁Trinidad	-5125
▁deraouet	-5126
▁pellgomz	-5127
▁Antwerpen	-5128
▁Esteghlal	-5129
▁Spalletti	-5130
▁prefiktur	-5131
▁servijioù	-5132
▁Arianspace	-5133
▁Bernalillo	-5134
AT	-5135
II	-5136
sm	-5137
tà	-5138
115	-5139
III	-5140
fer	-5141
gav	-5142
hie	-5143
hog	-5144
hon	-5145
oni	-5146
pel	-5147
rae	-5148
rah	-5149
rig	-5150
tik	-5151
zêr	-5152
0002	-5153
0906	-5154
3528	-5155
abri	-5156
akis	-5157
boud	-5158
ello	-5159
hran	-5160
▁Arp	-5161
▁Bru	-5162
▁Dal	-5163
▁Pur	-5164
▁Skr	-5165
▁eok	-5166
achie	-5167
akrah	-5168
antin	-5169
arese	-5170
itsot	-5171
izour	-5172
levet	-5173
megen	-5174
▁5115	-5175
▁Bart	-5176
▁Eizh	-5177
▁Fenn	-5178
▁Lake	-5179
▁Parc	-5180
▁Shan	-5181
▁XIII	-5182
▁dorn	-5183
▁zont	-5184
hanker	-5185
hwelañ	-5186
lakaez	-5187
merick	-5188
▁1923.	-5189
▁1969.	-5190
▁Città	-5191
▁Eagle	-5192
▁Grand	-5193
▁Heads	-5194
▁Sevel	-5195
▁Sousa	-5196
▁Works	-5197
▁debar	-5198
▁dilec	-5199
▁520906	-5200
▁Benton	-5201
▁Diazez	-5202
▁Esaoui	-5203
▁Etiopi	-5204
▁Mitsot	-5205
▁Servij	-5206
▁Zeland	-5207
▁kanaer	-5208
▁pouezh	-5209
▁roupie	-5210
azvoudel	-5211
hanolenn	-5212
oudennoù	-5213
▁01-01-1	-5214
▁College	-5215
▁Comelin	-5216
▁Georges	-5217
▁Italien	-5218
▁Peñarol	-5219
▁Radboud	-5220
▁252000.0	-5221
▁Gazettes	-5222
▁Nijmegen	-5223
▁kanaouer	-5224
▁skeudenn	-5225
▁Shanachie	-5226
▁takeladoù	-5227
▁vennadenn	-5228
▁Mitsotakis	-5229
▁amzervrenn	-5230
▁373513000.0	-5231
▁6603633000.0	-5232
8-1-4165-4253-	-5233
cu	-5234
oñ	-5235
100	-5236
14.	-5237
164	-5238
252	-5239
395	-5240
ali	-5241
asc	-5242
bun	-5243
cao	-5244
ela	-5245
hwi	-5246
ilo	-5247
ren	-5248
▁AK	-5249
▁CD	-5250
▁Ed	-5251
▁SK	-5252
000,	-5253
091.	-5254
AIDS	-5255
cuit	-5256
ezel	-5257
frik	-5258
haca	-5259
horo	-5260
ogan	-5261
onst	-5262
thur	-5263
wald	-5264
▁434	-5265
▁5.7	-5266
▁99,	-5267
▁Cir	-5268
▁FAS	-5269
▁MIT	-5270
▁Ott	-5271
▁Tes	-5272
▁dez	-5273
▁var	-5274
brenn	-5275
elezh	-5276
ingue	-5277
itaet	-5278
▁1624	-5279
▁1904	-5280
▁Aozh	-5281
▁Laur	-5282
▁Mart	-5283
▁Naik	-5284
▁Opel	-5285
▁Rome	-5286
▁ayam	-5287
▁litr	-5288
▁saos	-5289
▁tres	-5290
395158	-5291
5-2060	-5292
ierezh	-5293
▁1-416	-5294
▁1958.	-5295
▁1959.	-5296
▁Berry	-5297
▁Emile	-5298
▁Kanad	-5299
▁Konst	-5300
▁Stour	-5301
▁franc	-5302
▁steud	-5303
▁vloaz	-5304
164091.	-5305
antinos	-5306
charest	-5307
▁Anglia	-5308
▁Arabed	-5309
▁Arthur	-5310
▁Jorjie	-5311
▁Monark	-5312
▁Roemer	-5313
▁livioù	-5314
▁Alfonso	-5315
▁Caravan	-5316
▁Central	-5317
▁Circuit	-5318
▁Polydor	-5319
▁gomzhet	-5320
▁moullet	-5321
▁ouzhout	-5322
▁taolenn	-5323
▁52395158	-5324
▁Football	-5325
▁Spangled	-5326
▁kantenet	-5327
▁Bucharest	-5328
▁Universit	-5329
▁162164091.	-5330
▁Fennchurch	-5331
▁Republikan	-5332
▁Williamson	-5333
▁1-4165-2060	-5334
▁520906000.0	-5335
▁Aktieselskap	-5336
▁gwerzherennoù	-5337
▁523951582.33968	-5338
78	-5339
BI	-5340
fo	-5341
47,	-5342
80.	-5343
dem	-5344
hot	-5345
kev	-5346
oet	-5347
omp	-5348
tek	-5349
umi	-5350
▁50	-5351
▁Hu	-5352
▁It	-5353
▁Sl	-5354
▁UC	-5355
3645	-5356
aber	-5357
acew	-5358
ebol	-5359
esen	-5360
etro	-5361
gwer	-5362
hour	-5363
ikoù	-5364
ileo	-5365
ique	-5366
iton	-5367
ling	-5368
onge	-5369
oyet	-5370
uzel	-5371
▁125	-5372
▁500	-5373
▁Eli	-5374
▁Gus	-5375
▁Lem	-5376
▁Pat	-5377
▁Ple	-5378
▁RCA	-5379
▁Rev	-5380
▁Ska	-5381
▁tro	-5382
Afrik	-5383
ariam	-5384
hames	-5385
inder	-5386
▁1856	-5387
▁Comp	-5388
▁Deus	-5389
▁Inst	-5390
▁Kway	-5391
▁Lañs	-5392
▁Mahe	-5393
▁Nova	-5394
▁Roll	-5395
▁Stra	-5396
▁Tamp	-5397
▁Vila	-5398
▁Warn	-5399
▁disp	-5400
▁euro	-5401
▁korn	-5402
▁masc	-5403
▁plij	-5404
▁sraz	-5405
▁teow	-5406
364597	-5407
Labour	-5408
Wakrah	-5409
gwelet	-5410
hannet	-5411
hollur	-5412
hweler	-5413
▁1931.	-5414
▁Arion	-5415
▁Aster	-5416
▁Faber	-5417
▁Logan	-5418
▁Poyet	-5419
▁Stock	-5420
▁Techn	-5421
▁Tudor	-5422
▁baket	-5423
▁deizh	-5424
▁dezer	-5425
▁gaout	-5426
emariam	-5427
kvarrez	-5428
oupinoù	-5429
sbridge	-5430
▁162447	-5431
▁Alaman	-5432
▁Alksey	-5433
▁Batumi	-5434
▁Center	-5435
▁Hallon	-5436
▁Legend	-5437
▁Panama	-5438
▁Purple	-5439
▁Spacew	-5440
▁Thames	-5441
▁aotrou	-5442
▁linenn	-5443
▁prefek	-5444
▁teñval	-5445
hwiadenn	-5446
parzhion	-5447
▁9364597	-5448
▁Desaleg	-5449
▁Desmond	-5450
▁Futebol	-5451
▁Galileo	-5452
▁Randall	-5453
▁Tampere	-5454
▁Titanoù	-5455
▁Turkiek	-5456
▁dimezet	-5457
▁goulloù	-5458
▁oberiet	-5459
▁plantañ	-5460
amaterien	-5461
▁125800.0	-5462
▁Niverenn	-5463
▁Pallesen	-5464
amerikaned	-5465
milimetroù	-5466
▁Steredenn	-5467
▁emgefreek	-5468
000000.0.0.	-5469
▁Spacewatch	-5470
▁Konstantinos	-5471
▁Knightsbridge	-5472
▁Fredericksburg	-5473
▁pennadennadenn	-5474
-8	-5475
XN	-5476
ku	-5477
11.	-5478
12.	-5479
312	-5480
94.	-5481
986	-5482
eñv	-5483
hiv	-5484
teo	-5485
▁0,	-5486
▁73	-5487
▁85	-5488
▁Pe	-5489
4300	-5490
7392	-5491
akes	-5492
anga	-5493
ariz	-5494
enzi	-5495
imon	-5496
jano	-5497
race	-5498
ulen	-5499
▁0-6	-5500
▁16,	-5501
▁31.	-5502
▁32.	-5503
▁911	-5504
▁Don	-5505
▁Dun	-5506
▁Hes	-5507
▁Mam	-5508
▁SAN	-5509
▁Web	-5510
▁Wet	-5511
▁lañ	-5512
▁oar	-5513
8,600	-5514
Frank	-5515
eoria	-5516
ezher	-5517
lands	-5518
ustín	-5519
velep	-5520
▁Azin	-5521
▁Bebi	-5522
▁Busc	-5523
▁Gene	-5524
▁Hail	-5525
▁Mols	-5526
▁Stal	-5527
▁alam	-5528
▁bion	-5529
▁gouz	-5530
▁hogo	-5531
739224	-5532
itonit	-5533
rerezh	-5534
▁Arver	-5535
▁Colan	-5536
▁Renzi	-5537
▁Steel	-5538
▁nudel	-5539
▁raket	-5540
▁rener	-5541
▁takad	-5542
adennek	-5543
ulensis	-5544
▁Ithaca	-5545
▁Jorjia	-5546
▁Matteo	-5547
▁Peoria	-5548
▁anvioù	-5549
▁goulev	-5550
▁ostilh	-5551
▁sponge	-5552
▁108,600	-5553
▁5739224	-5554
▁Agustín	-5555
▁Avocado	-5556
▁Buscema	-5557
▁Harvard	-5558
▁Legends	-5559
▁Revival	-5560
▁Terrace	-5561
▁hevelep	-5562
alifornia	-5563
▁Afrobeat	-5564
▁Gonzalez	-5565
▁Hessisch	-5566
▁Limerick	-5567
▁Malizezi	-5568
▁Wetlands	-5569
▁kilometr	-5570
▁Apulensis	-5571
▁Matematik	-5572
▁Stouadenn	-5573
▁Washtenaw	-5574
▁spagnoleg	-5575
▁Charleston	-5576
▁Steredegoù	-5577
▁istitouenn	-5578
▁511592000.0	-5579
▁Hailemariam	-5580
▁departamant	-5581
▁edukatourerez	-5582
▁1-4165-2060-0.	-5583
."	-5584
22	-5585
68	-5586
FC	-5587
/35	-5588
057	-5589
2-2	-5590
468	-5591
524	-5592
ert	-5593
fay	-5594
jaz	-5595
sea	-5596
sit	-5597
tez	-5598
ude	-5599
▁Be	-5600
▁KV	-5601
-201	-5602
2497	-5603
7.0.	-5604
9343	-5605
adio	-5606
añol	-5607
cano	-5608
eded	-5609
ette	-5610
habr	-5611
hita	-5612
hlab	-5613
hoaz	-5614
jaya	-5615
king	-5616
meur	-5617
pezh	-5618
spor	-5619
ñver	-5620
▁182	-5621
▁296	-5622
▁896	-5623
▁Abh	-5624
▁Ell	-5625
▁Fox	-5626
▁Gio	-5627
▁Kaz	-5628
▁Syn	-5629
▁Wic	-5630
▁kor	-5631
▁lus	-5632
05718	-5633
46863	-5634
Broed	-5635
anvet	-5636
aouiñ	-5637
arneg	-5638
helen	-5639
ieter	-5640
lines	-5641
medeg	-5642
nodar	-5643
olone	-5644
otaur	-5645
prenn	-5646
ustad	-5647
ustom	-5648
▁0455	-5649
▁1966	-5650
▁360.	-5651
▁6986	-5652
▁Aviv	-5653
▁East	-5654
▁Goll	-5655
▁Kour	-5656
▁Kras	-5657
▁Mata	-5658
▁Plus	-5659
▁Tink	-5660
▁evok	-5661
▁keur	-5662
▁perc	-5663
▁stêr	-5664
demont	-5665
holler	-5666
hornôg	-5667
▁0-670	-5668
▁1995.	-5669
▁99,83	-5670
▁Lafay	-5671
▁Pariz	-5672
▁Skriv	-5673
▁Tomsk	-5674
▁bajji	-5675
▁seler	-5676
Europat	-5677
handlun	-5678
hiennoù	-5679
patacon	-5680
▁352497	-5681
▁479343	-5682
▁605718	-5683
▁Aethen	-5684
▁Claude	-5685
▁Custom	-5686
▁Dieter	-5687
▁Tejano	-5688
▁Viktor	-5689
000.0.0.	-5690
itonitis	-5691
ologiezh	-5692
▁1913-01	-5693
▁Asterix	-5694
▁Falcons	-5695
▁Francis	-5696
▁Gardner	-5697
▁Giovann	-5698
▁Hecking	-5699
▁Ilocano	-5700
▁Primera	-5701
▁Tinkham	-5702
▁javaneg	-5703
▁89646863	-5704
▁Airlines	-5705
▁Mechelen	-5706
▁Minotaur	-5707
▁Misionis	-5708
▁Synthpop	-5709
▁Bartolone	-5710
▁Ellington	-5711
▁Krasnodar	-5712
▁Lafayette	-5713
▁Aleksandra	-5714
▁Puigdemont	-5715
-7	-5716
oğ	-5717
we	-5718
15.	-5719
3.8	-5720
8,0	-5721
Ram	-5722
Vel	-5723
ays	-5724
eca	-5725
etw	-5726
euz	-5727
hag	-5728
nyk	-5729
pur	-5730
ryp	-5731
sky	-5732
ykh	-5733
▁83	-5734
▁Ho	-5735
▁Uk	-5736
0592	-5737
9447	-5738
9618	-5739
Amin	-5740
Star	-5741
fkin	-5742
haji	-5743
home	-5744
itut	-5745
olai	-5746
oğlu	-5747
sche	-5748
ules	-5749
unet	-5750
utty	-5751
▁168	-5752
▁292	-5753
▁507	-5754
▁512	-5755
▁Kem	-5756
▁Mez	-5757
▁Oke	-5758
▁Sci	-5759
▁arv	-5760
▁nor	-5761
▁vev	-5762
92550	-5763
Stars	-5764
aiden	-5765
arnad	-5766
asant	-5767
atown	-5768
hivil	-5769
hoant	-5770
illin	-5771
imetr	-5772
kavet	-5773
▁000.	-5774
▁1299	-5775
▁1901	-5776
▁1959	-5777
▁1971	-5778
▁21.2	-5779
▁Arms	-5780
▁Chap	-5781
▁Dick	-5782
▁Fons	-5783
▁Netw	-5784
▁Raul	-5785
▁Rouz	-5786
▁Slay	-5787
▁Tizh	-5788
▁Virt	-5789
▁Wall	-5790
▁zilh	-5791
League	-5792
anilow	-5793
ernykh	-5794
iensis	-5795
rajaya	-5796
rypnyk	-5797
ustadt	-5798
▁19238	-5799
▁2008.	-5800
▁39447	-5801
▁523.9	-5802
▁69618	-5803
▁Adsit	-5804
▁Citta	-5805
▁Horch	-5806
▁Maher	-5807
▁Marry	-5808
▁Mater	-5809
▁Unist	-5810
▁butty	-5811
▁genel	-5812
▁toull	-5813
adennad	-5814
▁142603	-5815
▁570592	-5816
▁Bruins	-5817
▁Carles	-5818
▁Cruise	-5819
▁Danani	-5820
▁Darien	-5821
▁Dillin	-5822
▁Hartel	-5823
▁Instit	-5824
▁Karned	-5825
▁Lufkin	-5826
▁Meride	-5827
▁Mulatu	-5828
▁Parana	-5829
▁Sinisa	-5830
▁Warnem	-5831
▁Wiener	-5832
▁bangra	-5833
▁difenn	-5834
▁etreel	-5835
▁kevred	-5836
▁vroioù	-5837
harzhioù	-5838
herzhioù	-5839
▁Banilow	-5840
▁Daggash	-5841
▁Fonseca	-5842
▁Malayek	-5843
▁Network	-5844
▁Nikolai	-5845
▁Rutland	-5846
▁Telanga	-5847
▁Teshome	-5848
▁Wichita	-5849
▁arouezh	-5850
▁bioniko	-5851
▁gomzout	-5852
▁italien	-5853
▁ketchup	-5854
▁kuitaet	-5855
▁2014-201	-5856
▁Chernykh	-5857
▁Coritiba	-5858
▁Francois	-5859
▁Giovanni	-5860
▁Kristina	-5861
▁Neustadt	-5862
▁Pleasant	-5863
▁Skrypnyk	-5864
▁Stroadoù	-5865
▁alamaned	-5866
▁Abhandlun	-5867
▁Chinatown	-5868
▁Davutoğlu	-5869
▁amzervred	-5870
▁Agremiacao	-5871
▁California	-5872
▁Mihajlovic	-5873
▁spagnolezh	-5874
▁0-439-17685	-5875
▁479343000.0	-5876
▁Bloomington	-5877
▁arouezennoù	-5878
▁peritonitis	-5879
▁Aarhusiensis	-5880
▁skritennadenn	-5881
▁treuzhiadurioù	-5882
,8	-5883
41	-5884
9-	-5885
AA	-5886
OK	-5887
TE	-5888
ee	-5889
gh	-5890
of	-5891
-07	-5892
-93	-5893
364	-5894
4,9	-5895
5.4	-5896
RAA	-5897
bot	-5898
eme	-5899
hin	-5900
iss	-5901
ith	-5902
jal	-5903
kel	-5904
ken	-5905
try	-5906
vit	-5907
▁AG	-5908
▁Ps	-5909
▁zi	-5910
----	-5911
-932	-5912
3309	-5913
9.0.	-5914
9705	-5915
aide	-5916
baan	-5917
ineg	-5918
ions	-5919
ivil	-5920
reaz	-5921
wood	-5922
▁1,2	-5923
▁336	-5924
▁448	-5925
▁488	-5926
▁Euc	-5927
▁Kap	-5928
▁Paz	-5929
▁Vaz	-5930
▁fou	-5931
▁lab	-5932
▁sko	-5933
36463	-5934
843.8	-5935
Indez	-5936
aspar	-5937
ekred	-5938
ennig	-5939
hetti	-5940
itain	-5941
tress	-5942
▁"192	-5943
▁32.2	-5944
▁7877	-5945
▁8388	-5946
▁Adel	-5947
▁Arzh	-5948
▁Grey	-5949
▁Hays	-5950
▁Mant	-5951
▁ORAA	-5952
▁Okeh	-5953
▁Pale	-5954
▁Punk	-5955
▁Sial	-5956
▁Thun	-5957
▁Zeal	-5958
▁arou	-5959
▁band	-5960
▁gane	-5961
▁gula	-5962
-92550	-5963
ambien	-5964
hastur	-5965
iennoù	-5966
▁15788	-5967
▁2001.	-5968
▁344,9	-5969
▁80002	-5970
▁Gabri	-5971
▁Halla	-5972
▁Klask	-5973
▁Kuala	-5974
▁Masum	-5975
▁Match	-5976
▁Price	-5977
▁Simon	-5978
▁fouet	-5979
▁gwerz	-5980
▁polak	-5981
▁skorp	-5982
▁139705	-5983
▁183309	-5984
▁360.29	-5985
▁836463	-5986
▁Airbus	-5987
▁Arabeg	-5988
▁Deizel	-5989
▁Desket	-5990
▁Gwelet	-5991
▁Iloilo	-5992
▁Lumpur	-5993
▁Maiden	-5994
▁Moskwe	-5995
▁Static	-5996
▁Tennis	-5997
▁arzhoù	-5998
▁asfalt	-5999
▁rannet	-6000
▁torret	-6001
▁ziouer	-6002
▁30843.8	-6003
▁Aozadur	-6004
▁Britain	-6005
▁Demokel	-6006
▁Gwezout	-6007
▁Italian	-6008
▁Roamant	-6009
▁Roberts	-6010
▁Stummet	-6011
▁Thunder	-6012
▁Zealand	-6013
▁federal	-6014
▁pepisiñ	-6015
▁stadion	-6016
▁tapioca	-6017
▁Adelaide	-6018
▁Michetti	-6019
▁Paranant	-6020
▁Rouezenn	-6021
▁Stourmet	-6022
▁gwerzhañ	-6023
▁nijeriek	-6024
▁ostilhoù	-6025
▁Mantecorp	-6026
▁2014-2015.	-6027
▁Lokomotive	-6028
▁0-439-92550	-6029
▁Abhandlungen	-6030
SV	-6031
by	-6032
hd	-6033
uß	-6034
,43	-6035
-1.	-6036
055	-6037
Ath	-6038
Ind	-6039
hes	-6040
hwe	-6041
osé	-6042
pov	-6043
rog	-6044
uad	-6045
uin	-6046
zho	-6047
▁il	-6048
0700	-6049
47,1	-6050
6798	-6051
7670	-6052
8024	-6053
doff	-6054
edan	-6055
emet	-6056
eppe	-6057
irol	-6058
jang	-6059
menn	-6060
ousk	-6061
rouz	-6062
thel	-6063
ugin	-6064
▁24.	-6065
▁6,7	-6066
▁973	-6067
▁AGR	-6068
▁Ark	-6069
▁Azi	-6070
▁Cel	-6071
▁HOK	-6072
▁Mun	-6073
▁Vit	-6074
▁aze	-6075
▁gra	-6076
47055	-6077
Athen	-6078
abels	-6079
anyum	-6080
attle	-6081
drini	-6082
evder	-6083
iffer	-6084
stero	-6085
▁0.01	-6086
▁2597	-6087
▁875,	-6088
▁Beef	-6089
▁Bibb	-6090
▁Eman	-6091
▁Fuad	-6092
▁Gwer	-6093
▁Iach	-6094
▁José	-6095
▁Line	-6096
▁Linn	-6097
▁Lyle	-6098
▁Moga	-6099
▁Moro	-6100
▁Shel	-6101
▁Suiz	-6102
▁eget	-6103
▁garn	-6104
679831	-6105
edelia	-6106
hoariñ	-6107
ourenn	-6108
rannet	-6109
rysler	-6110
sandid	-6111
tresañ	-6112
useppe	-6113
ußisch	-6114
▁1989,	-6115
▁347,1	-6116
▁Galac	-6117
▁Larry	-6118
▁Laura	-6119
▁Nover	-6120
▁Ottom	-6121
▁Perth	-6122
▁Pugin	-6123
▁Sandw	-6124
▁gousk	-6125
halloud	-6126
povalli	-6127
▁380700	-6128
▁787711	-6129
▁Babels	-6130
▁Emgann	-6131
▁Gadzhi	-6132
▁Garden	-6133
▁Graeme	-6134
▁Kourou	-6135
▁Marius	-6136
▁etrezh	-6137
▁meksik	-6138
thelwald	-6139
▁7679831	-6140
▁Ararhus	-6141
▁Emanuel	-6142
▁Estadio	-6143
▁Flandeg	-6144
▁Iachini	-6145
▁Moldoff	-6146
▁Seattle	-6147
▁Sheldon	-6148
▁Stouist	-6149
▁Vicenza	-6150
▁anezhoù	-6151
▁echuiet	-6152
▁oberour	-6153
▁reolenn	-6154
▁rizhioù	-6155
▁sevelet	-6156
▁skoapis	-6157
anyumasan	-6158
▁25977670	-6159
▁Augustus	-6160
▁Boldrini	-6161
▁Britanek	-6162
▁Chrysler	-6163
▁Gabriela	-6164
▁Mamiffer	-6165
▁Marrethe	-6166
▁Rosaceae	-6167
▁Sandwich	-6168
▁aozerien	-6169
▁republik	-6170
▁tremenet	-6171
▁Andalusia	-6172
▁Olympique	-6173
▁Preußisch	-6174
▁embannour	-6175
▁stilistek	-6176
▁Babelsberg	-6177
▁Sarpovalli	-6178
▁0-439-17684	-6179
▁Misionissippi	-6180
Or	-6181
hu	-6182
yr	-6183
zr	-6184
üt	-6185
-26	-6186
/1.	-6187
/23	-6188
0,9	-6189
179	-6190
4,7	-6191
5.8	-6192
914	-6193
Zaw	-6194
aac	-6195
amo	-6196
cos	-6197
gar	-6198
hec	-6199
ora	-6200
▁61	-6201
▁Hü	-6202
▁KC	-6203
▁No	-6204
,300	-6205
9371	-6206
adol	-6207
anav	-6208
apiz	-6209
brev	-6210
egeg	-6211
egre	-6212
elod	-6213
epha	-6214
holm	-6215
iloù	-6216
iman	-6217
inau	-6218
iyev	-6219
lamm	-6220
okel	-6221
onet	-6222
saou	-6223
▁14.	-6224
▁142	-6225
▁299	-6226
▁388	-6227
▁44.	-6228
▁560	-6229
▁Büt	-6230
▁Cyr	-6231
▁Din	-6232
▁Eug	-6233
▁Mac	-6234
▁aus	-6235
▁ben	-6236
▁deg	-6237
▁fol	-6238
▁med	-6239
▁ple	-6240
▁ras	-6241
▁riz	-6242
▁sud	-6243
▁tek	-6244
19600	-6245
45179	-6246
Zawra	-6247
ammet	-6248
bourm	-6249
enzie	-6250
lopod	-6251
okacy	-6252
onnes	-6253
reter	-6254
seyin	-6255
vezoù	-6256
▁0.21	-6257
▁1174	-6258
▁Bari	-6259
▁Chis	-6260
▁Clay	-6261
▁Fran	-6262
▁Goul	-6263
▁Lans	-6264
▁Lein	-6265
▁Oros	-6266
▁Peng	-6267
▁Rahm	-6268
▁Sach	-6269
▁Tait	-6270
▁USAF	-6271
▁bezh	-6272
▁herv	-6273
▁kriz	-6274
▁olym	-6275
▁soja	-6276
▁vamm	-6277
80,700	-6278
askaet	-6279
ellenn	-6280
houlre	-6281
piacos	-6282
zhiyev	-6283
▁10252	-6284
▁125.8	-6285
▁144,7	-6286
▁29652	-6287
▁39371	-6288
▁490,9	-6289
▁Aozad	-6290
▁Cakes	-6291
▁Danek	-6292
▁Debre	-6293
▁Genoa	-6294
▁Güner	-6295
▁Inaoz	-6296
▁Isaac	-6297
▁Kirby	-6298
▁Lemon	-6299
▁Paran	-6300
▁Reith	-6301
▁Rojas	-6302
▁Ukrop	-6303
▁dudad	-6304
▁ganto	-6305
jazlevr	-6306
steroid	-6307
▁107,43	-6308
▁410777	-6309
▁Dinamo	-6310
▁Joseph	-6311
▁Labour	-6312
▁Launch	-6313
▁Melaka	-6314
▁Rivers	-6315
▁Tabare	-6316
▁Torino	-6317
▁arveiñ	-6318
▁arvent	-6319
▁blanco	-6320
▁debout	-6321
▁evezet	-6322
▁fuzion	-6323
▁klevet	-6324
▁pleust	-6325
▁reolet	-6326
▁seleri	-6327
▁uheloc	-6328
astouenn	-6329
ouronnes	-6330
▁380,700	-6331
▁4645179	-6332
▁556,300	-6333
▁Bütüner	-6334
▁Hüseyin	-6335
▁Penguin	-6336
▁Sachsen	-6337
▁Sandage	-6338
▁Sevelet	-6339
▁bandeja	-6340
▁derouiñ	-6341
▁heuliet	-6342
▁mizhvet	-6343
▁sonerez	-6344
▁uhelder	-6345
ephalopod	-6346
▁29919600	-6347
▁Berliner	-6348
▁Chicharr	-6349
▁Chisinau	-6350
▁Filipino	-6351
▁Giuseppe	-6352
▁Leinster	-6353
▁Monokacy	-6354
▁mentrezh	-6355
▁rannadur	-6356
▁93645978.	-6357
▁Gadzhiyev	-6358
▁Kennasket	-6359
▁Kolomiezh	-6360
▁Riverside	-6361
▁Roudeanet	-6362
▁Stockholm	-6363
▁labourien	-6364
▁prefektur	-6365
▁testennoù	-6366
harnadennad	-6367
▁SuperLeague	-6368
▁dreuzfollin	-6369
▁edukatourez	-6370
ér	-6371
-83	-6372
/01	-6373
150	-6374
2.3	-6375
3.1	-6376
573	-6377
7,0	-6378
744	-6379
Ass	-6380
den	-6381
ese	-6382
ikh	-6383
ipo	-6384
jia	-6385
jie	-6386
lad	-6387
wec	-6388
zii	-6389
▁$,	-6390
▁05	-6391
1498	-6392
9142	-6393
ajub	-6394
akañ	-6395
deon	-6396
iane	-6397
ides	-6398
insk	-6399
istr	-6400
komz	-6401
mine	-6402
ouri	-6403
rewe	-6404
ring	-6405
yang	-6406
▁1.8	-6407
▁18.	-6408
▁94.	-6409
▁Bet	-6410
▁Cov	-6411
▁Dut	-6412
▁Gér	-6413
▁Ice	-6414
▁Len	-6415
▁Mus	-6416
▁Put	-6417
▁Sha	-6418
▁Vfl	-6419
▁Vor	-6420
▁mañ	-6421
▁sik	-6422
▁sil	-6423
01-83	-6424
3380-	-6425
Ordon	-6426
adipo	-6427
agine	-6428
ajaya	-6429
angku	-6430
aracy	-6431
etown	-6432
hesda	-6433
horta	-6434
kloaz	-6435
nevez	-6436
rigan	-6437
uniad	-6438
urien	-6439
▁100.	-6440
▁1936	-6441
▁2003	-6442
▁2011	-6443
▁4150	-6444
▁7729	-6445
▁8788	-6446
▁Boer	-6447
▁Cohn	-6448
▁Dale	-6449
▁Diya	-6450
▁Gary	-6451
▁Mond	-6452
▁Ouzh	-6453
▁Tren	-6454
▁Uhel	-6455
▁Vala	-6456
▁barn	-6457
▁droc	-6458
▁fuzf	-6459
▁hard	-6460
▁rank	-6461
▁spis	-6462
▁tekn	-6463
950000	-6464
amaika	-6465
bannet	-6466
enburg	-6467
heibar	-6468
hortel	-6469
ouezet	-6470
▁23900	-6471
▁Ampar	-6472
▁Broad	-6473
▁Courc	-6474
▁Crewe	-6475
▁Diane	-6476
▁Duane	-6477
▁Eurol	-6478
▁Negre	-6479
▁North	-6480
▁Odeon	-6481
▁Senad	-6482
▁Silva	-6483
▁South	-6484
▁Vajub	-6485
▁ganer	-6486
▁kaout	-6487
▁sloaz	-6488
▁stoun	-6489
1498400	-6490
Aanadoù	-6491
Rannvro	-6492
harrenn	-6493
hizlevr	-6494
▁279142	-6495
▁Anyang	-6496
▁Greene	-6497
▁Gérard	-6498
▁Lañset	-6499
▁Newark	-6500
▁Russel	-6501
▁Shabab	-6502
▁Sheikh	-6503
▁Shorta	-6504
▁Suvrad	-6505
▁Turzii	-6506
▁brouet	-6507
▁fevder	-6508
▁herver	-6509
▁karned	-6510
▁langku	-6511
kilometr	-6512
remiação	-6513
▁Asajaya	-6514
▁Carmine	-6515
▁Company	-6516
▁Coronet	-6517
▁Imagine	-6518
▁Lansing	-6519
▁Oladipo	-6520
▁Trenton	-6521
▁endalad	-6522
▁etrevet	-6523
▁stadenn	-6524
▁stokell	-6525
▁tremenn	-6526
▁Bethesda	-6527
▁Horrigan	-6528
▁Mondelez	-6529
▁Stanford	-6530
▁Taqaddum	-6531
▁Vajubhai	-6532
▁rummadoù	-6533
▁stourien	-6534
▁Infantino	-6535
▁Lauraceae	-6536
▁Olmpiacos	-6537
▁Putrajaya	-6538
▁Unanamant	-6539
▁labourioù	-6540
▁Euroleague	-6541
▁Universist	-6542
▁skritennad	-6543
▁etreweladel	-6544
▁Courcouronnes	-6545
Ag	-6546
En	-6547
IS	-6548
bg	-6549
mo	-6550
áz	-6551
▁#	-6552
-12	-6553
/19	-6554
26.	-6555
567	-6556
7.0	-6557
715	-6558
92.	-6559
ATA	-6560
Mic	-6561
eyr	-6562
gip	-6563
hle	-6564
ios	-6565
ito	-6566
iñv	-6567
mut	-6568
oue	-6569
rag	-6570
sor	-6571
urs	-6572
usk	-6573
▁HA	-6574
▁Vo	-6575
▁li	-6576
-792	-6577
0-04	-6578
3648	-6579
Wash	-6580
elec	-6581
elos	-6582
euze	-6583
herc	-6584
lusc	-6585
nhem	-6586
piel	-6587
reuz	-6588
rian	-6589
rome	-6590
seul	-6591
seur	-6592
tred	-6593
urev	-6594
▁187	-6595
▁274	-6596
▁36.	-6597
▁416	-6598
▁535	-6599
▁945	-6600
▁Are	-6601
▁Did	-6602
▁Jan	-6603
▁STV	-6604
▁SVE	-6605
▁Sad	-6606
▁Sav	-6607
▁Ven	-6608
▁Váz	-6609
▁Vêr	-6610
▁ann	-6611
▁bev	-6612
▁ehe	-6613
▁gal	-6614
▁pad	-6615
▁pil	-6616
2.846	-6617
5.324	-6618
7156-	-6619
ailan	-6620
andro	-6621
ebrez	-6622
harik	-6623
inioù	-6624
insky	-6625
izier	-6626
orden	-6627
owice	-6628
pital	-6629
▁1003	-6630
▁107.	-6631
▁1986	-6632
▁2008	-6633
▁8823	-6634
▁Bass	-6635
▁Carr	-6636
▁Echu	-6637
▁Faro	-6638
▁Here	-6639
▁IATA	-6640
▁Jahn	-6641
▁Kali	-6642
▁Pant	-6643
▁Post	-6644
▁Roue	-6645
▁Sons	-6646
▁Univ	-6647
▁Vlad	-6648
▁Whig	-6649
▁Wind	-6650
▁feur	-6651
▁gizh	-6652
▁gour	-6653
▁izel	-6654
▁joul	-6655
▁kuil	-6656
▁toup	-6657
▁vizh	-6658
80.744	-6659
Verona	-6660
ashire	-6661
hantre	-6662
harnel	-6663
inegro	-6664
izelos	-6665
soviet	-6666
tremen	-6667
ursema	-6668
▁1,524	-6669
▁1913.	-6670
▁48816	-6671
▁783.1	-6672
▁Bhaji	-6673
▁Bolat	-6674
▁Breaz	-6675
▁Canto	-6676
▁Evang	-6677
▁Hambg	-6678
▁Kochi	-6679
▁Kreuz	-6680
▁Nouri	-6681
▁Porzh	-6682
▁Steyr	-6683
▁Tirol	-6684
▁Velod	-6685
▁neuze	-6686
▁tomer	-6687
567-792	-6688
hastred	-6689
hollenn	-6690
lusconi	-6691
▁698622	-6692
▁75.324	-6693
▁878885	-6694
▁Arnhem	-6695
▁Brasil	-6696
▁Dayton	-6697
▁Engine	-6698
▁Helmut	-6699
▁Kaduna	-6700
▁Random	-6701
▁Silvio	-6702
▁Spring	-6703
▁Stalin	-6704
▁Straed	-6705
▁Worden	-6706
▁barred	-6707
▁ergrañ	-6708
▁ganeoc	-6709
▁kailan	-6710
▁sikour	-6711
▁spisoc	-6712
Sozialel	-6713
hennadoù	-6714
▁0-670-0	-6715
▁0-7156-	-6716
▁94.8024	-6717
▁Amharik	-6718
▁Barajas	-6719
▁Didburg	-6720
▁Elveled	-6721
▁Kaliber	-6722
▁Lambien	-6723
▁Mishkin	-6724
▁Vazquez	-6725
▁Vitesse	-6726
▁Vázquez	-6727
▁Windsor	-6728
▁anniezh	-6729
▁arvezoù	-6730
▁elveled	-6731
▁enporzh	-6732
▁oberiañ	-6733
▁41498400	-6734
▁Duursema	-6735
▁Kanadien	-6736
▁Katowice	-6737
▁Martinez	-6738
▁stourmoù	-6739
Agremiação	-6740
▁01-01-191	-6741
▁475426000	-6742
▁Carrarese	-6743
▁Evangelos	-6744
▁Sanderson	-6745
▁Spaceport	-6746
▁Velodrome	-6747
▁Venizelos	-6748
▁Vietnamed	-6749
▁barrerezh	-6750
▁dispennet	-6751
▁menterezh	-6752
▁paperback	-6753
▁stilistik	-6754
▁voudennoù	-6755
▁Alessandro	-6756
▁Banyumasan	-6757
▁Berlusconi	-6758
▁Bolatinsky	-6759
▁CountyCity	-6760
▁Lancashire	-6761
▁Rannvarneg	-6762
▁amerikanet	-6763
▁0-7156-3648	-6764
▁179942000.0	-6765
▁296521000.0	-6766
▁Engineering	-6767
▁steredennet	-6768
▁ChievoVerona	-6769
▁Stouastouenn	-6770
▁dreuzfollenn	-6771
▁288749000000.0	-6772
▁Saldevanahalli	-6773
-5	-6774
53	-6775
86	-6776
An	-6777
uy	-6778
zs	-6779
131	-6780
18.	-6781
334	-6782
498	-6783
608	-6784
70.	-6785
Roy	-6786
TEC	-6787
air	-6788
chi	-6789
hac	-6790
hos	-6791
hov	-6792
ify	-6793
imm	-6794
ird	-6795
lyn	-6796
nab	-6797
nan	-6798
zou	-6799
▁'1	-6800
▁62	-6801
▁BC	-6802
▁MD	-6803
▁SN	-6804
▁ak	-6805
▁fl	-6806
▁ya	-6807
-27.	-6808
-374	-6809
42.3	-6810
6.67	-6811
634:	-6812
Dani	-6813
aduy	-6814
aple	-6815
asha	-6816
ayat	-6817
borr	-6818
egel	-6819
fair	-6820
hobr	-6821
inen	-6822
isan	-6823
itzs	-6824
keñv	-6825
loat	-6826
oang	-6827
olfo	-6828
onez	-6829
over	-6830
owle	-6831
psey	-6832
▁01,	-6833
▁1.9	-6834
▁124	-6835
▁160	-6836
▁3,9	-6837
▁374	-6838
▁Abu	-6839
▁Cat	-6840
▁ESA	-6841
▁Kup	-6842
▁McK	-6843
▁PSV	-6844
▁Rap	-6845
▁Vig	-6846
▁bac	-6847
▁mem	-6848
▁tar	-6849
▁the	-6850
▁tud	-6851
-05-2	-6852
15100	-6853
3394.	-6854
49895	-6855
55312	-6856
Brooz	-6857
Royce	-6858
acker	-6859
anger	-6860
arest	-6861
assic	-6862
dreñv	-6863
ectra	-6864
ephen	-6865
hland	-6866
hoven	-6867
itenn	-6868
ongel	-6869
roude	-6870
ruits	-6871
udenn	-6872
▁11/2	-6873
▁1114	-6874
▁121.	-6875
▁3000	-6876
▁8500	-6877
▁Eind	-6878
▁Jati	-6879
▁Krou	-6880
▁Pick	-6881
▁Quay	-6882
▁Rizh	-6883
▁Sago	-6884
▁Sant	-6885
▁Sotr	-6886
▁Ximo	-6887
▁deha	-6888
▁dior	-6889
▁geor	-6890
▁korf	-6891
▁sago	-6892
▁zisk	-6893
-26131	-6894
70.608	-6895
barnad	-6896
ezhiad	-6897
hampad	-6898
immons	-6899
oustik	-6900
stroll	-6901
▁1971.	-6902
▁1990.	-6903
▁31.48	-6904
▁41911	-6905
▁Adnan	-6906
▁Brouz	-6907
▁Dutch	-6908
▁Fitzs	-6909
▁Fowle	-6910
▁Gould	-6911
▁Guard	-6912
▁Hamad	-6913
▁Kubik	-6914
▁Laird	-6915
▁Maple	-6916
▁Music	-6917
▁Nijer	-6918
▁Rolls	-6919
▁Roque	-6920
▁Spata	-6921
▁Ujang	-6922
▁Unanv	-6923
▁Zahar	-6924
▁debri	-6925
▁ganañ	-6926
▁radoù	-6927
atorien	-6928
bajedun	-6929
houlenn	-6930
loating	-6931
perberg	-6932
prezant	-6933
▁107.43	-6934
▁1142.3	-6935
▁Affair	-6936
▁Digify	-6937
▁Hungar	-6938
▁Kantoù	-6939
▁Roueal	-6940
▁Vectra	-6941
▁Wacker	-6942
▁aoziañ	-6943
▁benveg	-6944
▁diuzet	-6945
▁dreizh	-6946
▁gantañ	-6947
elezadur	-6948
▁1516.67	-6949
▁2549895	-6950
▁7715100	-6951
▁875,400	-6952
▁Catania	-6953
▁Chester	-6954
▁Chilton	-6955
▁Classic	-6956
▁Danemek	-6957
▁Español	-6958
▁Matchst	-6959
▁Menasha	-6960
▁Pickard	-6961
▁Stephen	-6962
▁echuchu	-6963
▁francez	-6964
▁gouzhet	-6965
▁prezant	-6966
bennadenn	-6967
pataconez	-6968
▁88234300	-6969
▁Brooklyn	-6970
▁McKenzie	-6971
▁Richland	-6972
▁Simonson	-6973
▁Zamboang	-6974
▁enrollet	-6975
-374-26131	-6976
3394.55312	-6977
▁124950000	-6978
▁Eindhoven	-6979
▁Grenadier	-6980
▁Justizour	-6981
▁politikel	-6982
▁Aleksandre	-6983
▁Kupperberg	-6984
▁kennaskaet	-6985
▁39971000000	-6986
▁523329000.0	-6987
▁Fitzsimmons	-6988
▁Universitas	-6989
▁Chesterfield	-6990
▁Williamsburg	-6991
▁254989570.608	-6992
▁0-439-92550-9.	-6993
▁419113394.55312	-6994
Az	-6995
fe	-6996
pt	-6997
úl	-6998
▁@	-6999
-09	-7000
-15	-7001
023	-7002
136	-7003
195	-7004
2.0	-7005
213	-7006
370	-7007
919	-7008
AGE	-7009
Lee	-7010
aré	-7011
kor	-7012
omb	-7013
row	-7014
sev	-7015
vêr	-7016
▁75	-7017
▁8,	-7018
▁CE	-7019
▁GA	-7020
▁Lø	-7021
▁MO	-7022
▁Sq	-7023
▁WB	-7024
/198	-7025
47-3	-7026
7,94	-7027
8-16	-7028
9206	-7029
Abad	-7030
Bann	-7031
arch	-7032
arif	-7033
asim	-7034
atoù	-7035
eani	-7036
edah	-7037
hañv	-7038
hwir	-7039
iger	-7040
iles	-7041
owda	-7042
riad	-7043
wick	-7044
ärts	-7045
▁3.8	-7046
▁331	-7047
▁657	-7048
▁746	-7049
▁9,8	-7050
▁Buk	-7051
▁Bus	-7052
▁Den	-7053
▁Eld	-7054
▁Hai	-7055
▁VAM	-7056
▁ban	-7057
▁bat	-7058
▁chi	-7059
▁dar	-7060
▁ind	-7061
▁kal	-7062
▁let	-7063
2-242	-7064
2-932	-7065
2.213	-7066
Abadi	-7067
Sanet	-7068
ashub	-7069
berzh	-7070
cover	-7071
elsea	-7072
enzil	-7073
holoù	-7074
kemel	-7075
ravis	-7076
remañ	-7077
right	-7078
soued	-7079
thony	-7080
uzier	-7081
zourd	-7082
▁3,04	-7083
▁4000	-7084
▁5300	-7085
▁8370	-7086
▁Emel	-7087
▁Gwez	-7088
▁Mamm	-7089
▁Plas	-7090
▁Ramm	-7091
▁Rest	-7092
▁SAGE	-7093
▁Stud	-7094
▁Wein	-7095
▁coun	-7096
▁info	-7097
▁kres	-7098
▁oaou	-7099
▁oaus	-7100
▁tart	-7101
▁vign	-7102
hankel	-7103
hollad	-7104
hweloù	-7105
ouding	-7106
palaer	-7107
teziad	-7108
▁10000	-7109
▁1974.	-7110
▁1982.	-7111
▁1986,	-7112
▁2015-	-7113
▁233.9	-7114
▁Baduy	-7115
▁Carpi	-7116
▁Giles	-7117
▁Gowda	-7118
▁Kedah	-7119
▁Kempe	-7120
▁Ligañ	-7121
▁Prabh	-7122
▁Roual	-7123
▁Sumac	-7124
▁Worth	-7125
▁kreus	-7126
▁kreñv	-7127
▁memes	-7128
▁rannv	-7129
0000003	-7130
2.47055	-7131
allaigh	-7132
ebrezze	-7133
▁111484	-7134
▁167,94	-7135
▁349206	-7136
▁Argent	-7137
▁Baltek	-7138
▁Bright	-7139
▁Chapin	-7140
▁Denzil	-7141
▁Garage	-7142
▁Haider	-7143
▁Indezh	-7144
▁Italik	-7145
▁Krouer	-7146
▁Picchi	-7147
▁Sharif	-7148
▁Spagno	-7149
▁Tabaré	-7150
▁Tekses	-7151
▁alaman	-7152
▁banniñ	-7153
▁broust	-7154
▁heibar	-7155
▁ligenn	-7156
▁sekred	-7157
▁skapiz	-7158
▁testet	-7159
▁trecet	-7160
▁valaer	-7161
holliner	-7162
▁3800.0.	-7163
▁Anthony	-7164
▁Antonio	-7165
▁Armando	-7166
▁Brussel	-7167
▁Chelsea	-7168
▁Daneani	-7169
▁Dempsey	-7170
▁Paleont	-7171
▁Plastik	-7172
▁bandenn	-7173
▁country	-7174
▁deskiad	-7175
▁spagnoi	-7176
▁urzhiat	-7177
▁1202.846	-7178
▁60040714	-7179
▁Bukarest	-7180
▁Floating	-7181
▁Guardian	-7182
▁Olimpico	-7183
▁anvelezh	-7184
▁emganniñ	-7185
▁heñvelep	-7186
▁skorapiz	-7187
▁skritenn	-7188
Amerikaned	-7189
adennadenn	-7190
▁57059226.	-7191
▁Hardcover	-7192
▁Kubanelle	-7193
▁matematik	-7194
▁peprenner	-7195
▁reizhienn	-7196
▁837080.744	-7197
▁Celebrezze	-7198
▁anniezhiañ	-7199
▁Prabhukumar	-7200
▁sterededenn	-7201
ompagnunerezh	-7202
▁0-670-03380-	-7203
8-1-4165-4253-7.	-7204
▁259776702.47055	-7205
Ce	-7206
GP	-7207
Km	-7208
af	-7209
rd	-7210
wa	-7211
ät	-7212
-10	-7213
-55	-7214
-56	-7215
/30	-7216
1.0	-7217
14,	-7218
448	-7219
9.0	-7220
Jaw	-7221
Mat	-7222
PGP	-7223
San	-7224
cin	-7225
eet	-7226
euc	-7227
eul	-7228
fts	-7229
hne	-7230
hop	-7231
ipi	-7232
ium	-7233
iya	-7234
kaz	-7235
orr	-7236
ory	-7237
san	-7238
tle	-7239
toc	-7240
uck	-7241
▁4.	-7242
▁48	-7243
▁Da	-7244
▁HE	-7245
▁Ha	-7246
▁Ow	-7247
▁ul	-7248
-263	-7249
-569	-7250
0008	-7251
4.33	-7252
Quwa	-7253
Rouz	-7254
Saoz	-7255
amin	-7256
anol	-7257
ebre	-7258
eget	-7259
erto	-7260
head	-7261
hwag	-7262
hwit	-7263
iler	-7264
kies	-7265
lotr	-7266
lott	-7267
plex	-7268
rett	-7269
salm	-7270
weed	-7271
▁-3.	-7272
▁173	-7273
▁456	-7274
▁880	-7275
▁Adm	-7276
▁Eva	-7277
▁Kek	-7278
▁Qar	-7279
▁Sip	-7280
▁bol	-7281
▁gar	-7282
▁kod	-7283
▁paj	-7284
▁soe	-7285
2.88.	-7286
73-55	-7287
PGPAC	-7288
anyan	-7289
beral	-7290
cinny	-7291
etrov	-7292
hanoc	-7293
hustr	-7294
ituta	-7295
krenn	-7296
lakañ	-7297
skumm	-7298
treug	-7299
tures	-7300
▁1147	-7301
▁1418	-7302
▁160;	-7303
▁1820	-7304
▁1983	-7305
▁264,	-7306
▁3316	-7307
▁4,14	-7308
▁55.4	-7309
▁Buck	-7310
▁Greg	-7311
▁Hull	-7312
▁Iwan	-7313
▁Kids	-7314
▁Mezh	-7315
▁Raúl	-7316
▁SqKm	-7317
▁Sula	-7318
▁Vent	-7319
▁dañs	-7320
▁eeun	-7321
▁eneb	-7322
▁ergo	-7323
▁fris	-7324
▁kalz	-7325
▁revr	-7326
▁soñv	-7327
▁taro	-7328
47-301	-7329
88-263	-7330
Jawiya	-7331
ancell	-7332
antenn	-7333
ichioù	-7334
ischen	-7335
oulloù	-7336
rammet	-7337
saouer	-7338
tredia	-7339
▁01/01	-7340
▁17023	-7341
▁18,29	-7342
▁1941.	-7343
▁74.33	-7344
▁Dunne	-7345
▁Jarmo	-7346
▁Lions	-7347
▁Malas	-7348
▁Preus	-7349
▁Psalm	-7350
▁Sauli	-7351
▁demok	-7352
▁epezh	-7353
▁ergor	-7354
▁flotr	-7355
▁gramm	-7356
▁gware	-7357
▁kuzel	-7358
▁pelec	-7359
▁piano	-7360
alainen	-7361
ennader	-7362
ouadenn	-7363
parzhet	-7364
perapis	-7365
seuliad	-7366
▁1421.2	-7367
▁416136	-7368
▁456448	-7369
▁880573	-7370
▁Airman	-7371
▁Akadem	-7372
▁Flemus	-7373
▁Kongel	-7374
▁Puerto	-7375
▁Rannad	-7376
▁Regina	-7377
▁Rovers	-7378
▁Travis	-7379
▁anavez	-7380
▁anezhi	-7381
▁aolenn	-7382
▁ardoiñ	-7383
▁bachoy	-7384
▁diello	-7385
▁kement	-7386
▁patrom	-7387
orsville	-7388
ouderezh	-7389
parzhiad	-7390
▁1473-55	-7391
▁Austria	-7392
▁Complex	-7393
▁Digweed	-7394
▁Fiction	-7395
▁Garrett	-7396
▁Gregory	-7397
▁Huskies	-7398
▁Liberal	-7399
▁Stanyan	-7400
▁Superle	-7401
▁Telekel	-7402
▁digoret	-7403
▁goudeur	-7404
▁reamant	-7405
▁spagnoù	-7406
▁srazell	-7407
Ceallaigh	-7408
Washtenaw	-7409
lottetown	-7410
▁0567-792	-7411
▁1622.213	-7412
▁Amerikan	-7413
▁Antwerzh	-7414
▁Ardorenn	-7415
▁Chancell	-7416
▁Goscinny	-7417
▁Marietta	-7418
▁Sulaiman	-7419
▁endalenn	-7420
▁hardware	-7421
▁istoriek	-7422
▁istorioù	-7423
▁langkuas	-7424
▁letanant	-7425
▁perzhioù	-7426
▁skritell	-7427
▁steudenn	-7428
▁teknoloù	-7429
-56947-301	-7430
hampeonato	-7431
hweziadenn	-7432
▁Institute	-7433
▁Restituta	-7434
▁Samtredia	-7435
▁cheñchmoù	-7436
▁dispannet	-7437
▁ergrañvet	-7438
inghamshire	-7439
▁Kekalainen	-7440
▁Petersburg	-7441
▁Technology	-7442
▁amerikanek	-7443
▁cephalopod	-7444
▁galloudiet	-7445
▁steudennad	-7446
▁605718000.0	-7447
▁Universität	-7448
▁anvelezadur	-7449
▁skolennadoù	-7450
▁Charlottetown	-7451
▁0-439-17685-9.	-7452
▁Mathematischen	-7453
▁Buckinghamshire	-7454
Ac	-7455
PS	-7456
▁!	-7457
016	-7458
4.1	-7459
558	-7460
8-0	-7461
894	-7462
904	-7463
Bat	-7464
Man	-7465
bel	-7466
eap	-7467
ruj	-7468
vod	-7469
▁"0	-7470
▁2,	-7471
▁39	-7472
▁40	-7473
▁59	-7474
▁VA	-7475
▁VD	-7476
▁gr	-7477
-192	-7478
1951	-7479
709.	-7480
Acta	-7481
acan	-7482
anta	-7483
breg	-7484
ectr	-7485
ened	-7486
eziñ	-7487
gizh	-7488
hare	-7489
heda	-7490
helc	-7491
hion	-7492
hlou	-7493
hwad	-7494
iena	-7495
itol	-7496
omer	-7497
ouou	-7498
ourt	-7499
skol	-7500
tron	-7501
udap	-7502
ulai	-7503
ulas	-7504
uzzi	-7505
▁096	-7506
▁264	-7507
▁377	-7508
▁4,8	-7509
▁476	-7510
▁Ban	-7511
▁Def	-7512
▁HAL	-7513
▁Jun	-7514
▁Las	-7515
▁Muc	-7516
▁Rum	-7517
▁Tap	-7518
▁Tra	-7519
▁arc	-7520
▁saz	-7521
5-214	-7522
Spagn	-7523
adolu	-7524
bajer	-7525
bevañ	-7526
elery	-7527
ennañ	-7528
entiñ	-7529
entry	-7530
erald	-7531
estro	-7532
hwiñv	-7533
rakov	-7534
ruilh	-7535
unezh	-7536
vroad	-7537
▁0.02	-7538
▁1301	-7539
▁1558	-7540
▁1700	-7541
▁1862	-7542
▁1896	-7543
▁1952	-7544
▁1987	-7545
▁4458	-7546
▁5.57	-7547
▁5.75	-7548
▁Cook	-7549
▁Dino	-7550
▁Drog	-7551
▁Efes	-7552
▁Gord	-7553
▁Jean	-7554
▁Jill	-7555
▁Juha	-7556
▁Kiss	-7557
▁Mold	-7558
▁Rosa	-7559
▁Stil	-7560
▁erzh	-7561
▁kilo	-7562
▁lañj	-7563
▁priz	-7564
▁rusk	-7565
▁trev	-7566
▁vink	-7567
Michel	-7568
Stadoù	-7569
bennañ	-7570
ectric	-7571
egunda	-7572
erviet	-7573
gipane	-7574
hachos	-7575
hellit	-7576
huniañ	-7577
hwezig	-7578
hwiler	-7579
ouedad	-7580
plijer	-7581
savion	-7582
▁'1634	-7583
▁1987.	-7584
▁2013.	-7585
▁Alask	-7586
▁Annie	-7587
▁Arese	-7588
▁Aulas	-7589
▁Budap	-7590
▁Elihu	-7591
▁Hohne	-7592
▁Homer	-7593
▁Horse	-7594
▁Kapit	-7595
▁Legoù	-7596
▁Place	-7597
▁Reids	-7598
▁Robur	-7599
▁Roman	-7600
▁Royce	-7601
▁Shill	-7602
▁Siena	-7603
▁Sinet	-7604
▁Spell	-7605
▁Voice	-7606
▁Wheel	-7607
▁burev	-7608
▁febre	-7609
▁frans	-7610
▁mulai	-7611
2-9327.	-7612
grommet	-7613
hoblion	-7614
minster	-7615
rannvro	-7616
zhiadur	-7617
▁"1634:	-7618
▁1104.1	-7619
▁11473.	-7620
▁2015-0	-7621
▁377016	-7622
▁560090	-7623
▁Adeniz	-7624
▁Admira	-7625
▁Disney	-7626
▁Eugene	-7627
▁Fruits	-7628
▁Singer	-7629
▁Unanad	-7630
▁Valery	-7631
▁bhajji	-7632
▁ergoet	-7633
▁frants	-7634
▁olivez	-7635
▁rasher	-7636
▁renkad	-7637
▁roupia	-7638
▁skouer	-7639
▁stilek	-7640
▁treuzf	-7641
00000000	-7642
hariadur	-7643
hilinder	-7644
hreizenn	-7645
▁-3.3528	-7646
▁0001-83	-7647
▁2005-11	-7648
▁Anadolu	-7649
▁Arveret	-7650
▁Defense	-7651
▁Demitra	-7652
▁England	-7653
▁Espanol	-7654
▁Kissing	-7655
▁Manuzzi	-7656
▁Mezlevr	-7657
▁Monarch	-7658
▁Philips	-7659
▁Segunda	-7660
▁Studios	-7661
▁arborzh	-7662
▁batagor	-7663
▁chichar	-7664
▁kreuset	-7665
▁tiarien	-7666
▁urzhioù	-7667
acanestro	-7668
bregerezh	-7669
▁0965-214	-7670
▁3992.88.	-7671
▁Arkitour	-7672
▁Budapest	-7673
▁Coventry	-7674
▁Drogheda	-7675
▁Electric	-7676
▁Eshgabat	-7677
▁Fortress	-7678
▁Petrakov	-7679
▁Shilling	-7680
▁Unistral	-7681
▁asteroid	-7682
▁diskouez	-7683
▁elektron	-7684
▁labourez	-7685
▁olympiel	-7686
▁padennek	-7687
▁prientiñ	-7688
▁raketenn	-7689
▁rannvoud	-7690
▁steredeg	-7691
▁stourner	-7692
▁57392246.	-7693
▁80002709.	-7694
▁Muchachos	-7695
▁Universal	-7696
▁bankennoù	-7697
▁diskouezh	-7698
▁stounered	-7699
▁Preussisch	-7700
▁Reidsville	-7701
▁sonerezien	-7702
▁1-56947-301	-7703
▁135589000.0	-7704
▁Arouezennoù	-7705
▁Westminster	-7706
▁amatriciana	-7707
▁sandwichioù	-7708
▁Efxeinoupoli	-7709
▁skridennadoù	-7710
▁stokellaoueg	-7711
▁Pallacanestro	-7712
39	-7713
HE	-7714
yn	-7715
ñs	-7716
-04	-7717
-16	-7718
/03	-7719
Bru	-7720
Kam	-7721
Rom	-7722
gec	-7723
gul	-7724
hek	-7725
hok	-7726
iac	-7727
ieg	-7728
jor	-7729
ket	-7730
niñ	-7731
yav	-7732
ych	-7733
▁06	-7734
▁68	-7735
▁7,	-7736
▁ED	-7737
▁NZ	-7738
▁RQ	-7739
▁We	-7740
269-	-7741
3.95	-7742
3326	-7743
3717	-7744
4770	-7745
6.0.	-7746
Alfa	-7747
MAHE	-7748
Roaz	-7749
acio	-7750
arag	-7751
chez	-7752
derc	-7753
eder	-7754
eizh	-7755
enañ	-7756
enry	-7757
ewis	-7758
iben	-7759
marv	-7760
oret	-7761
riot	-7762
unde	-7763
wech	-7764
ínez	-7765
▁"97	-7766
▁-8.	-7767
▁03.	-7768
▁08.	-7769
▁08/	-7770
▁136	-7771
▁2.7	-7772
▁3,3	-7773
▁3,8	-7774
▁5,4	-7775
▁5,7	-7776
▁7.5	-7777
▁Arj	-7778
▁Bod	-7779
▁Cal	-7780
▁Mig	-7781
▁Pap	-7782
▁Rub	-7783
▁Suw	-7784
▁Uab	-7785
▁hec	-7786
▁kom	-7787
▁pak	-7788
▁rut	-7789
8-0-1	-7790
Roude	-7791
argañ	-7792
askiz	-7793
burev	-7794
ezenn	-7795
gouzh	-7796
gwerz	-7797
haroz	-7798
hoarv	-7799
horoz	-7800
hweed	-7801
jorie	-7802
lecht	-7803
lopis	-7804
ociac	-7805
parta	-7806
prouz	-7807
rezet	-7808
watch	-7809
▁0068	-7810
▁1046	-7811
▁13/3	-7812
▁1931	-7813
▁1939	-7814
▁1974	-7815
▁4349	-7816
▁524.	-7817
▁Ahri	-7818
▁Atal	-7819
▁Avel	-7820
▁Bury	-7821
▁Doll	-7822
▁Gizh	-7823
▁Harc	-7824
▁Jong	-7825
▁Laer	-7826
▁Luis	-7827
▁Ment	-7828
▁Pear	-7829
▁Prin	-7830
▁Star	-7831
▁gwad	-7832
▁metr	-7833
000823	-7834
Afrika	-7835
Kampad	-7836
ezadur	-7837
gwelad	-7838
haller	-7839
heñvel	-7840
hlobad	-7841
hoazet	-7842
kongel	-7843
lugenn	-7844
penniñ	-7845
roudez	-7846
voudoù	-7847
yavsky	-7848
▁"1928	-7849
▁33168	-7850
▁43717	-7851
▁Anand	-7852
▁Andre	-7853
▁Aroud	-7854
▁Athen	-7855
▁Carlo	-7856
▁Henry	-7857
▁Kosta	-7858
▁Lewis	-7859
▁Magik	-7860
▁Oktoc	-7861
▁Patel	-7862
▁Psych	-7863
▁Ramis	-7864
▁Zarag	-7865
▁armar	-7866
▁arzou	-7867
▁disko	-7868
▁emvod	-7869
▁lezel	-7870
▁senad	-7871
269-937	-7872
Indiana	-7873
ecorino	-7874
hwezhel	-7875
hwezhet	-7876
portiva	-7877
sevelet	-7878
unadier	-7879
▁211200	-7880
▁283326	-7881
▁560937	-7882
▁703.95	-7883
▁Broust	-7884
▁Farmer	-7885
▁Fortin	-7886
▁Gordon	-7887
▁Graves	-7888
▁Herald	-7889
▁Kashub	-7890
▁Llopis	-7891
▁Merour	-7892
▁Miguel	-7893
▁Moscou	-7894
▁Motion	-7895
▁Record	-7896
▁Secret	-7897
▁Sinaeg	-7898
▁Sparta	-7899
▁Sports	-7900
▁diorro	-7901
▁eilhet	-7902
▁fuzfuz	-7903
▁ganenn	-7904
▁gantoù	-7905
▁gouest	-7906
▁gravet	-7907
▁grouet	-7908
▁juzier	-7909
▁pakora	-7910
▁pepisi	-7911
▁perenn	-7912
▁skapas	-7913
▁toupin	-7914
5-204770	-7915
National	-7916
Unanadoù	-7917
elladenn	-7918
inlandeg	-7919
lugennet	-7920
skrammet	-7921
▁Capitol	-7922
▁Cornish	-7923
▁Marsden	-7924
▁Munster	-7925
▁Rodolfo	-7926
▁Spagnol	-7927
▁Webster	-7928
▁dibabel	-7929
▁dihamer	-7930
▁goustag	-7931
▁matador	-7932
▁serviet	-7933
prezident	-7934
▁1732-242	-7935
▁Aligator	-7936
▁Galactic	-7937
▁Harcourt	-7938
▁Hennader	-7939
▁Impalaer	-7940
▁Marjorie	-7941
▁Martínez	-7942
▁Meringue	-7943
▁Pictures	-7944
▁Zaragoza	-7945
▁deraouiñ	-7946
▁enrollañ	-7947
▁gannvann	-7948
▁gitarour	-7949
▁goudeilh	-7950
▁meringue	-7951
▁rutaceae	-7952
▁ruzinioù	-7953
▁sinthpop	-7954
▁spagnoeg	-7955
▁60040714.	-7956
▁Alvinegro	-7957
▁Amerikaed	-7958
▁Anandiben	-7959
▁Arjantina	-7960
▁Belyavsky	-7961
▁Broadwood	-7962
▁Deportiva	-7963
▁Ethelwald	-7964
▁Olimpique	-7965
▁Papenburg	-7966
▁amzervell	-7967
▁darvoudoù	-7968
▁doarerien	-7969
hwezhiadenn	-7970
▁1913-01-01	-7971
▁Anderlecht	-7972
▁Comelinids	-7973
▁Cottingham	-7974
▁Solanaceae	-7975
▁Warnemunde	-7976
▁derbyshire	-7977
▁diskouezet	-7978
▁steredegoù	-7979
▁331683000.0	-7980
▁560937000.0	-7981
▁Comelinides	-7982
▁Psychedelia	-7983
▁arventennoù	-7984
▁glastonbury	-7985
8-0-15-204770	-7986
▁8788850000.0	-7987
▁0-439-17684-0.	-7988
▁0-670-03380-4.	-7989
▁0-7156-3648-0.	-7990
▁254989570.60815	-7991
Du	-7992
ka	-7993
ln	-7994
rl	-7995
sc	-7996
ál	-7997
-02	-7998
/22	-7999
01.	-8000
250	-8001
290	-8002
6,2	-8003
ABI	-8004
BCT	-8005
Mex	-8006
Tre	-8007
Uan	-8008
azv	-8009
bas	-8010
bia	-8011
biz	-8012
gus	-8013
hoù	-8014
ilä	-8015
inj	-8016
iri	-8017
kab	-8018
kac	-8019
liz	-8020
loz	-8021
ofu	-8022
ois	-8023
ome	-8024
pot	-8025
ski	-8026
soc	-8027
voc	-8028
win	-8029
wyn	-8030
öln	-8031
▁65	-8032
▁84	-8033
▁By	-8034
▁NJ	-8035
▁PC	-8036
▁ad	-8037
▁fr	-8038
▁kê	-8039
1196	-8040
516.	-8041
5591	-8042
7,41	-8043
Bras	-8044
adze	-8045
afsc	-8046
anne	-8047
arem	-8048
ench	-8049
flun	-8050
hamm	-8051
inoù	-8052
ivis	-8053
jgal	-8054
kala	-8055
ochd	-8056
orrs	-8057
ourd	-8058
pken	-8059
rake	-8060
reta	-8061
sain	-8062
sone	-8063
vizh	-8064
ways	-8065
êriñ	-8066
▁047	-8067
▁1,9	-8068
▁127	-8069
▁178	-8070
▁236	-8071
▁307	-8072
▁404	-8073
▁Dil	-8074
▁Eil	-8075
▁Ent	-8076
▁Jah	-8077
▁Ket	-8078
▁Lib	-8079
▁Lin	-8080
▁Luz	-8081
▁Neb	-8082
▁SAD	-8083
▁Srl	-8084
▁boc	-8085
▁dav	-8086
▁ezk	-8087
▁pes	-8088
▁ron	-8089
145.3	-8090
agnes	-8091
aouet	-8092
araok	-8093
azetr	-8094
blenn	-8095
eapta	-8096
einst	-8097
epsis	-8098
erman	-8099
guson	-8100
homet	-8101
ibale	-8102
igant	-8103
iment	-8104
innah	-8105
inson	-8106
isipi	-8107
okado	-8108
orizo	-8109
orneo	-8110
otrou	-8111
owski	-8112
ranet	-8113
vijer	-8114
▁0348	-8115
▁1857	-8116
▁1920	-8117
▁2016	-8118
▁737.	-8119
▁Cold	-8120
▁Dept	-8121
▁Disk	-8122
▁Eros	-8123
▁Klas	-8124
▁Köln	-8125
▁Lañv	-8126
▁Luzh	-8127
▁Roum	-8128
▁SBCT	-8129
▁Solo	-8130
▁Spas	-8131
▁Stam	-8132
▁Wave	-8133
▁Well	-8134
▁Wide	-8135
▁asam	-8136
▁avet	-8137
▁azer	-8138
▁grou	-8139
▁kooc	-8140
▁koro	-8141
▁rice	-8142
▁tofu	-8143
516.63	-8144
Damant	-8145
Roudez	-8146
Unique	-8147
arzhet	-8148
euniañ	-8149
ezezet	-8150
hantad	-8151
harter	-8152
hastum	-8153
henner	-8154
istruj	-8155
labour	-8156
marnad	-8157
ologna	-8158
ouzhet	-8159
redome	-8160
rovill	-8161
sangal	-8162
sanger	-8163
▁08-16	-8164
▁14260	-8165
▁16,55	-8166
▁1972.	-8167
▁1988.	-8168
▁27250	-8169
▁29000	-8170
▁33626	-8171
▁3500.	-8172
▁47290	-8173
▁486,2	-8174
▁61196	-8175
▁77,41	-8176
▁Barry	-8177
▁Deuet	-8178
▁Eliot	-8179
▁Etiop	-8180
▁Goude	-8181
▁Harry	-8182
▁Irwin	-8183
▁Kazan	-8184
▁Point	-8185
▁Rochd	-8186
▁Rubin	-8187
▁Sahle	-8188
▁Sinañ	-8189
▁Speed	-8190
▁Tekel	-8191
▁Tudyk	-8192
▁aozet	-8193
▁baran	-8194
▁cheñc	-8195
▁gouer	-8196
▁kourc	-8197
▁skeud	-8198
▁skumm	-8199
▁super	-8200
▁uhela	-8201
000000.	-8202
afschap	-8203
amerika	-8204
asparis	-8205
barrenn	-8206
lakaezh	-8207
olitenn	-8208
onderiñ	-8209
skrivet	-8210
telekel	-8211
unerezh	-8212
▁0.0112	-8213
▁100305	-8214
▁1046-8	-8215
▁1920-0	-8216
▁445895	-8217
▁615591	-8218
▁772943	-8219
▁Anavet	-8220
▁Borneo	-8221
▁Colwyn	-8222
▁Corpor	-8223
▁Dianne	-8224
▁Donald	-8225
▁Feinst	-8226
▁Jahist	-8227
▁Jinnah	-8228
▁Johnny	-8229
▁Kontre	-8230
▁Moench	-8231
▁Norveg	-8232
▁Region	-8233
▁Savlec	-8234
▁Storrs	-8235
▁System	-8236
▁Turkeg	-8237
▁Virtus	-8238
▁aozant	-8239
▁argant	-8240
▁arouzh	-8241
▁banani	-8242
▁barniñ	-8243
▁blêriñ	-8244
▁follan	-8245
▁fuziañ	-8246
▁ganezh	-8247
▁hepken	-8248
▁heñver	-8249
▁kemmañ	-8250
▁lakaat	-8251
▁lezher	-8252
▁maskad	-8253
▁plakad	-8254
▁soñjal	-8255
▁tostoc	-8256
anavezet	-8257
esteapta	-8258
jgaladze	-8259
▁264,000	-8260
▁62145.3	-8261
▁Airways	-8262
▁Aostral	-8263
▁Bologna	-8264
▁Entella	-8265
▁Horacio	-8266
▁Hussain	-8267
▁Kapitan	-8268
▁Ketchup	-8269
▁Kolomie	-8270
▁Kristel	-8271
▁Larreta	-8272
▁Malayed	-8273
▁Odinson	-8274
▁Patriot	-8275
▁Progann	-8276
▁Rosales	-8277
▁Rouedad	-8278
▁Rumania	-8279
▁Sialial	-8280
▁Stadoet	-8281
▁Stevens	-8282
▁Suiziad	-8283
▁Uhelder	-8284
▁azerezh	-8285
▁blantañ	-8286
▁elektro	-8287
▁ezporzh	-8288
▁goudeiñ	-8289
▁hoarier	-8290
▁patatoù	-8291
▁testenn	-8292
Amsterdam	-8293
hantimetr	-8294
kennasket	-8295
rovillari	-8296
▁0269-937	-8297
▁11473.9.	-8298
▁1588-263	-8299
▁Alamaned	-8300
▁Annibale	-8301
▁Atalanta	-8302
▁Deptford	-8303
▁Diazezet	-8304
▁Ferguson	-8305
▁Firedome	-8306
▁Gasparis	-8307
▁Hardwick	-8308
▁Implijer	-8309
▁Malasezi	-8310
▁Philippe	-8311
▁Rochdale	-8312
▁Stamford	-8313
▁Techoloù	-8314
▁bloazioù	-8315
▁diouzhet	-8316
▁ergorenn	-8317
▁ezkargañ	-8318
▁fuzadenn	-8319
▁gouzhiad	-8320
▁hyunienn	-8321
▁istorist	-8322
▁kanteret	-8323
▁sandwizh	-8324
hastourien	-8325
▁08-16-192	-8326
▁46451790.	-8327
▁89646863.	-8328
▁Amatorien	-8329
▁Amerikaez	-8330
▁Bibbowski	-8331
▁Feinstein	-8332
▁Justizier	-8333
▁Spaswatch	-8334
▁febrevrer	-8335
▁gwarezhoù	-8336
▁krouerien	-8337
▁kuzelegel	-8338
▁levraoueg	-8339
▁patatezoù	-8340
▁6155910000	-8341
▁Bundesliga	-8342
▁Graafschap	-8343
▁Greunadier	-8344
Associazione	-8345
▁142603000.0	-8346
▁437170000.0	-8347
▁Corporation	-8348
▁Demokratani	-8349
▁Manjgaladze	-8350
▁Superleague	-8351
▁embregerezh	-8352
Amsterdamsche	-8353
▁Paleontology	-8354
▁352497000000.0	-8355
66	-8356
PT	-8357
du	-8358
oe	-8359
ps	-8360
rt	-8361
uv	-8362
za	-8363
âm	-8364
-8.	-8365
/05	-8366
125	-8367
7.1	-8368
8,2	-8369
925	-8370
aes	-8371
ake	-8372
ego	-8373
let	-8374
org	-8375
uti	-8376
ärf	-8377
▁43	-8378
▁6.	-8379
▁AD	-8380
▁CA	-8381
▁IV	-8382
▁KY	-8383
▁SJ	-8384
▁eb	-8385
▁ps	-8386
-063	-8387
-26.	-8388
1.54	-8389
6.66	-8390
7653	-8391
8055	-8392
abag	-8393
amil	-8394
ammy	-8395
arst	-8396
bhai	-8397
dizh	-8398
eniz	-8399
font	-8400
gred	-8401
hloc	-8402
hlus	-8403
ikav	-8404
ippi	-8405
mamm	-8406
mill	-8407
olet	-8408
raun	-8409
rier	-8410
ugel	-8411
werc	-8412
çois	-8413
▁129	-8414
▁270	-8415
▁360	-8416
▁401	-8417
▁45.	-8418
▁Câm	-8419
▁Hui	-8420
▁Key	-8421
▁Klo	-8422
▁Kod	-8423
▁Lac	-8424
▁Lan	-8425
▁Maj	-8426
▁Max	-8427
▁Mes	-8428
▁Rox	-8429
▁alb	-8430
▁aro	-8431
▁fun	-8432
▁kms	-8433
▁kos	-8434
▁reg	-8435
▁ser	-8436
-01-2	-8437
-03-0	-8438
-12-3	-8439
alzel	-8440
arier	-8441
attro	-8442
berts	-8443
botel	-8444
derzo	-8445
hapad	-8446
hococ	-8447
honeg	-8448
ianed	-8449
ietam	-8450
inese	-8451
iness	-8452
itari	-8453
jazet	-8454
meret	-8455
nadel	-8456
rewer	-8457
risis	-8458
stone	-8459
▁0473	-8460
▁1911	-8461
▁5000	-8462
▁Arib	-8463
▁Aron	-8464
▁CEPT	-8465
▁Camm	-8466
▁Gale	-8467
▁KABI	-8468
▁Lalb	-8469
▁Lyon	-8470
▁Løke	-8471
▁Nock	-8472
▁Numa	-8473
▁Polo	-8474
▁Puya	-8475
▁Urzh	-8476
▁arzh	-8477
▁born	-8478
▁heuz	-8479
▁kmps	-8480
▁lañv	-8481
▁peso	-8482
▁vint	-8483
-0633-	-8484
aminer	-8485
aouenn	-8486
arienn	-8487
bourne	-8488
edoued	-8489
ellner	-8490
enosha	-8491
etroit	-8492
hellfe	-8493
hollin	-8494
houpin	-8495
hwezel	-8496
kornzh	-8497
ourioù	-8498
radenn	-8499
yshkin	-8500
zhoazh	-8501
▁08/26	-8502
▁1908.	-8503
▁19255	-8504
▁2215.	-8505
▁258,2	-8506
▁3078.	-8507
▁8,334	-8508
▁Brian	-8509
▁Diego	-8510
▁Dizel	-8511
▁Ebrev	-8512
▁Leach	-8513
▁Lourd	-8514
▁Peren	-8515
▁Rapid	-8516
▁Rosid	-8517
▁Sammy	-8518
▁Sanat	-8519
▁Sedan	-8520
▁Tamil	-8521
▁bakso	-8522
▁dizel	-8523
▁droge	-8524
▁gouet	-8525
▁gwiri	-8526
▁inizi	-8527
▁livet	-8528
▁monez	-8529
▁muioc	-8530
▁paotr	-8531
▁zilec	-8532
hoarvez	-8533
hweziad	-8534
ikavkaz	-8535
ilherez	-8536
indrezh	-8537
ministr	-8538
parzhañ	-8539
patbhai	-8540
voudilh	-8541
▁0-7653	-8542
▁121.92	-8543
▁140000	-8544
▁161.54	-8545
▁2776.0	-8546
▁2777,0	-8547
▁498055	-8548
▁APGPAC	-8549
▁Alania	-8550
▁Aostri	-8551
▁Aozhañ	-8552
▁Bodley	-8553
▁Brewer	-8554
▁Calero	-8555
▁Crafts	-8556
▁Crisis	-8557
▁Câmpia	-8558
▁Edukat	-8559
▁Edward	-8560
▁Enroll	-8561
▁Fenves	-8562
▁Gwerzh	-8563
▁Hearst	-8564
▁Hector	-8565
▁Kerman	-8566
▁Kregiñ	-8567
▁Lanark	-8568
▁Leiden	-8569
▁Marcos	-8570
▁Moraes	-8571
▁Santoù	-8572
▁Schärf	-8573
▁Serbia	-8574
▁Uderzo	-8575
▁Vently	-8576
▁Violet	-8577
▁akadem	-8578
▁dezhañ	-8579
▁goudor	-8580
▁gwelez	-8581
▁kennak	-8582
▁kevret	-8583
▁korizo	-8584
▁kuilet	-8585
▁sonioù	-8586
▁stlenn	-8587
▁tostañ	-8588
--------	-8589
hlubadoù	-8590
kannvann	-8591
lakaouiñ	-8592
niverenn	-8593
▁1939-01	-8594
▁3746.66	-8595
▁4349.0.	-8596
▁Cammell	-8597
▁Detroit	-8598
▁Jamaika	-8599
▁Kenosha	-8600
▁Klasket	-8601
▁Lalbhai	-8602
▁Popules	-8603
▁Qarabag	-8604
▁Quattro	-8605
▁Roxbury	-8606
▁Sansone	-8607
▁Spagnoù	-8608
▁Virtuti	-8609
▁avokado	-8610
▁broedad	-8611
▁daolier	-8612
▁deizher	-8613
▁desemet	-8614
▁elvelde	-8615
▁enlakañ	-8616
▁erborzh	-8617
▁goulenn	-8618
▁reizour	-8619
▁treuzel	-8620
hannvrenn	-8621
▁83646315	-8622
▁Antietam	-8623
▁Danemani	-8624
▁François	-8625
▁Huiberts	-8626
▁Infantry	-8627
▁Keystone	-8628
▁Nockalls	-8629
▁Rannvann	-8630
▁Santilli	-8631
▁Seminary	-8632
▁Toupinoù	-8633
▁cheñchad	-8634
▁dreistus	-8635
▁drobarzh	-8636
▁gwareziñ	-8637
▁joblanco	-8638
▁kevredet	-8639
▁milisipi	-8640
▁pepisiad	-8641
▁perepsis	-8642
▁silinder	-8643
▁spagnole	-8644
▁tiarienn	-8645
▁treuzfur	-8646
hoarierioù	-8647
▁1930-01-2	-8648
▁2006-12-3	-8649
▁83646315.	-8650
▁Melbourne	-8651
▁Naryshkin	-8652
▁Robertson	-8653
▁chicharon	-8654
▁fouderezh	-8655
▁prezident	-8656
▁srazeller	-8657
▁0002-9327.	-8658
▁380700000.	-8659
▁Chicharrón	-8660
▁Dalpatbhai	-8661
▁Indonezieg	-8662
▁Salvadoran	-8663
▁diskouezer	-8664
▁skeudennet	-8665
▁0-374-26131	-8666
▁2005-11-26.	-8667
▁611961000.0	-8668
▁Lanarkshire	-8669
▁Vladikavkaz	-8670
▁sandwizhioù	-8671
▁0-7653-0633-	-8672
▁Stouistouenn	-8673
▁Castrovillari	-8674
▁1-56947-301-3.	-8675
▁416136000000.0.	-8676
-9	-8677
ET	-8678
ki	-8679
km	-8680
ks	-8681
ua	-8682
ád	-8683
/33	-8684
008	-8685
73.	-8686
907	-8687
930	-8688
999	-8689
Kis	-8690
aps	-8691
bon	-8692
fia	-8693
iku	-8694
mán	-8695
pik	-8696
pis	-8697
rec	-8698
ruz	-8699
taf	-8700
ulf	-8701
ung	-8702
▁02	-8703
▁42	-8704
▁94	-8705
▁Km	-8706
▁OB	-8707
▁RB	-8708
▁Ud	-8709
▁XC	-8710
▁om	-8711
▁or	-8712
0025	-8713
0925	-8714
15.0	-8715
2.88	-8716
6-7.	-8717
ISET	-8718
Roue	-8719
ancy	-8720
awaz	-8721
biza	-8722
denn	-8723
dway	-8724
ezho	-8725
ffey	-8726
fred	-8727
haet	-8728
hala	-8729
hoez	-8730
hort	-8731
ifin	-8732
igua	-8733
ilad	-8734
mund	-8735
olph	-8736
osys	-8737
reel	-8738
remm	-8739
riñv	-8740
tens	-8741
vrol	-8742
ádio	-8743
▁153	-8744
▁17.	-8745
▁184	-8746
▁25.	-8747
▁304	-8748
▁324	-8749
▁346	-8750
▁4,6	-8751
▁524	-8752
▁ATA	-8753
▁Abe	-8754
▁Dre	-8755
▁GFC	-8756
▁Gou	-8757
▁Kai	-8758
▁Kim	-8759
▁Lim	-8760
▁Mañ	-8761
▁Nav	-8762
▁OAA	-8763
▁Osm	-8764
▁Rud	-8765
▁Sob	-8766
▁Tri	-8767
▁bêr	-8768
▁mod	-8769
▁sys	-8770
▁vag	-8771
▁zel	-8772
18.0.	-8773
80-63	-8774
Nadel	-8775
atten	-8776
bacon	-8777
bashi	-8778
berly	-8779
borgh	-8780
efine	-8781
einer	-8782
erenn	-8783
estin	-8784
evelt	-8785
ezhed	-8786
gromm	-8787
hanor	-8788
hwenn	-8789
ijano	-8790
inoer	-8791
istic	-8792
kiloù	-8793
ledel	-8794
media	-8795
oudel	-8796
rague	-8797
raska	-8798
rouil	-8799
rtiye	-8800
sbury	-8801
toria	-8802
urezh	-8803
wärts	-8804
yanin	-8805
▁168,	-8806
▁1967	-8807
▁1969	-8808
▁1985	-8809
▁3800	-8810
▁4411	-8811
▁Boat	-8812
▁Ciro	-8813
▁Ered	-8814
▁Fair	-8815
▁Foll	-8816
▁Gouz	-8817
▁Gulf	-8818
▁Herc	-8819
▁Krew	-8820
▁Leon	-8821
▁Mala	-8822
▁Maya	-8823
▁Muss	-8824
▁Noel	-8825
▁Rick	-8826
▁Rona	-8827
▁Roos	-8828
▁Shin	-8829
▁Skot	-8830
▁Trot	-8831
▁Uned	-8832
▁aotr	-8833
▁arab	-8834
▁bolc	-8835
▁dizo	-8836
▁elve	-8837
▁erec	-8838
▁fran	-8839
▁frit	-8840
▁genv	-8841
▁ileg	-8842
▁mera	-8843
▁milc	-8844
▁poul	-8845
▁prev	-8846
▁romm	-8847
▁sand	-8848
aboued	-8849
akaria	-8850
ations	-8851
bebriñ	-8852
estizo	-8853
evezet	-8854
ezhioù	-8855
hitake	-8856
iation	-8857
ivisie	-8858
kevezh	-8859
kortel	-8860
nijioù	-8861
rennoù	-8862
tensio	-8863
verezh	-8864
vetvet	-8865
wechoù	-8866
▁"1930	-8867
▁1855.	-8868
▁1920,	-8869
▁1964.	-8870
▁2005,	-8871
▁265.0	-8872
▁3360.	-8873
▁347.1	-8874
▁45.97	-8875
▁9000.	-8876
▁Chris	-8877
▁Chung	-8878
▁Cyril	-8879
▁Cyrus	-8880
▁Ibiza	-8881
▁Jamie	-8882
▁Jerry	-8883
▁Libia	-8884
▁Meurv	-8885
▁Nawaz	-8886
▁Niger	-8887
▁Power	-8888
▁Skoaz	-8889
▁Sofia	-8890
▁Treug	-8891
▁Vance	-8892
▁banni	-8893
▁bourc	-8894
▁derou	-8895
▁ebrel	-8896
▁hever	-8897
▁nemet	-8898
▁sonet	-8899
▁treur	-8900
00.0.0.	-8901
arnival	-8902
hademia	-8903
harzhet	-8904
karzhañ	-8905
ouezhet	-8906
perties	-8907
uzadenn	-8908
▁1558-2	-8909
▁1580,7	-8910
▁2215.0	-8911
▁44.125	-8912
▁Ardeiñ	-8913
▁Arenañ	-8914
▁Arifin	-8915
▁Battle	-8916
▁Benito	-8917
▁Bremañ	-8918
▁Clancy	-8919
▁Colomb	-8920
▁Edmund	-8921
▁Faroez	-8922
▁Koreek	-8923
▁Manley	-8924
▁Ordway	-8925
▁Palebi	-8926
▁Patten	-8927
▁Prague	-8928
▁Prince	-8929
▁Treuzh	-8930
▁Varese	-8931
▁Warton	-8932
▁arborr	-8933
▁belloù	-8934
▁chomet	-8935
▁erezet	-8936
▁gouder	-8937
▁kennas	-8938
▁kevrer	-8939
▁kosmet	-8940
▁number	-8941
▁peraps	-8942
▁saozed	-8943
▁saozel	-8944
▁tammet	-8945
Atlantañ	-8946
borghini	-8947
derennoù	-8948
football	-8949
harzhiañ	-8950
itikerez	-8951
▁01-01-2	-8952
▁01/01/2	-8953
▁1080-63	-8954
▁1360-04	-8955
▁1896-02	-8956
▁1933-10	-8957
▁2001-01	-8958
▁2776.0.	-8959
▁45000.0	-8960
▁Antigua	-8961
▁Barisan	-8962
▁Belgaom	-8963
▁Coaracy	-8964
▁Danekin	-8965
▁Debreur	-8966
▁Elvezoù	-8967
▁Granola	-8968
▁Kolomus	-8969
▁Kubelle	-8970
▁Opelika	-8971
▁Orosman	-8972
▁Orosmán	-8973
▁Osmosys	-8974
▁Quijano	-8975
▁Rudolph	-8976
▁Stadium	-8977
▁Tapioca	-8978
▁Trotsky	-8979
▁Udinese	-8980
▁Zakaria	-8981
▁Zellner	-8982
▁bouding	-8983
▁emgefre	-8984
▁feuniañ	-8985
▁kennask	-8986
▁marvrer	-8987
▁roulenn	-8988
▁spagnek	-8989
ezhiadenn	-8990
fluniadur	-8991
hampadenn	-8992
▁192000.0	-8993
▁57392246	-8994
▁76798317	-8995
▁78771100	-8996
▁Alaskada	-8997
▁Argentin	-8998
▁Brussels	-8999
▁Danemark	-9000
▁Emgannad	-9001
▁Examiner	-9002
▁Fairhead	-9003
▁Hercules	-9004
▁Kimberly	-9005
▁Militari	-9006
▁Nebraska	-9007
▁Otkrtiye	-9008
▁Redefine	-9009
▁Rutaceae	-9010
▁Senadenn	-9011
▁Sobyanin	-9012
▁Victoria	-9013
▁Vorwärts	-9014
▁akademel	-9015
▁erzhadoù	-9016
▁krouiñet	-9017
▁pajennoù	-9018
▁pleustet	-9019
▁reizhant	-9020
▁vagennoù	-9021
footballer	-9022
ropolitenn	-9023
▁01-01-195	-9024
▁1936-05-2	-9025
▁49805501.	-9026
▁523329000	-9027
▁Argantina	-9028
▁Gresianeg	-9029
▁Hortensio	-9030
▁Mussolini	-9031
▁Roosevelt	-9032
▁Sialialel	-9033
▁Vietnameg	-9034
▁disheñvel	-9035
▁enebadenn	-9036
▁etrevetel	-9037
▁previdant	-9038
▁skorpeziñ	-9039
▁stouredoù	-9040
▁stredegeg	-9041
ennerierezh	-9042
▁Bloomsbury	-9043
▁Eredivisie	-9044
▁Properties	-9045
▁elektronel	-9046
▁metalennoù	-9047
▁skorperezh	-9048
▁urzhiataer	-9049
▁1913-01-01.	-9050
▁Lamborghini	-9051
▁Springfield	-9052
▁Universitet	-9053
▁implijerioù	-9054
▁sandwizhiad	-9055
▁Publications	-9056
▁Turkmenbashi	-9057
▁Justizouriezh	-9058
▁steudennadenn	-9059
▁0-7653-0633-6.	-9060
")	-9061
'.	-9062
,9	-9063
40	-9064
HP	-9065
Sp	-9066
iq	-9067
tt	-9068
tă	-9069
-2.	-9070
0.8	-9071
17,	-9072
39.	-9073
48.	-9074
52.	-9075
77.	-9076
800	-9077
801	-9078
AAJ	-9079
Bod	-9080
Bot	-9081
Pol	-9082
ajo	-9083
eiz	-9084
huz	-9085
koù	-9086
lam	-9087
oly	-9088
omm	-9089
rix	-9090
rus	-9091
sté	-9092
zro	-9093
▁Kê	-9094
▁Lö	-9095
▁Ni	-9096
▁SS	-9097
▁dr	-9098
▁gl	-9099
▁io	-9100
▁nu	-9101
-585	-9102
/200	-9103
0640	-9104
14,8	-9105
2.0.	-9106
868.	-9107
HAAJ	-9108
Math	-9109
Sque	-9110
Turk	-9111
Univ	-9112
alan	-9113
arad	-9114
arañ	-9115
aret	-9116
ates	-9117
atov	-9118
baoe	-9119
chet	-9120
drec	-9121
dred	-9122
ekan	-9123
etam	-9124
fael	-9125
gost	-9126
harf	-9127
hdod	-9128
hliz	-9129
inna	-9130
jian	-9131
kabl	-9132
kpot	-9133
leiñ	-9134
leun	-9135
ogel	-9136
onek	-9137
onga	-9138
oods	-9139
otañ	-9140
oulo	-9141
rade	-9142
shek	-9143
shot	-9144
vall	-9145
vriñ	-9146
ález	-9147
▁11-	-9148
▁219	-9149
▁265	-9150
▁497	-9151
▁800	-9152
▁814	-9153
▁83.	-9154
▁846	-9155
▁900	-9156
▁Coc	-9157
▁Eis	-9158
▁Fir	-9159
▁Fis	-9160
▁Hiz	-9161
▁Mod	-9162
▁Owl	-9163
▁Ren	-9164
▁SpA	-9165
▁Tuk	-9166
▁Tze	-9167
▁Viz	-9168
▁Zes	-9169
▁ern	-9170
▁eñv	-9171
▁fiz	-9172
▁imp	-9173
▁ken	-9174
▁miz	-9175
▁plc	-9176
▁tal	-9177
-03-1	-9178
19691	-9179
AIDBI	-9180
Anton	-9181
Frañs	-9182
amagn	-9183
angoù	-9184
apsis	-9185
ardar	-9186
arnie	-9187
avour	-9188
añval	-9189
egodi	-9190
ellad	-9191
erioù	-9192
halid	-9193
hanon	-9194
ianza	-9195
manov	-9196
onged	-9197
rapis	-9198
spagn	-9199
trein	-9200
usage	-9201
warts	-9202
woody	-9203
▁07/2	-9204
▁109.	-9205
▁168.	-9206
▁1800	-9207
▁1909	-9208
▁1961	-9209
▁214,	-9210
▁2989	-9211
▁3.04	-9212
▁322.	-9213
▁324,	-9214
▁AFAS	-9215
▁Aids	-9216
▁Ayaz	-9217
▁Ball	-9218
▁Bent	-9219
▁Bron	-9220
▁Cous	-9221
▁Eber	-9222
▁Elve	-9223
▁Ezel	-9224
▁Golf	-9225
▁Guar	-9226
▁Horn	-9227
▁Reid	-9228
▁Rico	-9229
▁RoPS	-9230
▁Shuv	-9231
▁Spaz	-9232
▁Teow	-9233
▁Yong	-9234
▁eizh	-9235
▁enni	-9236
▁flot	-9237
▁heun	-9238
▁kizh	-9239
▁peog	-9240
▁renk	-9241
▁soed	-9242
▁zoet	-9243
064084	-9244
Potter	-9245
anavet	-9246
blanco	-9247
bremen	-9248
broude	-9249
brouet	-9250
erling	-9251
hogenn	-9252
hommet	-9253
iaoueg	-9254
igante	-9255
kemenn	-9256
keñver	-9257
lennet	-9258
ouzhoù	-9259
ristel	-9260
stérix	-9261
tafoni	-9262
touezh	-9263
voudil	-9264
▁"1923	-9265
▁11/29	-9266
▁1202.	-9267
▁140.8	-9268
▁1411.	-9269
▁14801	-9270
▁15/33	-9271
▁173.0	-9272
▁1862,	-9273
▁1914.	-9274
▁1979.	-9275
▁24.0.	-9276
▁268,0	-9277
▁524.5	-9278
▁53502	-9279
▁914,8	-9280
▁94509	-9281
▁Agend	-9282
▁Aozet	-9283
▁Arrow	-9284
▁Bibbo	-9285
▁Colin	-9286
▁Disko	-9287
▁Duhok	-9288
▁Eneus	-9289
▁Gates	-9290
▁Irlam	-9291
▁Kromm	-9292
▁Light	-9293
▁Minna	-9294
▁Sadiq	-9295
▁Start	-9296
▁Unrae	-9297
▁Vigor	-9298
▁Woods	-9299
▁ardor	-9300
▁diger	-9301
▁estel	-9302
▁forzh	-9303
▁gwall	-9304
▁mekan	-9305
▁organ	-9306
▁pouzh	-9307
▁prizh	-9308
▁sedan	-9309
▁tarzh	-9310
Antonio	-9311
amaniad	-9312
damsche	-9313
etrovir	-9314
haezhañ	-9315
hornell	-9316
iapolis	-9317
indales	-9318
▁0.0155	-9319
▁0.0925	-9320
▁1.9558	-9321
▁3800.0	-9322
▁4000.0	-9323
▁497.0.	-9324
▁519691	-9325
▁AMHAAJ	-9326
▁Angela	-9327
▁Arzhoù	-9328
▁Ashdod	-9329
▁Chiang	-9330
▁Collin	-9331
▁Denizi	-9332
▁Dynamo	-9333
▁Elizel	-9334
▁Fisher	-9335
▁Gaffey	-9336
▁Groton	-9337
▁Inkpot	-9338
▁Italie	-9339
▁Kelvin	-9340
▁Kentañ	-9341
▁Khalid	-9342
▁Lunier	-9343
▁Malize	-9344
▁Merkel	-9345
▁Navajo	-9346
▁Powell	-9347
▁Rafael	-9348
▁Roland	-9349
▁Romano	-9350
▁Sardar	-9351
▁Selery	-9352
▁Sipila	-9353
▁Stouiñ	-9354
▁adarzh	-9355
▁aotenn	-9356
▁arouer	-9357
▁bakeet	-9358
▁bannoù	-9359
▁blouiñ	-9360
▁dreuzh	-9361
▁estezh	-9362
▁estilh	-9363
▁ferezh	-9364
▁goudez	-9365
▁koroiz	-9366
▁plijet	-9367
▁rapper	-9368
▁skramm	-9369
▁soñvel	-9370
▁stouiñ	-9371
▁tennañ	-9372
▁varvel	-9373
▁varvet	-9374
horozenn	-9375
ouourien	-9376
▁2215.0.	-9377
▁3310.0.	-9378
▁3990.0.	-9379
▁3992.88	-9380
▁9064084	-9381
▁Alianza	-9382
▁Chorizo	-9383
▁Cousins	-9384
▁Distruj	-9385
▁Elistal	-9386
▁Federal	-9387
▁Flemenn	-9388
▁Georjie	-9389
▁Gigante	-9390
▁Gizital	-9391
▁Izelvro	-9392
▁Kubatov	-9393
▁Lamezia	-9394
▁Limited	-9395
▁Mahmood	-9396
▁Mestizo	-9397
▁Modling	-9398
▁Nigeria	-9399
▁Sadique	-9400
▁Sanchez	-9401
▁Sausage	-9402
▁Skannet	-9403
▁Solanum	-9404
▁Unanenn	-9405
▁Wilfred	-9406
▁amzerzh	-9407
▁arouest	-9408
▁dehaezh	-9409
▁diaraok	-9410
▁dornell	-9411
▁franceg	-9412
▁gouzhañ	-9413
▁karrier	-9414
▁kenderc	-9415
▁labarañ	-9416
▁orinioù	-9417
▁skapizh	-9418
▁skrapis	-9419
Gottingen	-9420
hoariadur	-9421
lennadenn	-9422
▁16244700	-9423
▁2006.12.	-9424
▁87000823	-9425
▁Belgrade	-9426
▁Business	-9427
▁Carnival	-9428
▁Dunwoody	-9429
▁González	-9430
▁Guarania	-9431
▁Jacobean	-9432
▁Meurvrer	-9433
▁Pallotta	-9434
▁Pecorino	-9435
▁Reizhiad	-9436
▁Senanant	-9437
▁Shuvalan	-9438
▁Sportioù	-9439
▁Tukmanov	-9440
▁Vorwarts	-9441
▁arverenn	-9442
▁arzouezh	-9443
▁dimezhet	-9444
▁dizoleiñ	-9445
▁dornlevr	-9446
▁frantseg	-9447
▁garnison	-9448
▁implijet	-9449
▁reizhioù	-9450
▁syseller	-9451
amerikanek	-9452
amerikanen	-9453
hoarvezhet	-9454
▁76798317.	-9455
▁Akamaniad	-9456
▁Aldershot	-9457
▁Ballistic	-9458
▁Bentegodi	-9459
▁Marterezh	-9460
▁Progannig	-9461
▁Zestafoni	-9462
▁argantina	-9463
▁etrewelet	-9464
▁parzhadoù	-9465
▁treuzfurm	-9466
▁01-01-1913	-9467
▁0269-9370.	-9468
▁1588-2632.	-9469
▁1732-2421.	-9470
▁2015-06-7.	-9471
▁Chicharron	-9472
▁Frangipane	-9473
▁Indiapolis	-9474
▁Iwerzhland	-9475
▁Ouzhpennañ	-9476
▁Recordings	-9477
▁arrabbiata	-9478
▁enrolladur	-9479
▁hollvroioù	-9480
▁kosmetikoù	-9481
▁nuderennoù	-9482
▁skritellig	-9483
▁skummennoù	-9484
hantennadenn	-9485
▁69862200.0.	-9486
▁diellourien	-9487
▁embannadenn	-9488
▁emgavourenn	-9489
▁erborzhadoù	-9490
▁maezhiadenn	-9491
▁strollennoù	-9492
▁29919600000.	-9493
▁7715100000.0	-9494
▁Gwerinlandeg	-9495
▁Istanbulspor	-9496
8-1-4165-4253-7	-9497
▁0-374-26131-8.	-9498
▁Palebiologiezh	-9499
8-0-15-204770-2.	-9500
▁124950000000.0.	-9501
4"	-9502
75	-9503
Ed	-9504
ID	-9505
Na	-9506
ea	-9507
kl	-9508
ko	-9509
wn	-9510
öd	-9511
▁i	-9512
-1,	-9513
0.9	-9514
31.	-9515
6,5	-9516
709	-9517
833	-9518
92,	-9519
ACY	-9520
ASK	-9521
Azi	-9522
Bar	-9523
GMA	-9524
Kêr	-9525
LCN	-9526
Uzh	-9527
asa	-9528
com	-9529
duo	-9530
eno	-9531
etr	-9532
gne	-9533
goù	-9534
ius	-9535
ows	-9536
pal	-9537
rat	-9538
rim	-9539
señ	-9540
tis	-9541
ukt	-9542
wir	-9543
zet	-9544
ött	-9545
▁-7	-9546
▁92	-9547
▁BS	-9548
▁Ez	-9549
▁Ge	-9550
▁Pé	-9551
-529	-9552
/26.	-9553
188.	-9554
2445	-9555
29,9	-9556
4.0.	-9557
6.65	-9558
7.14	-9559
7531	-9560
8,65	-9561
92.6	-9562
Kamp	-9563
Kant	-9564
Naft	-9565
Page	-9566
Urug	-9567
aish	-9568
anañ	-9569
aneg	-9570
burn	-9571
edeg	-9572
ejal	-9573
elli	-9574
ensk	-9575
gozh	-9576
hach	-9577
hini	-9578
hirr	-9579
icio	-9580
icip	-9581
inet	-9582
itch	-9583
iyah	-9584
kann	-9585
kost	-9586
line	-9587
mert	-9588
ojal	-9589
rikh	-9590
roli	-9591
stad	-9592
tour	-9593
uber	-9594
▁07.	-9595
▁155	-9596
▁166	-9597
▁189	-9598
▁233	-9599
▁248	-9600
▁3,5	-9601
▁39-	-9602
▁4,0	-9603
▁609	-9604
▁678	-9605
▁Aki	-9606
▁Arv	-9607
▁Asa	-9608
▁Ayr	-9609
▁Baj	-9610
▁Bun	-9611
▁Gun	-9612
▁Hab	-9613
▁Hol	-9614
▁Kin	-9615
▁Kou	-9616
▁Lañ	-9617
▁Möd	-9618
▁Pot	-9619
▁Run	-9620
▁Saz	-9621
▁Suñ	-9622
▁USF	-9623
▁Zor	-9624
▁ael	-9625
▁azi	-9626
▁edo	-9627
▁enk	-9628
▁ezh	-9629
▁fok	-9630
▁gre	-9631
▁her	-9632
▁jav	-9633
▁juc	-9634
▁klo	-9635
▁kur	-9636
▁kuz	-9637
▁sak	-9638
158-3	-9639
Kroaz	-9640
adoet	-9641
arioù	-9642
avson	-9643
brezh	-9644
chenn	-9645
ement	-9646
ervel	-9647
esque	-9648
ezeiñ	-9649
hantr	-9650
harez	-9651
heilh	-9652
helle	-9653
hizel	-9654
hoezh	-9655
hotoù	-9656
hourc	-9657
hubet	-9658
jamin	-9659
melin	-9660
oazet	-9661
odist	-9662
ompoc	-9663
oneer	-9664
ouioù	-9665
ratel	-9666
regad	-9667
riane	-9668
seurt	-9669
skrid	-9670
touzh	-9671
ugenn	-9672
uliañ	-9673
ulous	-9674
ultur	-9675
▁1472	-9676
▁164.	-9677
▁18.0	-9678
▁1872	-9679
▁1878	-9680
▁1908	-9681
▁1990	-9682
▁244.	-9683
▁682,	-9684
▁714.	-9685
▁817,	-9686
▁9312	-9687
▁9833	-9688
▁Amañ	-9689
▁Bann	-9690
▁Coca	-9691
▁Dila	-9692
▁Evel	-9693
▁Gori	-9694
▁Gust	-9695
▁Gött	-9696
▁KACY	-9697
▁Kell	-9698
▁Kend	-9699
▁Kuet	-9700
▁LASK	-9701
▁LLCN	-9702
▁Laan	-9703
▁Linz	-9704
▁Maur	-9705
▁René	-9706
▁Runc	-9707
▁Serv	-9708
▁Vica	-9709
▁Vigo	-9710
▁Wild	-9711
▁erru	-9712
▁flap	-9713
▁hand	-9714
▁heil	-9715
▁kuap	-9716
▁moul	-9717
▁psik	-9718
▁term	-9719
0-04-2	-9720
36-529	-9721
837.14	-9722
887531	-9723
Mexiko	-9724
barned	-9725
estina	-9726
galows	-9727
hemmer	-9728
hwezer	-9729
icelli	-9730
icipal	-9731
kelloù	-9732
okport	-9733
oudenn	-9734
remier	-9735
saouen	-9736
veziad	-9737
▁10/03	-9738
▁10264	-9739
▁13/31	-9740
▁178,0	-9741
▁1901.	-9742
▁1904.	-9743
▁1907.	-9744
▁1909.	-9745
▁1911.	-9746
▁1929.	-9747
▁1963,	-9748
▁1981,	-9749
▁1985.	-9750
▁1988,	-9751
▁2368.	-9752
▁286,5	-9753
▁346,0	-9754
▁3990.	-9755
▁429,9	-9756
▁490.9	-9757
▁66063	-9758
▁992.6	-9759
▁Alenn	-9760
▁Anzhi	-9761
▁Armen	-9762
▁Arzel	-9763
▁Atiku	-9764
▁Basim	-9765
▁Boulo	-9766
▁Brown	-9767
▁Cantu	-9768
▁Dilts	-9769
▁Eucel	-9770
▁Feder	-9771
▁Fight	-9772
▁Gizel	-9773
▁Inukt	-9774
▁Iroli	-9775
▁Macri	-9776
▁Major	-9777
▁Maria	-9778
▁Mitch	-9779
▁Pérez	-9780
▁Qasim	-9781
▁Rover	-9782
▁Stred	-9783
▁Suvni	-9784
▁Suwal	-9785
▁Wells	-9786
▁Zamba	-9787
▁abaoe	-9788
▁banjo	-9789
▁daver	-9790
▁deget	-9791
▁foude	-9792
▁gouad	-9793
▁graiñ	-9794
▁liter	-9795
▁lodoù	-9796
▁medal	-9797
▁muiañ	-9798
▁prezh	-9799
▁prizo	-9800
▁soner	-9801
▁soued	-9802
▁sport	-9803
▁treñs	-9804
Amerika	-9805
adelezh	-9806
antetam	-9807
baniyah	-9808
barzhañ	-9809
erezhoù	-9810
hablenn	-9811
hannvro	-9812
hastral	-9813
hoarvet	-9814
kempenn	-9815
koustik	-9816
voudenn	-9817
▁3.3528	-9818
▁368,65	-9819
▁44114.	-9820
▁518.0.	-9821
▁597.0.	-9822
▁Campia	-9823
▁Carrie	-9824
▁Curtis	-9825
▁Deskiñ	-9826
▁Diuzet	-9827
▁Eisner	-9828
▁Kranet	-9829
▁Lompoc	-9830
▁Naoudi	-9831
▁Paraná	-9832
▁Persea	-9833
▁Polenk	-9834
▁Ramsey	-9835
▁Romani	-9836
▁Runway	-9837
▁Samuel	-9838
▁Scharf	-9839
▁Sereno	-9840
▁Unanal	-9841
▁Unione	-9842
▁almond	-9843
▁alvezh	-9844
▁aroued	-9845
▁broude	-9846
▁daspar	-9847
▁dañser	-9848
▁diskoc	-9849
▁dispac	-9850
▁eheilh	-9851
▁etraet	-9852
▁ezhomm	-9853
▁frouet	-9854
▁fulton	-9855
▁gallet	-9856
▁gallon	-9857
▁ganeus	-9858
▁heñval	-9859
▁krevet	-9860
▁lenner	-9861
▁muizal	-9862
▁oablet	-9863
▁ompenn	-9864
▁rummad	-9865
▁servet	-9866
▁siomay	-9867
▁touezh	-9868
Fountain	-9869
atourien	-9870
botrouil	-9871
hankadoù	-9872
iplinenn	-9873
kennaset	-9874
lugennad	-9875
strollad	-9876
strollet	-9877
▁1533.0.	-9878
▁1969-09	-9879
▁2009-04	-9880
▁3202445	-9881
▁Andreea	-9882
▁Arriane	-9883
▁Estádio	-9884
▁Geering	-9885
▁Heuliañ	-9886
▁Kendall	-9887
▁Lammert	-9888
▁Lourdes	-9889
▁Madridi	-9890
▁Medienn	-9891
▁Metador	-9892
▁Mezhenn	-9893
▁Milonga	-9894
▁Mödling	-9895
▁Norbert	-9896
▁Olympia	-9897
▁Potenza	-9898
▁Reamant	-9899
▁Runcorn	-9900
▁Senadoù	-9901
▁Service	-9902
▁Shitake	-9903
▁Turkiañ	-9904
▁Zoratto	-9905
▁elvezoù	-9906
▁endalzh	-9907
▁goudeoc	-9908
▁italiek	-9909
▁jamaika	-9910
▁nudezoù	-9911
▁pedadoù	-9912
▁peogwir	-9913
▁perensk	-9914
▁pladenn	-9915
▁prenner	-9916
asparzhet	-9917
hampionad	-9918
harpenniñ	-9919
▁140000.0	-9920
▁3078.48.	-9921
▁45644811	-9922
▁80002709	-9923
▁Agendant	-9924
▁Boulogne	-9925
▁Braziled	-9926
▁Commelin	-9927
▁Eberhard	-9928
▁Eldelezh	-9929
▁Galactik	-9930
▁Hizpital	-9931
▁Kolombus	-9932
▁Laurales	-9933
▁Mauricio	-9934
▁Mitchell	-9935
▁Perzhenn	-9936
▁Populous	-9937
▁Rannvoud	-9938
▁Springer	-9939
▁Unioniad	-9940
▁armezenn	-9941
▁bezhienn	-9942
▁eheilhet	-9943
▁elektrik	-9944
▁elverezh	-9945
▁fortress	-9946
▁gunerezh	-9947
▁ioblanco	-9948
▁kuapadur	-9949
▁maezhiad	-9950
▁oberzhoù	-9951
▁peparioù	-9952
▁sportioù	-9953
▁sterling	-9954
▁stourmer	-9955
▁toupinoù	-9956
▁treuzell	-9957
▁ziskouez	-9958
▁0965-2140	-9959
▁1473-5571	-9960
▁16244700.	-9961
▁1980-04-2	-9962
▁51969173.	-9963
▁605718000	-9964
▁Arapiraca	-9965
▁Blackburn	-9966
▁Bungalows	-9967
▁Colombian	-9968
▁Debrevrer	-9969
▁Dispennet	-9970
▁Gustavson	-9971
▁Göttingen	-9972
▁Inuktitut	-9973
▁Municipal	-9974
▁Rannvadoù	-9975
▁Triestina	-9976
▁diwezhiad	-9977
▁gresianeg	-9978
▁gweladenn	-9979
▁implijout	-9980
▁mekanikoù	-9981
▁mentorenn	-9982
▁pennerioù	-9983
▁pladennoù	-9984
▁stouadenn	-9985
00000000003	-9986
▁0001-8392.	-9987
▁1046-8188.	-9988
▁16244700.0	-9989
▁1933-10-17	-9990
▁69862200.0	-9991
▁7715100000	-9992
▁9833516.63	-9993
▁Aozadunezh	-9994
▁Habbaniyah	-9995
▁Hornchurch	-9996
▁Romanesque	-9997
▁Rouadelezh	-9998
▁Strolladoù	-9999
▁degouezhet	-10000
▁dehaezadur	-10001
▁gouskapsis	-10002
▁hanteroueg	-10003
▁milimetrez	-10004
▁08-16-1920,	-10005
▁183309000.0	-10006
▁1930-01-20.	-10007
▁1936-05-21.	-10008
▁Argentinien	-10009
▁Zamboangien	-10010
▁gannvannvro	-10011
▁istoriennoù	-10012
▁139705000.0.	-10013
▁142603000.0.	-10014
▁179942000.0,	-10015
▁goullonderiñ	-10016
hastropolitenn	-10017
▁0-439-17684-0	-10018
▁levraouourien	-10019
▁1516.670000003	-10020
▁283326000000.0	-10021
▁Sildevanahalli	-10022
35	-10023
Ab	-10024
Ad	-10025
DL	-10026
Ir	-10027
TH	-10028
co	-10029
hc	-10030
hv	-10031
ti	-10032
-27	-10033
-47	-10034
/04	-10035
06.	-10036
110	-10037
71.	-10038
76.	-10039
Alc	-10040
Cun	-10041
Dem	-10042
Eng	-10043
Jor	-10044
New	-10045
Soc	-10046
Tec	-10047
Tud	-10048
ady	-10049
aos	-10050
bac	-10051
blo	-10052
dol	-10053
edt	-10054
eer	-10055
erk	-10056
esa	-10057
hab	-10058
hev	-10059
iez	-10060
iga	-10061
ijj	-10062
isi	-10063
ksw	-10064
leh	-10065
lub	-10066
mit	-10067
nde	-10068
ova	-10069
oñv	-10070
tou	-10071
urt	-10072
wel	-10073
zol	-10074
şap	-10075
▁56	-10076
▁67	-10077
▁Do	-10078
▁Ia	-10079
▁bo	-10080
▁ri	-10081
,200	-10082
-03.	-10083
-04.	-10084
/21.	-10085
4,33	-10086
5.42	-10087
8.65	-10088
80.7	-10089
92,6	-10090
Cune	-10091
Kont	-10092
Nair	-10093
Sham	-10094
Vern	-10095
abor	-10096
agam	-10097
agen	-10098
ahan	-10099
ajez	-10100
ajib	-10101
akon	-10102
astr	-10103
azak	-10104
coff	-10105
deen	-10106
eden	-10107
enre	-10108
ezed	-10109
grom	-10110
halt	-10111
hink	-10112
hinx	-10113
ijan	-10114
imir	-10115
marn	-10116
mere	-10117
neuz	-10118
olan	-10119
poli	-10120
rioù	-10121
serv	-10122
seun	-10123
stom	-10124
tenn	-10125
uila	-10126
uolo	-10127
wall	-10128
▁112	-10129
▁2,7	-10130
▁3.5	-10131
▁438	-10132
▁5,3	-10133
▁541	-10134
▁64,	-10135
▁7,5	-10136
▁882	-10137
▁Aid	-10138
▁Aso	-10139
▁Asp	-10140
▁Duc	-10141
▁Eze	-10142
▁Lic	-10143
▁Mao	-10144
▁Nak	-10145
▁Nug	-10146
▁PDL	-10147
▁SSD	-10148
▁Tal	-10149
▁Vol	-10150
▁blo	-10151
▁bud	-10152
▁dac	-10153
▁diz	-10154
▁ebr	-10155
▁eog	-10156
▁eze	-10157
▁hez	-10158
▁kel	-10159
▁lez	-10160
▁min	-10161
▁mis	-10162
▁pur	-10163
▁red	-10164
▁sañ	-10165
▁ten	-10166
▁vac	-10167
Assoc	-10168
Azant	-10169
Boued	-10170
Bruiz	-10171
Esaou	-10172
Manus	-10173
Semin	-10174
South	-10175
Sraoz	-10176
Tudor	-10177
abian	-10178
adori	-10179
aleon	-10180
anked	-10181
atory	-10182
avier	-10183
bajed	-10184
bient	-10185
deret	-10186
dings	-10187
ellañ	-10188
enect	-10189
erais	-10190
gavet	-10191
hambl	-10192
hello	-10193
hinoù	-10194
hizet	-10195
hobel	-10196
honor	-10197
ienna	-10198
ilhon	-10199
ineed	-10200
kromm	-10201
mania	-10202
nabad	-10203
odenn	-10204
orgos	-10205
oster	-10206
stedt	-10207
vogel	-10208
şaptă	-10209
▁$800	-10210
▁167.	-10211
▁1852	-10212
▁1914	-10213
▁1941	-10214
▁23.0	-10215
▁2744	-10216
▁404.	-10217
▁657.	-10218
▁770,	-10219
▁8.0.	-10220
▁806.	-10221
▁8514	-10222
▁972.	-10223
▁Aarm	-10224
▁Aber	-10225
▁Akar	-10226
▁Aned	-10227
▁Azoù	-10228
▁Bush	-10229
▁Emañ	-10230
▁Fire	-10231
▁Gerd	-10232
▁Golo	-10233
▁Hill	-10234
▁Khad	-10235
▁Klav	-10236
▁Kota	-10237
▁Laka	-10238
▁Marg	-10239
▁Oleh	-10240
▁Poul	-10241
▁Rene	-10242
▁Rund	-10243
▁Sess	-10244
▁Tart	-10245
▁Ther	-10246
▁Vail	-10247
▁Vijj	-10248
▁Vizh	-10249
▁afel	-10250
▁arro	-10251
▁azeh	-10252
▁club	-10253
▁dañv	-10254
▁fobl	-10255
▁frou	-10256
▁galv	-10257
▁inez	-10258
▁karr	-10259
▁koet	-10260
▁muzo	-10261
▁teks	-10262
Edelez	-10263
Irland	-10264
Shamal	-10265
Sozial	-10266
agamie	-10267
akonoù	-10268
amergh	-10269
aminis	-10270
barnet	-10271
belloù	-10272
bennad	-10273
eriezh	-10274
golenn	-10275
hanout	-10276
herioù	-10277
hionne	-10278
hêriad	-10279
ineriñ	-10280
ireann	-10281
ishers	-10282
lantan	-10283
millan	-10284
morenn	-10285
nesota	-10286
ologel	-10287
ondiss	-10288
señvañ	-10289
stered	-10290
▁1,905	-10291
▁1.905	-10292
▁13017	-10293
▁160;:	-10294
▁1820.	-10295
▁1856.	-10296
▁1920.	-10297
▁1928,	-10298
▁1936.	-10299
▁1957,	-10300
▁1976,	-10301
▁1987,	-10302
▁1998.	-10303
▁2003.	-10304
▁3800.	-10305
▁535.0	-10306
▁610.0	-10307
▁74,33	-10308
▁875.4	-10309
▁992,6	-10310
▁AMAHE	-10311
▁Armez	-10312
▁Azeiz	-10313
▁Bened	-10314
▁Bible	-10315
▁Byron	-10316
▁Civil	-10317
▁Clerk	-10318
▁Colón	-10319
▁Drake	-10320
▁Kolez	-10321
▁Lâret	-10322
▁Metro	-10323
▁Minas	-10324
▁Mizal	-10325
▁Najib	-10326
▁Paper	-10327
▁Parti	-10328
▁Putin	-10329
▁Razak	-10330
▁Round	-10331
▁Skoti	-10332
▁Traoù	-10333
▁Treuz	-10334
▁Turek	-10335
▁Weber	-10336
▁betet	-10337
▁deomp	-10338
▁edoet	-10339
▁elzel	-10340
▁endro	-10341
▁fojal	-10342
▁fokel	-10343
▁fokus	-10344
▁ganti	-10345
▁gourm	-10346
▁graoñ	-10347
▁greiz	-10348
▁hoari	-10349
▁kanto	-10350
▁koriz	-10351
▁kuzet	-10352
▁mento	-10353
▁zilad	-10354
000000,	-10355
Asociac	-10356
Barisan	-10357
anvezet	-10358
goulloù	-10359
hirvred	-10360
hoblizh	-10361
kannvro	-10362
koulenn	-10363
kswagen	-10364
remanel	-10365
rourien	-10366
seurezh	-10367
▁08/26.	-10368
▁1580.7	-10369
▁18.52.	-10370
▁2777.0	-10371
▁324,72	-10372
▁368.65	-10373
▁64,008	-10374
▁ATISET	-10375
▁Aguila	-10376
▁Akiito	-10377
▁Arverv	-10378
▁Azezet	-10379
▁Banner	-10380
▁Barrow	-10381
▁Basket	-10382
▁Britek	-10383
▁Chapel	-10384
▁Dimmit	-10385
▁DuPage	-10386
▁Ducati	-10387
▁Echuet	-10388
▁Elveal	-10389
▁Empoli	-10390
▁Espagn	-10391
▁Gerais	-10392
▁Heñvel	-10393
▁Kolezh	-10394
▁LaVern	-10395
▁Licata	-10396
▁Luzhny	-10397
▁McCune	-10398
▁McNair	-10399
▁Meuber	-10400
▁Moulañ	-10401
▁Observ	-10402
▁Shinzo	-10403
▁Soviet	-10404
▁Spañol	-10405
▁Sphinx	-10406
▁Teague	-10407
▁Tories	-10408
▁Vienna	-10409
▁arloaz	-10410
▁asapis	-10411
▁efedus	-10412
▁heulet	-10413
▁iwerzh	-10414
▁izelañ	-10415
▁kanañv	-10416
▁kreset	-10417
▁mentoù	-10418
▁plijer	-10419
▁polenk	-10420
▁salioù	-10421
▁sarnie	-10422
▁tennet	-10423
▁vevaet	-10424
▁zilant	-10425
Alcatraz	-10426
enectady	-10427
hachkala	-10428
hemennoù	-10429
hidiadoù	-10430
nijadenn	-10431
vazledel	-10432
▁1932-07	-10433
▁2013-11	-10434
▁211,200	-10435
▁2368.05	-10436
▁2702.0.	-10437
▁3360.12	-10438
▁488160.	-10439
▁Aethenn	-10440
▁Alvarez	-10441
▁Ambient	-10442
▁Asphalt	-10443
▁Clayton	-10444
▁Daniele	-10445
▁Deşaptă	-10446
▁Etiophi	-10447
▁Giorgos	-10448
▁Jahisto	-10449
▁Kaminis	-10450
▁Khadija	-10451
▁Malayez	-10452
▁Matemat	-10453
▁McManus	-10454
▁Moldave	-10455
▁Moldova	-10456
▁Moskoul	-10457
▁Nugenre	-10458
▁Premier	-10459
▁Prenner	-10460
▁Ribcoff	-10461
▁Romania	-10462
▁Seminer	-10463
▁Suwalki	-10464
▁Theresa	-10465
▁aozhiañ	-10466
▁arderet	-10467
▁azezeiñ	-10468
▁blouioù	-10469
▁brouilh	-10470
▁dachenn	-10471
▁debriet	-10472
▁ebraret	-10473
▁flapaet	-10474
▁flotzel	-10475
▁gourien	-10476
▁handelv	-10477
▁masklad	-10478
▁plantan	-10479
▁primera	-10480
▁stredel	-10481
▁trevenn	-10482
▁vroadoù	-10483
00000000.	-10484
apindales	-10485
hwitadenn	-10486
injineriñ	-10487
kempennañ	-10488
patakonoù	-10489
▁140000,0	-10490
▁31887531	-10491
▁46451790	-10492
▁488160.0	-10493
▁57059226	-10494
▁77294300	-10495
▁8805735.	-10496
▁Aberdeen	-10497
▁Bavariad	-10498
▁Bavariek	-10499
▁Carolina	-10500
▁Cornwall	-10501
▁Demokani	-10502
▁Esaouenn	-10503
▁Holdings	-10504
▁Koulevet	-10505
▁Nakadori	-10506
▁Portland	-10507
▁Roumanek	-10508
▁Sessions	-10509
▁Stalvoud	-10510
▁Startilh	-10511
▁Tennekel	-10512
▁Tranmere	-10513
▁Unanvisi	-10514
▁Valencia	-10515
▁Vijjinia	-10516
▁Vladimir	-10517
▁aolennel	-10518
▁aotroued	-10519
▁aotrouiñ	-10520
▁arveriad	-10521
▁azezezet	-10522
▁deretioù	-10523
▁federale	-10524
▁georjian	-10525
▁kennadoù	-10526
▁labarier	-10527
▁pennadoù	-10528
▁pilañval	-10529
▁servijoù	-10530
▁strollin	-10531
harzhadenn	-10532
▁1857-03-0	-10533
▁1920-08-1	-10534
▁380700000	-10535
▁45644811.	-10536
▁78771100.	-10537
▁90640840.	-10538
▁Acrington	-10539
▁Andersson	-10540
▁Arrondiss	-10541
▁Geraisand	-10542
▁Gravesham	-10543
▁Macmillan	-10544
▁Margrethe	-10545
▁Mentecorp	-10546
▁Minnesota	-10547
▁Pantaleon	-10548
▁Paperback	-10549
▁Presidant	-10550
▁Rundstedt	-10551
▁Samarahan	-10552
▁Skrivener	-10553
▁Spagnuolo	-10554
▁Warnemnde	-10555
▁arouestad	-10556
▁cheñchiañ	-10557
▁devezhioù	-10558
▁fuzfuziañ	-10559
▁gallonezh	-10560
▁gwezhatoc	-10561
▁italiened	-10562
▁pennanant	-10563
▁pleustriñ	-10564
Association	-10565
hantimetroù	-10566
parzhiadenn	-10567
▁1080-6377.	-10568
▁1473-5571.	-10569
▁1558-2868.	-10570
▁211200000.	-10571
▁8514837.14	-10572
▁Alaskadaet	-10573
▁Aostroudez	-10574
▁Kellamergh	-10575
▁Marchionne	-10576
▁Publishers	-10577
▁Rannvregad	-10578
▁Volkswagen	-10579
▁dibarzhioù	-10580
▁elektrikel	-10581
▁goustaskiz	-10582
▁mizhantenn	-10583
▁republikan	-10584
▁skorizhiad	-10585
▁strolladig	-10586
houlennadenn	-10587
▁139705000.0	-10588
▁1969-09-01.	-10589
▁Makhachkala	-10590
▁Observatory	-10591
▁Schenectady	-10592
▁Turkmenabat	-10593
▁183309000.0,	-10594
▁7729430000.0	-10595
▁Vizvesvaraya	-10596
▁diskiplinenn	-10597
▁poulennadenn	-10598
▁3997100000000	-10599
▁41498400000.0	-10600
▁279142000000.0	-10601
▁377016000000.0	-10602
▁Arrondissement	-10603
▁Treuzhiadurioù	-10604
▁edukatourerezh	-10605
▁elektrokoustik	-10606
▁3997100000000.0	-10607
81	-10608
BL	-10609
Br	-10610
LG	-10611
Pa	-10612
Ua	-10613
ao	-10614
hb	-10615
sy	-10616
uñ	-10617
şê	-10618
▁×	-10619
,65	-10620
075	-10621
237	-10622
28.	-10623
3,9	-10624
4,5	-10625
43.	-10626
434	-10627
5-8	-10628
504	-10629
65.	-10630
711	-10631
8,8	-10632
ACM	-10633
All	-10634
Alp	-10635
Bak	-10636
Bas	-10637
RBL	-10638
Tel	-10639
aly	-10640
bol	-10641
cel	-10642
chè	-10643
eut	-10644
feo	-10645
gam	-10646
gañ	-10647
hif	-10648
ict	-10649
lav	-10650
loc	-10651
neb	-10652
nel	-10653
nip	-10654
obi	-10655
pol	-10656
rar	-10657
rod	-10658
ruc	-10659
ryn	-10660
skl	-10661
uai	-10662
ult	-10663
zio	-10664
zod	-10665
zor	-10666
▁Ko	-10667
▁MS	-10668
▁NY	-10669
▁Os	-10670
▁tu	-10671
,000	-10672
-11.	-10673
-198	-10674
-339	-10675
/192	-10676
/199	-10677
/33.	-10678
05.0	-10679
2200	-10680
39.3	-10681
42,3	-10682
6110	-10683
7.16	-10684
9304	-10685
Ayam	-10686
Baku	-10687
Bata	-10688
Brux	-10689
Goll	-10690
ISSN	-10691
King	-10692
Linn	-10693
Neil	-10694
OCLC	-10695
Vazh	-10696
adao	-10697
ailh	-10698
amon	-10699
amsk	-10700
anst	-10701
auck	-10702
comf	-10703
ctor	-10704
deiz	-10705
eleg	-10706
elly	-10707
epok	-10708
estr	-10709
ffin	-10710
gard	-10711
heer	-10712
hlaz	-10713
hlom	-10714
hoet	-10715
hond	-10716
hool	-10717
hreg	-10718
hwef	-10719
iche	-10720
iser	-10721
kont	-10722
ming	-10723
onad	-10724
opod	-10725
ower	-10726
ozer	-10727
ozoù	-10728
plec	-10729
porz	-10730
quir	-10731
roux	-10732
ucky	-10733
unks	-10734
urzh	-10735
vier	-10736
ñvet	-10737
▁-7,	-10738
▁121	-10739
▁15.	-10740
▁21.	-10741
▁216	-10742
▁234	-10743
▁309	-10744
▁322	-10745
▁345	-10746
▁368	-10747
▁469	-10748
▁5.4	-10749
▁63.	-10750
▁672	-10751
▁734	-10752
▁ADO	-10753
▁AKA	-10754
▁AmC	-10755
▁Aut	-10756
▁CFC	-10757
▁Cri	-10758
▁FLG	-10759
▁Hav	-10760
▁Iro	-10761
▁Jac	-10762
▁Lij	-10763
▁Sos	-10764
▁Sov	-10765
▁Vil	-10766
▁Win	-10767
▁dan	-10768
▁dok	-10769
▁dêr	-10770
▁ero	-10771
▁euc	-10772
▁neb	-10773
▁ouc	-10774
▁par	-10775
▁poc	-10776
▁skr	-10777
▁urz	-10778
▁viz	-10779
▁zem	-10780
-11-1	-10781
-9327	-10782
AMAHE	-10783
Azerb	-10784
Broze	-10785
Duchè	-10786
Porzh	-10787
Techn	-10788
achim	-10789
aijan	-10790
alist	-10791
amaik	-10792
anezh	-10793
aniad	-10794
ankad	-10795
annañ	-10796
aoued	-10797
arkey	-10798
ashed	-10799
aziañ	-10800
brose	-10801
chere	-10802
doare	-10803
haboù	-10804
haotr	-10805
hifal	-10806
hlamb	-10807
hontr	-10808
houer	-10809
ience	-10810
iezoù	-10811
ifenn	-10812
ionov	-10813
itaat	-10814
itoit	-10815
izant	-10816
maezh	-10817
nodiñ	-10818
opher	-10819
orest	-10820
ourer	-10821
ravit	-10822
relly	-10823
sealy	-10824
souad	-10825
soude	-10826
toniñ	-10827
udies	-10828
urenn	-10829
wecho	-10830
şêkar	-10831
▁000,	-10832
▁0252	-10833
▁108.	-10834
▁140,	-10835
▁168"	-10836
▁1773	-10837
▁1905	-10838
▁1982	-10839
▁24.0	-10840
▁24.4	-10841
▁25.2	-10842
▁2777	-10843
▁34.0	-10844
▁3711	-10845
▁404,	-10846
▁600.	-10847
▁609.	-10848
▁765.	-10849
▁9504	-10850
▁Aman	-10851
▁Ando	-10852
▁Blus	-10853
▁Bozo	-10854
▁Bryn	-10855
▁CRBL	-10856
▁Dean	-10857
▁Dnip	-10858
▁Ever	-10859
▁Evez	-10860
▁Feun	-10861
▁Finn	-10862
▁Flet	-10863
▁Gous	-10864
▁Gron	-10865
▁Haag	-10866
▁Kate	-10867
▁Kill	-10868
▁Lane	-10869
▁Link	-10870
▁Löke	-10871
▁Madr	-10872
▁Owen	-10873
▁Sami	-10874
▁Sana	-10875
▁Sazi	-10876
▁Skoz	-10877
▁Summ	-10878
▁Tarō	-10879
▁Wink	-10880
▁Zwan	-10881
▁avel	-10882
▁damm	-10883
▁fric	-10884
▁gann	-10885
▁gred	-10886
▁grim	-10887
▁kaet	-10888
▁karz	-10889
▁loaz	-10890
▁loup	-10891
▁orod	-10892
▁pian	-10893
▁ront	-10894
▁ruzh	-10895
▁skop	-10896
▁skum	-10897
▁spaz	-10898
▁teou	-10899
▁voet	-10900
-47-11	-10901
/04/19	-10902
Alpena	-10903
Arzhoù	-10904
Kampus	-10905
Poland	-10906
Spanel	-10907
aouezh	-10908
berter	-10909
bremañ	-10910
follin	-10911
gostez	-10912
hadenn	-10913
haraok	-10914
hastun	-10915
hoezet	-10916
hortoz	-10917
hreger	-10918
ingian	-10919
iverse	-10920
levier	-10921
nebago	-10922
oullañ	-10923
romenn	-10924
sporañ	-10925
teknel	-10926
vallec	-10927
▁-71.0	-10928
▁1.524	-10929
▁10237	-10930
▁16,76	-10931
▁178.0	-10932
▁18.52	-10933
▁1904,	-10934
▁1905.	-10935
▁1910.	-10936
▁1923,	-10937
▁1950.	-10938
▁1980.	-10939
▁29075	-10940
▁37.16	-10941
▁37497	-10942
▁497,0	-10943
▁50000	-10944
▁755.3	-10945
▁973.0	-10946
▁Adenn	-10947
▁Alton	-10948
▁Angol	-10949
▁Anwar	-10950
▁Anzio	-10951
▁Ardol	-10952
▁Aroue	-10953
▁Arter	-10954
▁Chuck	-10955
▁Damon	-10956
▁Dance	-10957
▁Democ	-10958
▁Dhala	-10959
▁First	-10960
▁Gabor	-10961
▁Gauck	-10962
▁Glend	-10963
▁Josef	-10964
▁Klubu	-10965
▁Laoun	-10966
▁Orfeo	-10967
▁Palez	-10968
▁Perez	-10969
▁Pevar	-10970
▁Rican	-10971
▁Savet	-10972
▁Skrid	-10973
▁Stars	-10974
▁Suwec	-10975
▁Tadao	-10976
▁Temer	-10977
▁Tiger	-10978
▁Wärts	-10979
▁abrel	-10980
▁arzho	-10981
▁barzh	-10982
▁bevañ	-10983
▁bloav	-10984
▁broed	-10985
▁brunz	-10986
▁darzh	-10987
▁derez	-10988
▁deser	-10989
▁dimez	-10990
▁droiñ	-10991
▁elend	-10992
▁ergra	-10993
▁gouel	-10994
▁gwizh	-10995
▁jouel	-10996
▁linon	-10997
▁nudez	-10998
▁solan	-10999
▁tenes	-11000
▁tomat	-11001
▁traoñ	-11002
▁treud	-11003
0000.0.	-11004
Afrikan	-11005
Astérix	-11006
Batailh	-11007
Batourm	-11008
Bellion	-11009
Duchere	-11010
Duchère	-11011
Urugada	-11012
bajedad	-11013
barzhet	-11014
comflot	-11015
dervoud	-11016
diction	-11017
etrovsk	-11018
gizhiad	-11019
gwerzoù	-11020
hantour	-11021
harnell	-11022
harzhoù	-11023
herwell	-11024
hiadenn	-11025
hlouilh	-11026
homplec	-11027
horfenn	-11028
horozer	-11029
kevezet	-11030
oneiche	-11031
parzier	-11032
quirari	-11033
smashed	-11034
smasket	-11035
souedun	-11036
vrolenn	-11037
▁11/29.	-11038
▁1142,3	-11039
▁1239.3	-11040
▁1299.0	-11041
▁146110	-11042
▁15.100	-11043
▁15/33.	-11044
▁184434	-11045
▁185.42	-11046
▁1865-8	-11047
▁192000	-11048
▁2158-3	-11049
▁2160.0	-11050
▁336265	-11051
▁600.0.	-11052
▁733.0.	-11053
▁880025	-11054
▁AAIDBI	-11055
▁Akarya	-11056
▁Aotrou	-11057
▁Archer	-11058
▁Arzhañ	-11059
▁Athenn	-11060
▁Baltez	-11061
▁Bronze	-11062
▁Criona	-11063
▁Eilhet	-11064
▁Farrar	-11065
▁Forest	-11066
▁Foster	-11067
▁Futbol	-11068
▁Giroux	-11069
▁Hardie	-11070
▁Inline	-11071
▁Jamali	-11072
▁Kizell	-11073
▁Klobad	-11074
▁Lakaat	-11075
▁Launks	-11076
▁Moldav	-11077
▁Pakora	-11078
▁School	-11079
▁Sekred	-11080
▁Sipilä	-11081
▁Statik	-11082
▁Straus	-11083
▁Wayans	-11084
▁Zaanst	-11085
▁Zaheer	-11086
▁arabek	-11087
▁bennak	-11088
▁cennet	-11089
▁deskar	-11090
▁doarez	-11091
▁ebetet	-11092
▁emgoul	-11093
▁erruiñ	-11094
▁fuzfus	-11095
▁goudeñ	-11096
▁goudoù	-11097
▁gravit	-11098
▁greizh	-11099
▁hengel	-11100
▁kennag	-11101
▁korneg	-11102
▁lakaon	-11103
▁lannañ	-11104
▁meiner	-11105
▁muffin	-11106
▁pennam	-11107
▁regenn	-11108
▁saozek	-11109
▁tommer	-11110
▁vervel	-11111
▁vignig	-11112
▁yaoueg	-11113
Squeezed	-11114
Weymouth	-11115
aouennoù	-11116
arnamant	-11117
azvredad	-11118
harzhiad	-11119
jazetenn	-11120
lakaoueg	-11121
paradier	-11122
skrannet	-11123
utagamie	-11124
▁13017,0	-11125
▁3500.0.	-11126
▁8805735	-11127
▁Ambrose	-11128
▁Anezhañ	-11129
▁Aroudoù	-11130
▁Asociac	-11131
▁Banaman	-11132
▁Brenner	-11133
▁Bryning	-11134
▁Country	-11135
▁Danamsk	-11136
▁Dniprop	-11137
▁Ebrevoc	-11138
▁Eldelez	-11139
▁Elistri	-11140
▁Everett	-11141
▁Foraned	-11142
▁Indezia	-11143
▁Joachim	-11144
▁Kanadek	-11145
▁Koaracy	-11146
▁Launiañ	-11147
▁Ottaman	-11148
▁Ottoman	-11149
▁Paleobi	-11150
▁Parzhel	-11151
▁Peşêkar	-11152
▁Science	-11153
▁Skrivañ	-11154
▁Stadiom	-11155
▁Studies	-11156
▁Tractor	-11157
▁Warming	-11158
▁Winkler	-11159
▁afriket	-11160
▁bezhder	-11161
▁dielloù	-11162
▁dilezel	-11163
▁fouzhañ	-11164
▁gouzout	-11165
▁gwarant	-11166
▁kevrenn	-11167
▁kevrezh	-11168
▁komzhet	-11169
▁latinek	-11170
▁mililoù	-11171
▁oablenn	-11172
▁olympik	-11173
▁pianist	-11174
▁plijout	-11175
▁pouding	-11176
▁preuzal	-11177
▁romaneg	-11178
▁skolenn	-11179
▁skriver	-11180
▁stredeg	-11181
▁sudajez	-11182
▁titaned	-11183
▁toullet	-11184
▁toupkoù	-11185
▁trobarz	-11186
▁zilhout	-11187
0002-9327	-11188
Alligator	-11189
Desteapta	-11190
Tekologel	-11191
arouezenn	-11192
hifalopod	-11193
hizhiadur	-11194
hoarzhioù	-11195
hondiment	-11196
odistrian	-11197
▁03/04/19	-11198
▁100305.0	-11199
▁69862200	-11200
▁93645978	-11201
▁Afrikaan	-11202
▁Alberter	-11203
▁Arouelez	-11204
▁Asteroid	-11205
▁Benedict	-11206
▁Borrelly	-11207
▁Dhalaigh	-11208
▁Fighting	-11209
▁Fletcher	-11210
▁Germania	-11211
▁Jacabian	-11212
▁Kennaset	-11213
▁Kinsealy	-11214
▁Mularkey	-11215
▁Paraguai	-11216
▁Peararad	-11217
▁Rodionov	-11218
▁Spagnoed	-11219
▁Stokport	-11220
▁Wärtsilä	-11221
▁arourien	-11222
▁diagonal	-11223
▁heverout	-11224
▁indonezi	-11225
▁italienn	-11226
▁kilorenn	-11227
▁labouriñ	-11228
▁maezienn	-11229
▁misionis	-11230
▁orodokel	-11231
▁sevelioù	-11232
▁spagnoed	-11233
▁strollet	-11234
▁trobarzh	-11235
Asociación	-11236
Azantaziañ	-11237
amatourien	-11238
enburgbaan	-11239
helleadenn	-11240
▁0567-7920	-11241
▁142603000	-11242
▁1923-11-1	-11243
▁Arzhitour	-11244
▁Balingian	-11245
▁Craftsman	-11246
▁Desteapta	-11247
▁Forrester	-11248
▁Glendower	-11249
▁Gravesend	-11250
▁Gronadier	-11251
▁Guniverse	-11252
▁Italianek	-11253
▁Kashubien	-11254
▁Koudennoù	-11255
▁Laouniezh	-11256
▁Matchstix	-11257
▁Stockport	-11258
▁Taquirari	-11259
▁Technolog	-11260
▁Winnebago	-11261
▁arouzhiañ	-11262
▁derouoret	-11263
▁dibarzhel	-11264
▁dreizhder	-11265
▁enkarzhet	-11266
▁ganaouenn	-11267
▁goustagad	-11268
▁gweriezoù	-11269
▁kennaskañ	-11270
▁mercennig	-11271
▁skrapisiñ	-11272
▁urzhiatañ	-11273
Azerbaidjan	-11274
▁0567-7920.	-11275
▁1360-0443.	-11276
▁1896-02-01	-11277
▁1907-47-11	-11278
▁Akademienn	-11279
▁Ardoerienn	-11280
▁Australian	-11281
▁Azerbaijan	-11282
▁Matchstick	-11283
▁Motherwell	-11284
▁Pantherioù	-11285
▁Schoneiche	-11286
▁Skrivadenn	-11287
▁Stouistenn	-11288
▁Zaanstreek	-11289
▁dasparzhañ	-11290
▁dasparzhet	-11291
▁diparzhiad	-11292
▁gwarantenn	-11293
▁niverennoù	-11294
▁silindrezh	-11295
▁skridennig	-11296
▁toulladenn	-11297
Kompagnunezh	-11298
▁01-01-1959.	-11299
▁1932-07-27.	-11300
▁1980-04-23.	-11301
▁2006-12-31.	-11302
▁Aktieselesk	-11303
▁Christopher	-11304
▁Gwezhiadenn	-11305
▁Politikerez	-11306
▁istoriennel	-11307
▁strolladilh	-11308
▁treuzhiadoù	-11309
▁"0-374-26131	-11310
▁135589000.0.	-11311
▁15100000000.	-11312
▁steudennadeg	-11313
▁0-439-17685-9	-11314
▁Dnipropetrovsk	-11315
▁Zwanenburgbaan	-11316
▁istoristroudez	-11317
▁kompagnunerezh	-11318
▁288749000000.0.	-11319
▁352497000000.0.	-11320
▁6155910000000.0	-11321
";	-11322
,2	-11323
32	-11324
AZ	-11325
Ak	-11326
MI	-11327
PN	-11328
Ro	-11329
US	-11330
VI	-11331
hp	-11332
nr	-11333
pé	-11334
ws	-11335
▁É	-11336
/18	-11337
0,7	-11338
1".	-11339
12,	-11340
163	-11341
188	-11342
300	-11343
53.	-11344
843	-11345
92"	-11346
97%	-11347
97.	-11348
AIP	-11349
Alv	-11350
Bra	-11351
Dan	-11352
Div	-11353
Mer	-11354
Pom	-11355
Tex	-11356
aak	-11357
ajw	-11358
dur	-11359
eds	-11360
emi	-11361
emp	-11362
eum	-11363
hiñ	-11364
hob	-11365
hod	-11366
kav	-11367
lef	-11368
nañ	-11369
sam	-11370
tem	-11371
vig	-11372
zoc	-11373
áil	-11374
▁72	-11375
▁CT	-11376
▁ID	-11377
▁Iv	-11378
▁Mu	-11379
▁Sb	-11380
▁TN	-11381
▁TS	-11382
▁Ti	-11383
▁XM	-11384
▁ZF	-11385
▁ab	-11386
▁la	-11387
▁mo	-11388
0068	-11389
1632	-11390
226.	-11391
784.	-11392
953.	-11393
Adam	-11394
Benn	-11395
Bour	-11396
Geor	-11397
Mark	-11398
PSTH	-11399
VIAG	-11400
aaki	-11401
adeh	-11402
alph	-11403
anad	-11404
ault	-11405
ayam	-11406
ayne	-11407
azad	-11408
bajo	-11409
beut	-11410
borz	-11411
bras	-11412
cara	-11413
cast	-11414
dard	-11415
dres	-11416
eine	-11417
elad	-11418
emel	-11419
epoc	-11420
fino	-11421
gwez	-11422
hale	-11423
hbaz	-11424
hews	-11425
hher	-11426
hurt	-11427
iago	-11428
izet	-11429
jant	-11430
jjia	-11431
kaet	-11432
kell	-11433
kred	-11434
lass	-11435
nard	-11436
obil	-11437
oned	-11438
otoù	-11439
ouli	-11440
ousi	-11441
quil	-11442
raio	-11443
rien	-11444
savr	-11445
sius	-11446
teil	-11447
teul	-11448
udoù	-11449
ugos	-11450
uire	-11451
vrez	-11452
xton	-11453
zero	-11454
▁"00	-11455
▁"03	-11456
▁01.	-11457
▁1,7	-11458
▁11,	-11459
▁140	-11460
▁179	-11461
▁298	-11462
▁714	-11463
▁8,3	-11464
▁8.0	-11465
▁96.	-11466
▁ABI	-11467
▁ASB	-11468
▁ATW	-11469
▁Amc	-11470
▁Asō	-11471
▁Azo	-11472
▁Bas	-11473
▁CEO	-11474
▁Che	-11475
▁Dos	-11476
▁EMI	-11477
▁Kel	-11478
▁Kho	-11479
▁Lit	-11480
▁Mug	-11481
▁Paj	-11482
▁Ped	-11483
▁Raf	-11484
▁SID	-11485
▁Sev	-11486
▁Soz	-11487
▁Vin	-11488
▁Wee	-11489
▁Wir	-11490
▁ark	-11491
▁arw	-11492
▁bod	-11493
▁cad	-11494
▁cod	-11495
▁div	-11496
▁dra	-11497
▁eiz	-11498
▁fon	-11499
▁grm	-11500
▁hel	-11501
▁pev	-11502
▁roz	-11503
▁rêr	-11504
▁skl	-11505
▁zêr	-11506
-1983	-11507
-5858	-11508
5.33.	-11509
843,8	-11510
Adams	-11511
Azhoù	-11512
Drake	-11513
Engle	-11514
Ereek	-11515
Jaish	-11516
Sozel	-11517
Texes	-11518
Uniez	-11519
Vivil	-11520
acchi	-11521
acone	-11522
anell	-11523
angas	-11524
anvel	-11525
aozet	-11526
aving	-11527
broet	-11528
dizel	-11529
dremm	-11530
echup	-11531
enkaz	-11532
ennis	-11533
enniñ	-11534
erien	-11535
etenn	-11536
gambl	-11537
haric	-11538
haroñ	-11539
hilet	-11540
hlizh	-11541
hogel	-11542
hoger	-11543
honse	-11544
horon	-11545
hotañ	-11546
hrenn	-11547
hwiel	-11548
iatañ	-11549
idjan	-11550
igniñ	-11551
illas	-11552
ipsis	-11553
itner	-11554
klask	-11555
merez	-11556
ockey	-11557
onald	-11558
ordan	-11559
ouder	-11560
oudoù	-11561
oupad	-11562
ragia	-11563
respi	-11564
roioù	-11565
sandw	-11566
sevet	-11567
stman	-11568
tanen	-11569
tresk	-11570
uster	-11571
zhozh	-11572
ñvrer	-11573
▁0025	-11574
▁0155	-11575
▁0999	-11576
▁1121	-11577
▁16/3	-11578
▁168)	-11579
▁1776	-11580
▁1891	-11581
▁195.	-11582
▁1972	-11583
▁1988	-11584
▁2012	-11585
▁240.	-11586
▁2900	-11587
▁3.99	-11588
▁3048	-11589
▁330.	-11590
▁334.	-11591
▁458.	-11592
▁5,75	-11593
▁52.0	-11594
▁6,81	-11595
▁62.0	-11596
▁657,	-11597
▁82.8	-11598
▁925.	-11599
▁Aerm	-11600
▁Anav	-11601
▁Anst	-11602
▁Arrô	-11603
▁Berr	-11604
▁Carl	-11605
▁Cutt	-11606
▁Disp	-11607
▁Dáil	-11608
▁Enge	-11609
▁Evit	-11610
▁Heñv	-11611
▁Hook	-11612
▁Iran	-11613
▁Kemp	-11614
▁Kupé	-11615
▁Laug	-11616
▁Nasa	-11617
▁Obre	-11618
▁Osin	-11619
▁Pref	-11620
▁Rajw	-11621
▁Ring	-11622
▁Romm	-11623
▁Skoc	-11624
▁Wang	-11625
▁Yemi	-11626
▁Yezh	-11627
▁afeg	-11628
▁alfa	-11629
▁anez	-11630
▁bolt	-11631
▁cerv	-11632
▁chef	-11633
▁clar	-11634
▁dino	-11635
▁dred	-11636
▁drou	-11637
▁ener	-11638
▁fizh	-11639
▁goul	-11640
▁gout	-11641
▁kelv	-11642
▁lous	-11643
▁prot	-11644
▁raul	-11645
▁sañs	-11646
▁tont	-11647
▁trom	-11648
▁turk	-11649
▁werc	-11650
Botzel	-11651
Indezh	-11652
Jorjie	-11653
Pomera	-11654
argant	-11655
banned	-11656
buniañ	-11657
burezh	-11658
celona	-11659
dindan	-11660
during	-11661
edouez	-11662
eleine	-11663
fennet	-11664
hammad	-11665
hanics	-11666
harnet	-11667
harzoù	-11668
hegerz	-11669
hevder	-11670
hweizh	-11671
hwitet	-11672
kredit	-11673
larnad	-11674
lefish	-11675
leunig	-11676
marvet	-11677
mennet	-11678
meriki	-11679
minist	-11680
ollenn	-11681
ostela	-11682
ostria	-11683
palmoù	-11684
rannad	-11685
raunet	-11686
rezioù	-11687
risten	-11688
▁05/05	-11689
▁07/25	-11690
▁09/27	-11691
▁1299,	-11692
▁140,8	-11693
▁16,54	-11694
▁168.0	-11695
▁18,52	-11696
▁184.0	-11697
▁1856,	-11698
▁1913)	-11699
▁1913,	-11700
▁1918.	-11701
▁1921.	-11702
▁1927,	-11703
▁1930,	-11704
▁1932,	-11705
▁1948.	-11706
▁1953.	-11707
▁1956,	-11708
▁1959,	-11709
▁1962,	-11710
▁1965.	-11711
▁1982,	-11712
▁1985,	-11713
▁1998-	-11714
▁2000)	-11715
▁497.0	-11716
▁597.0	-11717
▁66391	-11718
▁94531	-11719
▁9953.	-11720
▁Anvel	-11721
▁Aquil	-11722
▁Azehn	-11723
▁Cantù	-11724
▁Elkin	-11725
▁Frews	-11726
▁Gausi	-11727
▁Giant	-11728
▁Gouzh	-11729
▁Gwerz	-11730
▁Ivkov	-11731
▁Kloaz	-11732
▁Leeds	-11733
▁Levan	-11734
▁Ligad	-11735
▁Malik	-11736
▁Merez	-11737
▁Payne	-11738
▁Polog	-11739
▁Psamm	-11740
▁Ralph	-11741
▁Ricky	-11742
▁Rouel	-11743
▁Royal	-11744
▁Saint	-11745
▁Sivil	-11746
▁Takes	-11747
▁Titan	-11748
▁Vailh	-11749
▁Valor	-11750
▁afare	-11751
▁anant	-11752
▁anred	-11753
▁aozad	-11754
▁arouz	-11755
▁baked	-11756
▁barni	-11757
▁bello	-11758
▁betek	-11759
▁botañ	-11760
▁bourm	-11761
▁broad	-11762
▁deman	-11763
▁demon	-11764
▁dibar	-11765
▁dokel	-11766
▁drumm	-11767
▁ebrev	-11768
▁etran	-11769
▁garze	-11770
▁gwiad	-11771
▁heulc	-11772
▁indez	-11773
▁kloet	-11774
▁kroui	-11775
▁metad	-11776
▁miloù	-11777
▁mobil	-11778
▁oaout	-11779
▁oberd	-11780
▁salet	-11781
▁stiañ	-11782
▁vadoù	-11783
▁vouch	-11784
2,47055	-11785
Alamagn	-11786
Broadoù	-11787
Brussel	-11788
Georjia	-11789
Merrikh	-11790
abouezh	-11791
agadenn	-11792
alennoù	-11793
anedenn	-11794
berraet	-11795
casting	-11796
deiziad	-11797
edeliek	-11798
harramm	-11799
harrezh	-11800
harrioù	-11801
harzher	-11802
hastriñ	-11803
helwald	-11804
hirraet	-11805
hlambad	-11806
hoarmoù	-11807
hoazhoù	-11808
hontenn	-11809
hwezout	-11810
idennoù	-11811
imentel	-11812
indanao	-11813
iskienn	-11814
kenhead	-11815
permini	-11816
prezhañ	-11817
sezezet	-11818
stummet	-11819
▁03/21.	-11820
▁06-27.	-11821
▁1,9558	-11822
▁167.94	-11823
▁2989,0	-11824
▁3310.0	-11825
▁8820.0	-11826
▁Anvioù	-11827
▁Argant	-11828
▁Arvent	-11829
▁Azeizh	-11830
▁Bakeet	-11831
▁Banana	-11832
▁Buxton	-11833
▁Celery	-11834
▁Citrus	-11835
▁Crespi	-11836
▁Finned	-11837
▁Hockey	-11838
▁Jordan	-11839
▁Kavour	-11840
▁Kenned	-11841
▁Kezhed	-11842
▁League	-11843
▁Lemper	-11844
▁Little	-11845
▁Malaiz	-11846
▁Mision	-11847
▁Mughan	-11848
▁Pangas	-11849
▁Penaka	-11850
▁Portug	-11851
▁Renkaz	-11852
▁Romero	-11853
▁Rummet	-11854
▁Severt	-11855
▁Sinaed	-11856
▁Soziel	-11857
▁Stoust	-11858
▁Summit	-11859
▁Tanaka	-11860
▁Unaned	-11861
▁Vinoly	-11862
▁anveln	-11863
▁anvoud	-11864
▁azeret	-11865
▁azerez	-11866
▁bennig	-11867
▁bloued	-11868
▁bohran	-11869
▁brunus	-11870
▁debrig	-11871
▁dinoer	-11872
▁elveel	-11873
▁erozet	-11874
▁follad	-11875
▁isbenn	-11876
▁kechup	-11877
▁kinein	-11878
▁koetig	-11879
▁kornôg	-11880
▁kuzeil	-11881
▁pajenn	-11882
▁pellig	-11883
▁rankfe	-11884
▁reizel	-11885
▁romane	-11886
▁romano	-11887
▁roueel	-11888
▁toupet	-11889
▁vignon	-11890
▁vizhañ	-11891
01-8392"	-11892
Aziation	-11893
abrionad	-11894
hannvann	-11895
hoazhioù	-11896
hurtrezh	-11897
kalafenn	-11898
milimetr	-11899
paranant	-11900
sonerezh	-11901
▁165.33.	-11902
▁17068,8	-11903
▁1959-01	-11904
▁2015-06	-11905
▁2744.0.	-11906
▁30843,8	-11907
▁4100.0.	-11908
▁96.1632	-11909
▁Amharic	-11910
▁Andreas	-11911
▁Arktech	-11912
▁Arverañ	-11913
▁Assault	-11914
▁Bernard	-11915
▁Bioniko	-11916
▁Celsius	-11917
▁Connect	-11918
▁Danmark	-11919
▁Delfino	-11920
▁Deñvrer	-11921
▁Digoret	-11922
▁Gouzhañ	-11923
▁Gwelout	-11924
▁Jahistö	-11925
▁Kristet	-11926
▁Maguire	-11927
▁Malaizi	-11928
▁Marousi	-11929
▁Marzhet	-11930
▁Masaaki	-11931
▁Mathews	-11932
▁Mezegeg	-11933
▁Moullañ	-11934
▁Olimpik	-11935
▁Oregano	-11936
▁Paranad	-11937
▁Pescara	-11938
▁Rafique	-11939
▁Rajwana	-11940
▁Sbragia	-11941
▁Shehbaz	-11942
▁Spagneg	-11943
▁Stadion	-11944
▁Suiziet	-11945
▁Suñvarn	-11946
▁Weaving	-11947
▁alangoù	-11948
▁arzhoiñ	-11949
▁bannilh	-11950
▁brunenn	-11951
▁budhran	-11952
▁cheuzet	-11953
▁dinoour	-11954
▁elendal	-11955
▁franseg	-11956
▁gouzhat	-11957
▁grommet	-11958
▁kristen	-11959
▁krommet	-11960
▁litrezh	-11961
▁mizhant	-11962
▁nevezet	-11963
▁obervel	-11964
▁olifenn	-11965
▁ouzhioù	-11966
▁plakenn	-11967
▁rashher	-11968
▁reolant	-11969
▁romanek	-11970
▁spagnoz	-11971
▁unanenn	-11972
▁urzhiet	-11973
▁voestad	-11974
▁voulloù	-11975
▁zilvezh	-11976
▁Éireann	-11977
Addiction	-11978
Afrikaned	-11979
Alvinegro	-11980
Rotterdam	-11981
etrovirus	-11982
herpillar	-11983
hlouilhoù	-11984
patacones	-11985
▁0236-529	-11986
▁100.000.	-11987
▁1480153.	-11988
▁2013-11-	-11989
▁Adiction	-11990
▁Alphonse	-11991
▁Aquilino	-11992
▁Arantina	-11993
▁Benitoit	-11994
▁Benjamin	-11995
▁Casillas	-11996
▁Enduring	-11997
▁Gerstman	-11998
▁Hardware	-11999
▁Kanaouer	-12000
▁Kentucky	-12001
▁Klavadoù	-12002
▁Kolomieg	-12003
▁Kornadoù	-12004
▁Laughlin	-12005
▁Lunilhon	-12006
▁Mammwell	-12007
▁Mindanao	-12008
▁Muhammad	-12009
▁Osinbajo	-12010
▁Pannvann	-12011
▁Pimentel	-12012
▁Santiago	-12013
▁Schuster	-12014
▁Wirtanen	-12015
▁afegienn	-12016
▁afrobeat	-12017
▁anezhiad	-12018
▁aozennoù	-12019
▁ardorenn	-12020
▁barredun	-12021
▁clarinet	-12022
▁diellour	-12023
▁feurvrer	-12024
▁gouskask	-12025
▁goustred	-12026
▁gwerzenn	-12027
▁gwerzhoù	-12028
▁kanerezh	-12029
▁moneziad	-12030
▁ouzhienn	-12031
▁padennad	-12032
▁perapsiñ	-12033
▁prezhant	-12034
▁skapapis	-12035
▁skapasiz	-12036
▁skoapisi	-12037
▁spagnien	-12038
▁troiadur	-12039
hilindrezh	-12040
▁0001-8392	-12041
▁1891-05-2	-12042
▁211200000	-12043
▁324,720,7	-12044
▁39447000.	-12045
▁60040714,	-12046
▁Aermacchi	-12047
▁Barcelona	-12048
▁Covington	-12049
▁Debyshire	-12050
▁Federadoù	-12051
▁Gwezhatoc	-12052
▁Haputhale	-12053
▁Kashubian	-12054
▁Khomeriki	-12055
▁Madeleine	-12056
▁Mammnight	-12057
▁Matchstik	-12058
▁Mechanics	-12059
▁Outagamie	-12060
▁Patriotoù	-12061
▁Urzhiatañ	-12062
▁Zambonged	-12063
▁broedadeg	-12064
▁deiziadoù	-12065
▁deiziadur	-12066
▁demokreel	-12067
▁deskarrer	-12068
▁enkarzhañ	-12069
▁ezkarzhañ	-12070
▁fuzfuzion	-12071
▁garnadenn	-12072
▁marmorenn	-12073
▁milimetre	-12074
▁ofiserion	-12075
▁planedenn	-12076
▁skorapisi	-12077
▁skumantoù	-12078
▁stadennoù	-12079
▁stummadoù	-12080
▁supermini	-12081
Bannilherez	-12082
hoarvezhioù	-12083
▁"0002-9327	-12084
▁10/03-1983	-12085
▁1865-8784.	-12086
▁2006.12.31	-12087
▁2158-3226.	-12088
▁7729430000	-12089
▁Asociacion	-12090
▁Birkenhead	-12091
▁Cephalopod	-12092
▁Compostela	-12093
▁Cuttlefish	-12094
▁Filipinioù	-12095
▁Oberourien	-12096
▁Retrovirus	-12097
▁Sapindales	-12098
▁Skridennad	-12099
▁Sovcomflot	-12100
▁Vermicelli	-12101
▁aotrouzhañ	-12102
▁demokratel	-12103
▁embannadoù	-12104
▁frangipane	-12105
▁gouskaskiz	-12106
▁solanaceae	-12107
▁stilistenn	-12108
▁treudennoù	-12109
adennadennek	-12110
▁"0001-8392"	-12111
▁01-01-1913,	-12112
▁01-01-2000.	-12113
▁1920-08-16.	-12114
▁Academicals	-12115
▁Battlefield	-12116
▁Kennecticut	-12117
▁Universitat	-12118
▁albuquerque	-12119
▁emgavourien	-12120
▁ganaouennoù	-12121
▁kefluniadur	-12122
▁kementaoueg	-12123
▁milimetrezh	-12124
▁psikedeliek	-12125
▁stlennadenn	-12126
▁10264000000.	-12127
▁Akademiennoù	-12128
▁Associazione	-12129
▁Broadcasting	-12130
▁Commelinides	-12131
▁testennerezh	-12132
▁0-7156-3648-0	-12133
▁29919600000.0	-12134
▁7729430000.0.	-12135
▁8788850000.0,	-12136
▁Claudiomacone	-12137
▁445895000000.0	-12138
▁88234300000.0.	-12139
▁AdirondackCity	-12140
harzhennerierezh	-12141
▁259776702,47055	-12142
#:	-12143
-6	-12144
..	-12145
//	-12146
5"	-12147
87	-12148
9"	-12149
Ap	-12150
CE	-12151
Es	-12152
LK	-12153
Li	-12154
OB	-12155
ZF	-12156
dc	-12157
fl	-12158
lk	-12159
pa	-12160
uh	-12161
vi	-12162
vá	-12163
ww	-12164
él	-12165
ăl	-12166
-08	-12167
-23	-12168
-33	-12169
-4.	-12170
-9,	-12171
.).	-12172
...	-12173
.94	-12174
/10	-12175
160	-12176
33,	-12177
482	-12178
6,0	-12179
9,3	-12180
982	-12181
://	-12182
;",	-12183
Aoz	-12184
Apl	-12185
Bir	-12186
EAT	-12187
Gou	-12188
ICE	-12189
Kap	-12190
Nor	-12191
Uzo	-12192
Vaz	-12193
ael	-12194
arl	-12195
ath	-12196
cky	-12197
day	-12198
efe	-12199
eoù	-12200
eri	-12201
erz	-12202
etu	-12203
gov	-12204
hno	-12205
hug	-12206
hôg	-12207
itl	-12208
jiz	-12209
kal	-12210
kke	-12211
lod	-12212
net	-12213
ort	-12214
oui	-12215
ove	-12216
pic	-12217
rip	-12218
tañ	-12219
von	-12220
www	-12221
yed	-12222
ßku	-12223
▁"2	-12224
▁9.	-12225
▁CF	-12226
▁Gm	-12227
▁JP	-12228
▁Mk	-12229
▁PA	-12230
▁PR	-12231
▁TV	-12232
▁VW	-12233
▁WI	-12234
▁co	-12235
▁gm	-12236
▁le	-12237
▁lo	-12238
-2".	-12239
-2).	-12240
-21.	-12241
-22.	-12242
-439	-12243
-44.	-12244
/201	-12245
11.0	-12246
3.26	-12247
487.	-12248
5800	-12249
637.	-12250
7124	-12251
8,05	-12252
8-11	-12253
8388	-12254
84-0	-12255
867.	-12256
AZAL	-12257
Aten	-12258
Azia	-12259
Cent	-12260
Gres	-12261
Hamb	-12262
Hous	-12263
Korn	-12264
Velv	-12265
abağ	-12266
adig	-12267
alet	-12268
ansa	-12269
aoue	-12270
arts	-12271
azol	-12272
barr	-12273
bler	-12274
boaz	-12275
bobl	-12276
brez	-12277
bure	-12278
dour	-12279
dret	-12280
edom	-12281
eene	-12282
etoù	-12283
ever	-12284
evet	-12285
gres	-12286
gwar	-12287
haer	-12288
harv	-12289
hoad	-12290
hoap	-12291
houz	-12292
hull	-12293
humm	-12294
iard	-12295
igas	-12296
ilet	-12297
inae	-12298
inho	-12299
isto	-12300
kano	-12301
karr	-12302
klas	-12303
koad	-12304
lavi	-12305
lañv	-12306
mant	-12307
mask	-12308
meer	-12309
neun	-12310
ober	-12311
odon	-12312
ofdc	-12313
ogao	-12314
otel	-12315
ozid	-12316
pann	-12317
pell	-12318
play	-12319
psis	-12320
raza	-12321
ript	-12322
roup	-12323
ruel	-12324
sell	-12325
skel	-12326
tamp	-12327
thor	-12328
trem	-12329
udeg	-12330
ugus	-12331
uhez	-12332
usek	-12333
vell	-12334
vint	-12335
vorn	-12336
ălan	-12337
▁"10	-12338
▁"15	-12339
▁"87	-12340
▁11/	-12341
▁16.	-12342
▁17-	-12343
▁2.4	-12344
▁2.5	-12345
▁2/2	-12346
▁20.	-12347
▁23.	-12348
▁230	-12349
▁3,0	-12350
▁306	-12351
▁395	-12352
▁46,	-12353
▁5,6	-12354
▁5.6	-12355
▁505	-12356
▁597	-12357
▁618	-12358
▁7/2	-12359
▁834	-12360
▁AIT	-12361
▁ASD	-12362
▁AWD	-12363
▁Anı	-12364
▁Aot	-12365
▁Aro	-12366
▁CAC	-12367
▁Eok	-12368
▁FSV	-12369
▁Fol	-12370
▁Gem	-12371
▁Get	-12372
▁Hat	-12373
▁Hil	-12374
▁Hug	-12375
▁Ken	-12376
▁Kev	-12377
▁Kra	-12378
▁Les	-12379
▁Lus	-12380
▁MAr	-12381
▁Nue	-12382
▁Ouz	-12383
▁PAS	-12384
▁Ruz	-12385
▁SLK	-12386
▁Sán	-12387
▁USD	-12388
▁Var	-12389
▁Viñ	-12390
▁Von	-12391
▁Yam	-12392
▁Zan	-12393
▁aol	-12394
▁arz	-12395
▁bel	-12396
▁bep	-12397
▁cac	-12398
▁cit	-12399
▁ded	-12400
▁eul	-12401
▁fos	-12402
▁hek	-12403
▁hev	-12404
▁hod	-12405
▁laz	-12406
▁lik	-12407
▁oañ	-12408
▁ram	-12409
▁zed	-12410
-02-2	-12411
-07-1	-12412
-12-1	-12413
-130.	-12414
5.400	-12415
6.300	-12416
Akron	-12417
Angal	-12418
Aplon	-12419
Arezh	-12420
Bodil	-12421
Botel	-12422
Braiz	-12423
Breaz	-12424
Broan	-12425
Diviz	-12426
Fylde	-12427
Hambg	-12428
House	-12429
Mater	-12430
Mexik	-12431
North	-12432
abate	-12433
acios	-12434
agoas	-12435
antry	-12436
argoù	-12437
arlem	-12438
arout	-12439
doued	-12440
eeney	-12441
ektur	-12442
ellen	-12443
envel	-12444
ezioù	-12445
fouad	-12446
getik	-12447
ghamp	-12448
gipan	-12449
goust	-12450
hannv	-12451
hanok	-12452
hanom	-12453
havet	-12454
hebel	-12455
hoabr	-12456
hobri	-12457
houlm	-12458
hêret	-12459
ianoù	-12460
iened	-12461
ienez	-12462
ionad	-12463
ische	-12464
isket	-12465
iskey	-12466
lozet	-12467
marin	-12468
oudek	-12469
ouner	-12470
piezh	-12471
radoù	-12472
raina	-12473
rance	-12474
redeg	-12475
reman	-12476
rigoù	-12477
ropop	-12478
roued	-12479
rough	-12480
seizh	-12481
treur	-12482
treus	-12483
urity	-12484
ustik	-12485
ustri	-12486
város	-12487
welet	-12488
zerbe	-12489
ñvioù	-12490
▁0482	-12491
▁1.55	-12492
▁1/19	-12493
▁1132	-12494
▁1207	-12495
▁1411	-12496
▁1600	-12497
▁1793	-12498
▁1818	-12499
▁1873	-12500
▁1875	-12501
▁193.	-12502
▁1937	-12503
▁1948	-12504
▁1953	-12505
▁1960	-12506
▁1964	-12507
▁197.	-12508
▁1976	-12509
▁1980	-12510
▁1981	-12511
▁2215	-12512
▁2439	-12513
▁28,0	-12514
▁2868	-12515
▁2953	-12516
▁3678	-12517
▁4/22	-12518
▁4019	-12519
▁470.	-12520
▁5,57	-12521
▁500.	-12522
▁575.	-12523
▁7202	-12524
▁737,	-12525
▁Alon	-12526
▁Arde	-12527
▁Atty	-12528
▁CDTE	-12529
▁Coat	-12530
▁Deoc	-12531
▁Dorn	-12532
▁Edel	-12533
▁Elis	-12534
▁Erie	-12535
▁Eyed	-12536
▁Ezev	-12537
▁Fred	-12538
▁Gwar	-12539
▁Hirv	-12540
▁Kezh	-12541
▁Kran	-12542
▁Kuzh	-12543
▁Laez	-12544
▁Lesh	-12545
▁MacD	-12546
▁Noiz	-12547
▁Nola	-12548
▁Peas	-12549
▁Peña	-12550
▁Phil	-12551
▁Pout	-12552
▁Pren	-12553
▁Prez	-12554
▁Prog	-12555
▁Roam	-12556
▁Roan	-12557
▁SEAT	-12558
▁Scot	-12559
▁Smil	-12560
▁Sorg	-12561
▁Vant	-12562
▁Yaou	-12563
▁aloz	-12564
▁bomb	-12565
▁bran	-12566
▁daun	-12567
▁deuz	-12568
▁diou	-12569
▁drem	-12570
▁eber	-12571
▁epañ	-12572
▁ezel	-12573
▁feñv	-12574
▁gamm	-12575
▁garz	-12576
▁gouc	-12577
▁hezh	-12578
▁karn	-12579
▁keel	-12580
▁koñv	-12581
▁kupé	-12582
▁kêre	-12583
▁moll	-12584
▁mons	-12585
▁stra	-12586
▁tamm	-12587
▁teul	-12588
▁trez	-12589
▁vefe	-12590
▁yaoc	-12591
▁zamb	-12592
▁zezh	-12593
-5858.	-12594
/1996.	-12595
12.200	-12596
APGPAC	-12597
Ateniz	-12598
Basket	-12599
Enderc	-12600
Fulton	-12601
Kongel	-12602
Tennis	-12603
Uzorez	-12604
abansa	-12605
alifon	-12606
alliga	-12607
antant	-12608
backer	-12609
baller	-12610
baouiñ	-12611
bezeiñ	-12612
bloazh	-12613
brasal	-12614
darded	-12615
devezh	-12616
elezel	-12617
etreel	-12618
foller	-12619
gweriñ	-12620
hadant	-12621
hambad	-12622
hambus	-12623
hanned	-12624
hantor	-12625
hevoud	-12626
hevred	-12627
hinkad	-12628
hlastr	-12629
hloroù	-12630
hlouer	-12631
hollar	-12632
horozh	-12633
hotell	-12634
hounet	-12635
houpad	-12636
lennad	-12637
lennoù	-12638
merour	-12639
neunet	-12640
nodenn	-12641
ofiser	-12642
oustur	-12643
rouilh	-12644
stadoù	-12645
telezh	-12646
voudan	-12647
wickau	-12648
ßkuhle	-12649
▁"0025	-12650
▁06-27	-12651
▁07/23	-12652
▁09/22	-12653
▁1080.	-12654
▁11.35	-12655
▁1418.	-12656
▁1558-	-12657
▁16/34	-12658
▁171.0	-12659
▁179.0	-12660
▁1857.	-12661
▁1872.	-12662
▁1878.	-12663
▁19.94	-12664
▁1910,	-12665
▁1911,	-12666
▁1932)	-12667
▁1939.	-12668
▁1968.	-12669
▁1978.	-12670
▁19880	-12671
▁1989-	-12672
▁1994.	-12673
▁2005-	-12674
▁2006-	-12675
▁21.2.	-12676
▁214.0	-12677
▁24.4.	-12678
▁30/05	-12679
▁306.0	-12680
▁37124	-12681
▁4100.	-12682
▁4387.	-12683
▁524,5	-12684
▁6,97%	-12685
▁7637.	-12686
▁8.334	-12687
▁875,4	-12688
▁9000,	-12689
▁911.0	-12690
▁Aarus	-12691
▁Apium	-12692
▁Arepa	-12693
▁Arrôs	-12694
▁Aurev	-12695
▁Aveln	-12696
▁Bajji	-12697
▁Bakou	-12698
▁Balan	-12699
▁Baron	-12700
▁Bruce	-12701
▁Bălan	-12702
▁Danei	-12703
▁Deizh	-12704
▁Disel	-12705
▁Doshi	-12706
▁EISSN	-12707
▁Earth	-12708
▁Einho	-12709
▁Emaez	-12710
▁Ennañ	-12711
▁Feset	-12712
▁Gator	-12713
▁Glass	-12714
▁Goull	-12715
▁Group	-12716
▁Guarn	-12717
▁Hogao	-12718
▁Ingal	-12719
▁Javan	-12720
▁Jugos	-12721
▁Kouzh	-12722
▁Lacid	-12723
▁Lucky	-12724
▁Løkke	-12725
▁Nizel	-12726
▁Oster	-12727
▁Pedas	-12728
▁Prenn	-12729
▁Quinn	-12730
▁Stado	-12731
▁State	-12732
▁Suwél	-12733
▁Tabak	-12734
▁Vents	-12735
▁Warts	-12736
▁Wever	-12737
▁arros	-12738
▁barny	-12739
▁berzh	-12740
▁breur	-12741
▁cello	-12742
▁deram	-12743
▁dibab	-12744
▁eroun	-12745
▁evein	-12746
▁fouad	-12747
▁frisk	-12748
▁frouz	-12749
▁gejal	-12750
▁haroz	-12751
▁hezet	-12752
▁kurid	-12753
▁kuviz	-12754
▁lakañ	-12755
▁lañet	-12756
▁liess	-12757
▁limun	-12758
▁linom	-12759
▁mateg	-12760
▁murev	-12761
▁oberz	-12762
▁olive	-12763
▁padeg	-12764
▁pedañ	-12765
▁pilañ	-12766
▁roupe	-12767
▁sinek	-12768
▁skoaz	-12769
▁skunk	-12770
▁stank	-12771
▁suded	-12772
▁teniz	-12773
▁trañs	-12774
▁tuank	-12775
▁unezh	-12776
▁votoù	-12777
-03-15)	-12778
-03-44.	-12779
000823"	-12780
Bodhran	-12781
Gresian	-12782
Kristel	-12783
Lambien	-12784
Livorno	-12785
Roueier	-12786
adennet	-12787
adurioù	-12788
amelezh	-12789
ankadoù	-12790
antienn	-12791
aourien	-12792
azetenn	-12793
azvazol	-12794
barniel	-12795
bezezet	-12796
boblion	-12797
bourzel	-12798
derbaan	-12799
dervred	-12800
dresket	-12801
elandel	-12802
enporzh	-12803
gambles	-12804
hadrien	-12805
hambled	-12806
harzell	-12807
heuzkas	-12808
hifrenn	-12809
hizhout	-12810
hladenn	-12811
hoarget	-12812
hoaried	-12813
hornioù	-12814
hwennad	-12815
hwezell	-12816
izierie	-12817
lantier	-12818
marvard	-12819
mermeer	-12820
naboued	-12821
ostbaan	-12822
parzher	-12823
parzhoù	-12824
tremenn	-12825
treskiñ	-12826
vourenn	-12827
▁"0-439	-12828
▁0-670-	-12829
▁0.0068	-12830
▁07.14.	-12831
▁1,9304	-12832
▁1121.0	-12833
▁125800	-12834
▁1299,0	-12835
▁13/31.	-12836
▁1800.0	-12837
▁1890.0	-12838
▁253.26	-12839
▁296.65	-12840
▁3,3528	-12841
▁373513	-12842
▁47487.	-12843
▁488160	-12844
▁900.0.	-12845
▁94531.	-12846
▁Alayam	-12847
▁Antiko	-12848
▁Anvoud	-12849
▁Arzenn	-12850
▁Avonso	-12851
▁Azerbe	-12852
▁Bakeed	-12853
▁Breman	-12854
▁Bridge	-12855
▁Bujang	-12856
▁Canada	-12857
▁Desoto	-12858
▁Dreist	-12859
▁Hoofdc	-12860
▁Hunter	-12861
▁Huseyn	-12862
▁Inland	-12863
▁Kantra	-12864
▁Kodioù	-12865
▁Kolomb	-12866
▁Koreed	-12867
▁Koupin	-12868
▁Krafts	-12869
▁Kultur	-12870
▁Lazhañ	-12871
▁Lañsiñ	-12872
▁Legion	-12873
▁MArtin	-12874
▁Meiner	-12875
▁Mezhed	-12876
▁Mezher	-12877
▁Rouant	-12878
▁Sanaet	-12879
▁Saozel	-12880
▁Soneer	-12881
▁Svedel	-12882
▁Talaba	-12883
▁Tehran	-12884
▁Testel	-12885
▁Turkie	-12886
▁Viñoly	-12887
▁Yamand	-12888
▁Yezhoù	-12889
▁anvelv	-12890
▁anvriñ	-12891
▁aozell	-12892
▁aozhañ	-12893
▁aozhoù	-12894
▁carned	-12895
▁citrus	-12896
▁demanv	-12897
▁diskad	-12898
▁disoet	-12899
▁drogañ	-12900
▁elveln	-12901
▁emelad	-12902
▁emglev	-12903
▁erecad	-12904
▁erouiñ	-12905
▁goured	-12906
▁groude	-12907
▁groued	-12908
▁gwelad	-12909
▁hennañ	-12910
▁hinein	-12911
▁karbon	-12912
▁kavour	-12913
▁kemmet	-12914
▁kevrez	-12915
▁klozet	-12916
▁lakaoù	-12917
▁largoù	-12918
▁lañsiñ	-12919
▁litrez	-12920
▁moazet	-12921
▁moulet	-12922
▁murezh	-12923
▁muzoul	-12924
▁nebeut	-12925
▁ofisek	-12926
▁ofisel	-12927
▁panell	-12928
▁pennak	-12929
▁pepper	-12930
▁peulia	-12931
▁prizoù	-12932
▁ranket	-12933
▁ruzher	-12934
▁sanger	-12935
▁savour	-12936
▁skopis	-12937
▁soneer	-12938
▁stiloù	-12939
▁termen	-12940
▁trance	-12941
▁treezh	-12942
▁treizh	-12943
▁tresañ	-12944
▁trocet	-12945
▁vammet	-12946
▁zeleiñ	-12947
-17684-0	-12948
Michigan	-12949
Uanvezet	-12950
aliforni	-12951
argouezh	-12952
arouzhet	-12953
bremanel	-12954
entimetr	-12955
estadenn	-12956
ghampara	-12957
hagadenn	-12958
halafenn	-12959
hastrezh	-12960
hevoudig	-12961
homprenn	-12962
horneter	-12963
hubadenn	-12964
ikedelia	-12965
injerezh	-12966
krommenn	-12967
ouououou	-12968
padennek	-12969
remiacao	-12970
samerezh	-12971
sandwizh	-12972
zhiadenn	-12973
▁1296.65	-12974
▁1480153	-12975
▁1510.0.	-12976
▁1800.0.	-12977
▁1856-09	-12978
▁1873.0.	-12979
▁1974-08	-12980
▁2368,05	-12981
▁2777.0.	-12982
▁2900.0.	-12983
▁336265,	-12984
▁3400.0.	-12985
▁3453.0.	-12986
▁556.300	-12987
▁875.400	-12988
▁Alagoas	-12989
▁Almonds	-12990
▁Aostrou	-12991
▁Asianoù	-12992
▁Berraet	-12993
▁Blanked	-12994
▁Borough	-12995
▁Chinaek	-12996
▁Demokat	-12997
▁Derouet	-12998
▁Diliman	-12999
▁Elvelad	-13000
▁Flemniñ	-13001
▁Freedom	-13002
▁Gazetoù	-13003
▁Gemmill	-13004
▁Gresien	-13005
▁Gwerzel	-13006
▁Gwezwez	-13007
▁Haarlem	-13008
▁Hilario	-13009
▁Ilokano	-13010
▁Ireland	-13011
▁Jorjian	-13012
▁Kalifon	-13013
▁Karavan	-13014
▁Kennedy	-13015
▁Kilomet	-13016
▁Kolejal	-13017
▁Lasalle	-13018
▁Marteer	-13019
▁Moskouz	-13020
▁Olympic	-13021
▁Parzhed	-13022
▁Polonek	-13023
▁Qarabağ	-13024
▁Rambler	-13025
▁Skriver	-13026
▁Sweeney	-13027
▁Sánchez	-13028
▁Unistri	-13029
▁Vantage	-13030
▁Yaouank	-13031
▁Zwickau	-13032
▁afriked	-13033
▁anezhet	-13034
▁arzoueg	-13035
▁barbenn	-13036
▁bezhant	-13037
▁bodhran	-13038
▁debouet	-13039
▁desinoù	-13040
▁diskaid	-13041
▁foranel	-13042
▁foukaet	-13043
▁fouzhet	-13044
▁gallout	-13045
▁gezhiad	-13046
▁goudeus	-13047
▁gouloaz	-13048
▁gourmar	-13049
▁goustig	-13050
▁gwadenn	-13051
▁gwellañ	-13052
▁gwelloc	-13053
▁gwelout	-13054
▁gwiriek	-13055
▁heulenn	-13056
▁istorel	-13057
▁javaned	-13058
▁kanadeg	-13059
▁keitaat	-13060
▁keitaet	-13061
▁kelezel	-13062
▁kelvino	-13063
▁klavier	-13064
▁koantig	-13065
▁komzour	-13066
▁kresket	-13067
▁kreunet	-13068
▁kristel	-13069
▁langkua	-13070
▁leunioù	-13071
▁maezhoù	-13072
▁marjant	-13073
▁miliard	-13074
▁moulaet	-13075
▁niverez	-13076
▁ofisiad	-13077
▁pennour	-13078
▁pepadoù	-13079
▁preuzan	-13080
▁protein	-13081
▁resevet	-13082
▁romance	-13083
▁rummiet	-13084
▁stamant	-13085
▁streded	-13086
▁tartenn	-13087
▁trefenn	-13088
▁vargant	-13089
Ethelwald	-13090
hanaveral	-13091
ichedelia	-13092
pelladenn	-13093
periapsis	-13094
spaceport	-13095
▁374976.0	-13096
▁39447000	-13097
▁7637.76.	-13098
▁7877110.	-13099
▁88002539	-13100
▁Alamania	-13101
▁Amerigas	-13102
▁Barbetti	-13103
▁Brasilia	-13104
▁Christen	-13105
▁CityCity	-13106
▁Comuniad	-13107
▁Demokati	-13108
▁Dihegerz	-13109
▁Donabate	-13110
▁Ebrevlet	-13111
▁Einhoorn	-13112
▁Elveziad	-13113
▁Enlakaet	-13114
▁Federale	-13115
▁Kilometr	-13116
▁Kolomani	-13117
▁Koupinoù	-13118
▁Londrezh	-13119
▁Malaizia	-13120
▁Martinoù	-13121
▁Memorial	-13122
▁Nijeriek	-13123
▁Nizierie	-13124
▁Olimpiel	-13125
▁Palacios	-13126
▁Pearaned	-13127
▁Prenestr	-13128
▁Rannvodi	-13129
▁Security	-13130
▁Servijoù	-13131
▁Singapur	-13132
▁Smilodon	-13133
▁Sovieteg	-13134
▁Stredenn	-13135
▁Treuzkas	-13136
▁Unanvezh	-13137
▁Voßkuhle	-13138
▁Wartsila	-13139
▁akoustik	-13140
▁aolennet	-13141
▁dedennet	-13142
▁diellenn	-13143
▁diorroet	-13144
▁emgannad	-13145
▁ennaouet	-13146
▁fouchenn	-13147
▁foudeilh	-13148
▁frouzioù	-13149
▁gallonez	-13150
▁gouadenn	-13151
▁goustret	-13152
▁gwarezoù	-13153
▁gwirienn	-13154
▁istitenn	-13155
▁kevarout	-13156
▁kilogram	-13157
▁liketenn	-13158
▁mañvrenn	-13159
▁metalioù	-13160
▁mobilizh	-13161
▁obergred	-13162
▁oberzhañ	-13163
▁pecorino	-13164
▁reizhien	-13165
▁roupiezh	-13166
▁rozinioù	-13167
▁savadenn	-13168
▁servijer	-13169
▁skouzhoù	-13170
▁stlugenn	-13171
▁taktoniñ	-13172
▁zemerezh	-13173
Amerikanen	-13174
Basketball	-13175
amerikanel	-13176
berzhiadur	-13177
harrourien	-13178
harzhiadur	-13179
hlizellenn	-13180
hwezhiadur	-13181
itennadenn	-13182
▁07/23/192	-13183
▁1046-8188	-13184
▁1360-0443	-13185
▁16244700,	-13186
▁31.12.200	-13187
▁318875313	-13188
▁32024459.	-13189
▁488160.0.	-13190
▁Appletone	-13191
▁Argentini	-13192
▁Arvervezh	-13193
▁Arzourien	-13194
▁Benitoite	-13195
▁Diazezhet	-13196
▁Edukatour	-13197
▁Elistriad	-13198
▁Gouspital	-13199
▁Gouzpital	-13200
▁Gresianed	-13201
▁Italianed	-13202
▁Italiened	-13203
▁Izelvroeg	-13204
▁MacDonald	-13205
▁Makabansa	-13206
▁Ouzhannet	-13207
▁Prefektur	-13208
▁Singapore	-13209
▁Skozeller	-13210
▁Uruguayed	-13211
▁Valencezh	-13212
▁almaMater	-13213
▁aozeriezh	-13214
▁arouerezh	-13215
▁arzhiadur	-13216
▁bandennoù	-13217
▁cheñchioù	-13218
▁dibarniel	-13219
▁dibarzhañ	-13220
▁diskadenn	-13221
▁dispenniñ	-13222
▁diuzadenn	-13223
▁dreizhant	-13224
▁endaladoù	-13225
▁energetik	-13226
▁frangipan	-13227
▁genrerezh	-13228
▁gouderezh	-13229
▁goustrezh	-13230
▁gresianed	-13231
▁gwarezhañ	-13232
▁kanaourer	-13233
▁lakaennoù	-13234
▁liessevel	-13235
▁nijerienn	-13236
▁pennamour	-13237
▁perensked	-13238
▁politiker	-13239
▁rannvadoù	-13240
▁soñdarded	-13241
▁spagnonek	-13242
▁spazeller	-13243
▁steredred	-13244
▁steredrid	-13245
▁teksianed	-13246
▁testenner	-13247
▁treezadur	-13248
▁treuzfenn	-13249
▁trevredeg	-13250
▁zambonged	-13251
Asociazione	-13252
etrovirinae	-13253
harzhiadenn	-13254
hevoudigniñ	-13255
▁"0025-5858	-13256
▁"87000823"	-13257
▁0025-5858.	-13258
▁0236-5294.	-13259
▁0965-2140.	-13260
▁142603000.	-13261
▁1800000000	-13262
▁1920-08-16	-13263
▁1923-11-18	-13264
▁1939-01-03	-13265
▁39447000.0	-13266
▁AEthelwald	-13267
▁Aostralien	-13268
▁Coatbridge	-13269
▁Demokrateg	-13270
▁Emgannadoù	-13271
▁Feuniadenn	-13272
▁Filipinoeg	-13273
▁Georgetown	-13274
▁Guarnadier	-13275
▁Hoofdclass	-13276
▁Kelerezhoù	-13277
▁Kopenhagen	-13278
▁Monarkiezh	-13279
▁Pakistanañ	-13280
▁Polderbaan	-13281
▁Portugaleg	-13282
▁Poutrajaya	-13283
▁Realaouezh	-13284
▁Wellington	-13285
▁amzervvred	-13286
▁arborzhiañ	-13287
▁dielladenn	-13288
▁drobarzhet	-13289
▁forvoudilh	-13290
▁goullodenn	-13291
▁gouskaskis	-13292
▁implantier	-13293
▁kreñvoudek	-13294
▁organennoù	-13295
▁pennourien	-13296
▁peuliapsis	-13297
▁rannvuniad	-13298
▁reizhiadur	-13299
▁steredozid	-13300
▁stredennad	-13301
▁stummuniad	-13302
▁"0002-9327"	-13303
▁01-01-1913.	-13304
▁01/01/2000,	-13305
▁01/01/2000.	-13306
▁1891-05-20.	-13307
▁1896-02-01,	-13308
▁1896-02-01.	-13309
▁1932-03-15)	-13310
▁1959-01-01.	-13311
▁2006.12.31.	-13312
▁2009-04-04.	-13313
▁30/05/1996.	-13314
▁371240000.0	-13315
▁39447000.0.	-13316
▁69862200.0,	-13317
▁Azerbeidjan	-13318
▁Emgannadann	-13319
▁Ferencváros	-13320
▁Gazettezioù	-13321
▁Kalifornien	-13322
▁drobarzhell	-13323
▁etreweladeg	-13324
▁trobarzhell	-13325
▁142603000.0,	-13326
▁183309000.0.	-13327
▁279142000000	-13328
▁41498400000.	-13329
▁Akademiaoueg	-13330
▁Edukatourien	-13331
▁Kapodistrian	-13332
▁Kuttikattoor	-13333
▁Regionalliga	-13334
▁etrewelandel	-13335
▁gantennadenn	-13336
▁kevreadennoù	-13337
▁politikerezh	-13338
harnadennadenn	-13339
▁0-439-92550-9	-13340
▁8788850000.0.	-13341
▁88234300000.0	-13342
▁Mathematische	-13343
▁Technologiezh	-13344
▁bannilheriezh	-13345
▁padennadennek	-13346
thoretrovirinae	-13347
▁"0-374-26131-8	-13348
▁"0-439-17684-0	-13349
▁124950000000.0	-13350
▁162164091.8388	-13351
▁3997100000000,	-13352
▁Haarlemmermeer	-13353
▁279142000000.0.	-13354
▁349206000000.0.	-13355
▁377016000000.0.	-13356
▁AlbuquerqueCity	-13357
"1	-13358
,"	-13359
/4	-13360
08	-13361
1)	-13362
4)	-13363
Av	-13364
CQ	-13365
OU	-13366
dr	-13367
eu	-13368
hr	-13369
li	-13370
tp	-13371
tê	-13372
zō	-13373
ñj	-13374
'),	-13375
,94	-13376
-21	-13377
-22	-13378
/09	-13379
/1,	-13380
/16	-13381
/17	-13382
0,0	-13383
10.	-13384
193	-13385
226	-13386
352	-13387
4".	-13388
467	-13389
500	-13390
635	-13391
66.	-13392
792	-13393
Abh	-13394
Ajo	-13395
Aur	-13396
Bus	-13397
Fis	-13398
Gam	-13399
je	-13400
0.7	-13401
2".	-13402
3/3	-13403
776	-13404
Koc	-13405
Lij	-13406
Lun	-13407
Mar	-13408
OUP	-13409
Rij	-13410
Rou	-13411
SID	-13412
Sia	-13413
Sph	-13414
Tao	-13415
Tar	-13416
Uab	-13417
Var	-13418
Viv	-13419
aat	-13420
aeL	-13421
aez	-13422
arm	-13423
bat	-13424
bav	-13425
ben	-13426
cet	-13427
doa	-13428
doù	-13429
ece	-13430
elc	-13431
ems	-13432
err	-13433
eti	-13434
eze	-13435
fec	-13436
gom	-13437
gou	-13438
gro	-13439
hro	-13440
hud	-13441
hál	-13442
inv	-13443
inx	-13444
ise	-13445
joù	-13446
loo	-13447
lus	-13448
noz	-13449
nto	-13450
oiñ	-13451
olc	-13452
oma	-13453
ouc	-13454
ril	-13455
ses	-13456
sga	-13457
ste	-13458
syd	-13459
uce	-13460
vin	-13461
viy	-13462
viñ	-13463
zad	-13464
ziz	-13465
▁69	-13466
▁AU	-13467
▁Dc	-13468
▁Ec	-13469
▁GR	-13470
▁Gt	-13471
▁MC	-13472
▁NV	-13473
▁Of	-13474
▁SQ	-13475
▁Si	-13476
▁Uc	-13477
▁ao	-13478
▁bi	-13479
▁cc	-13480
▁cy	-13481
▁fa	-13482
▁ne	-13483
-02.	-13484
-4-2	-13485
/22.	-13486
/30.	-13487
0.74	-13488
2.37	-13489
332.	-13490
46.0	-13491
7.0,	-13492
80-4	-13493
AIDA	-13494
Aden	-13495
Asia	-13496
Avel	-13497
Berc	-13498
CQAG	-13499
-19	-13500
Diy	-13501
jim	-13502
osk	-13503
riv	-13504
šen	-13505
Bazh	-13506
Doug	-13507
Fort	-13508
Iron	-13509
Ital	-13510
Kenn	-13511
Maka	-13512
Mala	-13513
Oreg	-13514
Prez	-13515
Roan	-13516
Roma	-13517
Swec	-13518
Tink	-13519
Wolf	-13520
Zeus	-13521
abau	-13522
adañ	-13523
adek	-13524
aden	-13525
afel	-13526
agad	-13527
aigh	-13528
akal	-13529
alsm	-13530
arou	-13531
atur	-13532
azel	-13533
baez	-13534
bass	-13535
blad	-13536
bloù	-13537
bran	-13538
bred	-13539
brer	-13540
chel	-13541
chil	-13542
dern	-13543
dert	-13544
edal	-13545
enko	-13546
eriñ	-13547
ersk	-13548
esez	-13549
esus	-13550
etel	-13551
gare	-13552
hadr	-13553
hirv	-13554
hoab	-13555
http	-13556
hvet	-13557
igoù	-13558
ilek	-13559
ilki	-13560
inar	-13561
inch	-13562
iria	-13563
izek	-13564
iñet	-13565
jiek	-13566
kalv	-13567
kras	-13568
krog	-13569
kruz	-13570
leiz	-13571
marz	-13572
meud	-13573
meus	-13574
mezh	-13575
odig	-13576
olad	-13577
olem	-13578
orer	-13579
otor	-13580
ouil	-13581
ound	-13582
ovie	-13583
ozoc	-13584
pred	-13585
prou	-13586
quin	-13587
reus	-13588
romp	-13589
roud	-13590
sana	-13591
savi	-13592
souz	-13593
syst	-13594
talh	-13595
teun	-13596
truc	-13597
udel	-13598
viad	-13599
SH	-13600
▁~	-13601
8.3	-13602
Col	-13603
Jun	-13604
Ker	-13605
Pop	-13606
▁uc	-13607
5.0.	-13608
Into	-13609
angk	-13610
aust	-13611
eilh	-13612
niad	-13613
onde	-13614
orek	-13615
pizh	-13616
pord	-13617
tell	-13618
viol	-13619
vlet	-13620
zhzh	-13621
zorn	-13622
zoñv	-13623
▁"02	-13624
▁"05	-13625
▁"09	-13626
▁"18	-13627
▁(18	-13628
▁-8,	-13629
▁.88	-13630
▁06-	-13631
▁07,	-13632
▁1,1	-13633
▁1.2	-13634
▁10.	-13635
▁12,	-13636
▁12-	-13637
▁130	-13638
▁177	-13639
▁181	-13640
▁212	-13641
▁214	-13642
▁27-	-13643
▁28.	-13644
▁3.9	-13645
▁334	-13646
▁362	-13647
▁4.8	-13648
▁7.9	-13649
▁733	-13650
▁765	-13651
▁806	-13652
▁925	-13653
▁94,	-13654
▁APN	-13655
▁Aek	-13656
▁Alm	-13657
▁Art	-13658
▁Auz	-13659
▁BSc	-13660
▁Bah	-13661
▁Bug	-13662
▁Crí	-13663
▁Dek	-13664
▁Elv	-13665
▁Fal	-13666
▁Inn	-13667
▁Jep	-13668
▁Jul	-13669
▁Kam	-13670
▁Lod	-13671
▁Low	-13672
▁Mck	-13673
▁Nod	-13674
▁Pil	-13675
▁Rup	-13676
▁Tac	-13677
▁bot	-13678
▁dañ	-13679
▁dei	-13680
▁dev	-13681
▁gun	-13682
▁inf	-13683
▁mab	-13684
▁mui	-13685
▁olv	-13686
▁por	-13687
▁soa	-13688
▁soc	-13689
▁ver	-13690
▁von	-13691
▁zec	-13692
▁zin	-13693
-10-0	-13694
-130,	-13695
/1856	-13696
/1983	-13697
0,000	-13698
3,000	-13699
vo	-13700
Bil	-13701
100.	-13702
dial	-13703
irus	-13704
mañv	-13705
▁229	-13706
▁64.	-13707
▁deñ	-13708
8.892	-13709
94.0.	-13710
96,65	-13711
Aluna	-13712
Araoz	-13713
Bacon	-13714
Blank	-13715
Danem	-13716
Diyos	-13717
Dodge	-13718
Gouer	-13719
Groaz	-13720
Itali	-13721
Rusek	-13722
Trein	-13723
Treñv	-13724
Uzher	-13725
achos	-13726
adilh	-13727
alabr	-13728
andeh	-13729
ariad	-13730
ariañ	-13731
arvez	-13732
asher	-13733
ashet	-13734
astoy	-13735
atour	-13736
ausli	-13737
bajil	-13738
bater	-13739
beriñ	-13740
blant	-13741
bredo	-13742
brizh	-13743
brook	-13744
ceton	-13745
eanut	-13746
ellet	-13747
enezh	-13748
enver	-13749
eudeg	-13750
eurzh	-13751
ezout	-13752
eñver	-13753
fouzh	-13754
garzh	-13755
gital	-13756
gomzh	-13757
hanel	-13758
hankr	-13759
hapel	-13760
hapet	-13761
harra	-13762
hiant	-13763
hiver	-13764
hlann	-13765
hnese	-13766
hobed	-13767
homar	-13768
hotel	-13769
hweil	-13770
ianek	-13771
ianer	-13772
ineet	-13773
inoet	-13774
ional	-13775
ister	-13776
istri	-13777
ivezh	-13778
kanañ	-13779
kannl	-13780
kevez	-13781
krezh	-13782
krist	-13783
manek	-13784
ollar	-13785
ollin	-13786
ondon	-13787
ouanv	-13788
oudur	-13789
oueze	-13790
ouilh	-13791
ouriñ	-13792
outel	-13793
perzh	-13794
prezh	-13795
raiet	-13796
rasañ	-13797
redet	-13798
rrann	-13799
samez	-13800
sandi	-13801
seuli	-13802
stamm	-13803
thavn	-13804
uniañ	-13805
urioù	-13806
usion	-13807
vroaz	-13808
vroel	-13809
vroet	-13810
zeroù	-13811
zoueg	-13812
▁"173	-13813
▁02-2	-13814
▁1,14	-13815
▁1110	-13816
▁1111	-13817
▁1200	-13818
▁1312	-13819
▁1533	-13820
▁1635	-13821
▁1655	-13822
▁17..	-13823
▁1844	-13824
▁1855	-13825
▁190.	-13826
▁1929	-13827
▁1935	-13828
▁1947	-13829
▁1958	-13830
▁1973	-13831
▁1978	-13832
▁2/20	-13833
▁2002	-13834
▁212.	-13835
▁2194	-13836
▁230.	-13837
▁238.	-13838
▁25.0	-13839
▁258.	-13840
▁2702	-13841
▁2939	-13842
▁2988	-13843
▁3/21	-13844
▁3090	-13845
▁310.	-13846
▁32,2	-13847
▁3528	-13848
▁416,	-13849
▁512.	-13850
▁53.9	-13851
▁58.3	-13852
▁678,	-13853
▁678.	-13854
▁734.	-13855
▁8002	-13856
▁Alli	-13857
▁Auck	-13858
▁Auto	-13859
▁Buit	-13860
▁Deam	-13861
▁Dege	-13862
▁Delt	-13863
▁Dhál	-13864
▁Dior	-13865
▁Doom	-13866
▁Expl	-13867
▁Fant	-13868
▁Folk	-13869
▁Frañ	-13870
▁Gell	-13871
▁Hazz	-13872
▁Kare	-13873
▁Kelv	-13874
▁Lann	-13875
▁Lañg	-13876
▁Leni	-13877
▁Lion	-13878
▁Love	-13879
▁Löck	-13880
▁Maka	-13881
▁Meiz	-13882
▁More	-13883
▁NaeL	-13884
▁Nael	-13885
▁Palm	-13886
▁Perc	-13887
▁Pork	-13888
▁Quad	-13889
▁Rale	-13890
▁Ritm	-13891
▁Setu	-13892
▁Sony	-13893
▁Soud	-13894
▁Soñj	-13895
▁Stoc	-13896
▁Stêr	-13897
▁Tech	-13898
▁Teiz	-13899
▁UTAA	-13900
▁Vitt	-13901
▁adan	-13902
▁aion	-13903
▁anan	-13904
▁aver	-13905
▁bass	-13906
▁bour	-13907
▁cace	-13908
▁chor	-13909
▁dreg	-13910
▁drol	-13911
▁drum	-13912
▁ebri	-13913
▁elel	-13914
▁epev	-13915
▁erlo	-13916
▁ezer	-13917
▁fiñv	-13918
▁flam	-13919
▁foul	-13920
▁fouz	-13921
▁garr	-13922
▁istr	-13923
▁keit	-13924
▁kerz	-13925
▁kuaz	-13926
▁lank	-13927
▁last	-13928
▁olim	-13929
▁pale	-13930
▁pank	-13931
▁pemp	-13932
▁pepr	-13933
▁pila	-13934
▁pill	-13935
▁pilo	-13936
▁roul	-13937
▁sañg	-13938
▁sañv	-13939
▁spag	-13940
▁stat	-13941
▁stiz	-13942
▁stug	-13943
▁teol	-13944
▁teuz	-13945
▁torr	-13946
▁vech	-13947
▁voed	-13948
-7-03.	-13949
/1986.	-13950
/1987.	-13951
/1989.	-13952
/2005.	-13953
0.744.	-13954
AAIDBI	-13955
ATISET	-13956
Aarhus	-13957
Argant	-13958
Center	-13959
Kornôg	-13960
Oregon	-13961
Sanado	-13962
Sphinx	-13963
Turkia	-13964
Uzadoù	-13965
Uzjjia	-13966
Vivilh	-13967
akalik	-13968
aouner	-13969
ariant	-13970
azhiañ	-13971
azvoud	-13972
bevaet	-13973
buneiñ	-13974
derezh	-13975
derioù	-13976
dinoer	-13977
druilh	-13978
erienn	-13979
ezeret	-13980
ezhiañ	-13981
ezienn	-13982
gouezh	-13983
gredeg	-13984
gweled	-13985
hambel	-13986
hanant	-13987
hapace	-13988
harant	-13989
harrañ	-13990
harred	-13991
hemour	-13992
hennoù	-13993
henvel	-13994
herenn	-13995
hifenn	-13996
hilhet	-13997
hizhañ	-13998
holiad	-13999
hollec	-14000
hollor	-14001
homant	-14002
hommer	-14003
hority	-14004
hornet	-14005
hornig	-14006
hornzh	-14007
hunier	-14008
huzier	-14009
hweziñ	-14010
ialial	-14011
ionier	-14012
isineg	-14013
istour	-14014
izippi	-14015
jimant	-14016
kennet	-14017
keñvel	-14018
kostez	-14019
krouet	-14020
kêrenn	-14021
lannet	-14022
linder	-14023
lozion	-14024
lugell	-14025
maezho	-14026
modern	-14027
moneiz	-14028
ostres	-14029
pellad	-14030
pennad	-14031
public	-14032
rankel	-14033
raoude	-14034
raouet	-14035
rigniñ	-14036
sevoud	-14037
sevrer	-14038
sgaard	-14039
skouzh	-14040
storzh	-14041
tanell	-14042
temper	-14043
terioù	-14044
ulture	-14045
unanet	-14046
uneget	-14047
usiezh	-14048
vallis	-14049
vdeleg	-14050
zouzet	-14051
▁"1634	-14052
▁"1999	-14053
▁04/22	-14054
▁1.000	-14055
▁1.800	-14056
▁11/08	-14057
▁12/30	-14058
▁12077	-14059
▁12467	-14060
▁154.0	-14061
▁156.0	-14062
▁164.0	-14063
▁168",	-14064
▁168".	-14065
▁17...	-14066
▁1700.	-14067
▁1776.	-14068
▁1793,	-14069
▁1793.	-14070
▁18.29	-14071
▁1857,	-14072
▁1868.	-14073
▁19,94	-14074
▁1907,	-14075
▁1933,	-14076
▁1937,	-14077
▁1944.	-14078
▁1947,	-14079
▁1958,	-14080
▁1961.	-14081
▁1969,	-14082
▁1972,	-14083
▁1979,	-14084
▁1990,	-14085
▁2004-	-14086
▁2007.	-14087
▁2012.	-14088
▁2015,	-14089
▁233,9	-14090
▁4/22.	-14091
▁4019.	-14092
▁4349.	-14093
▁45000	-14094
▁523,9	-14095
▁610,0	-14096
▁686.0	-14097
▁7/25.	-14098
▁746.0	-14099
▁900.0	-14100
▁Admir	-14101
▁Alley	-14102
▁Anang	-14103
▁Anıtê	-14104
▁Aozia	-14105
▁April	-14106
▁Ardev	-14107
▁Avant	-14108
▁Azeul	-14109
▁Bajik	-14110
▁Banjo	-14111
▁Batak	-14112
▁Beach	-14113
▁Bevañ	-14114
▁Bloaz	-14115
▁Books	-14116
▁Brooz	-14117
▁Cello	-14118
▁Death	-14119
▁Dream	-14120
▁Dušen	-14121
▁EPSTH	-14122
▁Ebrez	-14123
▁Elekt	-14124
▁Emgan	-14125
▁Field	-14126
▁Finch	-14127
▁Force	-14128
▁Foude	-14129
▁Frans	-14130
▁GROUP	-14131
▁Gouad	-14132
▁Gourc	-14133
▁Gugus	-14134
▁Gwenn	-14135
▁Haton	-14136
▁Iroaz	-14137
▁Itali	-14138
▁Jaish	-14139
▁Jesus	-14140
▁Kevin	-14141
▁Koust	-14142
▁Krouz	-14143
▁Laezh	-14144
▁Limon	-14145
▁Locks	-14146
▁Loued	-14147
▁Merit	-14148
▁Movie	-14149
▁Nijia	-14150
▁Padeh	-14151
▁Pando	-14152
▁Poulg	-14153
▁Roani	-14154
▁Skank	-14155
▁Spord	-14156
▁Stann	-14157
▁Suwed	-14158
▁Telek	-14159
▁Tremm	-14160
▁Water	-14161
▁Weder	-14162
▁aafel	-14163
▁albañ	-14164
▁ananv	-14165
▁anave	-14166
▁aozel	-14167
▁arkit	-14168
▁arvan	-14169
▁arwez	-14170
▁arzer	-14171
▁azeun	-14172
▁azezh	-14173
▁azezi	-14174
▁belec	-14175
▁bhaji	-14176
▁bihan	-14177
▁brant	-14178
▁branv	-14179
▁brouz	-14180
▁bugel	-14181
▁buhez	-14182
▁debet	-14183
▁devez	-14184
▁dinar	-14185
▁doañv	-14186
▁doket	-14187
▁douzh	-14188
▁dremm	-14189
▁eldol	-14190
▁emzer	-14191
▁eucel	-14192
▁faotr	-14193
▁fizik	-14194
▁forus	-14195
▁fosil	-14196
▁galet	-14197
▁ganed	-14198
▁ganin	-14199
▁genoc	-14200
▁glizh	-14201
▁goulo	-14202
▁gourk	-14203
▁groui	-14204
▁gwoue	-14205
▁heerc	-14206
▁heilh	-14207
▁heizh	-14208
▁herzh	-14209
▁juzel	-14210
▁lazer	-14211
▁livra	-14212
▁lousc	-14213
▁matel	-14214
▁moder	-14215
▁nevel	-14216
▁nudañ	-14217
▁oberr	-14218
▁parad	-14219
▁polok	-14220
▁radio	-14221
▁rager	-14222
▁renañ	-14223
▁saleg	-14224
▁salin	-14225
▁skank	-14226
▁stoud	-14227
▁teuli	-14228
▁troet	-14229
▁tromm	-14230
▁uheld	-14231
-09-27.	-14232
Avident	-14233
Esaouek	-14234
Fisikoù	-14235
Kornell	-14236
Romania	-14237
Sanvezh	-14238
Sanvoud	-14239
Tarrant	-14240
Tinkpot	-14241
alistik	-14242
alsmeer	-14243
anezhañ	-14244
anganed	-14245
eourien	-14246
evezhet	-14247
follenn	-14248
fontenn	-14249
goulenn	-14250
gwezher	-14251
hantell	-14252
harpenn	-14253
harrlec	-14254
harzour	-14255
hastrañ	-14256
hoariig	-14257
hoarred	-14258
hobrien	-14259
hokolad	-14260
hommetr	-14261
hpennañ	-14262
hubadoù	-14263
hvariañ	-14264
hwellañ	-14265
hwiadoù	-14266
kablenn	-14267
kantenn	-14268
koronal	-14269
leugenn	-14270
meudant	-14271
nevezet	-14272
okratel	-14273
prennañ	-14274
preziañ	-14275
ravadur	-14276
sanadoù	-14277
señvoud	-14278
steuben	-14279
systems	-14280
touzhet	-14281
treskoù	-14282
utalist	-14283
viyenko	-14284
vourien	-14285
zourien	-14286
▁'1634:	-14287
▁03380-	-14288
▁07-21.	-14289
▁07/25.	-14290
▁102.37	-14291
▁1099.0	-14292
▁12/30.	-14293
▁2014.0	-14294
▁2194.0	-14295
▁2702.0	-14296
▁29000.	-14297
▁296,65	-14298
▁3.800.	-14299
▁3048.0	-14300
▁3400.0	-14301
▁38.892	-14302
▁39332.	-14303
▁3990.0	-14304
▁511592	-14305
▁64.008	-14306
▁877.0.	-14307
▁9,833,	-14308
▁99,792	-14309
▁Abbrel	-14310
▁Aetani	-14311
▁Anezho	-14312
▁Antich	-14313
▁Arrhus	-14314
▁Arvezh	-14315
▁Ateniz	-14316
▁Austri	-14317
▁Azeilh	-14318
▁Britan	-14319
▁Chieti	-14320
▁Combat	-14321
▁Críona	-14322
▁Dekalb	-14323
▁Desaou	-14324
▁Diskoc	-14325
▁Ebrezh	-14326
▁Emelad	-14327
▁France	-14328
▁Friend	-14329
▁Gators	-14330
▁Gwezuz	-14331
▁Hellen	-14332
▁Heñval	-14333
▁Italeg	-14334
▁Jamaik	-14335
▁Jepson	-14336
▁Kadija	-14337
▁Kambus	-14338
▁Kennec	-14339
▁Kennet	-14340
▁Kenton	-14341
▁Lankal	-14342
▁Lankan	-14343
▁Lenner	-14344
▁Mastin	-14345
▁McDoug	-14346
▁Meudeg	-14347
▁Nodles	-14348
▁Otolem	-14349
▁Pajenn	-14350
▁Peanut	-14351
▁Penins	-14352
▁Perenn	-14353
▁Peters	-14354
▁Pianer	-14355
▁Plakad	-14356
▁Rosids	-14357
▁Roueze	-14358
▁Saozeg	-14359
▁Shinzō	-14360
▁States	-14361
▁Suñvro	-14362
▁Tacoma	-14363
▁Tamilh	-14364
▁Treane	-14365
▁Uhelet	-14366
▁Unanel	-14367
▁Warner	-14368
▁Yaisto	-14369
▁alaska	-14370
▁alozad	-14371
▁anvred	-14372
▁aotriñ	-14373
▁aozour	-14374
▁arabeg	-14375
▁arlañv	-14376
▁arload	-14377
▁aroude	-14378
▁banjoù	-14379
▁bannet	-14380
▁barber	-14381
▁bastoy	-14382
▁bennon	-14383
▁betenn	-14384
▁brevet	-14385
▁brouiñ	-14386
▁cachet	-14387
▁danvez	-14388
▁deraet	-14389
▁desist	-14390
▁deuset	-14391
▁deuzel	-14392
▁deuzig	-14393
▁digare	-14394
▁disoñv	-14395
▁dollar	-14396
▁endalh	-14397
▁ernoiñ	-14398
▁fricez	-14399
▁frudoù	-14400
▁fruits	-14401
▁heuzad	-14402
▁hezher	-14403
▁hezhoù	-14404
▁italeg	-14405
▁jamaik	-14406
▁karier	-14407
▁kashub	-14408
▁kennap	-14409
▁keuruz	-14410
▁kiloùk	-14411
▁koadoù	-14412
▁lakaer	-14413
▁lammet	-14414
▁liesse	-14415
▁maezad	-14416
▁mascad	-14417
▁metrom	-14418
▁muntañ	-14419
▁oaoueg	-14420
▁ofisiñ	-14421
▁pennal	-14422
▁pennig	-14423
▁pepizh	-14424
▁pineet	-14425
▁plaset	-14426
▁radenn	-14427
▁rannzh	-14428
▁rhythm	-14429
▁romant	-14430
▁rouezh	-14431
▁rêrenn	-14432
▁saozoc	-14433
▁sklaer	-14434
▁skolad	-14435
▁skopas	-14436
▁skopiz	-14437
▁skorap	-14438
▁skorañ	-14439
▁skrann	-14440
▁social	-14441
▁soñjet	-14442
▁stouer	-14443
▁tinein	-14444
▁unaneg	-14445
▁unaner	-14446
▁uroued	-14447
▁urzour	-14448
▁varzel	-14449
567-7920	-14450
8-11-02.	-14451
Atlantek	-14452
Aurakles	-14453
Limerick	-14454
Sanvezet	-14455
Squeezet	-14456
Uanamant	-14457
angkabau	-14458
angledet	-14459
ausliiga	-14460
dertbaan	-14461
hanomenn	-14462
harnadig	-14463
harnedad	-14464
harzhenn	-14465
hastoueg	-14466
hizhienn	-14467
hoarrezh	-14468
hornadeg	-14469
horozion	-14470
houristr	-14471
hreizioù	-14472
hwezfenn	-14473
iadennet	-14474
itourien	-14475
kalvinoù	-14476
kannlenn	-14477
ostilhoù	-14478
oudiadur	-14479
ouezhioù	-14480
ouzhienn	-14481
paradion	-14482
porzhiañ	-14483
roudeilh	-14484
rrannvro	-14485
seuliant	-14486
skourenn	-14487
tremenel	-14488
vrolaezh	-14489
▁102372.	-14490
▁1219.0.	-14491
▁1296,65	-14492
▁1461102	-14493
▁2003.0.	-14494
▁2194.0.	-14495
▁2195.0.	-14496
▁3078.48	-14497
▁40.744.	-14498
▁4387.00	-14499
▁94,8024	-14500
▁Alangoù	-14501
▁Alliant	-14502
▁Anouanv	-14503
▁Arezhoù	-14504
▁Astérix	-14505
▁Azerezh	-14506
▁Culture	-14507
▁Eastman	-14508
▁Elisted	-14509
▁Etiopeg	-14510
▁Evezniñ	-14511
▁Flandel	-14512
▁Foranad	-14513
▁Gardier	-14514
▁Gellout	-14515
▁Hazzard	-14516
▁Ivković	-14517
▁Japanek	-14518
▁Javaneg	-14519
▁Kelvine	-14520
▁Kornieg	-14521
▁Lesquin	-14522
▁Mammday	-14523
▁Mammvel	-14524
▁Marriot	-14525
▁Merrikh	-14526
▁Meudenn	-14527
▁Moskosk	-14528
▁Poloneg	-14529
▁Raleigh	-14530
▁Reizant	-14531
▁Robredo	-14532
▁Skolenn	-14533
▁Stoujal	-14534
▁Suvilki	-14535
▁Systems	-14536
▁Tappara	-14537
▁Turkien	-14538
▁Ukraina	-14539
▁Varsavi	-14540
▁Yamandú	-14541
▁Ywaydan	-14542
▁anantad	-14543
▁ardoñez	-14544
▁aroudoù	-14545
▁bananoù	-14546
▁belegel	-14547
▁belload	-14548
▁botsell	-14549
▁boulenn	-14550
▁breuzet	-14551
▁cervier	-14552
▁chorizo	-14553
▁cohadoù	-14554
▁daveget	-14555
▁dañvder	-14556
▁degaset	-14557
▁demonel	-14558
▁deseget	-14559
▁devezet	-14560
▁diazeiñ	-14561
▁diskoad	-14562
▁distruj	-14563
▁dizilet	-14564
▁douvoud	-14565
▁drammeg	-14566
▁drobarz	-14567
▁emgoulm	-14568
▁emgourm	-14569
▁etraiet	-14570
▁evezhet	-14571
▁fizikoù	-14572
▁foudeil	-14573
▁frantez	-14574
▁fricezh	-14575
▁gannvro	-14576
▁goudenn	-14577
▁gourant	-14578
▁gourezh	-14579
▁goustad	-14580
▁goutout	-14581
▁gwisket	-14582
▁heulaet	-14583
▁heuliad	-14584
▁hewelet	-14585
▁indiana	-14586
▁istramm	-14587
▁javanek	-14588
▁kantiet	-14589
▁kantoet	-14590
▁kentañv	-14591
▁korfenn	-14592
▁krankel	-14593
▁leugenn	-14594
▁maeziañ	-14595
▁maezilh	-14596
▁matemel	-14597
▁oriniek	-14598
▁oriniet	-14599
▁paleont	-14600
▁paotrou	-14601
▁peipsis	-14602
▁pennant	-14603
▁peprenn	-14604
▁pouezad	-14605
▁railhet	-14606
▁riblenn	-14607
▁roamant	-14608
▁stadiom	-14609
▁stredad	-14610
▁stredoù	-14611
▁talbenn	-14612
▁taolioù	-14613
▁toulloù	-14614
▁trechet	-14615
▁trombon	-14616
▁urzhiad	-14617
▁vouzhoù	-14618
Bangalore	-14619
Damantien	-14620
Matematik	-14621
advoudenn	-14622
amatorien	-14623
azvazadol	-14624
erezhienn	-14625
hambledad	-14626
jazlevier	-14627
marvouder	-14628
omprenner	-14629
perapisiñ	-14630
predizant	-14631
señvoudel	-14632
▁1461102.	-14633
▁1480153)	-14634
▁3360.12.	-14635
▁37116.0.	-14636
▁560090."	-14637
▁Aarthavn	-14638
▁Acehnese	-14639
▁Administ	-14640
▁AidAluna	-14641
▁Alaskasa	-14642
▁Anvoudig	-14643
▁Anvroioù	-14644
▁Aozeriañ	-14645
▁Aozerioù	-14646
▁Aozitour	-14647
▁Aozunezh	-14648
▁Arzeller	-14649
▁Arzhienn	-14650
▁Auckland	-14651
▁Brasilie	-14652
▁Britonek	-14653
▁Deraouet	-14654
▁Desennet	-14655
▁Dhálaigh	-14656
▁Dornadoù	-14657
▁Drekleur	-14658
▁Elistenn	-14659
▁Enrollad	-14660
▁Evrigniñ	-14661
▁Explorer	-14662
▁Faroesez	-14663
▁Flanders	-14664
▁Gwarania	-14665
▁Havering	-14666
▁Heinrich	-14667
▁Irowerzh	-14668
▁Italienn	-14669
▁Italiezh	-14670
▁Jorjjjia	-14671
▁Kingston	-14672
▁Kreizenn	-14673
▁Launienn	-14674
▁Ligadenn	-14675
▁Mamnight	-14676
▁Mckenzie	-14677
▁Mendriso	-14678
▁Milionis	-14679
▁Nijerian	-14680
▁Obrevlet	-14681
▁Oostbaan	-14682
▁Paranjal	-14683
▁Paranzad	-14684
▁Personel	-14685
▁Pleitner	-14686
▁Rannvagn	-14687
▁Republic	-14688
▁Roanalez	-14689
▁Skrivred	-14690
▁Sosialel	-14691
▁Spagnien	-14692
▁Strollet	-14693
▁Tennadoù	-14694
▁Unanavet	-14695
▁Waterloo	-14696
▁alamanek	-14697
▁almondoù	-14698
▁anazhiañ	-14699
▁anvelvel	-14700
▁aotrouzh	-14701
▁aozeriañ	-14702
▁ardoadur	-14703
▁arloazed	-14704
▁arouezen	-14705
▁aroulenn	-14706
▁arstered	-14707
▁arverezh	-14708
▁balistik	-14709
▁barredoù	-14710
▁betennet	-14711
▁broustet	-14712
▁caceport	-14713
▁cylinder	-14714
▁debriret	-14715
▁disranet	-14716
▁drammioù	-14717
▁dreuzfec	-14718
▁elveziad	-14719
▁emvodenn	-14720
▁ergrafer	-14721
▁ergravet	-14722
▁ergrañet	-14723
▁erlochet	-14724
▁fadennoù	-14725
▁fritigoù	-14726
▁frouzhoù	-14727
▁georjiek	-14728
▁gouarned	-14729
▁gouennoù	-14730
▁gouezhañ	-14731
▁goujarat	-14732
▁goureret	-14733
▁goustriñ	-14734
▁gouzhioù	-14735
▁gredanel	-14736
▁gwallenn	-14737
▁gwerzhet	-14738
▁impalaer	-14739
▁istitour	-14740
▁kennagaz	-14741
▁ligadenn	-14742
▁linennoù	-14743
▁metalant	-14744
▁mizholoù	-14745
▁murevrer	-14746
▁muzoudeg	-14747
▁parzhiañ	-14748
▁pevarvet	-14749
▁prefekur	-14750
▁reizadoù	-14751
▁rejimant	-14752
▁renerioù	-14753
▁sikouret	-14754
▁skapasis	-14755
▁skrannet	-14756
▁stourier	-14757
▁straight	-14758
▁stredenn	-14759
▁termenel	-14760
▁termenet	-14761
▁treuzenn	-14762
▁vezañvel	-14763
Washington	-14764
akalikasan	-14765
breviation	-14766
garzhelloù	-14767
hapaceport	-14768
hastrouilh	-14769
hirvrolenn	-14770
hlannadenn	-14771
▁"0236-529	-14772
▁"1588-263	-14773
▁"1732-242	-14774
▁1080-6377	-14775
▁1966-02-2	-14776
▁198803.0.	-14777
▁2004-12-1	-14778
▁2900.0.0.	-14779
▁3500.0.0.	-14780
▁3800.0.0.	-14781
▁39447000,	-14782
▁45644811,	-14783
▁488160.0,	-14784
▁Afrikanoù	-14785
▁Anstudenn	-14786
▁Anvoudenn	-14787
▁Aoziaoueg	-14788
▁Argantien	-14789
▁Argollenn	-14790
▁Arouniezh	-14791
▁Authority	-14792
▁Buitenvel	-14793
▁Degemeret	-14794
▁Goudennoù	-14795
▁Granadier	-14796
▁Kolombian	-14797
▁Kraftsman	-14798
▁Linbacker	-14799
▁Majdalene	-14800
▁Mezegegeg	-14801
▁Moreachos	-14802
▁Movieplay	-14803
▁Panterioù	-14804
▁Patriotez	-14805
▁Poulennad	-14806
▁Princeton	-14807
▁Salvadora	-14808
▁Sosialial	-14809
▁Spagnoned	-14810
▁Stitouenn	-14811
▁Tennadenn	-14812
▁Valenciek	-14813
▁Valentina	-14814
▁anezhoezh	-14815
▁anveladoù	-14816
▁arventenn	-14817
▁bombadenn	-14818
▁brouilhoù	-14819
▁centimetr	-14820
▁degouezet	-14821
▁deizhienn	-14822
▁dibarzhoù	-14823
▁dilezeret	-14824
▁drammadoù	-14825
▁dreizhiad	-14826
▁dreuzfalt	-14827
▁elveldeur	-14828
▁ergrafenn	-14829
▁erounezet	-14830
▁etrewelaz	-14831
▁goulennet	-14832
▁gwarezhed	-14833
▁gweletenn	-14834
▁implozion	-14835
▁jabrionad	-14836
▁javanienn	-14837
▁kantezhet	-14838
▁kashubien	-14839
▁kennadenn	-14840
▁kreuneget	-14841
▁literatur	-14842
▁obernezet	-14843
▁parzhienn	-14844
▁pellgomzh	-14845
▁pepourenn	-14846
▁peprennoù	-14847
▁perapisiñ	-14848
▁perenskis	-14849
▁peurskrid	-14850
▁peurvrenn	-14851
▁poulennad	-14852
▁raktanell	-14853
▁seleriezh	-14854
▁skapasizh	-14855
▁sonerezer	-14856
▁stlennvon	-14857
▁stourmour	-14858
▁vericelli	-14859
alsmeerbaan	-14860
gwerzherenn	-14861
hankadennig	-14862
hlouilhadig	-14863
hoarierienn	-14864
kefluniadur	-14865
lugennadenn	-14866
politikerez	-14867
▁01-01-2000	-14868
▁03/04/1901	-14869
▁0567-7920,	-14870
▁08-16-1920	-14871
▁09/22/1856	-14872
▁1360-0443,	-14873
▁139705000,	-14874
▁179942000.	-14875
▁1930-01-20	-14876
▁1941-7-03.	-14877
▁2006-12-31	-14878
▁318875313.	-14879
▁373513000.	-14880
▁380700000,	-14881
▁Aethelwald	-14882
▁Amerikanet	-14883
▁Aozitouenn	-14884
▁Arremiacao	-14885
▁Bundsgaard	-14886
▁Eldelezioù	-14887
▁Elektropop	-14888
▁Enrolladoù	-14889
▁Gardrezioù	-14890
▁Gwerzennoù	-14891
▁Gwestadenn	-14892
▁Kennaskaet	-14893
▁Kilometroù	-14894
▁Krommuniad	-14895
▁Matematezh	-14896
▁Matviyenko	-14897
▁Northbrook	-14898
▁Ouzhpennet	-14899
▁Rannvroioù	-14900
▁Rouantelez	-14901
▁Spangledet	-14902
▁Strolladig	-14903
▁Warnemonde	-14904
▁Zamboanged	-14905
▁amerikanel	-14906
▁banyumasan	-14907
▁deskiadenn	-14908
▁elektronik	-14909
▁elektropop	-14910
▁ergorennoù	-14911
▁federalizh	-14912
▁fritterioù	-14913
▁goulladenn	-14914
▁gwiadennet	-14915
▁kanaourien	-14916
▁kevreadenn	-14917
▁laboureret	-14918
▁piladennad	-14919
▁rannvoudeg	-14920
▁senadennad	-14921
▁skapizhiad	-14922
▁skoazeller	-14923
▁spangledet	-14924
▁stounerezh	-14925
▁teuliadenn	-14926
▁trevrolenn	-14927
Avidentennoù	-14928
▁"0025-5858"	-14929
▁01-01-1959,	-14930
▁05/05/2005.	-14931
▁07/23/1927.	-14932
▁10264000000	-14933
▁1857-03-03.	-14934
▁1907-47-11)	-14935
▁1933-10-17)	-14936
▁1939-01-03.	-14937
▁1958-11-02.	-14938
▁20002-9327.	-14939
▁2001-01-01.	-14940
▁2003-09-27.	-14941
▁2015-06-27.	-14942
▁324,720,797	-14943
▁39447000.0,	-14944
▁399710000.0	-14945
▁Andalusiezh	-14946
▁Aostraliezh	-14947
▁Aostroudenn	-14948
▁Arventennoù	-14949
▁Commelinids	-14950
▁Eldelezhioù	-14951
▁Elvelandant	-14952
▁Institouenn	-14953
▁Katerpillar	-14954
▁Minangkabau	-14955
▁Pannvannvro	-14956
▁Progannvoud	-14957
▁Stoustouenn	-14958
▁Techsystems	-14959
▁Treuzhiadoù	-14960
▁Vikausliiga	-14961
▁Zambanganed	-14962
▁arzhankadoù	-14963
▁bannilherez	-14964
▁dilechiadur	-14965
▁enrollennoù	-14966
▁gitarourien	-14967
▁gitarrennoù	-14968
▁gouestadenn	-14969
▁goustagapis	-14970
▁gouzhiadenn	-14971
▁gwezhiadenn	-14972
▁misionisipi	-14973
▁psichedelia	-14974
▁stourmellad	-14975
▁treuzfurmiñ	-14976
▁treuzhennoù	-14977
▁100.000.000.	-14978
▁135589000.0,	-14979
▁179942000.0.	-14980
▁9,833,516.63	-14981
▁Edukatourioù	-14982
▁Goullonderiñ	-14983
▁Matematerezh	-14984
▁Meinerierezh	-14985
▁Misionisippi	-14986
▁Misionizippi	-14987
▁Paleobiology	-14988
▁Zamboanganoù	-14989
▁amerikanedad	-14990
▁kompagnunezh	-14991
▁roadennadenn	-14992
▁testennadenn	-14993
Kompagnunerezh	-14994
▁Ardevanahalli	-14995
▁Institouadenn	-14996
▁Makakalikasan	-14997
▁drobarzhelloù	-14998
▁laboureourien	-14999
▁misionissippi	-15000
▁135589000.0.0.	-15001
▁142603000.0.0.	-15002
▁183309000.0.0.	-15003
▁29919600000.0.	-15004
▁349206000000.0	-15005
▁416136000000.0	-15006
▁Meurgarzhelloù	-15007
▁Strolladourien	-15008
▁arventennadenn	-15009
8-1-4165-4253-7,	-15010
▁283326000000.0.	-15011
▁288749000000.0,	-15012
▁Paleobiologiezh	-15013
▁Paleontologiezh	-15014
▁paleontologiezh	-15015
▁pennompagnunezh	-15016
"),	-15017
,48	-15018
,51	-15019
,74	-15020
-05	-15021
-06	-15022
.),	-15023
/93	-15024
/98	-15025
37,	-15026
4",	-15027
4,0	-15028
60,	-15029
928	-15030
Esk	-15031
Ezi	-15032
Que	-15033
STH	-15034
Urs	-15035
efs	-15036
eñc	-15037
nku	-15038
skr	-15039
uks	-15040
▁-8	-15041
-04,	-15042
-195	-15043
-196	-15044
-23)	-15045
-26,	-15046
/01.	-15047
/193	-15048
/194	-15049
3,95	-15050
3671	-15051
39,3	-15052
411.	-15053
6031	-15054
898.	-15055
9971	-15056
Bart	-15057
Batm	-15058
DICE	-15059
Engl	-15060
ISBN	-15061
Vazr	-15062
arry	-15063
azoù	-15064
beug	-15065
beus	-15066
blaz	-15067
disk	-15068
drog	-15069
drug	-15070
efel	-15071
eoul	-15072
funk	-15073
garg	-15074
habl	-15075
hask	-15076
hatr	-15077
hemm	-15078
hogm	-15079
hroc	-15080
hrys	-15081
ithm	-15082
kaat	-15083
kilo	-15084
koaz	-15085
krav	-15086
krom	-15087
ombi	-15088
ougu	-15089
prim	-15090
qeap	-15091
rick	-15092
samb	-15093
skor	-15094
soup	-15095
ulov	-15096
uzor	-15097
viñs	-15098
zeet	-15099
07.	-15100
-17.	-15101
-189	-15102
/32.	-15103
Bean	-15104
aeañ	-15105
bess	-15106
eurs	-15107
eurv	-15108
hron	-15109
peur	-15110
ross	-15111
zier	-15112
zrêr	-15113
ábor	-15114
ñget	-15115
ünku	-15116
▁!".	-15117
▁-3,	-15118
▁02-	-15119
▁04-	-15120
▁08,	-15121
▁1,8	-15122
▁1.7	-15123
▁154	-15124
▁238	-15125
▁244	-15126
▁268	-15127
▁325	-15128
▁36,	-15129
▁4.0	-15130
▁4/4	-15131
▁45,	-15132
▁458	-15133
▁470	-15134
▁533	-15135
▁594	-15136
▁7.0	-15137
[...]
