<unk>	0
<s>	0
</s>	0
▁в	-0
▁и	-1
на	-2
ро	-3
ен	-4
ет	-5
ан	-6
ер	-7
ко	-8
по	-9
ст	-10
но	-11
ра	-12
ит	-13
▁А	-14
го	-15
ли	-16
то	-17
ся	-18
▁с	-19
ло	-20
▁на	-21
та	-22
▁о	-23
ль	-24
▁б	-25
ре	-26
▁-	-27
▁а	-28
ди	-29
▁С	-30
▁п	-31
ни	-32
ны	-33
ля	-34
▁1	-35
де	-36
▁Б	-37
▁го	-38
▁М	-39
ка	-40
да	-41
▁ко	-42
до	-43
▁м	-44
ки	-45
ри	-46
хо	-47
ла	-48
▁по	-49
вля	-50
00	-51
ар	-52
▁О	-53
▁я	-54
▁П	-55
▁К	-56
вляет	-57
ру	-58
ход	-59
не	-60
ва	-61
▁у	-62
▁кото	-63
ани	-64
▁2	-65
са	-66
▁со	-67
ходит	-68
ей	-69
ио	-70
си	-71
ду	-72
▁из	-73
▁Д	-74
▁"	-75
▁Ф	-76
ме	-77
во	-78
▁э	-79
▁бы	-80
те	-81
▁г	-82
ес	-83
▁В	-84
лу	-85
▁И	-86
вляется	-87
▁(	-88
со	-89
ти	-90
▁Т	-91
нг	-92
ный	-93
▁ра	-94
ры	-95
▁Г	-96
▁является	-97
ходится	-98
▁находится	-99
пор	-100
▁19	-101
▁к	-102
ров	-103
▁Н	-104
ор	-105
ха	-106
ми	-107
▁Р	-108
ем	-109
эро	-110
эропор	-111
▁име	-112
жен	-113
▁ст	-114
лен	-115
ент	-116
▁имеет	-117
ци	-118
дер	-119
ско	-120
спо	-121
▁был	-122
▁ч	-123
вер	-124
ной	-125
ест	-126
ил	-127
ран	-128
▁Л	-129
ром	-130
споло	-131
▁Ш	-132
▁ро	-133
чес	-134
ек	-135
▁которы	-136
лан	-137
▁располо	-138
лю	-139
▁ш	-140
ви	-141
▁Э	-142
ма	-143
▁ли	-144
ис	-145
лет	-146
за	-147
▁года	-148
эропорт	-149
▁который	-150
дж	-151
ле	-152
▁шта	-153
,0	-154
ба	-155
ном	-156
▁ФК	-157
ку	-158
ью	-159
▁году	-160
▁расположен	-161
зи	-162
род	-163
ут	-164
▁3	-165
кий	-166
▁Ба	-167
▁Те	-168
па	-169
ери	-170
ста	-171
ам	-172
ин	-173
▁вз	-174
▁У	-175
▁ка	-176
▁об	-177
▁Ма	-178
га	-179
иона	-180
▁где	-181
сит	-182
▁Ин	-183
ом	-184
он	-185
▁ф	-186
ча	-187
гра	-188
же	-189
▁д	-190
реди	-191
ША	-192
ца	-193
доч	-194
▁поло	-195
ел	-196
поса	-197
посадоч	-198
летно	-199
нгреди	-200
▁вы	-201
ус	-202
ши	-203
ят	-204
▁“	-205
▁ингреди	-206
ита	-207
▁США	-208
лом	-209
нивер	-210
ниверсит	-211
▁взлетно	-212
лся	-213
000	-214
ниверситет	-215
ная	-216
▁Он	-217
▁е	-218
10	-219
ги	-220
етров	-221
рх	-222
▁штат	-223
вает	-224
▁роди	-225
кру	-226
▁Х	-227
сп	-228
вани	-229
тов	-230
кон	-231
ту	-232
ке	-233
льный	-234
▁блю	-235
ные	-236
зы	-237
▁от	-238
бо	-239
хас	-240
ский	-241
ное	-242
пу	-243
ции	-244
ол	-245
▁ре	-246
▁это	-247
жа	-248
▁окру	-249
ден	-250
▁та	-251
ве	-252
ных	-253
▁аэропорт	-254
▁пер	-255
ют	-256
бр	-257
▁полос	-258
дри	-259
▁Нью	-260
пи	-261
сто	-262
▁университет	-263
▁которо	-264
▁Дж	-265
би	-266
▁за	-267
".	-268
ну	-269
луж	-270
ща	-271
▁Па	-272
том	-273
▁игра	-274
▁лидер	-275
ов	-276
▁соста	-277
пра	-278
чи	-279
▁20	-280
▁–	-281
дом	-282
се	-283
▁де	-284
цент	-285
▁во	-286
▁Алан	-287
от	-288
▁Ан	-289
ного	-290
▁родился	-291
сть	-292
▁(10	-293
▁Е	-294
▁горо	-295
▁мо	-296
зии	-297
▁Техас	-298
▁200	-299
▁член	-300
лли	-301
нов	-302
ель	-303
еж	-304
лии	-305
▁Ка	-306
дин	-307
▁ки	-308
посадочной	-309
▁соз	-310
дером	-311
▁как	-312
ежду	-313
▁Си	-314
▁Аэропорт	-315
народ	-316
▁полосы	-317
центр	-318
еждународ	-319
▁ор	-320
▁Би	-321
ничес	-322
-1	-323
ман	-324
ком	-325
▁блюдо	-326
▁те	-327
нем	-328
▁так	-329
звани	-330
утбо	-331
▁Ви	-332
▁дли	-333
итек	-334
лоща	-335
рхитек	-336
лощад	-337
сти	-338
▁до	-339
▁Ч	-340
ера	-341
ких	-342
▁городе	-343
ании	-344
руп	-345
хно	-346
▁аэропор	-347
▁ма	-348
бря	-349
▁Ам	-350
▁ингредиент	-351
ется	-352
▁Ро	-353
▁родом	-354
еп	-355
пол	-356
▁Инди	-357
▁язы	-358
▁сто	-359
▁рег	-360
кан	-361
доне	-362
эн	-363
▁его	-364
ания	-365
▁ин	-366
▁мор	-367
▁про	-368
▁также	-369
▁моря	-370
▁килом	-371
вор	-372
▁уров	-373
▁201	-374
лужи	-375
ья	-376
лица	-377
фи	-378
▁4	-379
служи	-380
",	-381
дан	-382
мер	-383
▁пе	-384
▁ингредиен	-385
▁обслужи	-386
логи	-387
ап	-388
чил	-389
ия	-390
снов	-391
хнологи	-392
хнологичес	-393
бе	-394
▁упра	-395
▁архитек	-396
ском	-397
▁названи	-398
▁На	-399
щи	-400
кс	-401
▁з	-402
мен	-403
▁была	-404
ал	-405
мп	-406
▁над	-407
▁город	-408
▁стран	-409
▁уровнем	-410
▁5	-411
чар	-412
▁мест	-413
нии	-414
▁Ли	-415
аль	-416
амят	-417
жно	-418
▁высо	-419
ня	-420
амятни	-421
▁се	-422
▁метров	-423
000,0	-424
иод	-425
▁обслуживает	-426
ской	-427
полло	-428
ным	-429
▁километров	-430
▁при	-431
вя	-432
су	-433
▁эпо	-434
▁период	-435
влен	-436
цы	-437
ое	-438
▁З	-439
жит	-440
▁клу	-441
▁составляет	-442
бита	-443
▁Технологичес	-444
тор	-445
▁Ол	-446
▁он	-447
▁Мен	-448
дви	-449
▁196	-450
▁пре	-451
ге	-452
▁6	-453
▁Ра	-454
вы	-455
ур	-456
нару	-457
▁Ла	-458
▁лидером	-459
▁ию	-460
▁футбо	-461
бер	-462
▁ку	-463
чит	-464
ского	-465
▁ба	-466
▁груп	-467
▁умер	-468
тничес	-469
▁Ита	-470
▁аэропорта	-471
▁11	-472
0000	-473
стит	-474
▁обнару	-475
амятник	-476
битальный	-477
▁бе	-478
рая	-479
▁округа	-480
▁играет	-481
▁Индоне	-482
▁региона	-483
ати	-484
кая	-485
▁10	-486
▁нас	-487
Аполло	-488
▁высоте	-489
▁которая	-490
▁этничес	-491
▁«	-492
виа	-493
▁199	-494
СА	-495
еждународный	-496
▁т	-497
▁Ко	-498
мс	-499
лай	-500
читы	-501
вест	-502
▁насчиты	-503
▁извест	-504
тон	-505
▁нау	-506
▁орбитальный	-507
пы	-508
рем	-509
енно	-510
АСА	-511
ксо	-512
▁Аль	-513
▁создан	-514
Дж	-515
▁A	-516
ков	-517
▁Орх	-518
ху	-519
эй	-520
ерси	-521
кв	-522
▁ча	-523
или	-524
▁проис	-525
му	-526
вет	-527
▁пери	-528
▁апо	-529
▁можно	-530
ун	-531
про	-532
▁Памятник	-533
▁Пен	-534
Джерси	-535
▁инстит	-536
▁площад	-537
чарья	-538
▁НАСА	-539
na	-540
▁гра	-541
▁Ачарья	-542
▁насчитывает	-543
еро	-544
▁воз	-545
▁Индонезии	-546
эр	-547
тер	-548
кипа	-549
▁Орхус	-550
▁экипа	-551
▁0	-552
ксп	-553
ели	-554
ксплу	-555
лья	-556
▁27	-557
лем	-558
мор	-559
лия	-560
▁Ал	-561
ксплуати	-562
▁говор	-563
зио	-564
лин	-565
емп	-566
ств	-567
ются	-568
▁экипажа	-569
▁Во	-570
▁Я	-571
ски	-572
ард	-573
жена	-574
ксплуатиру	-575
зо	-576
ган	-577
▁Международный	-578
чен	-579
ьет	-580
▁Ар	-581
▁дека	-582
▁Ю	-583
дани	-584
эндви	-585
ерикан	-586
▁говорят	-587
▁название	-588
,0.	-589
▁Шта	-590
▁пол	-591
екти	-592
дризио	-593
▁Мендризио	-594
циона	-595
▁пехо	-596
▁явля	-597
▁Италии	-598
▁Ад	-599
▁Фран	-600
▁наук	-601
▁Малай	-602
ый	-603
им	-604
сон	-605
стро	-606
▁членом	-607
рон	-608
▁Шеп	-609
▁происходит	-610
▁эксплуатиру	-611
ена	-612
▁Ми	-613
▁не	-614
сона	-615
▁Элли	-616
▁столица	-617
чест	-618
оедин	-619
▁най	-620
).	-621
ство	-622
▁Сент	-623
честве	-624
▁качестве	-625
▁18	-626
стью	-627
тель	-628
▁членов	-629
▁которой	-630
▁Ак	-631
етра	-632
проекти	-633
▁Соедин	-634
ную	-635
ция	-636
эри	-637
er	-638
▁раз	-639
йо	-640
▁Индии	-641
▁клуб	-642
▁Шепард	-643
▁входит	-644
▁спроекти	-645
гла	-646
ший	-647
тором	-648
кончил	-649
▁мас	-650
▁Олдри	-651
▁длину	-652
▁декабря	-653
пп	-654
ене	-655
▁195	-656
ум	-657
сер	-658
▁возгла	-659
рит	-660
деми	-661
кадеми	-662
88	-663
бли	-664
▁полоса	-665
▁192	-666
посадочная	-667
▁Аса	-668
▁под	-669
▁авиа	-670
▁основ	-671
▁перицентр	-672
нга	-673
▁являются	-674
”,	-675
джа	-676
▁15	-677
▁Малайзии	-678
▁эпоху	-679
▁университета	-680
ть	-681
▁содер	-682
▁Эллиот	-683
▁архитекту	-684
19	-685
▁но	-686
),	-687
исси	-688
ее	-689
▁па	-690
▁Бан	-691
лав	-692
▁ва	-693
▁193	-694
▁которого	-695
▁Бин	-696
io	-697
▁Ман	-698
▁окончил	-699
телем	-700
▁штате	-701
▁Олдрин	-702
▁футболу	-703
▁ингредиенты	-704
▁июля	-705
дни	-706
▁Ости	-707
▁институт	-708
рен	-709
▁Баз	-710
▁беко	-711
▁Остине	-712
97	-713
ты	-714
силь	-715
гн	-716
над	-717
сильвани	-718
▁Кар	-719
▁лет	-720
▁31	-721
▁беконом	-722
15	-723
испы	-724
испыта	-725
▁апоцентр	-726
вен	-727
▁найти	-728
▁23	-729
ричес	-730
▁десер	-731
сторичес	-732
▁7	-733
пен	-734
лтон	-735
▁Пенсильвани	-736
▁I	-737
ября	-738
мо	-739
▁Его	-740
▁коми	-741
вей	-742
▁Аш	-743
▁Исп	-744
▁округ	-745
▁Тур	-746
▁Базз	-747
▁Гре	-748
ане	-749
дамс	-750
▁Адамс	-751
▁летчи	-752
▁Й	-753
ксов	-754
▁комиксов	-755
Лу	-756
▁созда	-757
▁Пенсильвания	-758
зу	-759
емпиона	-760
▁ее	-761
ие	-762
▁S	-763
скон	-764
▁метра	-765
елл	-766
▁кол	-767
▁2006	-768
рии	-769
Йор	-770
стре	-771
сконси	-772
▁страны	-773
зер	-774
емо	-775
▁12	-776
ково	-777
▁Висконси	-778
ному	-779
▁язык	-780
▁историчес	-781
▁расположена	-782
▁пос	-783
▁состав	-784
▁Ва	-785
даль	-786
▁Шко	-787
▁эта	-788
▁2014	-789
▁Академи	-790
сом	-791
фор	-792
▁играл	-793
▁Шри	-794
екси	-795
1)	-796
лос	-797
лифор	-798
рован	-799
36	-800
▁Эн	-801
ерен	-802
▁Технологический	-803
тта	-804
ейкв	-805
коро	-806
▁Швей	-807
▁говя	-808
▁Калифор	-809
лы	-810
▁Гу	-811
▁соус	-812
гу	-813
ланди	-814
▁Бейкв	-815
▁Мисси	-816
из	-817
ленд	-818
▁Висконсин	-819
▁Фили	-820
уд	-821
▁Бейквелл	-822
▁Университет	-823
▁архитектуры	-824
ев	-825
сипи	-826
▁11-	-827
▁назы	-828
▁пехот	-829
▁Миссисипи	-830
нв	-831
дже	-832
рази	-833
ейн	-834
илл	-835
▁17	-836
▁Хол	-837
▁или	-838
▁полку	-839
▁пехотному	-840
▁Соединен	-841
▁ам	-842
▁Анг	-843
▁пен	-844
▁граж	-845
▁сэндви	-846
ша	-847
▁сво	-848
▁пров	-849
▁14	-850
▁возглавляет	-851
▁25	-852
▁выш	-853
щий	-854
▁1963	-855
уз	-856
ай	-857
воз	-858
▁ру	-859
▁уча	-860
▁Национа	-861
кой	-862
▁служ	-863
юс	-864
дас	-865
льзу	-866
корость	-867
бэй	-868
бэйкон	-869
Аполлон	-870
▁стране	-871
ечен	-872
лэ	-873
▁ест	-874
▁Школа	-875
епен	-876
▁Кол	-877
▁Пер	-878
▁Баку	-879
▁содержит	-880
▁Ре	-881
▁степен	-882
бит	-883
▁2000	-884
▁Индия	-885
рас	-886
▁Основ	-887
▁Швейца	-888
99	-889
ье	-890
ющ	-891
иса	-892
рми	-893
гало	-894
став	-895
хадж	-896
▁Бангало	-897
▁которое	-898
душ	-899
ферен	-900
▁американ	-901
йс	-902
ити	-903
арен	-904
▁блюда	-905
ец	-906
тик	-907
иони	-908
▁Паки	-909
▁ингредиентов	-910
▁198	-911
воздуш	-912
ионико	-913
/2	-914
якс	-915
▁По	-916
надле	-917
нгапу	-918
▁столи	-919
▁группа	-920
33	-921
▁B	-922
стер	-923
мат	-924
▁Ст	-925
Гэ	-926
▁пи	-927
Гэмп	-928
шире	-929
▁Джей	-930
▁постро	-931
▁Сингапу	-932
11	-933
-12	-934
рова	-935
▁принадле	-936
▁скорость	-937
▁ста	-938
бы	-939
уди	-940
▁Уил	-941
▁ингредиентом	-942
Лан	-943
рай	-944
▁Эф	-945
▁Лидером	-946
лэк	-947
вший	-948
▁паиса	-949
▁международ	-950
хан	-951
▁од	-952
▁су	-953
деха	-954
▁Амери	-955
18	-956
▁ю	-957
лла	-958
рей	-959
ната	-960
▁Мэри	-961
хничес	-962
▁Карната	-963
екон	-964
▁Мар	-965
▁летчиком	-966
гре	-967
умы	-968
хор	-969
нигн	-970
▁Румы	-971
▁один	-972
▁Акита	-973
▁M	-974
эль	-975
▁языке	-976
▁Франции	-977
60	-978
лина	-979
▁Америки	-980
▁Джо	-981
сонаж	-982
▁8	-983
лэкпу	-984
▁есть	-985
▁место	-986
▁Испании	-987
зан	-988
▁взры	-989
▁Чемпиона	-990
испытателем	-991
вес	-992
▁Го	-993
▁пар	-994
посадочную	-995
рак	-996
рюс	-997
жден	-998
▁Греции	-999
▁частью	-1000
▁котором	-1001
90	-1002
▁Джон	-1003
▁полосу	-1004
вой	-1005
▁Та	-1006
брит	-1007
тат	-1008
цвет	-1009
ломар	-1010
▁Холл	-1011
▁Длина	-1012
силомар	-1013
клю	-1014
верш	-1015
▁длиной	-1016
елико	-1017
▁вклю	-1018
Гэмпшире	-1019
еликобрит	-1020
ика	-1021
мби	-1022
ней	-1023
ния	-1024
▁для	-1025
▁комп	-1026
▁F	-1027
маш	-1028
▁си	-1029
▁райо	-1030
нигнит	-1031
▁этническая	-1032
▁кон	-1033
▁2015	-1034
▁обнаруж	-1035
▁Академия	-1036
эт	-1037
алла	-1038
твер	-1039
уден	-1040
▁испо	-1041
▁студен	-1042
щен	-1043
▁Аля	-1044
▁Великобрит	-1045
▁Йо	-1046
Луис	-1047
▁Бел	-1048
бай	-1049
вая	-1050
ион	-1051
пуля	-1052
▁пода	-1053
апечен	-1054
зербай	-1055
▁включа	-1056
▁говяди	-1057
▁сезо	-1058
▁Военно	-1059
▁Бионико	-1060
▁площадка	-1061
▁спроектирован	-1062
ано	-1063
▁Ха	-1064
дание	-1065
джером	-1066
▁отстав	-1067
кры	-1068
Бекон	-1069
▁Далла	-1070
▁Азербай	-1071
7)	-1072
89	-1073
итель	-1074
ую	-1075
▁V	-1076
▁Бу	-1077
кмен	-1078
▁Про	-1079
Луисе	-1080
▁кури	-1081
▁Англии	-1082
30	-1083
ям	-1084
Абе	-1085
дис	-1086
ходят	-1087
▁популя	-1088
▁Бинигнит	-1089
▁аэропорту	-1090
3)	-1091
▁N	-1092
▁Валь	-1093
▁Роуд	-1094
▁округе	-1095
▁Калифорнии	-1096
бег	-1097
▁Ри	-1098
хаджи	-1099
▁убег	-1100
▁Мекси	-1101
▁убегания	-1102
▁расположения	-1103
”.	-1104
▁Ц	-1105
▁сам	-1106
▁Алпи	-1107
▁степенью	-1108
▁ж	-1109
ter	-1110
шир	-1111
рана	-1112
▁мин	-1113
билин	-1114
ковод	-1115
▁Аддис	-1116
▁педас	-1117
Запечен	-1118
▁Су	-1119
райя	-1120
ства	-1121
весва	-1122
стрит	-1123
▁Асад	-1124
▁Мичи	-1125
исвесва	-1126
▁Антвер	-1127
исвесварайя	-1128
▁эксплуатируется	-1129
ря	-1130
ску	-1131
▁Мо	-1132
кого	-1133
ланко	-1134
циаль	-1135
000000	-1136
▁Висвесварайя	-1137
нан	-1138
арта	-1139
лена	-1140
ское	-1141
▁Дер	-1142
▁вышел	-1143
-11	-1144
▁пило	-1145
▁Дерби	-1146
▁Абилин	-1147
▁использу	-1148
▁техничес	-1149
62	-1150
хи	-1151
вид	-1152
нге	-1153
▁то	-1154
рахас	-1155
▁Йохан	-1156
ящ	-1157
▁Мичиган	-1158
коб	-1159
гани	-1160
▁Ога	-1161
лумби	-1162
▁было	-1163
▁Дании	-1164
▁сезоне	-1165
▁принадлежит	-1166
▁Ку	-1167
▁Се	-1168
▁Асиломар	-1169
49	-1170
иа	-1171
анг	-1172
▁28	-1173
вана	-1174
изне	-1175
ными	-1176
▁Сан	-1177
ность	-1178
▁полу	-1179
▁бизне	-1180
▁органи	-1181
▁Карнатака	-1182
▁Великобритании	-1183
тив	-1184
бран	-1185
▁ово	-1186
▁Футбо	-1187
▁бизнеса	-1188
вад	-1189
вро	-1190
▁ту	-1191
▁заверш	-1192
Аполлона	-1193
▁популяр	-1194
есс	-1195
лас	-1196
▁Ти	-1197
▁десерт	-1198
▁Далласе	-1199
▁организа	-1200
▁Де	-1201
льян	-1202
▁Сто	-1203
▁вари	-1204
▁пеньет	-1205
▁провин	-1206
▁Туркмен	-1207
итра	-1208
стан	-1209
стра	-1210
▁отно	-1211
▁Бирми	-1212
мец	-1213
сточ	-1214
цией	-1215
▁местом	-1216
▁построен	-1217
▁бит	-1218
лэкпул	-1219
▁масло	-1220
▁Барахас	-1221
▁обнаружил	-1222
мон	-1223
роу	-1224
▁му	-1225
скус	-1226
▁бан	-1227
икаго	-1228
▁Ашера	-1229
▁Брази	-1230
▁Колмор	-1231
▁Чикаго	-1232
хоб	-1233
ледж	-1234
▁Лар	-1235
▁Уот	-1236
лощадка	-1237
хобланко	-1238
▁Ади	-1239
▁Националь	-1240
рец	-1241
▁1932	-1242
▁Рег	-1243
▁Это	-1244
▁моло	-1245
▁групп	-1246
▁столиц	-1247
▁Антверпен	-1248
▁названием	-1249
▁архитектором	-1250
бу	-1251
лс	-1252
▁пред	-1253
▁Белла	-1254
▁Дербишир	-1255
▁км	-1256
▁мене	-1257
пплтон	-1258
хе	-1259
ред	-1260
Аякс	-1261
дион	-1262
▁арен	-1263
▁ноября	-1264
▁Региона	-1265
▁управляется	-1266
▁июня	-1267
▁марта	-1268
▁Румынии	-1269
нана	-1270
дерни	-1271
37	-1272
ере	-1273
▁Уи	-1274
апси	-1275
ранс	-1276
▁она	-1277
емори	-1278
▁Крей	-1279
▁Уилья	-1280
▁искус	-1281
▁Эпплтон	-1282
▁спроектирова	-1283
▁ме	-1284
▁Энд	-1285
▁Огайо	-1286
▁управля	-1287
▁искусств	-1288
Ри	-1289
деш	-1290
▁Фе	-1291
▁ни	-1292
итай	-1293
теля	-1294
тлан	-1295
▁ран	-1296
▁2009	-1297
ествен	-1298
тлантик	-1299
▁студентов	-1300
▁этнических	-1301
най	-1302
▁Ара	-1303
▁Бай	-1304
▁Кли	-1305
▁Эпо	-1306
▁док	-1307
▁Глен	-1308
▁стал	-1309
▁турец	-1310
▁Кливлен	-1311
▁Швейцарии	-1312
▁Ау	-1313
▁обнаружен	-1314
лда	-1315
мов	-1316
ские	-1317
▁Она	-1318
▁свя	-1319
анией	-1320
▁нача	-1321
ландия	-1322
55	-1323
▁часть	-1324
▁Региональный	-1325
39	-1326
цем	-1327
▁сек	-1328
ьетро	-1329
▁(101)	-1330
▁Эпоха	-1331
▁взрыв	-1332
▁солда	-1333
▁руковод	-1334
▁Мэриленд	-1335
▁Соединенных	-1336
▁бу	-1337
▁600	-1338
▁Асам	-1339
▁эпоха	-1340
▁университете	-1341
яу	-1342
бор	-1343
▁Лон	-1344
удинг	-1345
▁секун	-1346
сточной	-1347
стребит	-1348
▁компанией	-1349
ой	-1350
жей	-1351
ием	-1352
няя	-1353
▁Со	-1354
▁Кон	-1355
вшийся	-1356
,8	-1357
ким	-1358
поли	-1359
рама	-1360
фины	-1361
▁Пол	-1362
▁Мади	-1363
▁транс	-1364
Блэкпул	-1365
▁Пьетро	-1366
▁Филипп	-1367
▁Эндрюс	-1368
▁этажей	-1369
людо	-1370
тифи	-1371
▁250	-1372
▁Аляс	-1373
тифика	-1374
▁Блюдо	-1375
▁Штатов	-1376
дентифика	-1377
▁отставку	-1378
▁говядиной	-1379
07	-1380
Ам	-1381
tio	-1382
пер	-1383
▁Об	-1384
▁валю	-1385
вается	-1386
20	-1387
ые	-1388
ьер	-1389
цион	-1390
готов	-1391
▁Спор	-1392
▁имен	-1393
ференц	-1394
▁Столица	-1395
▁Атлантик	-1396
▁Бангалор	-1397
шим	-1398
▁Аф	-1399
ксей	-1400
ринв	-1401
▁Гер	-1402
▁сил	-1403
восто	-1404
▁Эфксей	-1405
▁Основные	-1406
▁провинции	-1407
ён	-1408
▁(1	-1409
▁103	-1410
▁аль	-1411
▁Агра	-1412
▁Гринв	-1413
▁граждани	-1414
▁D	-1415
блик	-1416
▁Андер	-1417
▁Север	-1418
▁авиаба	-1419
Беконный	-1420
готовлен	-1421
▁Бразилии	-1422
▁аэропортом	-1423
▁ингредиента	-1424
ющий	-1425
▁Ками	-1426
▁маги	-1427
Ак	-1428
бя	-1429
▁100	-1430
▁ита	-1431
▁себя	-1432
▁Лахор	-1433
▁массу	-1434
▁секунду	-1435
▁завершен	-1436
▁исторических	-1437
зе	-1438
зий	-1439
▁Зе	-1440
новид	-1441
▁аренда	-1442
▁которые	-1443
▁сэндвича	-1444
▁управлен	-1445
43	-1446
ос	-1447
ше	-1448
стр	-1449
▁II	-1450
хаса	-1451
▁300	-1452
▁юго	-1453
▁были	-1454
▁Техаса	-1455
▁служил	-1456
▁итальян	-1457
▁Чемпионате	-1458
600	-1459
рую	-1460
яти	-1461
▁че	-1462
саль	-1463
ским	-1464
▁зла	-1465
сонажа	-1466
правлен	-1467
▁Аляска	-1468
▁Ласаль	-1469
▁Уилере	-1470
▁Уильям	-1471
▁называется	-1472
re	-1473
Дей	-1474
▁In	-1475
льной	-1476
▁1918	-1477
▁Анго	-1478
▁лидера	-1479
▁создана	-1480
дним	-1481
матри	-1482
▁ранее	-1483
▁пилотом	-1484
▁включает	-1485
▁менеджером	-1486
нером	-1487
▁чело	-1488
▁домаш	-1489
▁награ	-1490
ительство	-1491
мя	-1492
ск	-1493
36)	-1494
nal	-1495
айл	-1496
гаг	-1497
мет	-1498
поло	-1499
этяу	-1500
аниме	-1501
▁Кера	-1502
tional	-1503
пенгаг	-1504
▁(103)	-1505
▁(107)	-1506
▁Мадри	-1507
▁(1036)	-1508
▁Ганиме	-1509
▁выбран	-1510
▁Персонаж	-1511
▁Техасский	-1512
▁управляет	-1513
ик	-1514
▁Ду	-1515
айлд	-1516
ерии	-1517
кому	-1518
рата	-1519
▁сот	-1520
сквер	-1521
положен	-1522
▁курица	-1523
циальных	-1524
▁Копенгаг	-1525
▁столицей	-1526
▁E	-1527
сбер	-1528
▁сде	-1529
Дейлс	-1530
ворно	-1531
рудни	-1532
▁Милл	-1533
000,0.	-1534
▁сотрудни	-1535
70	-1536
фа	-1537
ёт	-1538
еви	-1539
кай	-1540
▁ла	-1541
▁0,0	-1542
terna	-1543
▁Скай	-1544
▁одна	-1545
нанамен	-1546
▁Миллер	-1547
▁Interna	-1548
▁Олдерни	-1549
▁бандеха	-1550
▁International	-1551
бро	-1552
рат	-1553
шам	-1554
щая	-1555
▁их	-1556
тинг	-1557
▁Бар	-1558
женер	-1559
▁доба	-1560
▁Мемори	-1561
▁относит	-1562
▁Американ	-1563
▁Сингапуре	-1564
76	-1565
WH	-1566
▁ц	-1567
сии	-1568
▁До	-1569
▁ри	-1570
узей	-1571
ерона	-1572
▁1923	-1573
▁Авиа	-1574
▁Евро	-1575
▁Штаты	-1576
▁Адишам	-1577
▁называ	-1578
Запеченная	-1579
▁относится	-1580
▁технических	-1581
аде	-1582
арк	-1583
гом	-1584
пара	-1585
▁Япо	-1586
▁бел	-1587
▁1927	-1588
▁1996	-1589
имитра	-1590
▁Бааде	-1591
▁регио	-1592
▁Паблик	-1593
▁социальных	-1594
ссо	-1595
циа	-1596
шинг	-1597
▁Пена	-1598
▁глав	-1599
▁Вашинг	-1600
▁Здание	-1601
▁лидеры	-1602
▁турецких	-1603
▁сотрудников	-1604
▁местоположен	-1605
лл	-1606
▁Ее	-1607
дера	-1608
елке	-1609
мецц	-1610
ремя	-1611
шель	-1612
ьево	-1613
▁Кам	-1614
▁нем	-1615
льного	-1616
▁этажа	-1617
меццане	-1618
▁Авиаба	-1619
▁колледж	-1620
▁поселке	-1621
▁расположенный	-1622
ых	-1623
юр	-1624
арем	-1625
воль	-1626
▁14-	-1627
▁гла	-1628
▁фар	-1629
▁Шнай	-1630
▁добро	-1631
вольчес	-1632
▁пехоте	-1633
▁добровольчес	-1634
al	-1635
лак	-1636
▁Не	-1637
онко	-1638
чана	-1639
▁Диа	-1640
▁1957	-1641
▁Афины	-1642
▁Инженер	-1643
матричана	-1644
▁Авиабаза	-1645
▁международного	-1646
▁/	-1647
дов	-1648
▁Ру	-1649
веро	-1650
джер	-1651
онсу	-1652
сифи	-1653
чился	-1654
▁Гонко	-1655
▁длина	-1656
▁клуба	-1657
▁Бхаджи	-1658
▁Техасе	-1659
▁учился	-1660
дентификатор	-1661
▁Ж	-1662
Are	-1663
вый	-1664
пал	-1665
нвар	-1666
олет	-1667
▁кос	-1668
Arena	-1669
Амман	-1670
▁Баксо	-1671
▁время	-1672
16	-1673
WC	-1674
ar	-1675
in	-1676
бб	-1677
▁NWC	-1678
▁Илли	-1679
Верона	-1680
▁Робер	-1681
▁имени	-1682
Димитра	-1683
▁Андерс	-1684
▁медаль	-1685
▁Иллиной	-1686
▁Мексике	-1687
▁сэндвич	-1688
еля	-1689
▁13	-1690
▁Бо	-1691
▁ав	-1692
▁Фре	-1693
▁исп	-1694
▁Хали	-1695
▁поря	-1696
▁Манор	-1697
▁январ	-1698
▁Фредер	-1699
▁северо	-1700
▁Шнайдер	-1701
▁которую	-1702
▁разновид	-1703
▁Восточной	-1704
▁обнаружена	-1705
el	-1706
lo	-1707
▁—	-1708
AWH	-1709
нал	-1710
той	-1711
▁(6	-1712
▁39	-1713
дмор	-1714
лини	-1715
▁Нор	-1716
▁там	-1717
звание	-1718
▁колба	-1719
▁граждан	-1720
▁Техасского	-1721
кт	-1722
▁H	-1723
▁R	-1724
век	-1725
▁Ни	-1726
еспу	-1727
ника	-1728
тора	-1729
▁Кри	-1730
Абебы	-1731
Кьево	-1732
▁Респу	-1733
▁жарен	-1734
▁овощи	-1735
▁Сэндви	-1736
▁января	-1737
▁человек	-1738
▁Республи	-1739
▁истребит	-1740
13	-1741
29	-1742
▁C	-1743
рия	-1744
Йорк	-1745
ради	-1746
▁Джеймс	-1747
радицион	-1748
▁получил	-1749
▁стадион	-1750
▁магистра	-1751
▁Футбольный	-1752
73	-1753
as	-1754
tt	-1755
ёр	-1756
▁35	-1757
ланд	-1758
▁Мас	-1759
▁Мет	-1760
Ти	-1761
Эл	-1762
ас	-1763
бес	-1764
нис	-1765
ЭлТи	-1766
грам	-1767
▁Сам	-1768
▁имя	-1769
▁пам	-1770
Файлд	-1771
англи	-1772
стана	-1773
ландии	-1774
▁Алпина	-1775
▁БиЭлТи	-1776
▁Йоханн	-1777
▁памяти	-1778
▁институ	-1779
▁Пакистана	-1780
44	-1781
вые	-1782
▁За	-1783
▁Рим	-1784
ритан	-1785
▁Леви	-1786
Амманн	-1787
ностью	-1788
ссоциа	-1789
▁испан	-1790
▁откры	-1791
▁Ганимед	-1792
▁самолет	-1793
ig	-1794
▁9	-1795
▁Лу	-1796
запа	-1797
▁крас	-1798
▁Филип	-1799
▁совет	-1800
▁штата	-1801
ществен	-1802
▁персонажа	-1803
роз	-1804
Акрон	-1805
▁Адэр	-1806
▁Мари	-1807
▁гран	-1808
▁силы	-1809
▁Город	-1810
▁Метап	-1811
▁поряд	-1812
▁Полное	-1813
▁авиации	-1814
▁национа	-1815
▁традицион	-1816
▁гражданской	-1817
Но	-1818
ван	-1819
етти	-1820
стреча	-1821
▁негре	-1822
▁Афонсу	-1823
воздушные	-1824
▁Азербайдж	-1825
▁Ахобланко	-1826
▁Инженерный	-1827
ии	-1828
▁L	-1829
arr	-1830
арт	-1831
ата	-1832
пис	-1833
сте	-1834
ума	-1835
хар	-1836
iott	-1837
▁аям	-1838
▁1955	-1839
arriott	-1840
▁Мемориал	-1841
▁Конференц	-1842
где	-1843
рож	-1844
ству	-1845
▁дней	-1846
▁тело	-1847
бесное	-1848
▁бекон	-1849
▁коман	-1850
▁Ампара	-1851
▁Керала	-1852
▁встреча	-1853
▁Marriott	-1854
▁Соединён	-1855
▁известное	-1856
it	-1857
жи	-1858
иль	-1859
ници	-1860
порт	-1861
▁Кэр	-1862
▁Сар	-1863
нгеме	-1864
▁известен	-1865
▁родившийся	-1866
▁местоположения	-1867
46	-1868
дий	-1869
ема	-1870
ерт	-1871
пре	-1872
сид	-1873
▁хо	-1874
мини	-1875
▁Гёт	-1876
ерату	-1877
▁Арапи	-1878
▁Диаго	-1879
▁посвя	-1880
▁Ардмор	-1881
еттисбер	-1882
▁Бирминг	-1883
▁Гёттинг	-1884
▁Сэндвич	-1885
ed	-1886
on	-1887
пхо	-1888
▁Ах	-1889
▁Ги	-1890
ббио	-1891
стин	-1892
▁Фен	-1893
▁1089	-1894
0000,0	-1895
▁Остин	-1896
щественные	-1897
▁Геттисбер	-1898
2,	-1899
АЗ	-1900
АЛ	-1901
кри	-1902
тур	-1903
▁Ап	-1904
вать	-1905
криш	-1906
пхол	-1907
▁кух	-1908
▁бани	-1909
▁лиге	-1910
▁Дания	-1911
▁вариа	-1912
▁Анголы	-1913
▁Филиппи	-1914
▁находят	-1915
▁Диагонал	-1916
▁Фредерик	-1917
сту	-1918
▁гу	-1919
арти	-1920
вали	-1921
соне	-1922
▁еда	-1923
▁окт	-1924
конча	-1925
▁1998	-1926
▁граф	-1927
апсиду	-1928
кварти	-1929
▁города	-1930
▁сконча	-1931
▁октября	-1932
▁Название	-1933
▁Управлен	-1934
▁находятся	-1935
▁приготовлен	-1936
Ба	-1937
За	-1938
▁G	-1939
410	-1940
баши	-1941
мент	-1942
таго	-1943
▁Сап	-1944
▁Хар	-1945
соном	-1946
▁1962	-1947
▁военно	-1948
,5	-1949
92	-1950
Пра	-1951
сно	-1952
там	-1953
цуз	-1954
час	-1955
▁52	-1956
▁Од	-1957
емей	-1958
уэль	-1959
юрку	-1960
▁Хер	-1961
ейчас	-1962
йская	-1963
▁Атат	-1964
▁геро	-1965
▁этой	-1966
▁Музей	-1967
▁Аплтон	-1968
▁Уотсон	-1969
▁Архитек	-1970
▁Ататюрку	-1971
▁Туркменбаши	-1972
▁K	-1973
дха	-1974
тах	-1975
▁ад	-1976
нока	-1977
ттар	-1978
▁дня	-1979
▁лап	-1980
▁сви	-1981
дился	-1982
вадрат	-1983
▁Радха	-1984
▁Уттар	-1985
▁ценно	-1986
кришнан	-1987
▁Мишель	-1988
▁Иллинойс	-1989
▁Общественные	-1990
▁Радхакришнан	-1991
,7	-1992
68	-1993
oc	-1994
ды	-1995
788	-1996
вое	-1997
усс	-1998
вапа	-1999
ерои	-2000
тива	-2001
ящее	-2002
60090	-2003
стерои	-2004
хипхол	-2005
▁Байма	-2006
▁прези	-2007
▁семей	-2008
вапалли	-2009
▁560090	-2010
▁Камбер	-2011
▁связан	-2012
▁площадь	-2013
вадратных	-2014
▁посвящен	-2015
▁Бананамен	-2016
▁Сарвапалли	-2017
▁Соединенные	-2018
2.	-2019
арг	-2020
ете	-2021
лив	-2022
ладе	-2023
сман	-2024
ющую	-2025
▁Они	-2026
аргха	-2027
▁Мейн	-2028
▁поле	-2029
▁рабо	-2030
▁сист	-2031
▁супа	-2032
станов	-2033
стерда	-2034
стоящее	-2035
▁района	-2036
аргхатта	-2037
▁миндаль	-2038
▁регионе	-2039
ессаргхатта	-2040
▁обслуживается	-2041
77	-2042
дон	-2043
пия	-2044
рук	-2045
енсе	-2046
лось	-2047
раби	-2048
ющей	-2049
греми	-2050
▁кило	-2051
англий	-2052
ракенсе	-2053
▁молоко	-2054
▁Спортива	-2055
▁килограм	-2056
▁Арапиракенсе	-2057
▁Хессаргхатта	-2058
».	-2059
ез	-2060
яв	-2061
аус	-2062
ерия	-2063
лана	-2064
Йорка	-2065
▁(10)	-2066
▁Гиге	-2067
▁адре	-2068
становлен	-2069
▁Небесное	-2070
воздушными	-2071
▁организацией	-2072
23	-2073
нее	-2074
▁SB	-2075
▁То	-2076
▁кг	-2077
асан	-2078
лами	-2079
ролл	-2080
▁Парк	-2081
▁индоне	-2082
▁силами	-2083
▁Кэрролл	-2084
▁десерта	-2085
гремиасан	-2086
▁VI	-2087
▁са	-2088
Ридж	-2089
кадо	-2090
круг	-2091
▁162	-2092
▁Сол	-2093
▁они	-2094
густа	-2095
ельви	-2096
халли	-2097
▁осно	-2098
Прадеш	-2099
▁Лидер	-2100
▁августа	-2101
▁колумби	-2102
ванахалли	-2103
▁Бангалоре	-2104
he	-2105
Вин	-2106
США	-2107
нах	-2108
▁зд	-2109
евра	-2110
тоне	-2111
калав	-2112
любит	-2113
ствен	-2114
▁темп	-2115
евраля	-2116
▁Барни	-2117
▁битвы	-2118
▁космо	-2119
▁Турции	-2120
ференции	-2121
▁Колумби	-2122
▁Схипхол	-2123
▁февраля	-2124
▁Амстерда	-2125
▁настоящее	-2126
▁температу	-2127
▁квадратных	-2128
че	-2129
бур	-2130
лот	-2131
рич	-2132
▁яй	-2133
арму	-2134
стен	-2135
Ланка	-2136
джана	-2137
рассо	-2138
▁Крейг	-2139
востоку	-2140
▁Грассо	-2141
армурата	-2142
▁Метапан	-2143
▁космосе	-2144
▁Орхусского	-2145
▁Сапармурата	-2146
▁Азербайджана	-2147
»,	-2148
Ха	-2149
см	-2150
ing	-2151
цев	-2152
▁Фи	-2153
▁бо	-2154
рикан	-2155
▁1930	-2156
▁Джор	-2157
▁фарш	-2158
нокаси	-2159
руется	-2160
ющуюся	-2161
▁Кристи	-2162
▁злаков	-2163
▁службу	-2164
▁бакалав	-2165
▁колбаса	-2166
▁Монокаси	-2167
▁Площадка	-2168
▁Камберленд	-2169
▁х	-2170
99)	-2171
мар	-2172
▁FD	-2173
▁Из	-2174
Мэри	-2175
кобен	-2176
▁Фигн	-2177
▁выда	-2178
гдебур	-2179
▁Гуджа	-2180
ливково	-2181
▁(1099)	-2182
Лумеццане	-2183
▁гражданин	-2184
роительство	-2185
оки	-2186
рст	-2187
▁фу	-2188
бель	-2189
веню	-2190
есно	-2191
▁Бот	-2192
▁Бул	-2193
▁ара	-2194
▁мож	-2195
рожен	-2196
тьоки	-2197
▁Алба	-2198
▁фран	-2199
ческий	-2200
▁Марио	-2201
▁выпол	-2202
▁минут	-2203
▁Куэтяу	-2204
▁Штатах	-2205
▁героев	-2206
сположен	-2207
▁Антьоки	-2208
▁Бандеха	-2209
▁основан	-2210
▁Алькобен	-2211
▁выдающуюся	-2212
▁Национальный	-2213
вом	-2214
воч	-2215
май	-2216
сия	-2217
ччи	-2218
чёр	-2219
▁АЗ	-2220
чёрч	-2221
▁него	-2222
рструп	-2223
▁парти	-2224
▁Японии	-2225
любители	-2226
▁Тирструп	-2227
▁Кливленде	-2228
▁известный	-2229
▁управлением	-2230
ву	-2231
щим	-2232
Винс	-2233
далу	-2234
тего	-2235
▁Йен	-2236
▁тор	-2237
Брази	-2238
▁вход	-2239
▁штаб	-2240
вокадо	-2241
ждения	-2242
▁Ботта	-2243
▁Андалу	-2244
▁Джордж	-2245
▁Европы	-2246
▁здания	-2247
▁растен	-2248
▁солдат	-2249
Бразилия	-2250
▁конференции	-2251
▁университетов	-2252
ac	-2253
an	-2254
ще	-2255
рев	-2256
рэн	-2257
▁1-	-2258
▁34	-2259
▁Да	-2260
зерв	-2261
деров	-2262
еснок	-2263
матер	-2264
▁Мене	-2265
▁Фрэн	-2266
▁мерт	-2267
▁Округ	-2268
▁сорев	-2269
рабиата	-2270
цветные	-2271
▁валюта	-2272
▁полное	-2273
▁Гринвил	-2274
▁лидеров	-2275
▁содержа	-2276
▁авиабазы	-2277
1.	-2278
es	-2279
баи	-2280
ить	-2281
рав	-2282
уса	-2283
фек	-2284
▁"1	-2285
▁Вз	-2286
▁Но	-2287
елем	-2288
косо	-2289
лага	-2290
манд	-2291
тало	-2292
▁Мор	-2293
▁Мум	-2294
▁Стю	-2295
-12".	-2296
терна	-2297
фекту	-2298
▁1993	-2299
▁Амда	-2300
▁Эфио	-2301
ламанд	-2302
рантов	-2303
▁Ричар	-2304
▁Морган	-2305
▁Мумбаи	-2306
▁участво	-2307
▁персонаж	-2308
▁установлен	-2309
▁истребителя	-2310
9)	-2311
khe	-2312
анц	-2313
кат	-2314
кке	-2315
чой	-2316
мсом	-2317
раку	-2318
▁Клу	-2319
kheed	-2320
арден	-2321
смусс	-2322
спита	-2323
эльос	-2324
▁Гуфа	-2325
▁канц	-2326
ockheed	-2327
Винсент	-2328
смуссен	-2329
▁Параку	-2330
площадка	-2331
▁Амдавад	-2332
▁Зеландия	-2333
▁Гёттинген	-2334
▁Расмуссен	-2335
▁Швейцария	-2336
▁Паракуэльос	-2337
▁Соединённых	-2338
спи	-2339
лота	-2340
ющая	-2341
▁Джу	-2342
▁Кут	-2343
▁Мак	-2344
▁ван	-2345
▁вме	-2346
00,0.	-2347
катто	-2348
сидро	-2349
тагор	-2350
▁Арем	-2351
▁Йенс	-2352
▁аспи	-2353
▁(109)	-2354
▁Китай	-2355
▁Сумат	-2356
▁орган	-2357
▁Куттик	-2358
▁Ассоциа	-2359
▁Хертель	-2360
▁Филиппин	-2361
▁Сингапура	-2362
▁института	-2363
▁Американец	-2364
▁Куттиккатто	-2365
▁ингредиентами	-2366
гг	-2367
дус	-2368
ноу	-2369
▁16	-2370
▁ди	-2371
▁Аям	-2372
▁Дей	-2373
▁Пат	-2374
▁Ско	-2375
▁Эгг	-2376
▁Клуб	-2377
▁Масса	-2378
▁кухни	-2379
▁может	-2380
▁одним	-2381
ноуполи	-2382
▁входят	-2383
▁резерв	-2384
▁Взлетно	-2385
▁Фенчёрч	-2386
▁Гонконге	-2387
▁Вашингтон	-2388
▁Гринвилле	-2389
▁Национальном	-2390
▁Университета	-2391
▁Эфксейноуполи	-2392
▁университетом	-2393
▁Технологическим	-2394
-14	-2395
гов	-2396
лад	-2397
нер	-2398
тан	-2399
▁26	-2400
▁Дэ	-2401
▁Пи	-2402
-130	-2403
веца	-2404
емой	-2405
илми	-2406
Йорке	-2407
говор	-2408
реная	-2409
▁Елен	-2410
Харама	-2411
рожные	-2412
▁Хилми	-2413
▁Катало	-2414
▁Пенджа	-2415
▁Пудинг	-2416
▁Роберт	-2417
▁колумбий	-2418
▁мертвеца	-2419
▁основные	-2420
▁префекту	-2421
▁километра	-2422
Гу	-2423
Жо	-2424
Пин	-2425
кос	-2426
Жозе	-2427
емый	-2428
▁Big	-2429
▁Мэй	-2430
Пинья	-2431
Губбио	-2432
фрикан	-2433
▁Арроз	-2434
▁Елена	-2435
▁члена	-2436
▁Алпины	-2437
000000,0.	-2438
▁Lockheed	-2439
▁бакалавра	-2440
льв	-2441
сию	-2442
▁KW	-2443
▁RO	-2444
▁Лё	-2445
Плак	-2446
итар	-2447
хаба	-2448
▁ден	-2449
авеню	-2450
ельги	-2451
лавэр	-2452
▁Ларс	-2453
▁клас	-2454
▁Лёкке	-2455
▁владе	-2456
▁гуман	-2457
▁китай	-2458
итарных	-2459
министр	-2460
▁Ашхаба	-2461
▁Бельги	-2462
▁Харбор	-2463
▁чеснок	-2464
ливковое	-2465
▁гуманитарных	-2466
▁P	-2467
Аль	-2468
▁88	-2469
Сити	-2470
колу	-2471
▁000	-2472
▁жит	-2473
Ланки	-2474
▁апре	-2475
▁собр	-2476
▁фили	-2477
▁Гигея	-2478
▁битве	-2479
▁адресу	-2480
▁англий	-2481
▁кокосо	-2482
▁муници	-2483
▁страна	-2484
▁трансли	-2485
▁Мадисоне	-2486
▁чемпиона	-2487
▁Аматричана	-2488
em	-2489
Бен	-2490
кса	-2491
лок	-2492
чус	-2493
лась	-2494
харе	-2495
чных	-2496
езена	-2497
палит	-2498
чусет	-2499
центра	-2500
спиталь	-2501
▁Паркер	-2502
▁Ричард	-2503
▁Массачусет	-2504
▁килограммов	-2505
▁идентификатор	-2506
Ла	-2507
639	-2508
▁Му	-2509
килом	-2510
▁1983	-2511
▁Бром	-2512
▁бази	-2513
колини	-2514
▁Камил	-2515
▁Ларше	-2516
гдебург	-2517
▁Джоном	-2518
▁вариан	-2519
▁здание	-2520
▁катего	-2521
▁пудинг	-2522
▁Джеймсом	-2523
▁Кристиан	-2524
▁Марколини	-2525
▁аспирантов	-2526
▁технологичес	-2527
▁международный	-2528
/3	-2529
48	-2530
80	-2531
en	-2532
ню	-2533
рэ	-2534
,0,	-2535
.19	-2536
606	-2537
хэт	-2538
▁да	-2539
нима	-2540
пера	-2541
торы	-2542
умаи	-2543
▁700	-2544
▁Сти	-2545
▁ном	-2546
Лахор	-2547
стане	-2548
▁1097	-2549
▁3500	-2550
▁поги	-2551
▁прав	-2552
▁того	-2553
первые	-2554
▁1918"	-2555
▁Вальс	-2556
▁Домаш	-2557
▁участ	-2558
▁Лондон	-2559
▁Стюарт	-2560
▁Мануэль	-2561
▁Академии	-2562
километров	-2563
▁скончался	-2564
деванахалли	-2565
▁Калифорния	-2566
42	-2567
Ро	-2568
сь	-2569
его	-2570
нюю	-2571
щей	-2572
▁AC	-2573
куда	-2574
нгхе	-2575
туша	-2576
▁197	-2577
▁Вик	-2578
▁Суп	-2579
▁Там	-2580
▁зна	-2581
-11".	-2582
Бенгу	-2583
▁1994	-2584
▁Аякс	-2585
▁Рани	-2586
сингхе	-2587
▁Франк	-2588
▁малай	-2589
▁реест	-2590
▁состо	-2591
▁открыт	-2592
▁пенсию	-2593
▁работа	-2594
▁сделан	-2595
▁Мадриде	-2596
▁впервые	-2597
▁медалью	-2598
▁научных	-2599
▁собрани	-2600
▁завершено	-2601
▁Филиппинах	-2602
▁Солдеванахалли	-2603
АО	-2604
сл	-2605
КАО	-2606
лод	-2607
▁03	-2608
▁3-	-2609
▁вс	-2610
▁фа	-2611
дент	-2612
рмии	-2613
▁Ком	-2614
▁Сер	-2615
▁ИКАО	-2616
▁Цент	-2617
▁сред	-2618
▁Осман	-2619
▁армии	-2620
▁батат	-2621
▁номер	-2622
▁погиб	-2623
▁футов	-2624
родился	-2625
▁Манхэт	-2626
▁бхаджи	-2627
▁откуда	-2628
▁Викрама	-2629
▁Ливорно	-2630
▁Османской	-2631
▁Бирмингеме	-2632
▁Республике	-2633
▁Викрамасингхе	-2634
05	-2635
▁VK	-2636
▁же	-2637
додо	-2638
ерар	-2639
▁Явы	-2640
▁чер	-2641
Новая	-2642
▁Изми	-2643
▁всей	-2644
▁выше	-2645
▁круп	-2646
▁цвет	-2647
▁Джоко	-2648
▁Жерар	-2649
▁Иколу	-2650
▁альма	-2651
▁рупия	-2652
▁Видодо	-2653
▁районе	-2654
▁Баймакс	-2655
▁основана	-2656
▁Госпиталь	-2657
▁встречается	-2658
▁муниципалит	-2659
▁организация	-2660
91	-2661
AI	-2662
RE	-2663
at	-2664
NAI	-2665
ара	-2666
лей	-2667
пута	-2668
ящий	-2669
NAIRE	-2670
ейном	-2671
▁2001	-2672
▁Сити	-2673
▁чемп	-2674
верхно	-2675
путале	-2676
ремьер	-2677
▁канцл	-2678
▁Аполло	-2679
▁Джулия	-2680
▁Страна	-2681
▁Хапутале	-2682
▁Пакистане	-2683
▁Копенгаген	-2684
▁американец	-2685
▁Азербайджане	-2686
дра	-2687
ний	-2688
ори	-2689
мьер	-2690
▁Лай	-2691
льных	-2692
сифик	-2693
▁1966	-2694
▁Гров	-2695
▁Моди	-2696
▁запа	-2697
западу	-2698
▁Нарен	-2699
▁Серии	-2700
▁белый	-2701
92000,0	-2702
▁Фелица	-2703
▁Батагор	-2704
▁Вальтер	-2705
▁Пасифик	-2706
▁Премьер	-2707
▁академи	-2708
▁премьер	-2709
▁индонезий	-2710
▁Чемпионата	-2711
▁традиционное	-2712
▁Массачусетский	-2713
ВС	-2714
Во	-2715
ала	-2716
вал	-2717
гда	-2718
▁её	-2719
001)	-2720
Рома	-2721
▁аре	-2722
▁рис	-2723
▁чис	-2724
▁что	-2725
иомай	-2726
крыва	-2727
рюссе	-2728
▁Гаус	-2729
▁Скот	-2730
вающий	-2731
датель	-2732
нуполи	-2733
площад	-2734
▁Ранил	-2735
▁Федер	-2736
▁север	-2737
стероид	-2738
▁(1001)	-2739
▁Брюссе	-2740
▁Бухаре	-2741
▁провел	-2742
ельвинов	-2743
квартира	-2744
▁Нарендра	-2745
▁Пирожные	-2746
▁разговор	-2747
▁солдатам	-2748
▁Амстердам	-2749
▁апоапсиду	-2750
▁Эфксейнуполи	-2751
▁технологический	-2752
лес	-2753
рус	-2754
коно	-2755
▁Вир	-2756
▁Юсу	-2757
говли	-2758
▁2016	-2759
▁Альф	-2760
▁стил	-2761
▁филь	-2762
▁Дубли	-2763
▁вместе	-2764
▁подают	-2765
▁языков	-2766
▁Крейгом	-2767
▁предста	-2768
▁Уотсоном	-2769
▁торговли	-2770
▁награжден	-2771
▁Копенгагене	-2772
▁американцем	-2773
02	-2774
us	-2775
шел	-2776
ъек	-2777
▁0,	-2778
воот	-2779
цами	-2780
▁Кла	-2781
▁гре	-2782
-12",	-2783
ендви	-2784
▁Один	-2785
▁Юсуф	-2786
ствует	-2787
▁Патри	-2788
амятника	-2789
▁Лондоне	-2790
вооткрыва	-2791
▁Бухарест	-2792
▁погибшим	-2793
▁популярностью	-2794
Ли	-2795
Ма	-2796
ир	-2797
/36	-2798
371	-2799
447	-2800
леб	-2801
неш	-2802
раб	-2803
▁47	-2804
млад	-2805
▁Яве	-2806
йских	-2807
▁1999	-2808
▁Норт	-2809
нистер	-2810
▁Калла	-2811
▁мисси	-2812
▁объек	-2813
▁соуса	-2814
▁стиле	-2815
▁Инстит	-2816
▁партия	-2817
▁пользу	-2818
▁называют	-2819
нистерства	-2820
▁Андалусии	-2821
▁оливковое	-2822
▁спроектировал	-2823
ейп	-2824
лор	-2825
▁жи	-2826
▁сы	-2827
▁Рам	-2828
6063)	-2829
▁1907	-2830
▁посе	-2831
зовани	-2832
▁народ	-2833
Ливорно	-2834
▁Измире	-2835
▁Италия	-2836
▁языком	-2837
▁Бельгии	-2838
▁Делавэр	-2839
▁Камилла	-2840
▁порядку	-2841
▁француз	-2842
▁добавлен	-2843
▁подавать	-2844
▁Агремиасан	-2845
▁архитектур	-2846
▁температуру	-2847
▁Министерства	-2848
,6	-2849
вло	-2850
ите	-2851
фин	-2852
▁Ир	-2853
▁Ют	-2854
АЗАЛ	-2855
ская	-2856
стве	-2857
▁210	-2858
▁Иза	-2859
▁Кур	-2860
▁тар	-2861
влопу	-2862
▁2005	-2863
▁свою	-2864
удинга	-2865
▁Клаус	-2866
▁Проко	-2867
▁техас	-2868
▁ENAIRE	-2869
▁Курити	-2870
▁апреля	-2871
▁чемпио	-2872
▁(66063)	-2873
▁Изабель	-2874
▁Павлопу	-2875
▁доктора	-2876
▁Гринвилл	-2877
▁Йоханнис	-2878
▁Аррабиата	-2879
▁Ричардсон	-2880
.0	-2881
21	-2882
94	-2883
pu	-2884
ti	-2885
дар	-2886
иац	-2887
слё	-2888
тся	-2889
уци	-2890
▁фе	-2891
000)	-2892
даба	-2893
рамо	-2894
фесс	-2895
▁ВВС	-2896
▁Джа	-2897
▁1862	-2898
▁Вуци	-2899
▁Кано	-2900
▁Пиац	-2901
▁бана	-2902
▁грам	-2903
▁куби	-2904
▁фасо	-2905
торжен	-2906
▁мрамо	-2907
▁(1000)	-2908
фессиона	-2909
▁560090.	-2910
▁пудинга	-2911
▁соревно	-2912
▁Прокопис	-2913
▁ахобланко	-2914
▁Павлопулос	-2915
▁Расположен	-2916
-8	-2917
IT	-2918
ЕК	-2919
-15	-2920
але	-2921
дди	-2922
дор	-2923
есо	-2924
лим	-2925
тус	-2926
▁«1	-2927
-12"	-2928
ится	-2929
лиги	-2930
▁Пог	-2931
▁Уор	-2932
лимпи	-2933
▁Гера	-2934
▁обра	-2935
▁Акрон	-2936
▁Новой	-2937
▁Редди	-2938
▁шумаи	-2939
Пиньяйс	-2940
▁авиали	-2941
▁играют	-2942
▁реестр	-2943
▁сендви	-2944
▁систем	-2945
▁Испания	-2946
▁канцлер	-2947
▁родиной	-2948
▁создали	-2949
▁Зеландии	-2950
▁собрание	-2951
▁Бирмингем	-2952
▁пользуется	-2953
▁Алькобендас	-2954
▁итальянский	-2955
▁руководство	-2956
▁международном	-2957
▁разновидность	-2958
ch	-2959
▁,	-2960
ана	-2961
ану	-2962
тый	-2963
цар	-2964
▁69	-2965
▁Sp	-2966
▁Ци	-2967
777)	-2968
вшим	-2969
заде	-2970
илли	-2971
ичар	-2972
▁110	-2973
▁Дом	-2974
6391)	-2975
Ридже	-2976
▁(410	-2977
▁Мест	-2978
▁Раси	-2979
▁боле	-2980
▁быть	-2981
▁Ципра	-2982
▁блюде	-2983
▁лапша	-2984
▁опера	-2985
▁отеля	-2986
▁этого	-2987
роженое	-2988
▁Алекси	-2989
▁Британ	-2990
▁входящ	-2991
тернатив	-2992
▁(66391)	-2993
▁сделана	-2994
▁состоит	-2995
деральный	-2996
▁Кливленд	-2997
▁Пакистан	-2998
▁Расизаде	-2999
ян	-3000
▁.	-3001
Сан	-3002
изе	-3003
иос	-3004
леф	-3005
▁38	-3006
люче	-3007
хуку	-3008
▁Вен	-3009
▁Инф	-3010
▁Ашер	-3011
▁Праб	-3012
▁Соус	-3013
▁номе	-3014
▁яйца	-3015
изелос	-3016
лефтер	-3017
▁Вуцис	-3018
▁Никос	-3019
▁высту	-3020
ичаррон	-3021
▁Центра	-3022
▁найден	-3023
▁сейчас	-3024
▁столич	-3025
▁степень	-3026
лефтериос	-3027
▁(410777)	-3028
▁Пенджабе	-3029
▁Прабхуку	-3030
▁домашняя	-3031
▁Венизелос	-3032
▁образовани	-3033
▁гражданином	-3034
ew	-3035
ат	-3036
907	-3037
джо	-3038
имн	-3039
кур	-3040
пии	-3041
цию	-3042
▁30	-3043
▁Ор	-3044
acew	-3045
atch	-3046
ties	-3047
симо	-3048
спро	-3049
хлин	-3050
▁Пре	-3051
резан	-3052
релла	-3053
стран	-3054
▁1959	-3055
▁рисо	-3056
Сандеш	-3057
борную	-3058
сифици	-3059
▁Елены	-3060
▁Марии	-3061
▁Матта	-3062
▁декан	-3063
востоке	-3064
младший	-3065
▁Spacew	-3066
▁Норман	-3067
▁Патрик	-3068
▁Серджо	-3069
▁блюдом	-3070
▁британ	-3071
▁родина	-3072
▁фасоль	-3073
▁Дублине	-3074
▁Эфиопии	-3075
▁Антьокия	-3076
▁Домашняя	-3077
▁известна	-3078
▁красного	-3079
▁памятник	-3080
▁семейства	-3081
▁транспорт	-3082
▁Spacewatch	-3083
▁Маттарелла	-3084
▁футбольный	-3085
▁арендатором	-3086
▁руководством	-3087
1,	-3088
AS	-3089
oe	-3090
тя	-3091
▁T	-3092
-17	-3093
200	-3094
900	-3095
ASA	-3096
bem	-3097
вым	-3098
жде	-3099
рек	-3100
чим	-3101
▁ас	-3102
ился	-3103
искв	-3104
лого	-3105
орхе	-3106
отте	-3107
раке	-3108
▁Glo	-3109
▁Анд	-3110
▁Мин	-3111
▁Тха	-3112
▁сли	-3113
▁чем	-3114
aster	-3115
oeing	-3116
льным	-3117
слёно	-3118
▁1974	-3119
▁NASA	-3120
▁Стер	-3121
▁Вален	-3122
▁Одним	-3123
▁имеют	-3124
▁индий	-3125
цветных	-3126
▁Globem	-3127
▁миссии	-3128
▁сливоч	-3129
▁Суматры	-3130
▁авокадо	-3131
▁вторжен	-3132
▁Институт	-3133
▁вариация	-3134
▁президен	-3135
▁построена	-3136
▁резервным	-3137
▁руководит	-3138
▁участника	-3139
▁этнически	-3140
▁Геттисберг	-3141
▁классифици	-3142
▁Globemaster	-3143
12	-3144
gl	-3145
▁O	-3146
Анг	-3147
дук	-3148
кже	-3149
льг	-3150
сое	-3151
▁22	-3152
нехо	-3153
пура	-3154
▁Ари	-3155
▁Бол	-3156
▁Ста	-3157
▁них	-3158
ейлор	-3159
ельма	-3160
▁Ауре	-3161
▁Брук	-3162
▁Луан	-3163
▁Тама	-3164
▁Якоб	-3165
Англия	-3166
Чезена	-3167
львано	-3168
▁Вильг	-3169
▁Макло	-3170
▁Отель	-3171
▁докто	-3172
▁после	-3173
сполага	-3174
▁Конехо	-3175
▁Стивен	-3176
▁Тхакур	-3177
▁Ципрас	-3178
▁белого	-3179
▁присое	-3180
▁распро	-3181
▁фильме	-3182
▁Алексис	-3183
▁которых	-3184
▁молотый	-3185
▁Колумбии	-3186
▁Сильвано	-3187
▁Фигнерия	-3188
▁Вильгельма	-3189
▁Прабхукумар	-3190
▁расположены	-3191
▁распростран	-3192
▁участвовали	-3193
▁используется	-3194
9.	-3195
Го	-3196
192	-3197
eri	-3198
екс	-3199
жий	-3200
йса	-3201
▁лю	-3202
▁ны	-3203
788)	-3204
рабо	-3205
рует	-3206
▁(15	-3207
▁III	-3208
▁Все	-3209
▁Дес	-3210
▁Соз	-3211
▁кре	-3212
Ланке	-3213
▁Билл	-3214
▁Гран	-3215
▁Служ	-3216
▁брон	-3217
▁обла	-3218
▁самба	-3219
▁соусе	-3220
▁Ратуша	-3221
▁группы	-3222
▁кревет	-3223
▁сиомай	-3224
▁(15788)	-3225
▁Манхэтт	-3226
▁органом	-3227
▁располага	-3228
,3	-3229
лк	-3230
об	-3231
чу	-3232
дил	-3233
▁77	-3234
алом	-3235
етчу	-3236
итон	-3237
кара	-3238
фаль	-3239
▁12.	-3240
▁Дун	-3241
▁ото	-3242
▁эфи	-3243
епура	-3244
индий	-3245
ращен	-3246
стром	-3247
▁1500	-3248
▁2011	-3249
▁Руло	-3250
▁Тамы	-3251
000,0,	-3252
▁10030	-3253
▁Народ	-3254
▁Пайса	-3255
итонита	-3256
яварден	-3257
▁Мексики	-3258
▁летчика	-3259
▁мрамора	-3260
▁Всеиндий	-3261
▁Каноника	-3262
▁поверхно	-3263
▁самбалом	-3264
Запеченной	-3265
▁памятника	-3266
▁Элефтериос	-3267
▁американцы	-3268
▁архитектор	-3269
▁перитонита	-3270
▁популярное	-3271
яварденепура	-3272
▁образованию	-3273
▁колумбийской	-3274
▁техническому	-3275
▁добровольческой	-3276
04	-3277
▁U	-3278
55)	-3279
hit	-3280
Джа	-3281
глы	-3282
сам	-3283
тин	-3284
вого	-3285
елей	-3286
ение	-3287
жнее	-3288
олес	-3289
рике	-3290
ффин	-3291
хисо	-3292
▁изю	-3293
▁офи	-3294
▁суб	-3295
▁(192	-3296
▁2004	-3297
▁Таир	-3298
▁оглы	-3299
вшимся	-3300
ламент	-3301
▁Артур	-3302
▁варен	-3303
▁готов	-3304
▁ключе	-3305
▁лимон	-3306
▁100305	-3307
▁Дункан	-3308
▁Махадж	-3309
▁асфаль	-3310
▁статус	-3311
▁(19255)	-3312
▁Халиско	-3313
▁гранита	-3314
▁нарезан	-3315
▁Ауреолес	-3316
▁Куритиба	-3317
▁отставке	-3318
испытателя	-3319
конодатель	-3320
▁Маклохлин	-3321
▁сливочное	-3322
▁участвует	-3323
▁Куттиккаттоо	-3324
▁эксплуатирующей	-3325
971	-3326
арм	-3327
дит	-3328
при	-3329
▁33	-3330
▁41	-3331
▁Их	-3332
▁Пу	-3333
▁159	-3334
▁Гла	-3335
▁Оно	-3336
▁поч	-3337
▁сня	-3338
▁суп	-3339
иорен	-3340
локба	-3341
судар	-3342
▁1950	-3343
▁Герм	-3344
▁Роди	-3345
▁арем	-3346
▁барм	-3347
продук	-3348
▁17000	-3349
▁канад	-3350
▁перец	-3351
▁цвету	-3352
9710000	-3353
иоренти	-3354
▁Байден	-3355
▁Блокба	-3356
▁Мэйсон	-3357
▁Камиллу	-3358
▁Мадином	-3359
▁Стадион	-3360
▁номером	-3361
▁Махаджан	-3362
▁ценность	-3363
▁Основными	-3364
▁возглавля	-3365
▁субпродук	-3366
▁базируется	-3367
▁Профессиона	-3368
is	-3369
rk	-3370
джи	-3371
дио	-3372
нят	-3373
▁45	-3374
▁An	-3375
▁ве	-3376
▁тр	-3377
ehit	-3378
leri	-3379
Фран	-3380
▁610	-3381
Котте	-3382
доров	-3383
ерков	-3384
нился	-3385
▁1928	-3386
▁хлеб	-3387
▁эфир	-3388
апсида	-3389
мадаба	-3390
▁Скотт	-3391
▁добав	-3392
▁снима	-3393
▁маффин	-3394
ehitleri	-3395
▁Альфред	-3396
▁Миндаль	-3397
▁Самитра	-3398
▁разрабо	-3399
▁началось	-3400
▁филиалом	-3401
▁399710000	-3402
▁арендатор	-3403
▁созданный	-3404
▁эксплуатируют	-3405
Джаяварденепура	-3406
▁Куттиккаттооре	-3407
06	-3408
28	-3409
ic	-3410
Ко	-3411
Се	-3412
мы	-3413
зже	-3414
нес	-3415
▁DA	-3416
▁ти	-3417
Себа	-3418
стон	-3419
тейн	-3420
щест	-3421
▁Гор	-3422
▁гру	-3423
▁коб	-3424
▁оно	-3425
▁сое	-3426
▁тен	-3427
гущен	-3428
оризо	-3429
раеро	-3430
стьян	-3431
▁реги	-3432
▁чили	-3433
ельдер	-3434
▁Вирги	-3435
▁Виция	-3436
▁более	-3437
▁главе	-3438
ращения	-3439
▁Boeing	-3440
▁Орхусе	-3441
▁грудин	-3442
▁играли	-3443
▁Аполлон	-3444
▁варенье	-3445
▁отобран	-3446
▁среднюю	-3447
▁фламанд	-3448
Себастьян	-3449
▁Ахмадаба	-3450
▁вращения	-3451
▁графстве	-3452
▁присоеди	-3453
▁категории	-3454
▁Бирмингема	-3455
▁Мичиганский	-3456
▁Идентификатор	-3457
▁регионального	-3458
шн	-3459
Рей	-3460
глу	-3461
пус	-3462
щих	-3463
▁жа	-3464
9942	-3465
Юлия	-3466
вуто	-3467
дора	-3468
зиат	-3469
таун	-3470
эйшн	-3471
▁Бун	-3472
▁Шут	-3473
▁Эль	-3474
▁бул	-3475
альва	-3476
йский	-3477
льная	-3478
циско	-3479
▁Боль	-3480
▁Этот	-3481
▁асам	-3482
▁изюм	-3483
▁яван	-3484
тивная	-3485
▁Ахмет	-3486
▁Малак	-3487
▁Нэйшн	-3488
▁Энтер	-3489
вутоглу	-3490
▁179942	-3491
▁Блэкпу	-3492
▁взрыва	-3493
▁куэтяу	-3494
▁посеща	-3495
▁северу	-3496
▁уровня	-3497
тейнмент	-3498
▁Колледж	-3499
▁государ	-3500
▁жареная	-3501
Франциско	-3502
▁входящем	-3503
▁Давутоглу	-3504
▁авиалинии	-3505
▁Вашингтоне	-3506
▁Управление	-3507
▁аматричана	-3508
▁Строительство	-3509
▁Энтертейнмент	-3510
▁присоединился	-3511
▁располагается	-3512
Би	-3513
фо	-3514
alc	-3515
бар	-3516
лым	-3517
мит	-3518
нен	-3519
▁Сю	-3520
▁Ча	-3521
▁ви	-3522
▁ры	-3523
9075	-3524
зана	-3525
▁288	-3526
▁546	-3527
▁737	-3528
▁Гра	-3529
▁бер	-3530
Рейес	-3531
пания	-3532
▁1101	-3533
▁Клем	-3534
▁Лайв	-3535
▁Рама	-3536
▁Южно	-3537
▁гимн	-3538
▁свое	-3539
ерковь	-3540
лодным	-3541
нейший	-3542
▁Ираке	-3543
▁Мендо	-3544
▁Сюзан	-3545
▁Холла	-3546
▁азиат	-3547
▁бискв	-3548
Африкан	-3549
▁Анкара	-3550
▁Сальва	-3551
▁начало	-3552
▁свиные	-3553
лотность	-3554
▁Клемати	-3555
▁вариант	-3556
▁связана	-3557
иорентина	-3558
▁Франклин	-3559
▁холодным	-3560
испытатель	-3561
▁используют	-3562
▁принадлежа	-3563
▁этнической	-3564
▁Ассоциацией	-3565
▁историческим	-3566
▁Гёттингенский	-3567
▁Расположенный	-3568
▁международным	-3569
▁муниципалитете	-3570
ab	-3571
sk	-3572
/28	-3573
ахо	-3574
жут	-3575
кую	-3576
▁Са	-3577
▁ар	-3578
elsk	-3579
анза	-3580
лиза	-3581
нена	-3582
орту	-3583
раго	-3584
эрни	-3585
▁373	-3586
▁сэн	-3587
kties	-3588
▁4410	-3589
▁Акро	-3590
▁Ганг	-3591
▁Пану	-3592
▁Сири	-3593
▁Тони	-3594
▁саго	-3595
elskab	-3596
▁1918»	-3597
▁Аките	-3598
▁Елиза	-3599
▁Канза	-3600
▁Нидер	-3601
▁Фрэнк	-3602
▁Хорхе	-3603
▁берет	-3604
▁клубе	-3605
▁остро	-3606
▁сэрни	-3607
▁флота	-3608
▁Андрус	-3609
▁Мадрид	-3610
▁Рамафо	-3611
▁Уилсон	-3612
▁относя	-3613
▁парков	-3614
ельдерей	-3615
морского	-3616
хождения	-3617
▁Мендоза	-3618
▁Пануччи	-3619
▁Румыния	-3620
▁Сюзанна	-3621
▁валютой	-3622
▁владеет	-3623
▁посещал	-3624
▁сэнджер	-3625
▁Елизавет	-3626
▁докторан	-3627
▁чичаррон	-3628
▁выполнена	-3629
▁президент	-3630
ktieselskab	-3631
▁альтернатив	-3632
▁субпродукты	-3633
▁национальных	-3634
▁спроектировала	-3635
гр	-3636
ий	-3637
цу	-3638
749	-3639
бой	-3640
гао	-3641
ейк	-3642
зов	-3643
льф	-3644
ник	-3645
шер	-3646
щие	-3647
▁Ум	-3648
▁Хэ	-3649
▁Юж	-3650
пата	-3651
▁399	-3652
▁479	-3653
▁Нот	-3654
▁Хай	-3655
-11",	-3656
Абеба	-3657
анима	-3658
берто	-3659
грете	-3660
ерлин	-3661
етчуп	-3662
тяжен	-3663
▁1969	-3664
▁АЗАЛ	-3665
▁Эдви	-3666
Исидро	-3667
▁Бачой	-3668
▁Бунде	-3669
▁Гранд	-3670
▁Коччи	-3671
▁грано	-3672
▁мучен	-3673
▁нанят	-3674
царский	-3675
▁288749	-3676
▁Аляски	-3677
▁Погсон	-3678
▁Сейчас	-3679
▁занима	-3680
▁значим	-3681
▁религи	-3682
▁соевый	-3683
▁создал	-3684
000000,0	-3685
▁Умберто	-3686
▁арахисо	-3687
Магдебург	-3688
▁Маргрете	-3689
▁Менеджер	-3690
▁Нидерлан	-3691
▁грудинка	-3692
▁лидерами	-3693
▁Каталонии	-3694
▁студентом	-3695
Африканской	-3696
▁Бананамене	-3697
▁строительство	-3698
40	-3699
AG	-3700
йк	-3701
513	-3702
Аса	-3703
ари	-3704
дак	-3705
зви	-3706
зия	-3707
лиц	-3708
лон	-3709
▁29	-3710
▁37	-3711
3329	-3712
анти	-3713
десь	-3714
ейнт	-3715
йахо	-3716
ками	-3717
плым	-3718
рода	-3719
ских	-3720
▁Арп	-3721
▁Тер	-3722
мовый	-3723
ричне	-3724
часть	-3725
▁Дейв	-3726
▁ушел	-3727
рондак	-3728
▁Родри	-3729
▁дирек	-3730
▁сахар	-3731
▁373513	-3732
▁523329	-3733
▁Кайахо	-3734
▁Террас	-3735
▁Хэлтон	-3736
▁совета	-3737
Аполлоне	-3738
▁говяжий	-3739
Беконного	-3740
▁Компания	-3741
▁канадцем	-3742
▁Адирондак	-3743
▁Кельвинов	-3744
▁Менеджером	-3745
▁английский	-3746
▁441092000,0	-3747
▁Азербайджан	-3748
▁Нидерландов	-3749
▁разговорный	-3750
▁исторической	-3751
▁первооткрыва	-3752
6.	-3753
Ар	-3754
ым	-3755
343	-3756
гро	-3757
лоч	-3758
тем	-3759
чин	-3760
▁07	-3761
-11"	-3762
арль	-3763
гана	-3764
иков	-3765
мена	-3766
▁108	-3767
▁211	-3768
▁280	-3769
▁Бор	-3770
▁вой	-3771
рэшер	-3772
▁1913	-3773
▁3180	-3774
▁VIAG	-3775
▁Геры	-3776
▁Ирак	-3777
▁Сига	-3778
▁буль	-3779
▁инде	-3780
▁план	-3781
▁сент	-3782
▁смет	-3783
▁фрук	-3784
жутное	-3785
которы	-3786
юдоров	-3787
юнером	-3788
▁когда	-3789
▁стиль	-3790
▁хогао	-3791
мерение	-3792
▁479343	-3793
▁Англия	-3794
▁Олимпи	-3795
▁Япония	-3796
▁пилота	-3797
▁сгущен	-3798
▁снялся	-3799
▁теплым	-3800
▁Пиацция	-3801
▁составе	-3802
▁говядина	-3803
▁подается	-3804
▁сентября	-3805
▁вторжении	-3806
▁мороженое	-3807
▁мучеников	-3808
▁футбольной	-3809
▁этнические	-3810
▁расположено	-3811
▁Национальное	-3812
фе	-3813
▁W	-3814
Оль	-3815
вий	-3816
гес	-3817
йси	-3818
нар	-3819
ним	-3820
она	-3821
рес	-3822
рис	-3823
ффа	-3824
▁ST	-3825
вают	-3826
йсиш	-3827
прав	-3828
роле	-3829
чино	-3830
ьето	-3831
▁5,7	-3832
▁Бут	-3833
▁Бют	-3834
▁Рай	-3835
▁Хюс	-3836
▁дом	-3837
▁тем	-3838
ландо	-3839
лкхан	-3840
серва	-3841
ффало	-3842
▁1904	-3843
▁1931	-3844
▁Баль	-3845
▁Виса	-3846
▁Джек	-3847
▁евро	-3848
▁сосе	-3849
Ольден	-3850
▁Дэвид	-3851
▁Маран	-3852
▁Ньето	-3853
▁Сейнт	-3854
▁белые	-3855
▁нынеш	-3856
▁части	-3857
▁Аравий	-3858
▁Луанда	-3859
▁Тичино	-3860
▁Уорден	-3861
▁Энрике	-3862
▁доктор	-3863
▁жители	-3864
▁минуты	-3865
▁Буффало	-3866
▁Пройсиш	-3867
▁Роландо	-3868
▁граммов	-3869
▁области	-3870
▁порядка	-3871
▁систему	-3872
Ольдендор	-3873
▁Ашхабаде	-3874
▁Брюсселе	-3875
▁Робертом	-3876
▁Родригес	-3877
▁Федераль	-3878
▁выполнен	-3879
▁Елизавета	-3880
▁Тирструпе	-3881
▁городской	-3882
▁плотность	-3883
▁Бунделкхан	-3884
▁родившимся	-3885
▁Орбитальный	-3886
▁президентом	-3887
▁футбольного	-3888
▁обслуживающий	-3889
25	-3890
Ви	-3891
Ин	-3892
-20	-3893
388	-3894
АЕК	-3895
Бар	-3896
нор	-3897
реб	-3898
руж	-3899
цио	-3900
ёль	-3901
▁ну	-3902
,846	-3903
1640	-3904
вада	-3905
юнер	-3906
▁Кор	-3907
▁Пет	-3908
▁зов	-3909
дении	-3910
звище	-3911
▁103,	-3912
▁1202	-3913
▁Геру	-3914
▁Кейп	-3915
ллинор	-3916
▁Анбар	-3917
▁Европ	-3918
▁Лацио	-3919
рейской	-3920
▁Исидро	-3921
ждествен	-3922
▁1621640	-3923
▁работал	-3924
▁1202,846	-3925
▁Астероид	-3926
▁Германии	-3927
▁Рамафоса	-3928
▁Чаллинор	-3929
▁авиабазу	-3930
▁системой	-3931
▁Техасском	-3932
▁конференц	-3933
▁соревнова	-3934
▁Архитектор	-3935
▁крупнейший	-3936
▁управление	-3937
▁чемпионами	-3938
▁479343000,0	-3939
▁Мичиганском	-3940
▁транслирова	-3941
▁национальный	-3942
▁Всеиндийского	-3943
▁возглавляется	-3944
▁правительство	-3945
▁спроектировано	-3946
iv	-3947
кра	-3948
наи	-3949
суа	-3950
фил	-3951
хой	-3952
щее	-3953
▁чь	-3954
Нова	-3955
вной	-3956
мери	-3957
перь	-3958
ровя	-3959
ящим	-3960
ёльн	-3961
▁Бил	-3962
▁Маэ	-3963
▁Пут	-3964
▁Тан	-3965
▁Фер	-3966
▁Чен	-3967
▁нее	-3968
▁пор	-3969
▁том	-3970
▁шко	-3971
Абебе	-3972
нандо	-3973
▁1976	-3974
▁2008	-3975
▁Ридж	-3976
▁тарт	-3977
▁этом	-3978
вадала	-3979
▁Райан	-3980
▁Эдвин	-3981
▁глава	-3982
▁зовут	-3983
▁Лимери	-3984
▁Ченнаи	-3985
▁главой	-3986
▁стадио	-3987
▁чоризо	-3988
▁Гвадала	-3989
▁Джейкоб	-3990
▁Руковод	-3991
▁Стерном	-3992
▁Франсуа	-3993
▁Церковь	-3994
▁Фернандо	-3995
▁включают	-3996
▁клубного	-3997
▁Висайских	-3998
▁Лумеццане	-3999
▁добавлены	-4000
▁относятся	-4001
Ольдендорфе	-4002
▁Блокбастер	-4003
▁Британском	-4004
ждественский	-4005
▁373513000,0	-4006
ne	-4007
tı	-4008
Ан	-4009
тё	-4010
▁Ş	-4011
158	-4012
270	-4013
395	-4014
497	-4015
ürk	-4016
ıtı	-4017
Уол	-4018
бре	-4019
вов	-4020
дей	-4021
мая	-4022
тёг	-4023
ффи	-4024
▁(2	-4025
▁Po	-4026
3717	-4027
9705	-4028
валь	-4029
варе	-4030
рака	-4031
чита	-4032
▁497	-4033
▁Гов	-4034
▁Оба	-4035
▁Тое	-4036
▁чья	-4037
9075)	-4038
етить	-4039
комст	-4040
минар	-4041
силья	-4042
▁103.	-4043
▁8000	-4044
▁Одди	-4045
▁Тарт	-4046
▁Штёг	-4047
▁встр	-4048
▁свои	-4049
▁хреб	-4050
395158	-4051
строен	-4052
▁43717	-4053
▁Anıtı	-4054
▁Мадин	-4055
▁Нотти	-4056
▁Сирил	-4057
▁Телан	-4058
▁Этель	-4059
▁арабы	-4060
▁банан	-4061
▁бачой	-4062
▁войне	-4063
▁общей	-4064
▁своей	-4065
▁струж	-4066
▁139705	-4067
▁Халима	-4068
▁Эллинг	-4069
▁метрах	-4070
▁одного	-4071
▁свиная	-4072
▁(29075)	-4073
▁8000270	-4074
▁Европей	-4075
▁Семинар	-4076
▁ведении	-4077
▁декабре	-4078
▁команди	-4079
▁малайцы	-4080
▁52395158	-4081
▁Инфраеро	-4082
▁Кейптаун	-4083
▁Тоекомст	-4084
▁асфальта	-4085
▁основным	-4086
▁островов	-4087
▁Şehitleri	-4088
▁Гуджарата	-4089
▁Этельваль	-4090
▁встретить	-4091
▁кокосовое	-4092
▁парламент	-4093
▁Ноттингеме	-4094
▁изготовлен	-4095
▁периапсиду	-4096
▁Геттисберге	-4097
▁Архитектором	-4098
▁государствен	-4099
.1	-4100
цо	-4101
/20	-4102
дят	-4103
пой	-4104
сай	-4105
сле	-4106
уча	-4107
шая	-4108
▁97	-4109
▁Ho	-4110
▁Аб	-4111
ллин	-4112
наде	-4113
щами	-4114
▁7,5	-4115
▁Апо	-4116
▁Гус	-4117
▁Дэн	-4118
лотая	-4119
▁1933	-4120
▁1980	-4121
▁Türk	-4122
▁Брай	-4123
▁Пэри	-4124
▁паль	-4125
▁поми	-4126
лларов	-4127
олотая	-4128
▁Алана	-4129
▁Драго	-4130
▁Пенья	-4131
▁Петер	-4132
▁Серия	-4133
▁восто	-4134
зийские	-4135
▁Борман	-4136
▁Каллин	-4137
▁Саммит	-4138
истребит	-4139
▁Ингреди	-4140
▁Лимерик	-4141
▁Массимо	-4142
▁Фламанд	-4143
▁группой	-4144
▁жареное	-4145
▁овощами	-4146
▁плантан	-4147
▁Виргинии	-4148
▁Фигнерии	-4149
▁основной	-4150
тяженность	-4151
▁Корейской	-4152
▁завершена	-4153
▁Международ	-4154
▁Управления	-4155
▁Футбольного	-4156
▁Этельвальду	-4157
▁Aktieselskab	-4158
▁насчитывается	-4159
▁распространен	-4160
AA	-4161
528	-4162
▁21	-4163
▁53	-4164
▁AF	-4165
▁Эр	-4166
3633	-4167
Асад	-4168
анчи	-4169
дает	-4170
доры	-4171
лист	-4172
наду	-4173
шего	-4174
▁660	-4175
▁911	-4176
▁973	-4177
▁Зла	-4178
▁Мол	-4179
▁вое	-4180
▁жив	-4181
▁кор	-4182
-2015	-4183
конес	-4184
порта	-4185
товая	-4186
▁3800	-4187
▁Буту	-4188
▁мука	-4189
ющийся	-4190
▁кровя	-4191
▁немец	-4192
анчиале	-4193
зийская	-4194
▁Олланд	-4195
▁Штёгер	-4196
▁теперь	-4197
площадки	-4198
▁6603633	-4199
▁Ашхабад	-4200
▁Гренаду	-4201
▁Гунером	-4202
▁странах	-4203
воздушных	-4204
патаконес	-4205
▁Гонконга	-4206
▁Кайахога	-4207
▁долларов	-4208
▁представ	-4209
▁Бутунером	-4210
▁содержится	-4211
▁437170000,0	-4212
▁соревновался	-4213
▁транспортный	-4214
▁расположенная	-4215
▁расположенного	-4216
▁Азербайджанской	-4217
/21	-4218
155	-4219
400	-4220
895	-4221
man	-4222
кое	-4223
мир	-4224
пля	-4225
рию	-4226
рой	-4227
чик	-4228
чно	-4229
▁43	-4230
▁60	-4231
▁Ав	-4232
▁Жа	-4233
▁Ме	-4234
бори	-4235
дний	-4236
жноа	-4237
резе	-4238
▁360	-4239
▁Лен	-4240
ником	-4241
ности	-4242
салом	-4243
стери	-4244
ющего	-4245
▁AFIT	-4246
▁Дани	-4247
▁Зума	-4248
▁появ	-4249
▁таро	-4250
▁яйцо	-4251
енером	-4252
еренга	-4253
льфман	-4254
▁39447	-4255
▁Барак	-4256
▁Обама	-4257
▁арепа	-4258
▁живут	-4259
▁сыгра	-4260
▁южноа	-4261
▁высоту	-4262
▁наград	-4263
▁фрукты	-4264
▁эпохой	-4265
▁Гауссия	-4266
▁Жареная	-4267
▁Тюдоров	-4268
▁бионико	-4269
▁востоку	-4270
▁коричне	-4271
▁красная	-4272
Бананамен	-4273
ественных	-4274
▁Вольфман	-4275
▁Ютландия	-4276
▁появился	-4277
▁родилась	-4278
▁пальмовый	-4279
▁перицентра	-4280
▁Центральная	-4281
▁архитектора	-4282
▁итальянском	-4283
▁южноафрикан	-4284
▁естественных	-4285
▁законодатель	-4286
▁3997100000000	-4287
▁происхождения	-4288
▁разновидностью	-4289
te	-4290
,57	-4291
ens	-4292
ers	-4293
niv	-4294
кар	-4295
мес	-4296
▁СА	-4297
5589	-4298
7055	-4299
itas	-4300
дава	-4301
ейкс	-4302
емая	-4303
нады	-4304
онсе	-4305
филд	-4306
энди	-4307
▁"19	-4308
▁277	-4309
▁349	-4310
▁605	-4311
▁Грэ	-4312
▁Юго	-4313
▁вхо	-4314
▁дру	-4315
▁ней	-4316
ensis	-4317
Город	-4318
Коара	-4319
карта	-4320
мичес	-4321
новом	-4322
стрич	-4323
товый	-4324
▁1929	-4325
▁2777	-4326
▁5,57	-4327
▁Азии	-4328
▁Мата	-4329
▁Пери	-4330
▁Таро	-4331
▁Эрни	-4332
▁отде	-4333
nivers	-4334
борист	-4335
льском	-4336
мелини	-4337
онсека	-4338
▁После	-4339
▁Прези	-4340
▁Сэнди	-4341
▁борту	-4342
▁здани	-4343
▁злаки	-4344
▁кейкс	-4345
▁немцы	-4346
▁позже	-4347
▁ремес	-4348
▁счита	-4349
Коараси	-4350
▁135589	-4351
▁Главой	-4352
▁западе	-4353
▁кетчуп	-4354
▁регион	-4355
▁хребте	-4356
площадку	-4357
▁Итальян	-4358
▁Паслёно	-4359
▁Фонсека	-4360
▁ассоциа	-4361
▁астерои	-4362
▁бисквит	-4363
Восточной	-4364
▁Ашертоне	-4365
▁Джакарта	-4366
▁Основной	-4367
▁графство	-4368
▁обнаружи	-4369
▁операции	-4370
▁площадки	-4371
▁площадку	-4372
▁растений	-4373
▁чемпионы	-4374
niversitas	-4375
Агремиасан	-4376
▁Китайской	-4377
▁Орхусском	-4378
▁Филиппины	-4379
▁банановом	-4380
▁семейству	-4381
▁представля	-4382
▁префектура	-4383
▁разработан	-4384
▁Семинарском	-4385
▁6603633000,0	-4386
▁эксплуатирующая	-4387
AB	-4388
ht	-4389
АР	-4390
ея	-4391
,94	-4392
718	-4393
777	-4394
ics	-4395
nam	-4396
бан	-4397
дду	-4398
дой	-4399
ило	-4400
▁09	-4401
▁Dy	-4402
▁лу	-4403
2343	-4404
91,8	-4405
9776	-4406
ener	-4407
ight	-4408
lous	-4409
ддум	-4410
екан	-4411
ерми	-4412
парк	-4413
сайд	-4414
▁Лам	-4415
▁Раз	-4416
▁Тим	-4417
▁ЮАР	-4418
▁кам	-4419
▁ком	-4420
▁кун	-4421
▁наз	-4422
▁оба	-4423
▁обы	-4424
▁югу	-4425
47055	-4426
Акита	-4427
Барни	-4428
емого	-4429
▁1988	-4430
▁5,75	-4431
▁Popu	-4432
▁Граж	-4433
▁Грэм	-4434
▁Найк	-4435
▁Пана	-4436
▁Рекс	-4437
▁едят	-4438
▁насе	-4439
▁тоже	-4440
234300	-4441
eneral	-4442
namics	-4443
каддум	-4444
подава	-4445
▁Аллан	-4446
▁Аурак	-4447
▁Батат	-4448
▁Горри	-4449
▁Декан	-4450
▁Ривер	-4451
▁арена	-4452
▁говяж	-4453
▁листе	-4454
▁полуо	-4455
91,8388	-4456
тинское	-4457
▁259776	-4458
▁Гарден	-4459
▁Канады	-4460
▁Лидера	-4461
▁Муници	-4462
▁возник	-4463
▁мемори	-4464
▁полити	-4465
▁получи	-4466
мелиниды	-4467
▁560090,	-4468
▁Авокадо	-4469
▁Сэндидж	-4470
▁главные	-4471
▁жителей	-4472
▁религия	-4473
▁сборную	-4474
▁88234300	-4475
▁Dynamics	-4476
▁Populous	-4477
▁Валенсия	-4478
▁выступал	-4479
▁кровяная	-4480
▁официаль	-4481
▁Магдебург	-4482
▁Риверсайд	-4483
▁измерение	-4484
▁523951582,	-4485
▁Республики	-4486
▁английском	-4487
▁столичного	-4488
▁федеральный	-4489
▁Гёттингенском	-4490
▁Куттиккаттоор	-4491
▁эксплуатирует	-4492
▁162164091,8388	-4493
▁рождественский	-4494
пл	-4495
498	-4496
843	-4497
виз	-4498
лец	-4499
пио	-4500
пич	-4501
раз	-4502
уза	-4503
▁50	-4504
▁СК	-4505
▁Ян	-4506
Уолл	-4507
бода	-4508
джин	-4509
монд	-4510
тица	-4511
▁410	-4512
▁АСА	-4513
▁Дже	-4514
▁Пау	-4515
▁рек	-4516
▁род	-4517
/2015	-4518
843,8	-4519
alcon	-4520
виано	-4521
дитер	-4522
льцем	-4523
надец	-4524
тером	-4525
▁0,21	-4526
▁1986	-4527
▁Глав	-4528
▁Эман	-4529
▁стро	-4530
498400	-4531
вершен	-4532
правоч	-4533
▁Лимон	-4534
▁Соуза	-4535
▁арроз	-4536
▁домом	-4537
▁тапио	-4538
▁162447	-4539
▁605718	-4540
▁Falcon	-4541
▁Астери	-4542
▁Панаму	-4543
▁входил	-4544
▁зданий	-4545
▁овощей	-4546
ландский	-4547
морсилья	-4548
▁2014-15	-4549
▁Десмонд	-4550
▁Француз	-4551
▁округом	-4552
▁25977670	-4553
▁41498400	-4554
▁Антьокии	-4555
▁Апоцентр	-4556
▁Горриган	-4557
▁Гусейном	-4558
▁Народной	-4559
▁значимых	-4560
▁космичес	-4561
▁площадью	-4562
▁2014-2015	-4563
▁2014/2015	-4564
▁Перицентр	-4565
▁институте	-4566
▁сгущенное	-4567
▁Ахмадабаде	-4568
▁использует	-4569
▁Протяженность	-4570
▁альтернативное	-4571
▁приготовленные	-4572
)”	-4573
ha	-4574
ro	-4575
tu	-4576
Ол	-4577
Те	-4578
-16	-4579
312	-4580
823	-4581
862	-4582
pul	-4583
Кар	-4584
ейт	-4585
иты	-4586
мас	-4587
нав	-4588
оло	-4589
сой	-4590
ыду	-4591
▁08	-4592
▁Уэ	-4593
.12.	-4594
1133	-4595
2497	-4596
7000	-4597
9919	-4598
дасе	-4599
лиге	-4600
нила	-4601
оллю	-4602
сков	-4603
▁416	-4604
▁419	-4605
▁Адэ	-4606
▁Пар	-4607
55312	-4608
вшего	-4609
лочка	-4610
стров	-4611
шаяся	-4612
▁1985	-4613
▁Apul	-4614
▁Кита	-4615
▁Одна	-4616
▁Рома	-4617
▁лиги	-4618
▁меда	-4619
▁пока	-4620
113394	-4621
Тейлор	-4622
вианос	-4623
▁29919	-4624
▁34920	-4625
▁69862	-4626
▁Fight	-4627
▁Джона	-4628
▁Мэйпл	-4629
▁Созда	-4630
▁Также	-4631
▁корен	-4632
▁моллю	-4633
▁музей	-4634
7000823	-4635
Олдерни	-4636
стронав	-4637
▁352497	-4638
▁410777	-4639
▁Акроне	-4640
▁Парана	-4641
▁западу	-4642
Асиломар	-4643
стричный	-4644
▁30843,8	-4645
▁General	-4646
▁Китайцы	-4647
▁булочка	-4648
▁воевали	-4649
▁районов	-4650
▁сендвич	-4651
▁29919600	-4652
▁Баймакса	-4653
▁Блэкпуле	-4654
▁Ирландии	-4655
▁предлага	-4656
▁сендвича	-4657
▁снимался	-4658
▁тренером	-4659
Фиорентина	-4660
▁419113394	-4661
▁Apulensis	-4662
▁Вальтером	-4663
▁Телангана	-4664
▁моллюсков	-4665
▁площадкой	-4666
▁директором	-4667
▁французском	-4668
▁Алькобендасе	-4669
▁представляет	-4670
▁архитектурном	-4671
GR	-4672
XN	-4673
Бо	-4674
115	-4675
136	-4676
195	-4677
608	-4678
бах	-4679
пан	-4680
хуа	-4681
▁АК	-4682
▁Ди	-4683
▁Ны	-4684
▁мл	-4685
00,0	-4686
Кара	-4687
днее	-4688
тона	-4689
узея	-4690
▁AGR	-4691
▁Бен	-4692
▁Чер	-4693
▁лук	-4694
-14".	-4695
07.19	-4696
49895	-4697
битая	-4698
печен	-4699
ролев	-4700
унхуа	-4701
▁1533	-4702
▁1981	-4703
▁2776	-4704
▁4349	-4705
▁5115	-4706
▁Болт	-4707
▁Вари	-4708
▁Мена	-4709
▁вели	-4710
▁корн	-4711
олотой	-4712
падает	-4713
▁19238	-4714
▁Адсит	-4715
▁Адэре	-4716
▁Барто	-4717
▁Виции	-4718
▁Шарль	-4719
▁колле	-4720
▁мекси	-4721
▁одной	-4722
▁числе	-4723
4989570	-4724
Карабах	-4725
▁гречес	-4726
▁кубики	-4727
▁курицу	-4728
▁медали	-4729
американ	-4730
нанамена	-4731
▁Гауссии	-4732
▁Гуджара	-4733
▁городом	-4734
▁гранола	-4735
▁китайцы	-4736
▁Дунканом	-4737
▁Клематис	-4738
▁Эмануэль	-4739
▁астероид	-4740
▁астронав	-4741
▁входящий	-4742
▁компании	-4743
▁компания	-4744
▁мексикан	-4745
▁прозвище	-4746
расположен	-4747
▁254989570	-4748
▁80002709.	-4749
▁добавлена	-4750
▁кунжутное	-4751
▁сельдерей	-4752
▁чемпионом	-4753
▁Сальвадора	-4754
▁нарезанные	-4755
▁чемпионате	-4756
▁523329000,0	-4757
▁Европейский	-4758
▁Олимпийский	-4759
▁академический	-4760
▁государственный	-4761
▁классифицирован	-4762
27	-4763
34	-4764
4.	-4765
cD	-4766
ou	-4767
иг	-4768
рь	-4769
/27	-4770
agl	-4771
ell	-4772
onn	-4773
Лум	-4774
вых	-4775
дик	-4776
ние	-4777
тед	-4778
эди	-4779
0634	-4780
2,88	-4781
2943	-4782
agle	-4783
glas	-4784
Несо	-4785
айна	-4786
джая	-4787
комо	-4788
нодо	-4789
▁11.	-4790
▁Dou	-4791
▁Ило	-4792
▁Кен	-4793
▁сло	-4794
50000	-4795
60815	-4796
cDonn	-4797
Афины	-4798
Лумпу	-4799
банел	-4800
круши	-4801
льном	-4802
льные	-4803
окомо	-4804
▁0,04	-4805
▁08/2	-4806
▁1987	-4807
▁Вила	-4808
▁Мери	-4809
▁Мэди	-4810
▁Юнай	-4811
▁парк	-4812
▁песо	-4813
▁трен	-4814
раджая	-4815
строва	-4816
▁39371	-4817
▁70634	-4818
▁Eagle	-4819
▁Адрес	-4820
▁Куала	-4821
▁Паулу	-4822
▁Чайна	-4823
▁завер	-4824
▁печен	-4825
▁преми	-4826
ативной	-4827
который	-4828
лирован	-4829
пальный	-4830
▁772943	-4831
▁Губбио	-4832
▁Канзас	-4833
▁бронзы	-4834
▁заправ	-4835
▁курицы	-4836
▁страну	-4837
cDonnell	-4838
бельсбер	-4839
ермишель	-4840
крушимая	-4841
▁Douglas	-4842
▁Бальдер	-4843
▁Юнайтед	-4844
▁авианос	-4845
▁свобода	-4846
правочный	-4847
▁Мэдисоне	-4848
▁Такаддум	-4849
▁Ютландии	-4850
▁домашней	-4851
▁менеджер	-4852
роамерикан	-4853
▁Гуджарате	-4854
▁Путраджая	-4855
▁известная	-4856
▁категорию	-4857
▁Манхэттене	-4858
▁ассоциация	-4859
▁командиром	-4860
▁кубический	-4861
▁представит	-4862
Несокрушимая	-4863
▁Федеральный	-4864
▁полуострова	-4865
▁французский	-4866
▁Федеративной	-4867
▁Паслёноцветные	-4868
▁спроектирована	-4869
ok	-4870
вш	-4871
ед	-4872
11.	-4873
аны	-4874
джу	-4875
дия	-4876
кре	-4877
▁Тр	-4878
▁Фо	-4879
000,	-4880
веже	-4881
вров	-4882
гори	-4883
кими	-4884
клас	-4885
пляж	-4886
рино	-4887
слом	-4888
удет	-4889
унти	-4890
▁320	-4891
▁488	-4892
▁Кес	-4893
▁Уэл	-4894
▁млн	-4895
ериал	-4896
кпорт	-4897
спиты	-4898
▁1516	-4899
▁Гард	-4900
▁каль	-4901
▁капу	-4902
Бостон	-4903
Лумпур	-4904
западе	-4905
хожден	-4906
▁Белга	-4907
▁Болта	-4908
▁Борис	-4909
▁Испан	-4910
▁будет	-4911
▁наход	-4912
▁тенни	-4913
▁типич	-4914
ерлинер	-4915
▁Кампус	-4916
▁Каунти	-4917
▁Лавров	-4918
▁Мадина	-4919
▁Псалом	-4920
▁индекс	-4921
▁клубом	-4922
квартиру	-4923
окомотив	-4924
печенным	-4925
▁Грегори	-4926
▁Джонсон	-4927
▁Сигалом	-4928
▁главных	-4929
▁готовят	-4930
▁командо	-4931
▁которым	-4932
▁печенье	-4933
▁прежнее	-4934
▁рисовые	-4935
бельсберг	-4936
спитывать	-4937
▁87000823	-4938
▁Fighting	-4939
▁Ирландия	-4940
▁совершен	-4941
▁содержат	-4942
▁стадионе	-4943
ффилирован	-4944
▁McDonnell	-4945
▁Индонезий	-4946
▁Манхэттен	-4947
▁греческом	-4948
▁испанский	-4949
▁испанском	-4950
▁столичном	-4951
▁считается	-4952
▁арахисовый	-4953
▁британские	-4954
▁управлялся	-4955
▁511592000,0	-4956
▁Соединённые	-4957
▁Туркменские	-4958
▁Швейцарский	-4959
▁поверхности	-4960
▁фламандским	-4961
▁региональным	-4962
▁совершенство	-4963
▁индонезийская	-4964
▁индонезийском	-4965
▁приготовленная	-4966
OK	-4967
ba	-4968
Ме	-4969
шу	-4970
/32	-4971
100	-4972
160	-4973
618	-4974
Плэ	-4975
гле	-4976
дря	-4977
йон	-4978
кро	-4979
фит	-4980
цах	-4981
▁1,	-4982
baan	-4983
динг	-4984
емом	-4985
ерри	-4986
кроп	-4987
мпус	-4988
ница	-4989
плен	-4990
▁170	-4991
▁2,0	-4992
▁HOK	-4993
▁Пью	-4994
▁Рут	-4995
▁Уэй	-4996
▁Хью	-4997
▁Язы	-4998
15100	-4999
70000	-5000
водов	-5001
естер	-5002
жипан	-5003
леные	-5004
сален	-5005
свеже	-5006
скому	-5007
также	-5008
фитюр	-5009
хелен	-5010
▁1911	-5011
▁Клод	-5012
▁Лейк	-5013
▁Сред	-5014
▁имби	-5015
▁лира	-5016
▁люди	-5017
▁угле	-5018
Плэсид	-5019
жности	-5020
лемари	-5021
рарезе	-5022
▁15788	-5023
▁3500.	-5024
▁69618	-5025
▁Аурон	-5026
▁Бекон	-5027
▁здесь	-5028
▁кудря	-5029
▁начин	-5030
▁район	-5031
▁собой	-5032
0000003	-5033
▁0,0473	-5034
▁416136	-5035
▁Мериде	-5036
▁Тейлор	-5037
▁Фенвес	-5038
▁кампус	-5039
▁кислом	-5040
▁летчик	-5041
▁остром	-5042
▁7715100	-5043
▁Билдинг	-5044
▁Десален	-5045
▁Джексон	-5046
▁Камиллы	-5047
▁Окончил	-5048
▁Рутленд	-5049
▁Сборную	-5050
▁Средняя	-5051
▁Эфиопия	-5052
▁главный	-5053
▁жареной	-5054
▁заверши	-5055
▁крупный	-5056
▁отбитая	-5057
▁сметана	-5058
▁соревну	-5059
▁стружка	-5060
ительства	-5061
▁Бартолон	-5062
▁Гуджарат	-5063
▁Колумбия	-5064
▁Стивеном	-5065
▁креветки	-5066
▁нынешний	-5067
▁почтовый	-5068
▁рождения	-5069
▁управлял	-5070
▁Карнатаки	-5071
▁Хайлемари	-5072
▁кокосовая	-5073
▁основного	-5074
▁основными	-5075
▁провинция	-5076
▁сложности	-5077
▁углеводов	-5078
▁авианосцах	-5079
▁идентифика	-5080
700000000003	-5081
▁построенная	-5082
▁Амстердамский	-5083
▁муниципалитет	-5084
▁правительством	-5085
▁транслировался	-5086
26	-5087
8,	-5088
az	-5089
ад	-5090
ях	-5091
-8"	-5092
bha	-5093
Фал	-5094
ббо	-5095
бха	-5096
гие	-5097
гих	-5098
жай	-5099
нио	-5100
реа	-5101
рез	-5102
▁Ве	-5103
▁Вы	-5104
▁ир	-5105
0068	-5106
9142	-5107
acon	-5108
bhai	-5109
анка	-5110
верс	-5111
коло	-5112
ксен	-5113
мови	-5114
пена	-5115
рией	-5116
▁2,7	-5117
▁Вин	-5118
▁Воз	-5119
▁Ден	-5120
▁Лет	-5121
▁кар	-5122
Фаллу	-5123
вижен	-5124
лижай	-5125
новый	-5126
стера	-5127
тонио	-5128
▁1820	-5129
▁2744	-5130
▁3310	-5131
▁4000	-5132
▁Валю	-5133
▁Дэви	-5134
▁Пейн	-5135
▁река	-5136
джубха	-5137
инский	-5138
торией	-5139
▁23900	-5140
▁Англи	-5141
▁Елену	-5142
▁Ланка	-5143
▁Нынеш	-5144
▁Рутов	-5145
▁Уилер	-5146
▁вырез	-5147
▁камня	-5148
▁пирож	-5149
кийская	-5150
турмови	-5151
▁0,0068	-5152
▁279142	-5153
▁488160	-5154
▁Ангола	-5155
▁Илоило	-5156
▁Летчик	-5157
▁Мариот	-5158
▁Роверс	-5159
▁федера	-5160
Техничес	-5161
▁Аэропор	-5162
▁Блэкпул	-5163
▁Королев	-5164
▁испанцы	-5165
▁тенниса	-5166
▁Ваджубха	-5167
▁Роджером	-5168
▁Скорость	-5169
▁домашнюю	-5170
▁ключевой	-5171
▁основное	-5172
▁основных	-5173
▁растения	-5174
▁Индонезия	-5175
▁апоцентра	-5176
▁готовится	-5177
▁гуанчиале	-5178
▁кельвинов	-5179
▁построены	-5180
▁устричный	-5181
Воспитывать	-5182
▁Антверпена	-5183
▁Аравийское	-5184
▁Ингредиент	-5185
▁аэропортов	-5186
роамериканцы	-5187
▁Хайлемариам	-5188
▁температура	-5189
▁управляемого	-5190
▁южноафриканцы	-5191
ir	-5192
Ад	-5193
/35	-5194
080	-5195
150	-5196
339	-5197
609	-5198
Вит	-5199
вай	-5200
еть	-5201
нош	-5202
тая	-5203
тти	-5204
уэй	-5205
▁ян	-5206
,744	-5207
7,94	-5208
алер	-5209
биен	-5210
елли	-5211
ития	-5212
ксом	-5213
онов	-5214
реаз	-5215
роде	-5216
стес	-5217
тера	-5218
усом	-5219
чное	-5220
▁837	-5221
▁Mon	-5222
▁STV	-5223
▁Том	-5224
▁два	-5225
▁лом	-5226
▁сыр	-5227
33968	-5228
60937	-5229
ношес	-5230
шалот	-5231
▁4150	-5232
▁5300	-5233
▁Армс	-5234
▁Вала	-5235
▁Лиге	-5236
▁кита	-5237
▁мала	-5238
▁море	-5239
▁ниже	-5240
Витесс	-5241
дерман	-5242
▁Биббо	-5243
▁Бреаз	-5244
▁Валер	-5245
▁Злаки	-5246
▁Перте	-5247
▁Печен	-5248
▁Юкроп	-5249
▁батти	-5250
▁ломти	-5251
▁милли	-5252
080,744	-5253
столица	-5254
▁167,94	-5255
▁560937	-5256
▁бульон	-5257
▁имбирь	-5258
▁именем	-5259
▁обычно	-5260
▁филипп	-5261
▁январе	-5262
▁3800,0.	-5263
▁Даниэль	-5264
▁Огастес	-5265
▁выступа	-5266
▁кальмар	-5267
▁команды	-5268
▁нутовая	-5269
▁паслёно	-5270
▁региону	-5271
▁советом	-5272
▁техасцы	-5273
▁этажами	-5274
000000,0,	-5275
▁Астерикс	-5276
▁Аураклес	-5277
▁Валенсии	-5278
▁Вальтера	-5279
▁Десалень	-5280
▁Лавровые	-5281
▁Сингапур	-5282
▁вариации	-5283
▁достроен	-5284
▁названия	-5285
▁помидоры	-5286
▁регистре	-5287
▁ценности	-5288
▁Ваджубхай	-5289
▁вермишель	-5290
▁итальянцы	-5291
▁миллионов	-5292
▁837080,744	-5293
▁Амстердама	-5294
▁Гёттингене	-5295
▁азиатского	-5296
▁известного	-5297
▁участвовал	-5298
▁560937000,0	-5299
▁завершилось	-5300
▁представлял	-5301
▁обнаруживший	-5302
▁эксплуатируемый	-5303
6,	-5304
83	-5305
ēz	-5306
Де	-5307
ах	-5308
рю	-5309
сс	-5310
▁'	-5311
196	-5312
del	-5313
dio	-5314
Ита	-5315
Тур	-5316
вую	-5317
пом	-5318
тте	-5319
циг	-5320
чде	-5321
▁Уж	-5322
▁оз	-5323
3326	-5324
7888	-5325
метр	-5326
нион	-5327
роме	-5328
шира	-5329
ёрби	-5330
▁23-	-5331
▁8,3	-5332
▁Абу	-5333
▁Ауд	-5334
▁Эсс	-5335
▁мно	-5336
▁тон	-5337
delēz	-5338
irman	-5339
ераль	-5340
лицей	-5341
товое	-5342
щания	-5343
▁11/2	-5344
▁1249	-5345
▁2013	-5346
▁2215	-5347
▁Ману	-5348
▁Риме	-5349
▁игро	-5350
▁июне	-5351
▁лист	-5352
▁окон	-5353
,55312	-5354
ейпциг	-5355
тового	-5356
▁87888	-5357
▁Арион	-5358
▁Кёрби	-5359
▁Пучде	-5360
▁Спорт	-5361
▁Уэлби	-5362
▁Шепар	-5363
▁амхар	-5364
▁конку	-5365
▁около	-5366
▁санти	-5367
Туркмен	-5368
креплен	-5369
манской	-5370
▁283326	-5371
▁Десерт	-5372
▁Карлес	-5373
▁Чезена	-5374
▁Эссекс	-5375
▁Юношес	-5376
▁карака	-5377
▁открыл	-5378
▁подава	-5379
▁размер	-5380
▁своего	-5381
▁теннис	-5382
▁участи	-5383
▁футбол	-5384
Фаллуджа	-5385
▁Малакка	-5386
▁Печенье	-5387
▁Пэрисом	-5388
▁Франция	-5389
▁жареный	-5390
▁колбасу	-5391
▁населен	-5392
▁соленые	-5393
▁столице	-5394
▁тонкими	-5395
▁чернила	-5396
▁Mondelēz	-5397
▁Ганимеда	-5398
▁Лидерами	-5399
▁Столицей	-5400
▁растение	-5401
подаватель	-5402
▁124950000	-5403
▁Каллинсом	-5404
▁Каталония	-5405
▁альдерман	-5406
▁апоапсида	-5407
▁ломтиками	-5408
▁сантиметр	-5409
▁создатель	-5410
▁франжипан	-5411
▁2014/2015.	-5412
▁Бананамена	-5413
▁обнаружено	-5414
▁префектуру	-5415
▁резервного	-5416
▁Бунделкханд	-5417
▁Управлением	-5418
▁Федеральное	-5419
▁Эксплуатиру	-5420
▁докторантом	-5421
▁истребитель	-5422
▁поверхность	-5423
▁историческая	-5424
▁419113394,55312	-5425
.3	-5426
4,	-5427
53	-5428
пе	-5429
сы	-5430
шо	-5431
-06	-5432
RAA	-5433
ero	-5434
бул	-5435
лют	-5436
шки	-5437
▁HA	-5438
▁MD	-5439
▁SN	-5440
▁UT	-5441
▁Её	-5442
▁Шу	-5443
Тори	-5444
адза	-5445
акос	-5446
блин	-5447
енци	-5448
овет	-5449
сана	-5450
ттео	-5451
▁130	-5452
▁507	-5453
▁MIT	-5454
▁АЕК	-5455
▁Бур	-5456
▁Имя	-5457
▁дол	-5458
▁имп	-5459
▁кла	-5460
▁поя	-5461
▁сле	-5462
Кёльн	-5463
данин	-5464
ектив	-5465
етьей	-5466
селок	-5467
скими	-5468
солют	-5469
товым	-5470
ченца	-5471
▁1873	-5472
▁3990	-5473
▁Hook	-5474
▁ORAA	-5475
▁Абду	-5476
▁Веро	-5477
▁Молс	-5478
▁Пари	-5479
▁Рима	-5480
▁Саус	-5481
▁Стам	-5482
▁Хель	-5483
▁жира	-5484
▁колл	-5485
▁меро	-5486
▁озву	-5487
▁рода	-5488
▁тами	-5489
▁улиц	-5490
Ампара	-5491
Италия	-5492
Торино	-5493
антино	-5494
вшаяся	-5495
давлен	-5496
жность	-5497
иллинг	-5498
прияти	-5499
тагора	-5500
центру	-5501
ящийся	-5502
▁10000	-5503
▁1622,	-5504
▁Владе	-5505
▁Джилл	-5506
▁Затем	-5507
▁Захар	-5508
▁Колан	-5509
▁Ренци	-5510
▁Совет	-5511
▁бульв	-5512
▁возве	-5513
▁клубу	-5514
▁лапшу	-5515
▁сосед	-5516
▁среди	-5517
▁фарша	-5518
2.47055	-5519
наружен	-5520
стралия	-5521
▁1516,6	-5522
▁Airman	-5523
▁Дублин	-5524
▁Кармай	-5525
▁Маттео	-5526
▁Муадза	-5527
▁Солден	-5528
▁Турция	-5529
▁Фоксом	-5530
▁народы	-5531
▁отдела	-5532
▁первой	-5533
▁севере	-5534
▁сыграл	-5535
▁темный	-5536
▁3992,88	-5537
▁Бруклин	-5538
▁Гюнером	-5539
▁Поселок	-5540
▁Стамбул	-5541
▁Шепарда	-5542
▁Шиллинг	-5543
▁жареную	-5544
▁занимал	-5545
▁конкури	-5546
▁меренга	-5547
▁регистр	-5548
английски	-5549
нодольные	-5550
▁140000,0	-5551
▁Консерва	-5552
▁Метапане	-5553
▁Хюсейном	-5554
▁коренные	-5555
▁объектов	-5556
▁ремеслен	-5557
▁турецкая	-5558
▁яванской	-5559
▁Австралия	-5560
▁Аэропорта	-5561
▁Бютюнером	-5562
▁Гарднером	-5563
▁Инфантино	-5564
▁Президент	-5565
▁коллектив	-5566
▁подпадает	-5567
▁последний	-5568
▁техасцами	-5569
Туркменские	-5570
▁Ассоциации	-5571
▁арендаторы	-5572
▁коричневый	-5573
▁мероприяти	-5574
▁называются	-5575
▁справочный	-5576
▁астронавтов	-5577
▁аффилирован	-5578
▁руководящим	-5579
▁соревнуется	-5580
▁Брюссельском	-5581
▁Кливлендский	-5582
▁расположение	-5583
▁скончавшийся	-5584
▁Муниципальный	-5585
▁Великобритания	-5586
▁паслёноцветных	-5587
▁Солденванахалли	-5588
5.	-5589
VE	-5590
йн	-5591
112	-5592
911	-5593
Сто	-5594
гей	-5595
йсе	-5596
кен	-5597
мин	-5598
мын	-5599
нам	-5600
тау	-5601
тен	-5602
урс	-5603
цер	-5604
▁"3	-5605
▁36	-5606
▁гр	-5607
воро	-5608
емпе	-5609
емых	-5610
маты	-5611
тена	-5612
элья	-5613
эрто	-5614
▁120	-5615
▁4,8	-5616
▁5,6	-5617
▁SVE	-5618
▁Афи	-5619
▁Дат	-5620
▁Еще	-5621
▁Хус	-5622
▁Шах	-5623
▁все	-5624
▁чей	-5625
.3528	-5626
латин	-5627
льную	-5628
ранак	-5629
ранее	-5630
▁300,	-5631
▁Гэри	-5632
▁Пред	-5633
▁дела	-5634
▁демо	-5635
▁изде	-5636
▁клаб	-5637
▁приш	-5638
▁сооб	-5639
анском	-5640
лисман	-5641
строве	-5642
сэндви	-5643
▁Абдул	-5644
▁Гюнер	-5645
▁Джонс	-5646
▁Дуурс	-5647
▁Кемпе	-5648
▁Ксимо	-5649
▁Мишки	-5650
▁Стран	-5651
▁Ужанг	-5652
▁Файлд	-5653
▁Халим	-5654
▁адрес	-5655
▁баджи	-5656
▁затем	-5657
▁лапши	-5658
▁людей	-5659
▁посту	-5660
▁прожи	-5661
▁румын	-5662
▁скоро	-5663
▁следу	-5664
▁стать	-5665
▁творо	-5666
▁улице	-5667
▁часто	-5668
▁чтобы	-5669
Виченца	-5670
ельвина	-5671
▁0,0112	-5672
▁0,0155	-5673
▁Афинах	-5674
▁Вероне	-5675
▁Кералы	-5676
▁Орхуса	-5677
▁Площад	-5678
▁Хюсейн	-5679
▁грамма	-5680
▁началь	-5681
▁паэлья	-5682
▁ратуша	-5683
▁спорта	-5684
▁фаршем	-5685
▁черная	-5686
Пиньяйсе	-5687
Стокпорт	-5688
▁Бютюнер	-5689
▁Лейпциг	-5690
▁Мадрида	-5691
▁Муадзам	-5692
▁Олдрина	-5693
▁Пиацции	-5694
▁Саранак	-5695
▁Хьюстон	-5696
▁зданиям	-5697
▁предыду	-5698
▁системы	-5699
естерфилд	-5700
коцветные	-5701
правление	-5702
▁69862200	-5703
▁Пучдемон	-5704
▁академия	-5705
▁батагора	-5706
▁десертом	-5707
▁известны	-5708
▁колледжа	-5709
▁конфитюр	-5710
▁креветка	-5711
▁самолеты	-5712
▁Гражданин	-5713
▁Мемориала	-5714
▁греческий	-5715
▁сделанный	-5716
▁ценностью	-5717
сторическая	-5718
▁альдерману	-5719
▁периапсида	-5720
истребителем	-5721
▁605718000,0	-5722
▁Центральной	-5723
▁разновидности	-5724
▁259776702.47055	-5725
xp	-5726
Из	-5727
/30	-5728
213	-5729
360	-5730
ion	-5731
los	-5732
tin	-5733
айн	-5734
итц	-5735
йет	-5736
кза	-5737
сим	-5738
уме	-5739
чос	-5740
шой	-5741
▁Пе	-5742
▁би	-5743
▁кв	-5744
▁пу	-5745
Адэр	-5746
Андж	-5747
Лейк	-5748
Муча	-5749
вине	-5750
дних	-5751
дных	-5752
елес	-5753
жная	-5754
икар	-5755
икки	-5756
комп	-5757
кращ	-5758
лату	-5759
ппер	-5760
рито	-5761
рона	-5762
туши	-5763
шоме	-5764
юмас	-5765
▁111	-5766
▁597	-5767
▁Aus	-5768
▁Exp	-5769
▁Дай	-5770
▁Кук	-5771
▁Лау	-5772
▁Лей	-5773
▁Лос	-5774
▁Пор	-5775
▁Уол	-5776
▁Чил	-5777
▁Эта	-5778
▁лен	-5779
▁спе	-5780
▁тер	-5781
▁тяу	-5782
Измир	-5783
Келли	-5784
енные	-5785
зовых	-5786
мандо	-5787
ногда	-5788
ристи	-5789
ставо	-5790
ствую	-5791
▁1700	-5792
▁200,	-5793
▁3360	-5794
▁Диас	-5795
▁Пуиг	-5796
▁Роке	-5797
▁Файн	-5798
▁Фитц	-5799
▁Экза	-5800
▁лиди	-5801
▁мона	-5802
losion	-5803
еральд	-5804
корино	-5805
симмон	-5806
ьетнам	-5807
юмасан	-5808
▁Bacon	-5809
▁Говда	-5810
▁Кенни	-5811
▁Отеля	-5812
▁Пикар	-5813
▁Пикки	-5814
▁Пойет	-5815
▁Симон	-5816
▁Среди	-5817
▁англи	-5818
▁выпус	-5819
▁годов	-5820
▁грани	-5821
▁масла	-5822
▁музея	-5823
▁тарта	-5824
▁трени	-5825
▁эпохи	-5826
.12.200	-5827
0000,0,	-5828
Мучачос	-5829
винегро	-5830
жденный	-5831
морской	-5832
ппербер	-5833
фициаль	-5834
ционале	-5835
▁349206	-5836
▁Austin	-5837
▁Валюта	-5838
▁Карлом	-5839
▁Менаша	-5840
▁Службе	-5841
▁Создан	-5842
▁Стивом	-5843
▁Сусана	-5844
▁Тешоме	-5845
▁бланко	-5846
▁народа	-5847
▁премию	-5848
▁соусом	-5849
▁центра	-5850
▁челове	-5851
Анджелес	-5852
кондитер	-5853
кращенно	-5854
министра	-5855
▁Болатин	-5856
▁Вещания	-5857
▁Густаво	-5858
▁Ламбиен	-5859
▁Мексика	-5860
▁Скоттом	-5861
▁Уильямс	-5862
▁Фрэнком	-5863
▁Херальд	-5864
▁Этничес	-5865
▁имеется	-5866
▁канадец	-5867
▁тапиока	-5868
▁террито	-5869
▁туристи	-5870
▁членами	-5871
давленная	-5872
▁Белгауме	-5873
▁Разновид	-5874
▁авиакомп	-5875
▁возведен	-5876
▁сообщест	-5877
▁соседних	-5878
▁филиппин	-5879
▁цветущих	-5880
▁31.12.200	-5881
▁Explosion	-5882
▁Карнатаке	-5883
▁Куппербер	-5884
▁Лейборист	-5885
▁Эллингтон	-5886
▁известной	-5887
▁мемориала	-5888
Universitas	-5889
▁Манхэттена	-5890
▁Родившийся	-5891
▁Фитцсиммон	-5892
▁Эллингтона	-5893
▁владельцем	-5894
▁килограмма	-5895
▁являющийся	-5896
тернационале	-5897
▁Болатинский	-5898
▁Первооткрыва	-5899
▁традиционный	-5900
▁88234300000,0.	-5901
▁спроектировали	-5902
▁288749000000,0.	-5903
▁Технологическом	-5904
")	-5905
17	-5906
45	-5907
Ни	-5908
оа	-5909
.29	-5910
/33	-5911
10)	-5912
27.	-5913
484	-5914
894	-5915
904	-5916
919	-5917
Про	-5918
ито	-5919
кка	-5920
лие	-5921
чем	-5922
энн	-5923
эта	-5924
▁--	-5925
▁GA	-5926
▁HE	-5927
▁RQ	-5928
▁VA	-5929
▁VD	-5930
▁Ая	-5931
▁аб	-5932
-14"	-5933
1683	-5934
Бари	-5935
вари	-5936
иита	-5937
инна	-5938
рхус	-5939
эром	-5940
ющее	-5941
▁1,8	-5942
▁20.	-5943
▁476	-5944
▁Луч	-5945
▁Ром	-5946
▁вла	-5947
▁дат	-5948
▁общ	-5949
▁пут	-5950
▁шри	-5951
береж	-5952
берли	-5953
дрини	-5954
женоа	-5955
зднее	-5956
лоном	-5957
стайн	-5958
талан	-5959
эррит	-5960
▁1952	-5961
▁1964	-5962
▁300.	-5963
▁5000	-5964
▁Говя	-5965
▁Дата	-5966
▁Джай	-5967
▁Йонг	-5968
▁Марв	-5969
▁Урич	-5970
▁Штат	-5971
▁Энда	-5972
▁Язык	-5973
▁воду	-5974
▁нахо	-5975
Олимпи	-5976
иитаке	-5977
страли	-5978
турный	-5979
▁15/33	-5980
▁Базза	-5981
▁Возро	-5982
▁Глава	-5983
▁Здесь	-5984
▁Колон	-5985
▁Кёльн	-5986
▁Место	-5987
▁Стерн	-5988
▁белка	-5989
▁кухня	-5990
имберли	-5991
тельный	-5992
▁331683	-5993
▁360.29	-5994
▁Дайэнн	-5995
▁Романо	-5996
▁аренду	-5997
▁взрыве	-5998
▁иногда	-5999
▁объект	-6000
▁предсе	-6001
▁черной	-6002
бережной	-6003
хождение	-6004
эрритста	-6005
▁Золотая	-6006
▁Канзаса	-6007
▁Кубанел	-6008
▁Мариотт	-6009
▁Прежнее	-6010
▁абсолют	-6011
▁вырезка	-6012
▁говяжья	-6013
▁графств	-6014
▁изделие	-6015
▁имеющий	-6016
▁империи	-6017
▁партией	-6018
▁показан	-6019
▁рисовая	-6020
верхность	-6021
▁Блэкпула	-6022
▁Колледжу	-6023
▁Официаль	-6024
▁Пекорино	-6025
▁австрали	-6026
▁занимает	-6027
▁немецкий	-6028
▁путунхуа	-6029
вейцарский	-6030
▁Ахмадабад	-6031
▁Больдрини	-6032
▁Клематиса	-6033
▁Мороженое	-6034
▁Сальвадор	-6035
▁Спортпарк	-6036
▁Файнстайн	-6037
▁астероида	-6038
▁вариантом	-6039
▁выступает	-6040
▁китайская	-6041
▁латинское	-6042
▁находился	-6043
▁популярен	-6044
▁популярно	-6045
Бабельсберг	-6046
серваторией	-6047
▁7729430000	-6048
▁Германской	-6049
▁Спортивная	-6050
▁Уильямсбер	-6051
▁Футбольной	-6052
▁набережной	-6053
▁прикреплен	-6054
▁331683000,0	-6055
▁Итальянский	-6056
▁Поверхность	-6057
▁Руководящим	-6058
▁транслирует	-6059
▁139705000,0.	-6060
▁Законодатель	-6061
▁используемый	-6062
▁исторический	-6063
▁Архитектурный	-6064
▁Международной	-6065
▁Национального	-6066
▁австралийских	-6067
▁архитектурный	-6068
▁Консервативная	-6069
▁523951582,33968	-6070
)"	-6071
AT	-6072
BC	-6073
ap	-6074
чо	-6075
,05	-6076
,29	-6077
/23	-6078
906	-6079
alt	-6080
apt	-6081
les	-6082
ney	-6083
Бей	-6084
Гол	-6085
ант	-6086
гое	-6087
дуй	-6088
цци	-6089
▁05	-6090
▁99	-6091
▁NZ	-6092
▁ro	-6093
▁Ай	-6094
▁ВМ	-6095
▁ол	-6096
-06-	-6097
1951	-6098
6391	-6099
арди	-6100
ариф	-6101
енда	-6102
етья	-6103
луин	-6104
мену	-6105
ором	-6106
сден	-6107
утер	-6108
чные	-6109
этаж	-6110
ящей	-6111
▁11,	-6112
▁12-	-6113
▁520	-6114
▁Dis	-6115
▁UAB	-6116
▁Дил	-6117
▁Рей	-6118
▁год	-6119
▁дей	-6120
▁соб	-6121
▁цен	-6122
-130.	-6123
68,05	-6124
teapt	-6125
анови	-6126
вития	-6127
летти	-6128
льное	-6129
минер	-6130
сколь	-6131
товую	-6132
▁1121	-6133
▁Walt	-6134
▁Бусс	-6135
▁Марк	-6136
▁Смет	-6137
▁Спал	-6138
▁Штаб	-6139
▁выхо	-6140
▁горя	-6141
▁грен	-6142
▁флот	-6143
ллисти	-6144
льский	-6145
ровать	-6146
рующей	-6147
▁(110)	-6148
▁13017	-6149
▁66391	-6150
▁Айван	-6151
▁Альма	-6152
▁Аякса	-6153
▁Китае	-6154
▁Ларри	-6155
▁Лаура	-6156
▁Лондо	-6157
▁Шариф	-6158
▁камен	-6159
▁кувай	-6160
▁обуча	-6161
▁олдер	-6162
▁отель	-6163
▁паэль	-6164
▁покры	-6165
▁тесто	-6166
▁школе	-6167
сточная	-6168
▁111484	-6169
▁360,29	-6170
▁520906	-6171
▁878885	-6172
▁Disney	-6173
▁Аланом	-6174
▁Аренда	-6175
▁Аурона	-6176
▁Гордон	-6177
▁Гуарди	-6178
▁Лучано	-6179
▁Мулату	-6180
▁Паттен	-6181
▁Первая	-6182
▁Страну	-6183
▁Фрэнси	-6184
▁Южного	-6185
▁выпуск	-6186
▁исполь	-6187
▁концер	-6188
▁сезона	-6189
▁урожен	-6190
Берлинер	-6191
▁2368,05	-6192
▁Мануцци	-6193
▁Марсден	-6194
▁Нортмор	-6195
▁Пенджаб	-6196
▁Пьюджин	-6197
▁Сметана	-6198
▁Суматре	-6199
▁включая	-6200
▁капуста	-6201
▁участие	-6202
Аррабиата	-6203
Голландия	-6204
Каррарезе	-6205
▁2015-06-	-6206
▁Баллисти	-6207
▁Больница	-6208
▁Борманом	-6209
▁Бразилия	-6210
▁Кимберли	-6211
▁Погсоном	-6212
▁Портовое	-6213
▁китайцев	-6214
▁кудрявая	-6215
▁начинкой	-6216
▁портовым	-6217
▁развития	-6218
▁талисман	-6219
сокращенно	-6220
▁Восточная	-6221
▁Иллинойсе	-6222
▁Индийская	-6223
▁Кармайном	-6224
▁Кристиана	-6225
▁Обнаружен	-6226
▁Сельдерей	-6227
▁Спаллетти	-6228
▁Хэрритста	-6229
▁Экзаминер	-6230
▁Юношеская	-6231
▁банановый	-6232
▁банюмасан	-6233
▁десертное	-6234
▁должность	-6235
▁олдермену	-6236
▁Вольфманом	-6237
▁Гвадалахар	-6238
▁Малайского	-6239
▁Создателем	-6240
▁Фиорентина	-6241
▁предлагает	-6242
▁территории	-6243
▁туристичес	-6244
кондитерское	-6245
▁179942000,0	-6246
▁Возрождения	-6247
▁Коммелиниды	-6248
▁возглавляют	-6249
▁построенный	-6250
▁179942000,0.	-6251
▁Американский	-6252
▁Бунделкханда	-6253
▁авиакомпании	-6254
▁малайзийские	-6255
▁индонезийский	-6256
▁принадлежащий	-6257
▁29919600000,0.	-6258
09	-6259
ev	-6260
Ди	-6261
ию	-6262
290	-6263
348	-6264
tel	-6265
ань	-6266
ваз	-6267
нни	-6268
нун	-6269
пил	-6270
роэ	-6271
фес	-6272
▁61	-6273
▁84	-6274
▁Tu	-6275
▁WB	-6276
▁Ив	-6277
▁зя	-6278
0025	-6279
1961	-6280
dios	-6281
Агра	-6282
Дино	-6283
Леви	-6284
арри	-6285
булс	-6286
еляв	-6287
ерой	-6288
лейс	-6289
муна	-6290
нооб	-6291
овых	-6292
роны	-6293
сима	-6294
хара	-6295
▁1,1	-6296
▁265	-6297
▁3,3	-6298
▁BBC	-6299
▁Stu	-6300
▁Два	-6301
▁Джи	-6302
▁Дру	-6303
▁Мам	-6304
▁Пас	-6305
▁Пот	-6306
▁рав	-6307
▁удо	-6308
▁чье	-6309
▁чьи	-6310
▁эти	-6311
alcio	-6312
Истан	-6313
Орхус	-6314
Спорт	-6315
иолет	-6316
ламен	-6317
лером	-6318
синни	-6319
телей	-6320
тичес	-6321
футбо	-6322
щихся	-6323
▁18,0	-6324
▁1961	-6325
▁1995	-6326
▁Агре	-6327
▁Гери	-6328
▁Демо	-6329
▁Лиди	-6330
▁Макс	-6331
▁Рене	-6332
▁Саго	-6333
▁Фели	-6334
▁Хлеб	-6335
▁боях	-6336
▁прис	-6337
▁этот	-6338
002539	-6339
борной	-6340
вались	-6341
ителем	-6342
классе	-6343
конода	-6344
разить	-6345
ранмир	-6346
тивный	-6347
▁47290	-6348
▁Hotel	-6349
▁Беляв	-6350
▁Вариа	-6351
▁Герой	-6352
▁Гигеи	-6353
▁Кроме	-6354
▁Наваз	-6355
▁Одной	-6356
▁Опера	-6357
▁Плейс	-6358
▁Позже	-6359
▁Сигал	-6360
▁Херст	-6361
▁Южной	-6362
▁бутер	-6363
▁фарер	-6364
Гэмпшир	-6365
Делавэр	-6366
булспор	-6367
дерланд	-6368
жествен	-6369
нигнита	-6370
ственно	-6371
▁0,0348	-6372
▁3,3528	-6373
▁611961	-6374
▁Calcio	-6375
▁Акрона	-6376
▁Альфре	-6377
▁Дэвида	-6378
▁Мамнун	-6379
▁Пикард	-6380
▁Родина	-6381
▁Хайбер	-6382
▁Хусейн	-6383
▁Чилтон	-6384
▁апреле	-6385
▁начато	-6386
▁прежде	-6387
▁профес	-6388
▁удосто	-6389
▁учатся	-6390
западных	-6391
лижайший	-6392
▁Studios	-6393
▁Брайтом	-6394
▁Госинни	-6395
▁Золотой	-6396
▁Иванови	-6397
▁Кеселем	-6398
▁Колоном	-6399
▁Одинсон	-6400
▁Рутовые	-6401
▁гранолу	-6402
▁добавля	-6403
▁индийцы	-6404
▁коммуна	-6405
▁местона	-6406
▁несколь	-6407
▁острове	-6408
▁програм	-6409
▁разнооб	-6410
▁техасец	-6411
▁ценится	-6412
Локомотив	-6413
футболист	-6414
▁88002539	-6415
▁Андерсом	-6416
▁Гуардиан	-6417
▁Датского	-6418
▁Джорджем	-6419
▁Малайзия	-6420
▁Норманом	-6421
▁Олдрином	-6422
▁граничит	-6423
▁наградил	-6424
▁самолета	-6425
ланкийская	-6426
▁Андалусия	-6427
▁азиатские	-6428
▁магистром	-6429
▁скоростью	-6430
▁254989570,	-6431
▁Висконсине	-6432
▁каракатица	-6433
▁содержащее	-6434
▁создателем	-6435
▁транспорта	-6436
Истанбулспор	-6437
Историческая	-6438
▁520906000,0	-6439
▁Гвадалахары	-6440
▁Французский	-6441
▁официальным	-6442
▁разговорным	-6443
конодательный	-6444
▁коммунальных	-6445
Интернационале	-6446
▁Разновидность	-6447
▁конкурировать	-6448
▁насчитывающий	-6449
▁разнообразить	-6450
▁руководителем	-6451
▁местоположение	-6452
▁352497000000,0.	-6453
▁416136000000,0.	-6454
▁идентификатором	-6455
14	-6456
98	-6457
ef	-6458
ss	-6459
АС	-6460
АТ	-6461
дь	-6462
ич	-6463
нё	-6464
тл	-6465
фс	-6466
фу	-6467
хт	-6468
250	-6469
ATA	-6470
iaz	-6471
res	-6472
АТА	-6473
Гер	-6474
бра	-6475
вив	-6476
еор	-6477
етр	-6478
зем	-6479
зло	-6480
ину	-6481
ках	-6482
сла	-6483
хап	-6484
чоя	-6485
шен	-6486
щён	-6487
▁42	-6488
▁94	-6489
▁ED	-6490
▁Mo	-6491
▁Sc	-6492
▁Ло	-6493
▁аф	-6494
-8".	-6495
000.	-6496
078,	-6497
3968	-6498
ictu	-6499
ione	-6500
ssoc	-6501
tion	-6502
Бери	-6503
Вила	-6504
Герм	-6505
Кань	-6506
Прос	-6507
Юлии	-6508
анее	-6509
жест	-6510
итан	-6511
иттл	-6512
коль	-6513
лехт	-6514
мест	-6515
нись	-6516
цифи	-6517
чдей	-6518
чину	-6519
▁18.	-6520
▁20,	-6521
▁219	-6522
▁518	-6523
▁9,8	-6524
▁Асо	-6525
▁Вэн	-6526
▁Дон	-6527
▁При	-6528
▁Сай	-6529
▁Тип	-6530
▁Чез	-6531
▁еще	-6532
▁мэр	-6533
▁наи	-6534
▁обо	-6535
-14",	-6536
15591	-6537
визио	-6538
еорги	-6539
новых	-6540
тауне	-6541
фсхап	-6542
▁250"	-6543
▁IATA	-6544
▁Ауда	-6545
▁Дейл	-6546
▁ИАТА	-6547
▁Крис	-6548
▁Слей	-6549
▁Темп	-6550
▁Яван	-6551
▁либо	-6552
▁муки	-6553
▁одно	-6554
▁пост	-6555
▁похо	-6556
▁рыбы	-6557
▁свой	-6558
▁супе	-6559
▁тофу	-6560
078,48	-6561
Каньон	-6562
ванием	-6563
дорадо	-6564
правля	-6565
телями	-6566
▁17023	-6567
▁27250	-6568
▁Pictu	-6569
▁Альбе	-6570
▁Донал	-6571
▁Дэном	-6572
▁Литтл	-6573
▁Немец	-6574
▁Самый	-6575
▁Томом	-6576
▁Юджин	-6577
▁бачоя	-6578
▁девиз	-6579
▁завое	-6580
▁появи	-6581
▁своих	-6582
▁серии	-6583
iazione	-6584
Барахас	-6585
Транмир	-6586
ература	-6587
таланта	-6588
центром	-6589
▁2776,0	-6590
▁615591	-6591
▁Motion	-6592
▁Аляску	-6593
▁Джайлс	-6594
▁Джином	-6595
▁Коллин	-6596
▁Луанду	-6597
▁Медаль	-6598
▁Местом	-6599
▁Народа	-6600
▁Пейном	-6601
▁Пеньет	-6602
▁Рочдей	-6603
▁Скотта	-6604
▁Уиллья	-6605
▁Фелицы	-6606
▁другие	-6607
▁звание	-6608
▁лентой	-6609
▁назван	-6610
▁пенсии	-6611
▁родной	-6612
Беконном	-6613
Германия	-6614
Проснись	-6615
дерланды	-6616
циальный	-6617
▁3078,48	-6618
▁Бельгия	-6619
▁Коланом	-6620
▁Фрэнсис	-6621
▁батагор	-6622
▁высотой	-6623
▁найдено	-6624
▁принима	-6625
▁специфи	-6626
▁столицу	-6627
▁являлся	-6628
Спортпарк	-6629
зоцветных	-6630
лейборист	-6631
персонажа	-6632
▁Pictures	-6633
▁Графсхап	-6634
▁Коренные	-6635
▁Основным	-6636
▁Уильямом	-6637
▁бульваре	-6638
▁величину	-6639
▁работают	-6640
▁удостоен	-6641
Нидерланды	-6642
Олимпиакос	-6643
испеченным	-6644
▁Альфредом	-6645
▁Кливленда	-6646
▁Оливковое	-6647
▁Эльдорадо	-6648
▁городским	-6649
▁канцлером	-6650
▁найденное	-6651
▁насчитыва	-6652
▁обслужива	-6653
▁разработа	-6654
▁тренирует	-6655
ssociazione	-6656
Технический	-6657
истребитель	-6658
▁Ассоциацию	-6659
▁абсолютную	-6660
▁арендатора	-6661
▁астероидов	-6662
▁нарезанная	-6663
▁президента	-6664
▁префектуре	-6665
▁тамильский	-6666
▁управления	-6667
▁Universitas	-6668
▁Геттисберга	-6669
▁Королевства	-6670
▁Температура	-6671
▁управляющей	-6672
▁135589000,0.	-6673
▁Университете	-6674
▁раздавленная	-6675
▁индонезийское	-6676
▁соревновались	-6677
▁288749000000,0	-6678
▁3997100000000.	-6679
▁523951582,3968	-6680
▁124950000000,0.	-6681
▁254989570,60815	-6682
ST	-6683
Аф	-6684
мё	-6685
▁»	-6686
925	-6687
Исп	-6688
Пей	-6689
бен	-6690
гут	-6691
ета	-6692
иту	-6693
кие	-6694
лиз	-6695
лёт	-6696
мыш	-6697
спу	-6698
сты	-6699
тчи	-6700
хму	-6701
чий	-6702
▁32	-6703
▁83	-6704
▁Am	-6705
▁OB	-6706
▁PC	-6707
▁вя	-6708
▁дж	-6709
▁ха	-6710
арес	-6711
аспа	-6712
бале	-6713
бора	-6714
вски	-6715
вшей	-6716
дехи	-6717
елси	-6718
емое	-6719
индо	-6720
иска	-6721
льно	-6722
оссе	-6723
паре	-6724
пину	-6725
пуст	-6726
рейк	-6727
тели	-6728
торр	-6729
удик	-6730
элем	-6731
▁17,	-6732
▁500	-6733
▁900	-6734
▁ВМС	-6735
▁Ист	-6736
▁Кап	-6737
▁Кел	-6738
▁Кот	-6739
▁Кун	-6740
▁Лин	-6741
▁Лью	-6742
▁Уит	-6743
▁пун	-6744
▁фло	-6745
Карпи	-6746
Пейдж	-6747
арльз	-6748
кензи	-6749
ледия	-6750
ленде	-6751
линий	-6752
начен	-6753
нгало	-6754
ников	-6755
ниями	-6756
принг	-6757
стрия	-6758
хучий	-6759
▁13/3	-6760
▁1800	-6761
▁2702	-6762
▁2989	-6763
▁3000	-6764
▁Анни	-6765
▁Бина	-6766
▁Вэнс	-6767
▁Гейт	-6768
▁Карл	-6769
▁Поми	-6770
▁Сале	-6771
▁Стив	-6772
▁блюд	-6773
▁вода	-6774
▁ныне	-6775
▁отря	-6776
▁ремё	-6777
▁роли	-6778
▁сена	-6779
.60815	-6780
Ардмор	-6781
Афонсу	-6782
Джинна	-6783
Заксен	-6784
Колуин	-6785
дентом	-6786
земных	-6787
зловой	-6788
кольна	-6789
матрич	-6790
мышлен	-6791
рующая	-6792
спубли	-6793
▁497,0	-6794
▁Брайт	-6795
▁Гарри	-6796
▁Гаспа	-6797
▁Кэрри	-6798
▁Махму	-6799
▁Мерри	-6800
▁Новая	-6801
▁Пэрис	-6802
▁Ранее	-6803
▁Сторр	-6804
▁Тудик	-6805
▁Центр	-6806
▁Школе	-6807
▁Школы	-6808
▁Шумаи	-6809
▁могут	-6810
▁общую	-6811
▁своем	-6812
▁число	-6813
Испания	-6814
Мехелен	-6815
ционный	-6816
▁0,0925	-6817
▁2777,0	-6818
▁Алпину	-6819
▁Ампаре	-6820
▁Греция	-6821
▁Лабора	-6822
▁Лайлом	-6823
▁Марвом	-6824
▁Париже	-6825
▁Поттер	-6826
▁Сайрус	-6827
▁Сиомай	-6828
▁Спринг	-6829
▁Суарес	-6830
▁Уолтом	-6831
▁Хардви	-6832
▁Чарльз	-6833
▁Чезене	-6834
▁валюты	-6835
▁группу	-6836
▁достро	-6837
▁значит	-6838
▁играла	-6839
▁неором	-6840
▁поиска	-6841
▁ректор	-6842
▁числен	-6843
Атлантик	-6844
ламентом	-6845
ландском	-6846
ствующим	-6847
турмовик	-6848
▁3310,0.	-6849
▁Большой	-6850
▁Вариант	-6851
▁Каллинс	-6852
▁Капитан	-6853
▁Коттинг	-6854
▁Лондона	-6855
▁Малакки	-6856
▁Манстер	-6857
▁Меренга	-6858
▁Местона	-6859
▁Родиной	-6860
▁Стивенс	-6861
▁Управля	-6862
▁бандехи	-6863
▁бунгало	-6864
▁главная	-6865
▁главным	-6866
▁демоним	-6867
▁золотой	-6868
▁политик	-6869
▁размере	-6870
▁реестре	-6871
▁сборной	-6872
▁состава	-6873
▁100305,0	-6874
▁1622,213	-6875
▁16244700	-6876
▁3992,88.	-6877
▁Аннибале	-6878
▁Маккензи	-6879
▁Немецкий	-6880
▁Рочдейле	-6881
▁Техничес	-6882
▁Чичаррон	-6883
▁бисквита	-6884
▁группами	-6885
▁домашние	-6886
▁наследия	-6887
▁небесное	-6888
▁пирожные	-6889
▁республи	-6890
Запеченную	-6891
▁Алвинегро	-6892
▁Биббовски	-6893
▁Кунжутное	-6894
▁Линкольна	-6895
▁Памятника	-6896
▁Парламент	-6897
▁Персонажа	-6898
▁Туркмения	-6899
▁авиалиний	-6900
▁вариацией	-6901
▁докторант	-6902
▁собранием	-6903
▁6155910000	-6904
▁Республика	-6905
▁Симонсоном	-6906
▁Спортивный	-6907
▁Спрингфилд	-6908
▁командовал	-6909
▁популярным	-6910
▁происходят	-6911
▁родившаяся	-6912
▁содержащий	-6913
▁2015-06-27.	-6914
▁611961000,0	-6915
▁Альтернатив	-6916
▁Гвадалахара	-6917
▁Инженерного	-6918
▁Официальным	-6919
▁Туркменских	-6920
▁авиалиниями	-6921
▁космической	-6922
▁околоземных	-6923
▁официальный	-6924
▁этническими	-6925
▁7715100000,0	-6926
▁Туркменскими	-6927
▁Фламандскому	-6928
▁американский	-6929
▁колумбийская	-6930
▁традиционным	-6931
▁архитекторами	-6932
▁командованием	-6933
▁правительства	-6934
▁расположенное	-6935
▁расположенной	-6936
▁расположенном	-6937
подавательского	-6938
свежеиспеченным	-6939
▁254989570.60815	-6940
▁349206000000,0.	-6941
▁Местонахождение	-6942
▁законодательной	-6943
5,	-6944
EP	-6945
cu	-6946
hi	-6947
Ле	-6948
На	-6949
СТ	-6950
!".	-6951
)".	-6952
,66	-6953
,76	-6954
/19	-6955
482	-6956
502	-6957
ABI	-6958
EPT	-6959
alp	-6960
evo	-6961
ine	-6962
per	-6963
Алк	-6964
вез	-6965
дзо	-6966
док	-6967
зыч	-6968
лик	-6969
лло	-6970
лэн	-6971
сор	-6972
тук	-6973
цеп	-6974
ьше	-6975
▁44	-6976
▁75	-6977
▁Ну	-6978
▁РБ	-6979
▁ду	-6980
-8",	-6981
1,92	-6982
2145	-6983
edef	-6984
ercu	-6985
Авив	-6986
апша	-6987
баса	-6988
ерез	-6989
есен	-6990
жить	-6991
зиды	-6992
леро	-6993
леса	-6994
нача	-6995
нуол	-6996
раун	-6997
стей	-6998
ться	-6999
штат	-7000
щает	-7001
ющим	-7002
языч	-7003
▁01.	-7004
▁21.	-7005
▁4,0	-7006
▁Chi	-7007
▁Lal	-7008
▁Pro	-7009
▁Абэ	-7010
▁БСТ	-7011
▁Дик	-7012
▁Дим	-7013
▁Орд	-7014
▁Син	-7015
▁Чис	-7016
▁Чон	-7017
▁вид	-7018
▁вто	-7019
▁дан	-7020
▁мак	-7021
▁мом	-7022
▁рыб	-7023
▁ссы	-7024
▁тип	-7025
46,66	-7026
alpat	-7027
erona	-7028
Макка	-7029
галии	-7030
зовый	-7031
лидер	-7032
льтур	-7033
лэнси	-7034
менно	-7035
нский	-7036
рабиа	-7037
рисом	-7038
стрии	-7039
чания	-7040
ящего	-7041
▁1868	-7042
▁250,	-7043
▁CEPT	-7044
▁KABI	-7045
▁Turk	-7046
▁Албе	-7047
▁Ахме	-7048
▁Дома	-7049
▁Кури	-7050
▁Тель	-7051
▁бата	-7052
▁боль	-7053
▁звез	-7054
▁полю	-7055
▁поля	-7056
▁рыба	-7057
▁титу	-7058
▁хотя	-7059
2145,3	-7060
Алкмар	-7061
Городе	-7062
анский	-7063
говари	-7064
койный	-7065
мущест	-7066
против	-7067
тегоди	-7068
▁11/29	-7069
▁2015.	-7070
▁53502	-7071
▁610,0	-7072
▁Hercu	-7073
▁Redef	-7074
▁Браун	-7075
▁Гейтс	-7076
▁Далай	-7077
▁Дейла	-7078
▁Джеми	-7079
▁Диком	-7080
▁Дилли	-7081
▁Индий	-7082
▁Коман	-7083
▁Коном	-7084
▁Лавро	-7085
▁Лапша	-7086
▁Леном	-7087
▁Новых	-7088
▁Персе	-7089
▁Полом	-7090
▁Порту	-7091
▁видов	-7092
▁возвы	-7093
▁начал	-7094
▁перцы	-7095
▁предо	-7096
▁прове	-7097
▁равна	-7098
▁телес	-7099
▁харак	-7100
▁центр	-7101
▁через	-7102
perties	-7103
Маккаби	-7104
вижение	-7105
вижения	-7106
визионе	-7107
свежевы	-7108
ющегося	-7109
▁0,0482	-7110
▁121,92	-7111
▁3.3528	-7112
▁Chievo	-7113
▁Dalpat	-7114
▁Байрон	-7115
▁Биллом	-7116
▁Даллас	-7117
▁Джерри	-7118
▁Диллин	-7119
▁Калеро	-7120
▁Клэнси	-7121
▁Криона	-7122
▁Параны	-7123
▁Период	-7124
▁Рейтом	-7125
▁Синдзо	-7126
▁Службы	-7127
▁Третья	-7128
▁Уэйном	-7129
▁Черная	-7130
▁карьер	-7131
▁озвучи	-7132
▁пришло	-7133
▁раньше	-7134
▁ссылоч	-7135
▁творог	-7136
▁томаты	-7137
гдебурга	-7138
ерлингов	-7139
кантонио	-7140
кратичес	-7141
▁62145,3	-7142
▁Lalbhai	-7143
▁Австрии	-7144
▁Антонио	-7145
▁Армандо	-7146
▁Граждан	-7147
▁Канадец	-7148
▁Колбаса	-7149
▁Малакке	-7150
▁Мехелен	-7151
▁Нутовая	-7152
▁Робертс	-7153
▁Розовых	-7154
▁Службой	-7155
▁Хайберц	-7156
▁вьетнам	-7157
▁горячим	-7158
▁золотая	-7159
▁команда	-7160
▁красный	-7161
▁культур	-7162
▁максима	-7163
▁пахучий	-7164
▁персона	-7165
▁позднее	-7166
▁полосой	-7167
▁районом	-7168
▁средней	-7169
▁столицы	-7170
ливкового	-7171
▁Hercules	-7172
▁Redefine	-7173
▁Ахмедаба	-7174
▁Бальдера	-7175
▁Виргиния	-7176
▁Диллином	-7177
▁Домашнее	-7178
▁Кельвина	-7179
▁Нынешний	-7180
▁Помидоры	-7181
▁владелец	-7182
▁добавить	-7183
▁кальмары	-7184
▁ключевым	-7185
▁кондитер	-7186
▁корнский	-7187
▁корнском	-7188
▁напротив	-7189
▁пирожное	-7190
▁площадке	-7191
▁поступил	-7192
▁учащихся	-7193
▁цветущим	-7194
▁яванское	-7195
Честерфилд	-7196
говаривают	-7197
правлением	-7198
▁523329000	-7199
▁Sehitleri	-7200
▁Баллистик	-7201
▁Бентегоди	-7202
▁Дуурсемой	-7203
▁Ингредиен	-7204
▁Испанский	-7205
▁Ланкашире	-7206
▁Латинское	-7207
▁Площадкой	-7208
▁дивизионе	-7209
▁значитель	-7210
▁китайской	-7211
▁окончания	-7212
▁профессор	-7213
▁снимается	-7214
▁фарерском	-7215
▁футболист	-7216
▁16244700,0	-7217
▁7715100000	-7218
▁Dalpatbhai	-7219
▁Properties	-7220
▁Владельцем	-7221
▁Португалии	-7222
▁Этническая	-7223
▁Якобинский	-7224
▁арахисовом	-7225
▁ирландский	-7226
▁обнаружить	-7227
▁префектуры	-7228
▁сообщества	-7229
▁стерлингов	-7230
▁федерацией	-7231
▁Аравийского	-7232
▁Блокбастера	-7233
▁Федеральным	-7234
▁Французском	-7235
▁Хэрритстаун	-7236
▁культурного	-7237
▁мероприятия	-7238
▁ремесленных	-7239
▁швейцарский	-7240
▁179942000,0,	-7241
▁Куппербергом	-7242
▁Пенсильвании	-7243
▁Уильямсберге	-7244
▁американским	-7245
▁региональном	-7246
▁Лейбористская	-7247
▁Обсерваторией	-7248
▁Фитцсиммонсом	-7249
▁встречающийся	-7250
▁разговаривают	-7251
▁строительства	-7252
свежевыпеченным	-7253
▁Афроамериканцы	-7254
▁афроамериканцы	-7255
,9	-7256
CT	-7257
XC	-7258
im	-7259
ur	-7260
Си	-7261
019	-7262
1,0	-7263
124	-7264
4,0	-7265
999	-7266
iti	-7267
Инф	-7268
бад	-7269
вар	-7270
ейл	-7271
жда	-7272
зод	-7273
игу	-7274
йсн	-7275
мсб	-7276
мут	-7277
нию	-7278
тел	-7279
тия	-7280
эме	-7281
эрх	-7282
▁XC	-7283
▁Гэ	-7284
▁ис	-7285
▁ми	-7286
-11.	-7287
.11.	-7288
6063	-7289
imit	-7290
Баку	-7291
Дроэ	-7292
брод	-7293
вует	-7294
дине	-7295
дший	-7296
каль	-7297
касл	-7298
мерх	-7299
мках	-7300
овый	-7301
роуд	-7302
рюэр	-7303
тицы	-7304
тура	-7305
унер	-7306
хани	-7307
щими	-7308
ётся	-7309
▁12,	-7310
▁23.	-7311
▁3,5	-7312
▁733	-7313
▁AWH	-7314
▁OAA	-7315
▁Аре	-7316
▁Ахо	-7317
▁Блу	-7318
▁Тем	-7319
▁Топ	-7320
▁Ява	-7321
▁деп	-7322
▁ина	-7323
▁код	-7324
▁мед	-7325
▁пов	-7326
▁тре	-7327
▁фир	-7328
▁эпи	-7329
-130,	-7330
Искус	-7331
Сиена	-7332
Хорхе	-7333
брало	-7334
гейми	-7335
дибен	-7336
жатая	-7337
иодом	-7338
кария	-7339
кмена	-7340
лится	-7341
ченая	-7342
эрхед	-7343
▁03".	-7344
▁101,	-7345
▁1971	-7346
▁2900	-7347
▁4019	-7348
▁4100	-7349
▁SBCT	-7350
▁Айсн	-7351
▁Анан	-7352
▁Аута	-7353
▁Гейл	-7354
▁Гимн	-7355
▁Дейн	-7356
▁Доме	-7357
▁Кэме	-7358
▁Майк	-7359
▁Рона	-7360
▁Умер	-7361
▁дата	-7362
▁джем	-7363
▁души	-7364
▁имел	-7365
▁прои	-7366
▁спор	-7367
▁фигу	-7368
▁чьей	-7369
imited	-7370
апсиды	-7371
жество	-7372
ламерх	-7373
ллотта	-7374
мсбери	-7375
полное	-7376
ролева	-7377
ющееся	-7378
▁"1930	-7379
▁19255	-7380
▁37124	-7381
▁66063	-7382
▁Aniti	-7383
▁Авеню	-7384
▁Брюэр	-7385
▁Гэффи	-7386
▁Данию	-7387
▁Дирек	-7388
▁Китая	-7389
▁Лидии	-7390
▁Манли	-7391
▁Наход	-7392
▁Пател	-7393
▁Унион	-7394
▁Халид	-7395
▁Шоссе	-7396
▁Эндрю	-7397
▁героя	-7398
▁греки	-7399
▁исход	-7400
▁карто	-7401
▁матчи	-7402
▁наибо	-7403
▁отнес	-7404
▁проек	-7405
▁птица	-7406
▁равен	-7407
▁разме	-7408
▁школа	-7409
▁языка	-7410
.11.200	-7411
2,47055	-7412
артамен	-7413
вателем	-7414
дателем	-7415
которые	-7416
▁0,0999	-7417
▁1918».	-7418
▁Аляске	-7419
▁Анголе	-7420
▁Арифин	-7421
▁Африке	-7422
▁Баззом	-7423
▁Городе	-7424
▁Дженоа	-7425
▁Заксен	-7426
▁Кесель	-7427
▁Кетчуп	-7428
▁Махмуд	-7429
▁Нокаль	-7430
▁Ратуши	-7431
▁Роланд	-7432
▁Темный	-7433
▁Уилера	-7434
▁Уитмен	-7435
▁Урожен	-7436
▁Фэрхед	-7437
▁высота	-7438
▁выхода	-7439
▁зяблик	-7440
▁массой	-7441
▁момент	-7442
▁монарх	-7443
▁полный	-7444
▁правит	-7445
▁пуэрто	-7446
▁рамках	-7447
▁родины	-7448
▁службы	-7449
▁эпизод	-7450
Инфраеро	-7451
кменабад	-7452
начально	-7453
рующейся	-7454
▁2215,0.	-7455
▁2900,0.	-7456
▁3746,66	-7457
▁4349,0.	-7458
▁Limited	-7459
▁Айваном	-7460
▁Айснера	-7461
▁Аматрич	-7462
▁Буссема	-7463
▁Главные	-7464
▁Говяжий	-7465
▁Далласа	-7466
▁Закария	-7467
▁Запечен	-7468
▁Малайцы	-7469
▁Меррилл	-7470
▁Сапиндо	-7471
▁Фредери	-7472
▁Хельмут	-7473
▁высокое	-7474
▁главной	-7475
▁игроком	-7476
▁индекса	-7477
▁карьеру	-7478
▁местное	-7479
▁ремесел	-7480
▁сметану	-7481
▁средняя	-7482
▁третьей	-7483
Искусства	-7484
иолетовый	-7485
министром	-7486
ниверсити	-7487
рожденный	-7488
▁34920600	-7489
▁Германия	-7490
▁Куритибу	-7491
▁Ланкашир	-7492
▁Мишкиным	-7493
▁Паллотта	-7494
▁Путунхуа	-7495
▁вышедший	-7496
▁завоевал	-7497
▁заправки	-7498
▁мемориал	-7499
▁назначен	-7500
▁объектам	-7501
▁основном	-7502
▁периодом	-7503
▁песочное	-7504
▁предоста	-7505
▁проведен	-7506
Бананамене	-7507
▁26.11.200	-7508
▁605718000	-7509
▁87000823.	-7510
▁Анандибен	-7511
▁Аутагейми	-7512
▁Блумсбери	-7513
▁Дербишира	-7514
▁Дербишире	-7515
▁Локомотив	-7516
▁Созданный	-7517
▁Топклассе	-7518
▁амхарский	-7519
▁бинигнита	-7520
▁достроена	-7521
▁магистрат	-7522
▁множество	-7523
▁несколько	-7524
▁почтового	-7525
▁содержать	-7526
▁человеком	-7527
▁Американцы	-7528
▁Английский	-7529
▁Юниверсити	-7530
▁академичес	-7531
▁испанского	-7532
▁коричневым	-7533
▁называлась	-7534
▁называлось	-7535
▁оливкового	-7536
▁участников	-7537
▁филиппинцы	-7538
▁этническую	-7539
▁Президентом	-7540
▁Туркменабад	-7541
▁Тюдоровский	-7542
▁действующим	-7543
▁малазийские	-7544
▁направление	-7545
▁находящийся	-7546
▁построенные	-7547
▁Демократичес	-7548
▁Ингредиентом	-7549
▁базирующейся	-7550
▁неороманском	-7551
▁профессорско	-7552
▁региональный	-7553
▁Бирмингемский	-7554
▁Индонезийский	-7555
▁Руководителем	-7556
▁возглавляемой	-7557
▁колумбийского	-7558
▁расположенным	-7559
▁туристическое	-7560
▁представителей	-7561
▁приготовленной	-7562
▁259776702,47055	-7563
▁законодательный	-7564
▁законодательным	-7565
po	-7566
st	-7567
Ау	-7568
ДО	-7569
Па	-7570
аг	-7571
йя	-7572
ёл	-7573
252	-7574
30.	-7575
6,0	-7576
PST	-7577
Ран	-7578
ама	-7579
бов	-7580
зак	-7581
итч	-7582
лам	-7583
лее	-7584
олы	-7585
под	-7586
соз	-7587
тио	-7588
унт	-7589
цен	-7590
шта	-7591
▁".	-7592
▁От	-7593
▁Св	-7594
▁гг	-7595
▁ху	-7596
-11,	-7597
.01.	-7598
PSTH	-7599
mane	-7600
веля	-7601
вент	-7602
воно	-7603
гион	-7604
горо	-7605
джиб	-7606
льцы	-7607
льщи	-7608
мали	-7609
моны	-7610
нгом	-7611
омер	-7612
псон	-7613
роль	-7614
хорн	-7615
част	-7616
чина	-7617
ющие	-7618
▁17.	-7619
▁7,9	-7620
▁814	-7621
▁Вэй	-7622
▁Гло	-7623
▁Жит	-7624
▁Обо	-7625
▁Рек	-7626
▁Фар	-7627
▁бен	-7628
▁дер	-7629
▁сра	-7630
▁чес	-7631
azing	-7632
Андер	-7633
Унион	-7634
ганте	-7635
дерзо	-7636
дикта	-7637
дольф	-7638
жевый	-7639
итоит	-7640
йскую	-7641
мутом	-7642
основ	-7643
совые	-7644
стоне	-7645
стояв	-7646
тиоки	-7647
товой	-7648
чного	-7649
▁07/2	-7650
▁1818	-7651
▁1968	-7652
▁1982	-7653
▁2195	-7654
▁3048	-7655
▁Высо	-7656
▁Зелл	-7657
▁Клей	-7658
▁Майя	-7659
▁Манч	-7660
▁Митч	-7661
▁Палл	-7662
▁Рейт	-7663
▁Таун	-7664
▁Хааг	-7665
▁Яном	-7666
▁голо	-7667
▁клец	-7668
▁оран	-7669
▁побе	-7670
▁помо	-7671
▁роду	-7672
▁фута	-7673
▁худо	-7674
.01.19	-7675
200,0.	-7676
Verona	-7677
teapta	-7678
веляне	-7679
ериале	-7680
исквит	-7681
ханикс	-7682
▁"1929	-7683
▁16000	-7684
▁3800.	-7685
▁EPSTH	-7686
▁Альян	-7687
▁Амхар	-7688
▁Белые	-7689
▁Девиз	-7690
▁Музея	-7691
▁Номер	-7692
▁Разак	-7693
▁Румын	-7694
▁Томас	-7695
▁Томат	-7696
▁Транс	-7697
▁Число	-7698
▁бадуй	-7699
▁брази	-7700
▁годах	-7701
▁иначе	-7702
▁мэром	-7703
▁перед	-7704
▁пилот	-7705
▁подан	-7706
▁прово	-7707
▁рецеп	-7708
▁самый	-7709
▁таких	-7710
▁титул	-7711
▁утвер	-7712
Ранхорн	-7713
воногих	-7714
сэндвич	-7715
ционная	-7716
▁08/26,	-7717
▁08/26.	-7718
▁11/29.	-7719
▁497,0.	-7720
▁romane	-7721
▁Втором	-7722
▁Гловер	-7723
▁Диммит	-7724
▁Жители	-7725
▁Менаши	-7726
▁Наджиб	-7727
▁Роджер	-7728
▁Сандеш	-7729
▁Удерзо	-7730
▁Чоризо	-7731
▁Яванцы	-7732
▁власти	-7733
▁ирланд	-7734
▁классу	-7735
▁начала	-7736
▁окончи	-7737
▁орбита	-7738
▁послед	-7739
▁произо	-7740
▁секунд	-7741
esteapta	-7742
Движение	-7743
енедикта	-7744
пустился	-7745
сэндвича	-7746
▁1533,0.	-7747
▁2776,0.	-7748
▁3990,0.	-7749
▁Адситом	-7750
▁Антиоки	-7751
▁Гиганте	-7752
▁Кэмерон	-7753
▁Местные	-7754
▁Обороны	-7755
▁Родился	-7756
▁Рудольф	-7757
▁Суматра	-7758
▁Третьей	-7759
▁Уортоне	-7760
▁Шиитаке	-7761
▁вмещает	-7762
▁гранолы	-7763
▁деканом	-7764
▁десерты	-7765
▁имеющая	-7766
▁кубанел	-7767
▁получив	-7768
▁ремёсла	-7769
▁цветные	-7770
▁чеснока	-7771
Андерлехт	-7772
мышленный	-7773
▁11.07.19	-7774
▁20.01.19	-7775
▁Берлинер	-7776
▁Герингом	-7777
▁Паллесен	-7778
▁Сэндвичи	-7779
▁Шувеляне	-7780
▁бенитоит	-7781
▁болельщи	-7782
▁десертов	-7783
▁директор	-7784
▁заправка	-7785
▁известно	-7786
▁использо	-7787
▁исходным	-7788
▁канцлера	-7789
▁малайцев	-7790
▁немецком	-7791
▁объектом	-7792
▁пирожных	-7793
▁подаётся	-7794
▁посевной	-7795
▁религией	-7796
▁типичная	-7797
▁характер	-7798
▁цветущее	-7799
жественный	-7800
▁Амхарский	-7801
▁Арапираке	-7802
▁Ахмедабад	-7803
▁Ближайший	-7804
▁Гуанчиале	-7805
▁Измерение	-7806
▁Итальянцы	-7807
▁Мэриленде	-7808
▁Чемпионат	-7809
▁амхарском	-7810
▁бутерброд	-7811
▁достроено	-7812
▁индийцами	-7813
▁командира	-7814
▁лейборист	-7815
▁оранжевый	-7816
▁преподава	-7817
▁проживают	-7818
▁самолетов	-7819
▁семейство	-7820
▁управляют	-7821
▁Запеченная	-7822
▁получившей	-7823
▁предыдущие	-7824
Технического	-7825
▁31.12.2006.	-7826
▁371240000,0	-7827
▁69862200,0.	-7828
▁Гражданство	-7829
▁асфальтовую	-7830
▁головоногих	-7831
▁государства	-7832
▁докторантов	-7833
▁коммелиниды	-7834
▁насчитывают	-7835
▁начальником	-7836
▁организацию	-7837
▁парламентом	-7838
▁принадлежат	-7839
▁пуэрторикан	-7840
▁разговорных	-7841
▁руководящий	-7842
▁279142000000	-7843
▁ChievoVerona	-7844
▁Американской	-7845
▁Злакоцветные	-7846
▁Лавроцветные	-7847
▁американском	-7848
▁используемая	-7849
▁используемых	-7850
▁используются	-7851
▁итальянского	-7852
▁колумбийское	-7853
▁национальным	-7854
▁предлагаемых	-7855
▁скончавшимся	-7856
▁фламандскому	-7857
▁29919600000,0	-7858
▁41498400000,0	-7859
▁Национальному	-7860
▁приготовления	-7861
▁разработанный	-7862
▁Альтернативное	-7863
▁представителем	-7864
▁преподавателей	-7865
▁художественный	-7866
▁Законодательное	-7867
▁Эксплуатирующая	-7868
▁месторасположен	-7869
);	-7870
03	-7871
3,	-7872
AC	-7873
EK	-7874
Ва	-7875
Йо	-7876
Эр	-7877
ок	-7878
ьо	-7879
,56	-7880
.03	-7881
Man	-7882
der	-7883
зил	-7884
исы	-7885
лию	-7886
мой	-7887
нут	-7888
ого	-7889
ола	-7890
орд	-7891
ций	-7892
▁AT	-7893
▁Бы	-7894
▁ло	-7895
▁оч	-7896
▁ус	-7897
-14.	-7898
.02.	-7899
Йонг	-7900
Саус	-7901
Хабб	-7902
Шама	-7903
баго	-7904
берн	-7905
берх	-7906
бует	-7907
геем	-7908
госа	-7909
емцы	-7910
исом	-7911
лаго	-7912
лата	-7913
лией	-7914
осно	-7915
пате	-7916
пуса	-7917
рута	-7918
тами	-7919
фран	-7920
царь	-7921
ьоли	-7922
эном	-7923
▁368	-7924
▁Вуд	-7925
▁Дуг	-7926
▁Йор	-7927
▁Сви	-7928
▁Цит	-7929
▁Эри	-7930
▁ахо	-7931
▁вку	-7932
▁гим	-7933
▁зер	-7934
.1933	-7935
11.19	-7936
gbaan	-7937
Эрлам	-7938
ейсон	-7939
ередь	-7940
етвер	-7941
жений	-7942
манус	-7943
нутри	-7944
пский	-7945
стеме	-7946
телла	-7947
шеная	-7948
▁101.	-7949
▁1219	-7950
▁1411	-7951
▁200.	-7952
▁320"	-7953
▁320,	-7954
▁4,56	-7955
▁4411	-7956
▁Hero	-7957
▁Абер	-7958
▁Вест	-7959
▁Лаан	-7960
▁Лайл	-7961
▁Рафа	-7962
▁Сара	-7963
▁Стэн	-7964
▁дату	-7965
▁диза	-7966
▁коек	-7967
▁лока	-7968
▁нему	-7969
▁общи	-7970
▁пако	-7971
▁писа	-7972
▁прош	-7973
▁себе	-7974
▁част	-7975
.03.19	-7976
Варезе	-7977
Военно	-7978
Города	-7979
Дроэда	-7980
Легион	-7981
вентус	-7982
гороты	-7983
джином	-7984
зового	-7985
кующий	-7986
небаго	-7987
рисдик	-7988
создан	-7989
ценный	-7990
цузски	-7991
шается	-7992
ющаяся	-7993
▁12/30	-7994
▁19,94	-7995
▁265,0	-7996
▁29075	-7997
▁50000	-7998
▁Восто	-7999
▁Дрейк	-8000
▁Ирака	-8001
▁Карпи	-8002
▁Кенда	-8003
▁Кьево	-8004
▁Садик	-8005
▁Спата	-8006
▁Спате	-8007
▁Челси	-8008
▁Эберх	-8009
▁баксо	-8010
▁барон	-8011
▁белом	-8012
▁драго	-8013
▁звезд	-8014
▁игрок	-8015
▁кетчу	-8016
▁латук	-8017
▁паисы	-8018
▁парка	-8019
▁пошел	-8020
▁разде	-8021
▁разли	-8022
▁связи	-8023
▁стоит	-8024
▁теста	-8025
▁торго	-8026
▁цвета	-8027
▁школы	-8028
07.1998	-8029
10.1933	-8030
Имущест	-8031
льмовый	-8032
лэкберн	-8033
минстер	-8034
рутализ	-8035
▁597,0.	-8036
▁900,0.	-8037
▁Верона	-8038
▁Высота	-8039
▁Дензил	-8040
▁Джеком	-8041
▁Италию	-8042
▁Курица	-8043
▁Мишкин	-8044
▁Палата	-8045
▁Персея	-8046
▁Предсе	-8047
▁Пуэрто	-8048
▁Ректор	-8049
▁Сардар	-8050
▁Стэном	-8051
▁Черный	-8052
▁англич	-8053
▁ближай	-8054
▁бронзе	-8055
▁бывший	-8056
▁внутри	-8057
▁гимном	-8058
▁группе	-8059
▁данный	-8060
▁делают	-8061
▁летной	-8062
▁немцев	-8063
▁основе	-8064
▁почета	-8065
▁присут	-8066
▁разные	-8067
▁сущест	-8068
▁экипаж	-8069
Аталанта	-8070
Аэропорт	-8071
Хаббания	-8072
етвертая	-8073
ричневый	-8074
▁13017,0	-8075
▁4000,0.	-8076
▁Amazing	-8077
▁Аррабиа	-8078
▁Ашертон	-8079
▁Бисквит	-8080
▁Виньоли	-8081
▁Гонконг	-8082
▁Гранола	-8083
▁Джепсон	-8084
▁Дэвидом	-8085
▁Зеллнер	-8086
▁Институ	-8087
▁Каталон	-8088
▁Ленстер	-8089
▁Паркера	-8090
▁Рутовых	-8091
▁Самолет	-8092
▁Сергеем	-8093
▁Стюарта	-8094
▁Энтелла	-8095
▁добавки	-8096
▁комикса	-8097
▁красном	-8098
▁мраморе	-8099
▁отнесен	-8100
▁очередь	-8101
▁порядок	-8102
▁районам	-8103
▁следует	-8104
▁служить	-8105
▁строить	-8106
▁сушеная	-8107
▁сыграла	-8108
▁требует	-8109
▁узловой	-8110
Аполлоном	-8111
Бенедикта	-8112
Имущество	-8113
▁2014-15.	-8114
▁23.07.19	-8115
▁3078,48.	-8116
▁80002709	-8117
▁Аполлона	-8118
▁Беконный	-8119
▁Вариация	-8120
▁Владелец	-8121
▁Макманус	-8122
▁Построен	-8123
▁Прозвище	-8124
▁Сарагоса	-8125
▁Спроекти	-8126
▁Эберхард	-8127
▁авиабаза	-8128
▁авиабазе	-8129
▁вариаций	-8130
▁делается	-8131
▁домашний	-8132
▁закончил	-8133
▁значимые	-8134
▁колледже	-8135
▁концерты	-8136
▁королева	-8137
▁собствен	-8138
▁утвержда	-8139
▁цветущие	-8140
▁числится	-8141
Ланкийская	-8142
Управление	-8143
стоявшаяся	-8144
установлен	-8145
французски	-8146
циональное	-8147
▁488160,0.	-8148
▁88002539.	-8149
▁Аураклеса	-8150
▁Белявским	-8151
▁Виннебаго	-8152
▁Камберлен	-8153
▁Каррарезе	-8154
▁Келламерх	-8155
▁Кубанелла	-8156
▁Кубанелле	-8157
▁Хельмутом	-8158
▁ближайшим	-8159
▁добавляют	-8160
▁назывался	-8161
▁портового	-8162
▁проживает	-8163
▁растением	-8164
▁ссылочным	-8165
▁штурмовик	-8166
служивающий	-8167
▁21.07.1998	-8168
▁Ивановичем	-8169
▁Коричневый	-8170
▁Уилльямсом	-8171
▁арендуется	-8172
▁британском	-8173
▁бронзового	-8174
▁выпустился	-8175
▁департамен	-8176
▁изначально	-8177
▁начальника	-8178
▁подаваемое	-8179
▁разновидно	-8180
Aktieselskab	-8181
Associazione	-8182
▁39447000,0.	-8183
▁Арендатором	-8184
▁Бабельсберг	-8185
▁Вестминстер	-8186
▁Гвадалахаре	-8187
▁Находящийся	-8188
▁Однодольные	-8189
▁Розоцветных	-8190
▁Фламандское	-8191
▁возвышается	-8192
▁выпускником	-8193
▁итальянцами	-8194
▁однодольные	-8195
▁орбитальным	-8196
▁посвященный	-8197
▁разработана	-8198
▁управляемой	-8199
▁управляемом	-8200
▁управляющая	-8201
▁численность	-8202
▁135589000,0,	-8203
▁Национальной	-8204
▁Национальным	-8205
▁Обнаруженный	-8206
▁Руководитель	-8207
▁Технического	-8208
▁гренландском	-8209
▁максимальную	-8210
▁предоставлен	-8211
▁технического	-8212
▁управлявшего	-8213
▁8788850000,0,	-8214
▁88234300000,0	-8215
▁Сингапурского	-8216
▁Спроектирован	-8217
▁принадлежащая	-8218
▁Сапиндоцветные	-8219
▁альтернативным	-8220
▁насчитывающего	-8221
▁южноафриканцев	-8222
▁3997100000000,0	-8223
))	-8224
-2	-8225
ck	-8226
Ал	-8227
це	-8228
)”.	-8229
.04	-8230
1.8	-8231
33.	-8232
4",	-8233
439	-8234
69.	-8235
bus	-8236
kpo	-8237
Бан	-8238
Бол	-8239
Кат	-8240
Мар	-8241
Пен	-8242
гос	-8243
иля	-8244
имо	-8245
йко	-8246
лиа	-8247
нец	-8248
ору	-8249
ота	-8250
пар	-8251
пон	-8252
тие	-8253
фио	-8254
хва	-8255
хир	-8256
чре	-8257
ясь	-8258
▁-3	-8259
▁85	-8260
▁Гм	-8261
▁Ту	-8262
▁Шё	-8263
▁Эй	-8264
▁ле	-8265
▁нё	-8266
▁юж	-8267
-12,	-8268
/21.	-8269
91.8	-8270
kpot	-8271
lock	-8272
Норд	-8273
Рико	-8274
Сент	-8275
апио	-8276
ббре	-8277
гила	-8278
дана	-8279
дина	-8280
ести	-8281
изво	-8282
кнов	-8283
кров	-8284
линк	-8285
лона	-8286
лорд	-8287
лыша	-8288
мана	-8289
мель	-8290
нинг	-8291
пана	-8292
стям	-8293
того	-8294
щего	-8295
ьего	-8296
ющих	-8297
▁142	-8298
▁155	-8299
▁179	-8300
▁Кат	-8301
▁Мао	-8302
▁Тун	-8303
▁ата	-8304
▁гор	-8305
▁жиз	-8306
▁изо	-8307
▁осу	-8308
▁уже	-8309
.1980	-8310
09.19	-8311
город	-8312
елями	-8313
жащий	-8314
жении	-8315
лётно	-8316
найхе	-8317
никой	-8318
округ	-8319
перге	-8320
пляжа	-8321
тоном	-8322
торая	-8323
торов	-8324
щийся	-8325
▁1510	-8326
▁16/3	-8327
▁1773	-8328
▁1833	-8329
▁2439	-8330
▁3090	-8331
▁34,0	-8332
▁3453	-8333
▁Аких	-8334
▁Бари	-8335
▁Бата	-8336
▁Джин	-8337
▁Круп	-8338
▁Лейн	-8339
▁Лемп	-8340
▁Мала	-8341
▁Прав	-8342
▁Реал	-8343
▁Цвет	-8344
▁Шута	-8345
▁ачес	-8346
▁бань	-8347
▁виде	-8348
▁двое	-8349
▁едой	-8350
▁инди	-8351
▁лорд	-8352
▁метр	-8353
▁пунк	-8354
▁слад	-8355
▁тела	-8356
▁учре	-8357
.55312	-8358
Boeing	-8359
ENAIRE	-8360
buster	-8361
апиока	-8362
возван	-8363
кадори	-8364
кновен	-8365
льянец	-8366
центре	-8367
▁"1923	-8368
▁08/26	-8369
▁1411.	-8370
▁16,76	-8371
▁1873.	-8372
▁23.04	-8373
▁Block	-8374
▁Анвар	-8375
▁Викой	-8376
▁Захир	-8377
▁Измир	-8378
▁Индию	-8379
▁Колле	-8380
▁Лавер	-8381
▁Немцы	-8382
▁Супер	-8383
▁Уэйан	-8384
▁койко	-8385
▁масса	-8386
▁минда	-8387
▁мосту	-8388
▁носит	-8389
▁рангу	-8390
▁стиля	-8391
▁томат	-8392
▁футах	-8393
▁южная	-8394
11.1923	-8395
91.8388	-8396
Аустрия	-8397
Бандеха	-8398
Катания	-8399
ббревиа	-8400
косовое	-8401
морским	-8402
основан	-8403
хисовый	-8404
этажное	-8405
▁0,0252	-8406
▁28.02.	-8407
▁44114.	-8408
▁518,0.	-8409
▁600,0.	-8410
▁Грецию	-8411
▁Деймон	-8412
▁Именно	-8413
▁Йоргос	-8414
▁Мейсон	-8415
▁Ордвей	-8416
▁Служба	-8417
▁Томаты	-8418
▁Торино	-8419
▁Холлом	-8420
▁Цитрус	-8421
▁Чеснок	-8422
▁Языком	-8423
▁георги	-8424
▁другое	-8425
▁измель	-8426
▁камень	-8427
▁клецки	-8428
▁король	-8429
▁многих	-8430
▁населя	-8431
▁отделу	-8432
▁отправ	-8433
▁паэлье	-8434
▁паэльи	-8435
▁первая	-8436
▁первым	-8437
▁премии	-8438
▁ратуши	-8439
▁рыбные	-8440
▁стоило	-8441
▁тренер	-8442
▁фильма	-8443
▁флотом	-8444
09.1969.	-8445
Гэмпшира	-8446
▁-3.3528	-8447
▁1622,13	-8448
▁2702,0.	-8449
▁2744,0.	-8450
▁3500,0.	-8451
▁Акихито	-8452
▁Альянса	-8453
▁Белгаум	-8454
▁Главный	-8455
▁Джамали	-8456
▁Джулией	-8457
▁Димитра	-8458
▁Дублина	-8459
▁Испанцы	-8460
▁Каминис	-8461
▁Корнуол	-8462
▁Льюисом	-8463
▁Митчелл	-8464
▁Предыду	-8465
▁Тапиока	-8466
▁Чернила	-8467
▁Шёнайхе	-8468
▁аспиран	-8469
▁граните	-8470
▁жареные	-8471
▁клубный	-8472
▁куриное	-8473
▁локации	-8474
▁малазий	-8475
▁местным	-8476
▁монасты	-8477
▁начинки	-8478
▁номеров	-8479
▁нутовой	-8480
▁острова	-8481
▁осущест	-8482
▁победит	-8483
▁подклас	-8484
▁покрыта	-8485
▁произво	-8486
▁разделу	-8487
▁рецепте	-8488
▁снялась	-8489
▁созданы	-8490
▁стружку	-8491
▁суперге	-8492
▁тапиоку	-8493
▁чемпион	-8494
▁шиитаке	-8495
квартирой	-8496
коцветных	-8497
сильвания	-8498
турмовики	-8499
▁Абердине	-8500
▁Бразилиа	-8501
▁Брайнинг	-8502
▁Директор	-8503
▁Дуурсема	-8504
▁Корнский	-8505
▁Ленстера	-8506
▁Накадори	-8507
▁Народная	-8508
▁Ричардом	-8509
▁Северной	-8510
▁Теланган	-8511
▁бакалавр	-8512
▁бинигнит	-8513
▁британцы	-8514
▁величина	-8515
▁возникло	-8516
▁говядину	-8517
▁кельвина	-8518
▁ключевых	-8519
▁колледжу	-8520
▁лидирует	-8521
▁наградой	-8522
▁нынешние	-8523
▁посвящён	-8524
▁происход	-8525
▁протяжен	-8526
▁составля	-8527
▁уроженец	-8528
▁человека	-8529
щественных	-8530
юдоровский	-8531
▁Арендатор	-8532
▁Астерикса	-8533
▁Каноникой	-8534
▁Кокосовое	-8535
▁Пальмовый	-8536
▁Первозван	-8537
▁Последнее	-8538
▁Последний	-8539
▁Транспорт	-8540
▁Фредерике	-8541
▁Четвертая	-8542
▁азиатских	-8543
▁апоапсиды	-8544
▁аррабиата	-8545
▁бронзовый	-8546
▁испанское	-8547
▁китайском	-8548
▁кокосовую	-8549
▁концертов	-8550
▁обыкновен	-8551
▁персонала	-8552
▁песочного	-8553
▁писателем	-8554
▁помидоров	-8555
▁программы	-8556
▁различные	-8557
▁румынские	-8558
▁самолетом	-8559
▁сделанное	-8560
Маркантонио	-8561
▁11.07.1907	-8562
▁17.10.1933	-8563
▁18.11.1923	-8564
▁23.04.1980	-8565
▁Аматричаны	-8566
▁Арахисовый	-8567
▁Британские	-8568
▁Гаспарисом	-8569
▁Фиолетовый	-8570
▁Честерфилд	-8571
▁английская	-8572
▁используем	-8573
▁магистрату	-8574
▁основанная	-8575
▁отправился	-8576
▁подаваемая	-8577
▁собственно	-8578
▁содержатся	-8579
▁содержащая	-8580
▁телесериал	-8581
Национальное	-8582
Пенсильвания	-8583
▁01.09.1969.	-8584
▁135589000,0	-8585
▁139705000,0	-8586
▁Blockbuster	-8587
▁Каталонской	-8588
▁Королевстве	-8589
▁Коттингемом	-8590
▁болельщиков	-8591
▁драгоценный	-8592
▁истребители	-8593
▁космическая	-8594
▁мероприятий	-8595
▁основателем	-8596
▁популярного	-8597
▁профессиона	-8598
▁соседствует	-8599
▁8788850000,0	-8600
▁Региональной	-8601
▁Соединенного	-8602
▁американских	-8603
▁гренландский	-8604
▁значительные	-8605
▁использовать	-8606
▁кондитерский	-8607
▁транслирован	-8608
▁7729430000,0.	-8609
▁Индонезийская	-8610
▁архитектурной	-8611
▁встречающаяся	-8612
▁встречающееся	-8613
▁изготовленные	-8614
▁представитель	-8615
▁расположенные	-8616
▁транслировала	-8617
▁транслируется	-8618
▁162164091.8388	-8619
▁283326000000,0	-8620
▁41498400000,0.	-8621
▁протяженностью	-8622
▁распространено	-8623
▁419113394.55312	-8624
▁Эксплуатируемый	-8625
▁местонахождения	-8626
▁муниципалитетом	-8627
,1	-8628
BI	-8629
PN	-8630
Zw	-8631
eș	-8632
mp	-8633
mâ	-8634
or	-8635
ut	-8636
КВ	-8637
дт	-8638
жд	-8639
фт	-8640
фф	-8641
▁b	-8642
)",	-8643
,16	-8644
,54	-8645
040	-8646
27,	-8647
ACY	-8648
bur	-8649
АДО	-8650
ВВС	-8651
Ной	-8652
Пас	-8653
Фен	-8654
Чер	-8655
вши	-8656
гой	-8657
дао	-8658
еле	-8659
йти	-8660
лер	-8661
мад	-8662
мса	-8663
ора	-8664
руз	-8665
сяч	-8666
фик	-8667
хам	-8668
хед	-8669
хом	-8670
чей	-8671
▁-7	-8672
▁0.	-8673
▁5-	-8674
▁95	-8675
▁Ra	-8676
▁Zw	-8677
▁»,	-8678
▁мя	-8679
▁ря	-8680
▁ты	-8681
-12.	-8682
90,0	-8683
anen	-8684
eler	-8685
mâne	-8686
Болт	-8687
Лика	-8688
Спор	-8689
анию	-8690
апут	-8691
бера	-8692
дена	-8693
деша	-8694
дофф	-8695
елез	-8696
енца	-8697
игра	-8698
кола	-8699
лись	-8700
меча	-8701
нина	-8702
плом	-8703
рафт	-8704
рича	-8705
ркен	-8706
стри	-8707
стый	-8708
хале	-8709
чена	-8710
▁173	-8711
▁3,0	-8712
▁362	-8713
▁8,0	-8714
▁800	-8715
▁877	-8716
▁ABI	-8717
▁ATW	-8718
▁Whe	-8719
▁Для	-8720
▁Лэр	-8721
▁Тол	-8722
▁Тор	-8723
▁Шел	-8724
▁анг	-8725
▁важ	-8726
▁кто	-8727
▁нём	-8728
▁тех	-8729
▁яич	-8730
000.0	-8731
Винер	-8732
Далла	-8733
Индия	-8734
Уолле	-8735
бский	-8736
верет	-8737
гущён	-8738
данао	-8739
елиги	-8740
зиден	-8741
зовые	-8742
ичной	-8743
йском	-8744
ковым	-8745
краты	-8746
куруз	-8747
леная	-8748
мость	-8749
ответ	-8750
пуляр	-8751
ровал	-8752
тного	-8753
туром	-8754
штадт	-8755
ённая	-8756
▁0,02	-8757
▁1/19	-8758
▁1960	-8759
▁1978	-8760
▁2194	-8761
▁25,0	-8762
▁3684	-8763
▁3711	-8764
▁8,0.	-8765
▁KACY	-8766
▁Аман	-8767
▁Андо	-8768
▁Бозо	-8769
▁Брен	-8770
▁Винк	-8771
▁Двое	-8772
▁Кейт	-8773
▁Одно	-8774
▁Радж	-8775
▁Река	-8776
▁Роме	-8777
▁Флан	-8778
▁Цель	-8779
▁виды	-8780
▁выиг	-8781
▁муку	-8782
▁проз	-8783
▁пшен	-8784
▁фунт	-8785
▁чьим	-8786
▁этих	-8787
▁якоб	-8788
teaptă	-8789
Даллас	-8790
Дженоа	-8791
Ликата	-8792
дераль	-8793
джиния	-8794
ежития	-8795
ельвин	-8796
естина	-8797
лирует	-8798
лышать	-8799
нейшим	-8800
пломом	-8801
селона	-8802
ствуют	-8803
тивной	-8804
хаммад	-8805
ческим	-8806
чтовый	-8807
▁-71,0	-8808
▁16,54	-8809
▁170,0	-8810
▁18,09	-8811
▁37,16	-8812
▁37497	-8813
▁4100.	-8814
▁95040	-8815
▁973,0	-8816
▁Radio	-8817
▁Алаго	-8818
▁Бадуй	-8819
▁Ключе	-8820
▁Лидия	-8821
▁Малик	-8822
▁Молса	-8823
▁Рафик	-8824
▁Тадао	-8825
▁Турец	-8826
▁Урича	-8827
▁Фарер	-8828
▁Хапут	-8829
▁Харди	-8830
▁Эйпри	-8831
▁Южном	-8832
▁англо	-8833
▁воору	-8834
▁выход	-8835
▁дизай	-8836
▁зернё	-8837
▁изобр	-8838
▁имела	-8839
▁кораб	-8840
▁лежит	-8841
▁месте	-8842
▁небес	-8843
▁синий	-8844
▁такие	-8845
▁тысяч	-8846
▁школу	-8847
anenbur	-8848
Армандо	-8849
Золотая	-8850
Прадеша	-8851
Схипхол	-8852
Фенчёрч	-8853
вшегося	-8854
канская	-8855
ркенхед	-8856
ставной	-8857
тингема	-8858
▁13/31.	-8859
▁140000	-8860
▁15/33.	-8861
▁183309	-8862
▁1890,0	-8863
▁2215,0	-8864
▁Inkpot	-8865
▁române	-8866
▁Виртус	-8867
▁Восток	-8868
▁Вудсом	-8869
▁Георги	-8870
▁Другие	-8871
▁Другое	-8872
▁Крейга	-8873
▁Лаверн	-8874
▁Мистер	-8875
▁Первым	-8876
▁Полити	-8877
▁Размер	-8878
▁Религи	-8879
▁Розиды	-8880
▁Свиная	-8881
▁Сгущен	-8882
▁Сергей	-8883
▁Сериал	-8884
▁Сторрс	-8885
▁Уэйанс	-8886
▁Фрэнка	-8887
▁Эверет	-8888
▁ачесцы	-8889
▁выигра	-8890
▁других	-8891
▁здании	-8892
▁минима	-8893
▁молока	-8894
▁общины	-8895
▁отряда	-8896
▁показа	-8897
▁похоже	-8898
▁присво	-8899
▁псалом	-8900
▁пункте	-8901
▁работу	-8902
▁работы	-8903
▁рожден	-8904
▁рыцарь	-8905
▁свиных	-8906
▁сериал	-8907
▁состоя	-8908
▁уровне	-8909
▁центре	-8910
▁штатом	-8911
eșteaptă	-8912
Нойштадт	-8913
гущённое	-8914
курузной	-8915
мечатель	-8916
основана	-8917
рафтсман	-8918
риестина	-8919
стимость	-8920
▁1800,0.	-8921
▁Wheeler	-8922
▁Артуром	-8923
▁Бостоне	-8924
▁Вьетнам	-8925
▁Джеймса	-8926
▁Клейтон	-8927
▁Майклом	-8928
▁Мараном	-8929
▁Молдофф	-8930
▁Уотсона	-8931
▁Фландри	-8932
▁Хардвик	-8933
▁Цельсия	-8934
▁Эллиота	-8935
▁взлётно	-8936
▁выбрало	-8937
▁вяленая	-8938
▁госпита	-8939
▁греками	-8940
▁инженер	-8941
▁кампуса	-8942
▁капусту	-8943
▁магистр	-8944
▁местные	-8945
▁местных	-8946
▁миндаля	-8947
▁награда	-8948
▁названа	-8949
▁нутовую	-8950
▁озвучен	-8951
▁погибши	-8952
▁розовых	-8953
▁сенатор	-8954
▁соответ	-8955
▁творога	-8956
▁церковь	-8957
▁экипаже	-8958
▁488160,0	-8959
▁Альбером	-8960
▁Аполлоне	-8961
▁Брюссель	-8962
▁Говядина	-8963
▁Иванович	-8964
▁Колледжа	-8965
▁Лаборато	-8966
▁Минданао	-8967
▁Мухаммад	-8968
▁Нынешние	-8969
▁Пенджаба	-8970
▁Раджвана	-8971
▁Стокпорт	-8972
▁Сторрсом	-8973
▁Толченая	-8974
▁Туркмени	-8975
▁Уроженец	-8976
▁Чарльзом	-8977
▁альтерна	-8978
▁возникла	-8979
▁говядины	-8980
▁графства	-8981
▁движения	-8982
▁дипломом	-8983
▁кетчупом	-8984
▁километр	-8985
▁креветок	-8986
▁наиболее	-8987
▁нынешним	-8988
▁открытия	-8989
▁открытый	-8990
▁покойный	-8991
▁проводит	-8992
▁работает	-8993
▁ректором	-8994
▁торговом	-8995
▁услышать	-8996
▁учрежден	-8997
Бананамена	-8998
квадратных	-8999
▁Zwanenbur	-9000
▁Аполлоном	-9001
▁Белявский	-9002
▁Биркенхед	-9003
▁Вирджиния	-9004
▁Института	-9005
▁Итальянец	-9006
▁Нокальсом	-9007
▁Огастесом	-9008
▁Отставной	-9009
▁Пьюджином	-9010
▁Сгущенное	-9011
▁Создатели	-9012
▁Суперлиге	-9013
▁Техасской	-9014
▁Туркмении	-9015
▁Футболист	-9016
▁Хапутхале	-9017
▁Хардвиком	-9018
▁Швейцарию	-9019
▁атакующий	-9020
▁банановых	-9021
▁вариантов	-9022
▁вторжения	-9023
▁говяжьего	-9024
▁китайское	-9025
▁наградной	-9026
▁обучаются	-9027
▁популярны	-9028
▁построено	-9029
▁правитель	-9030
▁присоедин	-9031
▁пшеничной	-9032
▁растениям	-9033
▁созданная	-9034
▁создатели	-9035
▁типичного	-9036
▁уроженцем	-9037
▁федерация	-9038
▁эксплуати	-9039
Управлением	-9040
▁Крупнейший	-9041
▁Купперберг	-9042
▁Магдебурга	-9043
▁Ноттингема	-9044
▁Олимпиакос	-9045
▁Справочный	-9046
▁вооружении	-9047
▁индийскими	-9048
▁кукурузной	-9049
▁лидирующая	-9050
▁населенном	-9051
▁обнаружила	-9052
▁озвучивает	-9053
▁окончивший	-9054
▁подаваться	-9055
▁популярная	-9056
▁популярный	-9057
▁проведения	-9058
▁специфично	-9059
▁супергерой	-9060
▁существует	-9061
▁характерно	-9062
▁якобинский	-9063
▁20.01.1930.	-9064
▁21.07.1998.	-9065
▁26.11.2005.	-9066
▁Британского	-9067
▁Европейским	-9068
▁Ингредиенты	-9069
▁Конференции	-9070
▁Создателями	-9071
▁Фитцсиммонс	-9072
▁Фламандский	-9073
▁банюмасанцы	-9074
▁гражданство	-9075
▁космическую	-9076
▁минимальную	-9077
▁создателями	-9078
▁тюдоровский	-9079
▁футболистом	-9080
▁139705000,0,	-9081
▁Всеиндийский	-9082
▁Кливлендским	-9083
▁Колумбийская	-9084
▁Лабораторией	-9085
▁Местоположен	-9086
▁Обнаруженная	-9087
▁Федерального	-9088
▁историческую	-9089
▁мексиканский	-9090
▁мексиканском	-9091
▁обнаруженная	-9092
▁обнаруженный	-9093
▁политический	-9094
▁председатель	-9095
▁распространя	-9096
▁фламандского	-9097
подавательский	-9098
▁Биркенхедский	-9099
▁Индонезийское	-9100
▁Индонезийском	-9101
▁Международная	-9102
▁Правительство	-9103
▁Расположенная	-9104
▁муниципальный	-9105
▁приготовлении	-9106
▁принадлежащее	-9107
▁собственности	-9108
▁традиционного	-9109
▁эксплуатирова	-9110
▁352497000000,0	-9111
▁Zwanenburgbaan	-9112
▁Гёттингенского	-9113
▁Международного	-9114
▁Рождественский	-9115
▁академического	-9116
▁индонезийского	-9117
▁муниципалитеты	-9118
▁приготовленный	-9119
▁283326000000,0.	-9120
.,	-9121
.6	-9122
08	-9123
3.	-9124
32	-9125
LK	-9126
SB	-9127
ak	-9128
me	-9129
»)	-9130
Ре	-9131
оу	-9132
сю	-9133
щё	-9134
ёд	-9135
▁н	-9136
202	-9137
28.	-9138
443	-9139
487	-9140
53.	-9141
573	-9142
599	-9143
Ком	-9144
ФАС	-9145
асе	-9146
бью	-9147
вии	-9148
вли	-9149
гор	-9150
деж	-9151
ему	-9152
зой	-9153
зон	-9154
ись	-9155
лле	-9156
лой	-9157
мот	-9158
пот	-9159
пту	-9160
стя	-9161
тро	-9162
чая	-9163
чех	-9164
шее	-9165
шей	-9166
щью	-9167
ыта	-9168
эйн	-9169
▁01	-9170
▁3,	-9171
▁8.	-9172
▁Bu	-9173
▁КВ	-9174
▁МА	-9175
▁ак	-9176
.06.	-9177
2013	-9178
466,	-9179
lder	-9180
look	-9181
Алан	-9182
Дейл	-9183
Реал	-9184
Цент	-9185
анец	-9186
вала	-9187
вощи	-9188
вшее	-9189
гнут	-9190
гота	-9191
дукт	-9192
ения	-9193
ерто	-9194
есус	-9195
имен	-9196
инов	-9197
кает	-9198
ккау	-9199
него	-9200
рого	-9201
сным	-9202
сюду	-9203
хоор	-9204
▁03.	-9205
▁101	-9206
▁18,	-9207
▁20"	-9208
▁258	-9209
▁445	-9210
▁618	-9211
▁9,7	-9212
▁990	-9213
▁AEK	-9214
▁ASB	-9215
▁SLK	-9216
▁Деп	-9217
▁Зан	-9218
▁Име	-9219
▁Как	-9220
▁Ски	-9221
▁ФАС	-9222
▁бом	-9223
▁быр	-9224
▁вес	-9225
▁гер	-9226
▁гол	-9227
▁еды	-9228
▁лав	-9229
▁пра	-9230
▁уез	-9231
▁фак	-9232
▁чьё	-9233
.12.3	-9234
487,6	-9235
Желез	-9236
Счаст	-9237
Техас	-9238
Центр	-9239
бекон	-9240
вавши	-9241
вание	-9242
диром	-9243
дован	-9244
зован	-9245
йское	-9246
кончи	-9247
ловых	-9248
мский	-9249
мэром	-9250
налом	-9251
ровин	-9252
роном	-9253
содер	-9254
стрек	-9255
танен	-9256
тауна	-9257
удент	-9258
филда	-9259
чение	-9260
▁07",	-9261
▁1,98	-9262
▁108,	-9263
▁1910	-9264
▁1973	-9265
▁2/20	-9266
▁23,0	-9267
▁2939	-9268
▁52,0	-9269
▁600.	-9270
▁6573	-9271
▁Бана	-9272
▁Бена	-9273
▁Моро	-9274
▁Песо	-9275
▁Пэйн	-9276
▁Рату	-9277
▁Самм	-9278
▁Уолт	-9279
▁Уэйн	-9280
▁Фокс	-9281
▁ассо	-9282
▁база	-9283
▁день	-9284
▁паде	-9285
▁пере	-9286
▁регу	-9287
▁риса	-9288
▁типа	-9289
▁этим	-9290
▁эфио	-9291
▁япон	-9292
utlook	-9293
Антвер	-9294
Рейесе	-9295
Соедин	-9296
Шамаль	-9297
ареное	-9298
виккау	-9299
дателя	-9300
джамин	-9301
ескара	-9302
зидент	-9303
имость	-9304
йского	-9305
леммер	-9306
местно	-9307
рожден	-9308
рожное	-9309
сильяс	-9310
ссован	-9311
стопри	-9312
хваста	-9313
ченная	-9314
ящейся	-9315
▁17,73	-9316
▁18443	-9317
▁2014.	-9318
▁39599	-9319
▁3990.	-9320
▁597,0	-9321
▁bacon	-9322
▁Агила	-9323
▁Арена	-9324
▁Арепа	-9325
▁Банан	-9326
▁Гунер	-9327
▁Датой	-9328
▁Джону	-9329
▁Котте	-9330
▁Локке	-9331
▁Льюис	-9332
▁Овощи	-9333
▁Перец	-9334
▁Пилот	-9335
▁Часть	-9336
▁банка	-9337
▁возле	-9338
▁вялен	-9339
▁дивиз	-9340
▁дости	-9341
▁жизни	-9342
▁корей	-9343
▁кроме	-9344
▁повсе	-9345
▁приду	-9346
▁приня	-9347
▁пункт	-9348
▁своим	-9349
▁сезон	-9350
▁улица	-9351
▁фирмы	-9352
▁южном	-9353
2.33968	-9354
Ювентус	-9355
готавли	-9356
двигнут	-9357
ительно	-9358
нийский	-9359
палитет	-9360
пальном	-9361
прежнее	-9362
ританец	-9363
ствовал	-9364
стрибью	-9365
чателем	-9366
▁03/21.	-9367
▁11/29,	-9368
▁1121,0	-9369
▁15/33,	-9370
▁1516.6	-9371
▁198803	-9372
▁2989,0	-9373
▁445895	-9374
▁497,0,	-9375
▁733,0.	-9376
▁85466,	-9377
▁992,88	-9378
▁Polder	-9379
▁Альдри	-9380
▁Андрей	-9381
▁Геринг	-9382
▁Гусейн	-9383
▁Джерси	-9384
▁Джесус	-9385
▁Джулии	-9386
▁Карака	-9387
▁Клубом	-9388
▁Ларсом	-9389
▁Лемпер	-9390
▁Лохлин	-9391
▁Нортмо	-9392
▁Парижа	-9393
▁Провин	-9394
▁Ромеро	-9395
▁Энхоор	-9396
▁базиру	-9397
▁бекона	-9398
▁воинов	-9399
▁второй	-9400
▁декана	-9401
▁картош	-9402
▁лимоны	-9403
▁можете	-9404
▁органа	-9405
▁партии	-9406
▁родным	-9407
▁черную	-9408
▁черный	-9409
▁яванцы	-9410
.03.1932	-9411
Амстерда	-9412
Механикс	-9413
Счастлив	-9414
артамент	-9415
зийского	-9416
резанные	-9417
рутализм	-9418
слёновых	-9419
торжение	-9420
▁1219,0.	-9421
▁2005-11	-9422
▁2777,0.	-9423
▁4100,0.	-9424
▁47487,6	-9425
▁Америке	-9426
▁Андалус	-9427
▁Аустрия	-9428
▁Бароном	-9429
▁Бормана	-9430
▁Бутунер	-9431
▁Вальсом	-9432
▁Валютой	-9433
▁Винклер	-9434
▁Гарднер	-9435
▁Гауссию	-9436
▁Главная	-9437
▁Жареное	-9438
▁Индийцы	-9439
▁Кендалл	-9440
▁Команда	-9441
▁Патрику	-9442
▁Позднее	-9443
▁Популяр	-9444
▁Религия	-9445
▁Розовые	-9446
▁Румынию	-9447
▁Сирилом	-9448
▁Скипхол	-9449
▁Уильяма	-9450
▁Филипом	-9451
▁ассоции	-9452
▁главное	-9453
▁говорит	-9454
▁датский	-9455
▁деловых	-9456
▁злаками	-9457
▁игороты	-9458
▁изобрет	-9459
▁колбасы	-9460
▁корабля	-9461
▁местном	-9462
▁местный	-9463
▁молодеж	-9464
▁награду	-9465
▁объекта	-9466
▁повсюду	-9467
▁помощью	-9468
▁поселок	-9469
▁поступа	-9470
▁продукт	-9471
▁прочные	-9472
▁рабочая	-9473
▁рабочей	-9474
▁сериале	-9475
▁состоят	-9476
▁стороны	-9477
▁студент	-9478
▁течение	-9479
▁фигурой	-9480
▁фруктов	-9481
▁юрисдик	-9482
▁яичница	-9483
Алвинегро	-9484
Антверпен	-9485
Триестина	-9486
деральным	-9487
зоцветные	-9488
леммермер	-9489
▁3360.12.	-9490
▁Алагоасе	-9491
▁Антиокии	-9492
▁Аталанта	-9493
▁Виртанен	-9494
▁Гаспарис	-9495
▁Движения	-9496
▁Занстрек	-9497
▁Касильяс	-9498
▁Конфитюр	-9499
▁Мануэлем	-9500
▁Мичигана	-9501
▁Нынешним	-9502
▁Песочное	-9503
▁Пирожное	-9504
▁Рафаэлем	-9505
▁Самолеты	-9506
▁Симонсон	-9507
▁Турецкая	-9508
▁Уилльямс	-9509
▁Уорденом	-9510
▁арендует	-9511
▁бутербро	-9512
▁вариацию	-9513
▁включать	-9514
▁доктором	-9515
▁душистый	-9516
▁жареного	-9517
▁заправку	-9518
▁игравший	-9519
▁играющий	-9520
▁индийцев	-9521
▁ирландцы	-9522
▁испанцев	-9523
▁коренных	-9524
▁кудрявую	-9525
▁местного	-9526
▁одноимен	-9527
▁операция	-9528
▁погибших	-9529
▁получила	-9530
▁попадает	-9531
▁похваста	-9532
▁работать	-9533
▁сгущеное	-9534
▁соседнем	-9535
▁сражений	-9536
▁стадиона	-9537
Великобрит	-9538
Магдебурга	-9539
Спортивная	-9540
Элефтериос	-9541
естерфилда	-9542
основанная	-9543
▁2006.12.3	-9544
▁28.02.196	-9545
▁39447000,	-9546
▁39447000.	-9547
▁Desteapta	-9548
▁Апоапсида	-9549
▁Бангалора	-9550
▁Иллинойса	-9551
▁Коттингем	-9552
▁Макманусу	-9553
▁Мариоттом	-9554
▁Некоторые	-9555
▁Плотность	-9556
▁Создатель	-9557
▁Традицион	-9558
▁Устричный	-9559
▁Фредерика	-9560
▁арендован	-9561
▁ближайший	-9562
▁бразильцы	-9563
▁валютного	-9564
▁вторжение	-9565
▁входящего	-9566
▁выпускник	-9567
▁госпиталь	-9568
▁госпиталя	-9569
▁десертами	-9570
▁дивизиона	-9571
▁испанская	-9572
▁китайскую	-9573
▁крафтсман	-9574
▁кубанелла	-9575
▁магистров	-9576
▁монастыре	-9577
▁найденная	-9578
▁население	-9579
▁небесного	-9580
▁принимает	-9581
▁программе	-9582
▁произошел	-9583
▁сгущённое	-9584
▁следующие	-9585
▁снималась	-9586
▁стадионом	-9587
▁строиться	-9588
▁федерации	-9589
▁ценностям	-9590
▁эфиопский	-9591
Коммелиниды	-9592
Швейцарский	-9593
аффилирован	-9594
ббревиатура	-9595
▁139705000,	-9596
▁15.03.1932	-9597
▁31.12.2006	-9598
▁39447000,0	-9599
▁8788850000	-9600
▁Polderbaan	-9601
▁Командиром	-9602
▁Кристианом	-9603
▁альтернати	-9604
▁ассоциацию	-9605
▁воздвигнут	-9606
▁вьетнамцев	-9607
▁десертного	-9608
▁индийского	-9609
▁итальянцев	-9610
▁крупнейшим	-9611
▁основанный	-9612
▁официально	-9613
▁регулирует	-9614
▁республике	-9615
▁созданного	-9616
▁создателей	-9617
▁составляют	-9618
▁специфичен	-9619
▁спортивная	-9620
▁тамильском	-9621
▁участником	-9622
▁футбольным	-9623
▁чемпионата	-9624
▁16244700,0.	-9625
▁34920600000	-9626
▁69862200,0,	-9627
▁Камберленда	-9628
▁Олимпийском	-9629
▁Расмуссеном	-9630
▁Соединенном	-9631
▁Уильямсберг	-9632
▁Устоявшаяся	-9633
▁вместимость	-9634
▁вымышленный	-9635
▁завершенный	-9636
▁конкурирует	-9637
▁находящейся	-9638
▁образование	-9639
▁официальная	-9640
▁официальных	-9641
▁повсеместно	-9642
▁получателем	-9643
▁розоцветных	-9644
▁соревновани	-9645
▁фламандское	-9646
Амстердамский	-9647
▁7729430000,0	-9648
▁Associazione	-9649
▁Англиканская	-9650
▁Всеиндийским	-9651
▁Операционная	-9652
▁Первозванный	-9653
▁Расположение	-9654
▁Харлеммермер	-9655
▁американское	-9656
▁американцами	-9657
▁выполненного	-9658
▁департаменте	-9659
▁злакоцветные	-9660
▁злакоцветных	-9661
▁использовани	-9662
▁направлением	-9663
▁общественные	-9664
▁похвастаться	-9665
▁председателя	-9666
▁субпродуктов	-9667
▁транспортные	-9668
▁университету	-9669
Великобритания	-9670
стопримечатель	-9671
▁Бирмингемским	-9672
▁Лейбористской	-9673
▁Муниципалитет	-9674
▁Муниципальном	-9675
▁Обслуживающий	-9676
▁Председателем	-9677
▁возглавляемая	-9678
▁возглавляемый	-9679
▁малайзийского	-9680
▁обсерваторией	-9681
▁председателем	-9682
▁представителя	-9683
▁присутствовал	-9684
▁протяженность	-9685
▁туристическим	-9686
▁124950000000,0	-9687
▁Калифорнийский	-9688
▁Массачусетском	-9689
▁Местоположение	-9690
▁Национальность	-9691
▁альтернативные	-9692
▁представляющим	-9693
▁приготовленных	-9694
▁пуэрториканцем	-9695
▁соответственно	-9696
▁279142000000,0.	-9697
▁288749000000,0,	-9698
▁352497000000,0,	-9699
▁523951582.33968	-9700
▁Демократической	-9701
▁местоположением	-9702
▁распространение	-9703
▁технологическом	-9704
//	-9705
78	-9706
AO	-9707
go	-9708
ix	-9709
lk	-9710
ww	-9711
zz	-9712
ér	-9713
Та	-9714
ФК	-9715
иц	-9716
уф	-9717
ьи	-9718
”)	-9719
-07	-9720
.07	-9721
.12	-9722
/22	-9723
637	-9724
://	-9725
CAO	-9726
ane	-9727
ara	-9728
arh	-9729
can	-9730
gha	-9731
gov	-9732
htt	-9733
ost	-9734
www	-9735
Зла	-9736
Лам	-9737
Пор	-9738
Пот	-9739
Пре	-9740
аре	-9741
бау	-9742
бле	-9743
вин	-9744
гры	-9745
дав	-9746
дня	-9747
лах	-9748
мом	-9749
нуэ	-9750
сде	-9751
сов	-9752
теш	-9753
тно	-9754
уне	-9755
уфд	-9756
чис	-9757
шло	-9758
это	-9759
▁04	-9760
▁4-	-9761
▁Bl	-9762
▁MA	-9763
▁им	-9764
▁мы	-9765
,12.	-9766
,76.	-9767
-12-	-9768
.197	-9769
0770	-9770
3012	-9771
http	-9772
stér	-9773
urak	-9774
Паки	-9775
анин	-9776
веем	-9777
вило	-9778
вора	-9779
выми	-9780
гано	-9781
дале	-9782
дучи	-9783
емым	-9784
есть	-9785
жнем	-9786
итер	-9787
леба	-9788
мара	-9789
мило	-9790
нанг	-9791
нику	-9792
обхо	-9793
овле	-9794
онум	-9795
рики	-9796
роди	-9797
ряду	-9798
сайт	-9799
стоя	-9800
стры	-9801
туда	-9802
умой	-9803
фель	-9804
чень	-9805
член	-9806
ящие	-9807
▁"10	-9808
▁03"	-9809
▁04.	-9810
▁07.	-9811
▁07»	-9812
▁20-	-9813
▁22.	-9814
▁310	-9815
▁7/2	-9816
▁776	-9817
▁929	-9818
▁APN	-9819
▁Бал	-9820
▁Был	-9821
▁Вку	-9822
▁Две	-9823
▁Общ	-9824
▁Под	-9825
▁Род	-9826
▁Сво	-9827
▁Тен	-9828
▁Чёр	-9829
▁бет	-9830
▁веб	-9831
▁две	-9832
▁дво	-9833
▁ещё	-9834
▁зан	-9835
▁лиг	-9836
▁лёт	-9837
▁мяс	-9838
▁нет	-9839
▁рас	-9840
▁сио	-9841
▁сок	-9842
▁той	-9843
▁фор	-9844
▁эги	-9845
▁яиц	-9846
2.213	-9847
arhus	-9848
ghamp	-9849
Аддис	-9850
Дрейк	-9851
Луиса	-9852
Народ	-9853
Челси	-9854
амять	-9855
апана	-9856
арема	-9857
бетти	-9858
близи	-9859
блика	-9860
венно	-9861
возят	-9862
ворца	-9863
вшись	-9864
делах	-9865
дится	-9866
дятся	-9867
кабау	-9868
ладьи	-9869
лению	-9870
ллсом	-9871
логия	-9872
лтона	-9873
льшее	-9874
менит	-9875
мерти	-9876
меция	-9877
мполи	-9878
непту	-9879
новре	-9880
нском	-9881
ового	-9882
ренер	-9883
считы	-9884
шлось	-9885
ятный	-9886
ённый	-9887
▁12,0	-9888
▁1200	-9889
▁2003	-9890
▁2010	-9891
▁2953	-9892
▁2988	-9893
▁3,99	-9894
▁3678	-9895
▁7202	-9896
▁7637	-9897
▁ICAO	-9898
▁Oost	-9899
▁АФАС	-9900
▁Анка	-9901
▁Афин	-9902
▁Ачех	-9903
▁База	-9904
▁Бази	-9905
▁Барт	-9906
▁Бери	-9907
▁Брон	-9908
▁Вита	-9909
▁Груп	-9910
▁Доши	-9911
▁Дроэ	-9912
▁Имея	-9913
▁Нико	-9914
▁Ныне	-9915
▁Осно	-9916
▁Пако	-9917
▁План	-9918
▁Полу	-9919
▁Сена	-9920
▁Сосе	-9921
▁Хуфд	-9922
▁Член	-9923
▁базе	-9924
▁близ	-9925
▁всту	-9926
▁коли	-9927
▁лига	-9928
▁лигу	-9929
▁ноль	-9930
▁пани	-9931
▁рату	-9932
▁рози	-9933
▁рупи	-9934
▁своя	-9935
▁связ	-9936
▁теов	-9937
▁трет	-9938
▁хоро	-9939
▁этно	-9940
08.197	-9941
erican	-9942
stérix	-9943
Абилин	-9944
Медаль	-9945
Пьетро	-9946
ватель	-9947
возгла	-9948
ворачи	-9949
входит	-9950
вшееся	-9951
далеко	-9952
дорами	-9953
дуктов	-9954
еллинг	-9955
ендвич	-9956
зается	-9957
кончен	-9958
обходи	-9959
регано	-9960
самбле	-9961
сделан	-9962
стение	-9963
текает	-9964
тешест	-9965
числен	-9966
▁07/25	-9967
▁16/34	-9968
▁171,0	-9969
▁173,0	-9970
▁1955.	-9971
▁1982.	-9972
▁27-06	-9973
▁33012	-9974
▁8.33.	-9975
▁9953.	-9976
▁Aurak	-9977
▁Барон	-9978
▁Вевер	-9979
▁Вичен	-9980
▁Время	-9981
▁Гигею	-9982
▁Дугом	-9983
▁Зумой	-9984
▁Йенса	-9985
▁Майкл	-9986
▁Можно	-9987
▁Монум	-9988
▁Общая	-9989
▁Паиса	-9990
▁Питер	-9991
▁Проис	-9992
▁Счита	-9993
▁Телес	-9994
▁Уэллс	-9995
▁верто	-9996
▁весит	-9997
▁вовле	-9998
▁граду	-9999
▁живых	-10000
▁изюма	-10001
▁источ	-10002
▁много	-10003
▁морем	-10004
▁общая	-10005
▁орбит	-10006
▁остры	-10007
▁ответ	-10008
▁отмет	-10009
▁очень	-10010
▁парке	-10011
▁пород	-10012
▁радио	-10013
▁рутов	-10014
▁рядом	-10015
▁самая	-10016
▁служи	-10017
▁стоил	-10018
▁столу	-10019
▁таким	-10020
▁флоте	-10021
▁хлеба	-10022
▁цвето	-10023
▁числу	-10024
11.2013	-10025
Ламбиен	-10026
Пескара	-10027
Потенца	-10028
Черного	-10029
Эпплтон	-10030
влением	-10031
зервным	-10032
кология	-10033
которая	-10034
льность	-10035
младшим	-10036
морском	-10037
фектура	-10038
ытатель	-10039
этажный	-10040
язычной	-10041
язычном	-10042
ящегося	-10043
▁120770	-10044
▁1918»,	-10045
▁2014,0	-10046
▁3400,0	-10047
▁Aarhus	-10048
▁Африки	-10049
▁Батаки	-10050
▁Берлин	-10051
▁Джинна	-10052
▁Заправ	-10053
▁Канаде	-10054
▁Келвин	-10055
▁Керале	-10056
▁Корнуэ	-10057
▁Лимоны	-10058
▁Манора	-10059
▁Манчем	-10060
▁Однодо	-10061
▁Совета	-10062
▁Теннис	-10063
▁Тренер	-10064
▁Уордом	-10065
▁Шелдон	-10066
▁Эпохой	-10067
▁бананы	-10068
▁батата	-10069
▁бетона	-10070
▁вторую	-10071
▁высоты	-10072
▁дворец	-10073
▁дворца	-10074
▁должен	-10075
▁катало	-10076
▁класса	-10077
▁классе	-10078
▁контро	-10079
▁лавров	-10080
▁маслом	-10081
▁миссию	-10082
▁наряду	-10083
▁начали	-10084
▁оладьи	-10085
▁отряду	-10086
▁оттуда	-10087
▁показы	-10088
▁покров	-10089
▁полным	-10090
▁принят	-10091
▁провёл	-10092
▁родине	-10093
▁розиды	-10094
▁сиомая	-10095
▁смерти	-10096
▁третья	-10097
▁фасоли	-10098
▁филиал	-10099
▁фиолет	-10100
▁фирмой	-10101
▁эгидой	-10102
▁японцы	-10103
Lockheed	-10104
ghampara	-10105
Амманном	-10106
Бинигнит	-10107
Блэкберн	-10108
Народная	-10109
Пакистан	-10110
Такаддум	-10111
вительно	-10112
говорный	-10113
построен	-10114
почтовый	-10115
хождению	-10116
▁1121,0.	-10117
▁1510,0.	-10118
▁2014,0.	-10119
▁2777,0,	-10120
▁3360.12	-10121
▁3453,0.	-10122
▁992,88.	-10123
▁Outlook	-10124
▁Альдрин	-10125
▁Андерса	-10126
▁Балкриш	-10127
▁Борисом	-10128
▁Бреннер	-10129
▁Веллинг	-10130
▁Доналом	-10131
▁Кармайн	-10132
▁Катания	-10133
▁Кельвин	-10134
▁Ламеция	-10135
▁Медалью	-10136
▁Нокальс	-10137
▁Ордвеем	-10138
▁Плантан	-10139
▁Площадь	-10140
▁Ранилом	-10141
▁Сендвич	-10142
▁Системе	-10143
▁Советом	-10144
▁Узловой	-10145
▁Урожден	-10146
▁Хертеля	-10147
▁Цветные	-10148
▁Эдвином	-10149
▁автоном	-10150
▁выиграл	-10151
▁выполня	-10152
▁вырезку	-10153
▁выходцы	-10154
▁говяжью	-10155
▁зяблика	-10156
▁команде	-10157
▁корнуол	-10158
▁королев	-10159
▁кубиков	-10160
▁местная	-10161
▁найдена	-10162
▁обучает	-10163
▁одновре	-10164
▁основал	-10165
▁памятни	-10166
▁прозван	-10167
▁регионы	-10168
▁рисовую	-10169
▁рисовых	-10170
▁свинина	-10171
▁сделаны	-10172
▁системе	-10173
▁сладкую	-10174
▁сметаны	-10175
▁соевого	-10176
▁стружки	-10177
▁тапиоки	-10178
▁темного	-10179
Desteapta	-10180
Барселона	-10181
иорентины	-10182
историчес	-10183
нангкабау	-10184
обнаружен	-10185
созданный	-10186
хождением	-10187
штурмовик	-10188
▁1622.213	-10189
▁2015.06.	-10190
▁3360,12.	-10191
▁39447000	-10192
▁7637,76.	-10193
▁American	-10194
▁Aurakles	-10195
▁Oostbaan	-10196
▁Антиокия	-10197
▁Арабский	-10198
▁Барбетти	-10199
▁Блэкберн	-10200
▁Британец	-10201
▁Вариации	-10202
▁Йоханном	-10203
▁Кайахоги	-10204
▁Ключевым	-10205
▁Корнуолл	-10206
▁Метапана	-10207
▁Механикс	-10208
▁Монумент	-10209
▁Операция	-10210
▁Покойный	-10211
▁Растение	-10212
▁Соседний	-10213
▁Спортпар	-10214
▁Тренером	-10215
▁Уроженка	-10216
▁Хусейном	-10217
▁Яванское	-10218
▁академии	-10219
▁ассамбле	-10220
▁воевавши	-10221
▁имеющего	-10222
▁каменная	-10223
▁картошку	-10224
▁ключевая	-10225
▁количест	-10226
▁командой	-10227
▁конферен	-10228
▁корейцев	-10229
▁которому	-10230
▁молотого	-10231
▁населяют	-10232
▁недалеко	-10233
▁необходи	-10234
▁обошлось	-10235
▁отобрало	-10236
▁покрытия	-10237
▁пределах	-10238
▁принимал	-10239
▁присвоен	-10240
▁приятный	-10241
▁проектов	-10242
▁путешест	-10243
▁размером	-10244
▁регистра	-10245
▁рождении	-10246
▁скорости	-10247
▁собрания	-10248
▁специаль	-10249
▁сэндвиче	-10250
▁сэндвичу	-10251
▁типичное	-10252
▁турецком	-10253
ворачивают	-10254
стрибьютор	-10255
▁01.08.197	-10256
▁16244700,	-10257
▁198803,0.	-10258
▁Андерлехт	-10259
▁Аррабиату	-10260
▁Банановый	-10261
▁Бинигнита	-10262
▁Бразильцы	-10263
▁Бронзовый	-10264
▁Вермишель	-10265
▁Вьетнамцы	-10266
▁Гринвилла	-10267
▁Джейкобом	-10268
▁Джонсоном	-10269
▁Испанском	-10270
▁Капитаном	-10271
▁Каталонию	-10272
▁Общежития	-10273
▁Провинции	-10274
▁Рамафосой	-10275
▁Резервным	-10276
▁Созданная	-10277
▁Считается	-10278
▁Фарерский	-10279
▁Франклина	-10280
▁Юношеской	-10281
▁англичане	-10282
▁вьетнамцы	-10283
▁добавлять	-10284
▁известном	-10285
▁известным	-10286
▁изготавли	-10287
▁изобретен	-10288
▁индийский	-10289
▁индийских	-10290
▁испанцами	-10291
▁картофель	-10292
▁кокосовой	-10293
▁корнского	-10294
▁кубанелле	-10295
▁найденных	-10296
▁операцион	-10297
▁подклассу	-10298
▁популярна	-10299
▁поступает	-10300
▁появилось	-10301
▁продуктов	-10302
▁протекает	-10303
▁рожденный	-10304
▁созданные	-10305
▁транслиру	-10306
▁французом	-10307
▁частности	-10308
Соединенные	-10309
Счастливчик	-10310
▁04.11.2013	-10311
▁27-06-2015	-10312
▁69862200,0	-10313
▁Аравийским	-10314
▁Баллистика	-10315
▁Британский	-10316
▁Каракатицы	-10317
▁Нарезанные	-10318
▁Теланганой	-10319
▁Телесериал	-10320
▁Хуфдклассе	-10321
▁администра	-10322
▁апоцентром	-10323
▁аспирантом	-10324
▁британский	-10325
▁бутерброда	-10326
▁вариациями	-10327
▁германской	-10328
▁докторанта	-10329
▁каракатицы	-10330
▁лидирующей	-10331
▁называемый	-10332
▁наибольшее	-10333
▁оператором	-10334
▁основанной	-10335
▁ответствен	-10336
▁отобранным	-10337
▁паслёновых	-10338
▁победители	-10339
▁получивший	-10340
▁пользуются	-10341
▁помидорами	-10342
▁появлением	-10343
▁сгущенного	-10344
▁сообщество	-10345
▁тренировал	-10346
▁утверждают	-10347
▁футбольных	-10348
▁штурмовики	-10349
Злакоцветные	-10350
историческая	-10351
историческое	-10352
первооткрыва	-10353
▁15.03.1932)	-10354
▁26.11.2005,	-10355
▁39447000,0,	-10356
▁7729430000,	-10357
▁Вымышленный	-10358
▁Лаборатория	-10359
▁Малазийские	-10360
▁Маркантонио	-10361
▁Построенная	-10362
▁Разговорный	-10363
▁Технический	-10364
▁Управляющей	-10365
▁Честерфилда	-10366
▁автономного	-10367
▁архитекторы	-10368
▁астронавтом	-10369
▁встречаются	-10370
▁выполненный	-10371
▁королевства	-10372
▁магистратом	-10373
▁назначенный	-10374
▁организации	-10375
▁относящийся	-10376
▁полуострове	-10377
▁посвященная	-10378
▁появившееся	-10379
▁предыдущими	-10380
▁присоединен	-10381
▁ремесленном	-10382
▁розоцветные	-10383
▁руководящей	-10384
▁телесериале	-10385
▁управлялась	-10386
▁управляющим	-10387
▁управляющую	-10388
▁участвовать	-10389
▁федеральным	-10390
▁фиолетового	-10391
▁являющегося	-10392
▁41498400000,	-10393
▁41498400000.	-10394
▁Американских	-10395
▁Колумбийское	-10396
▁Малайзийские	-10397
▁Транспортный	-10398
▁Филиппинский	-10399
▁Филиппинское	-10400
▁Хэрритстауне	-10401
▁георгианском	-10402
▁докторантами	-10403
▁изготовления	-10404
▁измельченная	-10405
▁используемые	-10406
▁историческое	-10407
▁историческом	-10408
▁колумбийском	-10409
▁магистратуру	-10410
▁мексиканское	-10411
▁национальном	-10412
▁обнаруженное	-10413
▁обнаруженной	-10414
▁общественных	-10415
▁обыкновенная	-10416
▁одновременно	-10417
▁осуществляет	-10418
▁производится	-10419
▁путешествует	-10420
▁руководитель	-10421
▁температурой	-10422
▁транспортным	-10423
▁транспортных	-10424
▁утверждается	-10425
▁филиппинский	-10426
▁численностью	-10427
▁279142000000.	-10428
▁8788850000,0.	-10429
▁Туркменистане	-10430
▁ассоциируется	-10431
▁изготовленный	-10432
▁магистратское	-10433
▁мексиканского	-10434
▁обслуживаемый	-10435
▁прикрепленный	-10436
▁происходящего	-10437
▁происхождению	-10438
▁разворачивают	-10439
▁соревновалась	-10440
▁специальности	-10441
▁транспортного	-10442
▁установленный	-10443
▁279142000000,0	-10444
▁349206000000,0	-10445
▁3997100000000,	-10446
▁416136000000,0	-10447
▁Паслёноцветных	-10448
▁аффилированный	-10449
▁использованием	-10450
▁разновидностей	-10451
▁283326000000,0,	-10452
▁Вестминстерский	-10453
▁Демократическая	-10454
▁Законодательный	-10455
▁Законодательным	-10456
▁изготавливается	-10457
"-	-10458
";	-10459
/>	-10460
CH	-10461
OB	-10462
Од	-10463
Эн	-10464
дс	-10465
зз	-10466
их	-10467
кк	-10468
лт	-10469
лё	-10470
щу	-10471
▁c	-10472
▁~	-10473
,00	-10474
-19	-10475
.".	-10476
02,	-10477
07)	-10478
123	-10479
4-2	-10480
467	-10481
603	-10482
96.	-10483
AEK	-10484
Big	-10485
STV	-10486
UAB	-10487
ack	-10488
als	-10489
dor	-10490
env	-10491
АСК	-10492
Аба	-10493
Ари	-10494
Гре	-10495
Дом	-10496
Инк	-10497
Ман	-10498
Нил	-10499
"),	-10500
27)	-10501
;",	-10502
Пла	-10503
Ром	-10504
Роу	-10505
Энн	-10506
асо	-10507
бав	-10508
бло	-10509
бру	-10510
был	-10511
веж	-10512
вум	-10513
едя	-10514
жды	-10515
жил	-10516
зна	-10517
име	-10518
иро	-10519
ича	-10520
йка	-10521
лис	-10522
льм	-10523
мэр	-10524
сел	-10525
сок	-10526
сум	-10527
так	-10528
уад	-10529
чет	-10530
чих	-10531
шёл	-10532
ями	-10533
яют	-10534
”),	-10535
▁"(	-10536
▁",	-10537
▁"8	-10538
▁2,	-10539
▁2-	-10540
▁5.	-10541
▁6.	-10542
▁Lu	-10543
▁Na	-10544
▁SJ	-10545
▁».	-10546
▁Ио	-10547
▁Ок	-10548
▁Ры	-10549
▁Хо	-10550
,136	-10551
,533	-10552
,66.	-10553
-26.	-10554
.07.	-10555
/32.	-10556
6,0.	-10557
dert	-10558
eviv	-10559
meer	-10560
Баль	-10561
Марк	-10562
Нила	-10563
Нола	-10564
Пасе	-10565
Рому	-10566
Швей	-10567
анре	-10568
ация	-10569
вумя	-10570
вуют	-10571
гина	-10572
гран	-10573
граф	-10574
демо	-10575
дете	-10576
дочь	-10577
дсга	-10578
емся	-10579
енри	-10580
ента	-10581
енты	-10582
етес	-10583
жним	-10584
жный	-10585
икаг	-10586
илио	-10587
итру	-10588
кель	-10589
ккер	-10590
линг	-10591
лсом	-10592
луги	-10593
лыми	-10594
мено	-10595
отби	-10596
полн	-10597
поря	-10598
рибы	-10599
▁<	-10600
Хар	-10601
пред	-10602
рите	-10603
садь	-10604
сион	-10605
скую	-10606
слен	-10607
стах	-10608
ступ	-10609
ущее	-10610
хоре	-10611
хоро	-10612
чает	-10613
чане	-10614
чены	-10615
чным	-10616
шели	-10617
штаб	-10618
ящая	-10619
ящих	-10620
▁11/	-10621
▁160	-10622
▁164	-10623
▁4/2	-10624
▁437	-10625
▁63.	-10626
▁AIT	-10627
▁HAL	-10628
▁LCH	-10629
▁The	-10630
▁АДО	-10631
▁Бак	-10632
▁ВМФ	-10633
▁Вто	-10634
▁Еда	-10635
▁Кло	-10636
▁Мёд	-10637
▁Нес	-10638
▁Обы	-10639
▁Рис	-10640
▁Свя	-10641
▁Фри	-10642
▁Эти	-10643
▁бое	-10644
▁вет	-10645
▁ему	-10646
▁лау	-10647
▁либ	-10648
▁опы	-10649
▁пит	-10650
▁руб	-10651
▁слу	-10652
▁спи	-10653
▁тек	-10654
▁тол	-10655
▁ухо	-10656
▁уче	-10657
▁фун	-10658
▁шоу	-10659
▁эту	-10660
-12-3	-10661
-130"	-10662
envel	-10663
Абади	-10664
Альян	-10665
Анбар	-10666
Арион	-10667
Арроз	-10668
Бейкв	-10669
Вигор	-10670
Плака	-10671
Серия	-10672
Школа	-10673
анный	-10674
асоль	-10675
барди	-10676
берал	-10677
более	-10678
варом	-10679
вежим	-10680
видно	-10681
возди	-10682
вящей	-10683
годня	-10684
дания	-10685
джера	-10686
довал	-10687
дущая	-10688
емпио	-10689
ерами	-10690
жнему	-10691
звищу	-10692
ззард	-10693
имеет	-10694
испан	-10695
касла	-10696
кером	-10697
класс	-10698
крата	-10699
круга	-10700
леных	-10701
лином	-10702
львар	-10703
масом	-10704
мация	-10705
метро	-10706
минут	-10707
олеса	-10708
пустя	-10709
разде	-10710
родом	-10711
рывал	-10712
селен	-10713
слиге	-10714
совых	-10715
ссолт	-10716
стоте	-10717
строй	-10718
стьях	-10719
тации	-10720
тонис	-10721
фильм	-10722
цария	-10723
церты	-10724
чанин	-10725
чески	-10726
щения	-10727
▁000.	-10728
▁07".	-10729
▁12".	-10730
▁1967	-10731
▁2743	-10732
▁28,0	-10733
▁3300	-10734
▁8002	-10735
▁990.	-10736
▁Aals	-10737
▁Buit	-10738
▁UTAA	-10739
▁Адми	-10740
▁Алла	-10741
▁Ауды	-10742
▁Бани	-10743
▁Грен	-10744
▁Дилт	-10745
▁Жера	-10746
▁Кеви	-10747
▁Крас	-10748
▁ЛАСК	-10749
▁Лиги	-10750
▁Лока	-10751
▁Лэрд	-10752
▁Мона	-10753
▁Пите	-10754
▁Поле	-10755
▁Рабо	-10756
▁Смот	-10757
▁Фарш	-10758
▁Фуад	-10759
▁Фунт	-10760
▁Шуте	-10761
▁безе	-10762
▁вида	-10763
▁вице	-10764
▁выпу	-10765
▁деле	-10766
▁длин	-10767
▁дочь	-10768
▁заку	-10769
▁игры	-10770
▁изоб	-10771
▁квай	-10772
▁олив	-10773
▁отби	-10774
▁села	-10775
▁слав	-10776
▁сожа	-10777
▁сыра	-10778
▁торт	-10779
▁учит	-10780
▁чего	-10781
▁чича	-10782
▁широ	-10783
▁ябло	-10784
000.0.	-10785
evival	-10786
iensis	-10787
Астери	-10788
Барроу	-10789
Греция	-10790
Дейлсе	-10791
Индоне	-10792
Инкпот	-10793
Харбор	-10794
Шамале	-10795
анином	-10796
анской	-10797
грамма	-10798
динезе	-10799
дрихом	-10800
ератор	-10801
жались	-10802
жипана	-10803
инском	-10804
кельви	-10805
ладкий	-10806
летная	-10807
льному	-10808
меняют	-10809
нгапур	-10810
нского	-10811
пичная	-10812
ригина	-10813
сионер	-10814
тивным	-10815
щается	-10816
ющейся	-10817
ющиеся	-10818
ющихся	-10819
ящиеся	-10820
▁04/22	-10821
▁09/27	-10822
▁1,533	-10823
▁1,982	-10824
▁12467	-10825
▁13/31	-10826
▁13123	-10827
▁154,0	-10828
▁156,0	-10829
▁164,0	-10830
▁17,99	-10831
▁179,0	-10832
▁18,44	-10833
▁1963.	-10834
▁258,0	-10835
▁3,990	-10836
▁3310.	-10837
▁362,0	-10838
▁4000.	-10839
▁4019.	-10840
▁600,0	-10841
▁7,66.	-10842
▁900,0	-10843
▁911,0	-10844
▁Black	-10845
▁Tudor	-10846
▁Акиты	-10847
▁Андру	-10848
▁Бетес	-10849
▁Бином	-10850
▁Генри	-10851
▁Двумя	-10852
▁Дензи	-10853
▁Илоки	-10854
▁Иоган	-10855
▁Кровя	-10856
▁Латук	-10857
▁Ливии	-10858
▁Максу	-10859
▁Масум	-10860
▁Милио	-10861
▁Награ	-10862
▁Оллан	-10863
▁Пауло	-10864
▁Рамом	-10865
▁Родом	-10866
▁Торты	-10867
▁Школу	-10868
▁Южная	-10869
▁верми	-10870
▁верси	-10871
▁всего	-10872
▁выйти	-10873
▁главы	-10874
▁грибы	-10875
▁жанре	-10876
▁значи	-10877
▁интер	-10878
▁класс	-10879
▁любит	-10880
▁между	-10881
▁мертв	-10882
▁панир	-10883
▁перца	-10884
▁площа	-10885
▁попро	-10886
▁поста	-10887
▁похож	-10888
▁рупию	-10889
▁самом	-10890
▁самым	-10891
▁связь	-10892
▁сдела	-10893
▁состя	-10894
▁такой	-10895
▁тесно	-10896
▁уезде	-10897
▁чикаг	-10898
▁эфире	-10899
Альянса	-10900
Бальдер	-10901
Бионико	-10902
Прадеше	-10903
Цвиккау	-10904
вариант	-10905
вестный	-10906
вляемый	-10907
дернист	-10908
дителем	-10909
дсгаард	-10910
ерковью	-10911
кратами	-10912
лидером	-10913
логовор	-10914
сконное	-10915
спользу	-10916
таланту	-10917
ходящий	-10918
хороним	-10919
царским	-10920
ционным	-10921
чевидно	-10922
▁07/25.	-10923
▁12/30.	-10924
▁13/31,	-10925
▁14.07.	-10926
▁14/32.	-10927
▁142603	-10928
▁1533,0	-10929
▁1800,0	-10930
▁184434	-10931
▁1873,0	-10932
▁1918".	-10933
▁2194,0	-10934
▁2744,0	-10935
▁3048,0	-10936
▁374976	-10937
▁3800,0	-10938
▁3990,0	-10939
▁4000,0	-10940
▁877,0.	-10941
▁Альбер	-10942
▁Ариона	-10943
▁Ассолт	-10944
▁Бататы	-10945
▁Бывший	-10946
▁Ваккер	-10947
▁Вторая	-10948
▁Джоржд	-10949
▁Истмен	-10950
▁Колуин	-10951
▁Лахоре	-10952
▁Лидеры	-10953
▁Лэрдом	-10954
▁Маклох	-10955
▁Марком	-10956
▁Миссия	-10957
▁Неором	-10958
▁Персеи	-10959
▁Регион	-10960
▁Северо	-10961
▁Служил	-10962
▁Стадио	-10963
▁Теперь	-10964
▁Турцию	-10965
▁Уортон	-10966
▁Фасоль	-10967
▁Филиал	-10968
▁Хайдер	-10969
▁Чемпио	-10970
▁Чёрная	-10971
▁Школой	-10972
▁Эйприл	-10973
▁Якобом	-10974
▁арабов	-10975
▁битума	-10976
▁близле	-10977
▁важные	-10978
▁важных	-10979
▁вблизи	-10980
▁власть	-10981
▁гвозди	-10982
▁говяжь	-10983
▁горной	-10984
▁душицу	-10985
▁заняти	-10986
▁клубов	-10987
▁кунжут	-10988
▁кухней	-10989
▁листах	-10990
▁многие	-10991
▁област	-10992
▁орбите	-10993
▁острым	-10994
▁паблик	-10995
▁пакора	-10996
▁паслен	-10997
▁первую	-10998
▁пирата	-10999
▁полосе	-11000
▁помощи	-11001
▁породы	-11002
▁постмо	-11003
▁правят	-11004
▁припра	-11005
▁пришла	-11006
▁прочих	-11007
▁развер	-11008
▁руково	-11009
▁свежим	-11010
▁свиную	-11011
▁служит	-11012
▁спустя	-11013
▁такими	-11014
▁устрич	-11015
▁фигури	-11016
▁хребет	-11017
▁частей	-11018
▁эксплу	-11019
.03.1983	-11020
000000.0	-11021
7000823"	-11022
dertbaan	-11023
meerbaan	-11024
Бейквелл	-11025
Мэриленд	-11026
бардиров	-11027
беконном	-11028
графства	-11029
ельдерея	-11030
зербайдж	-11031
зиденция	-11032
зованной	-11033
испански	-11034
квартиры	-11035
компания	-11036
младшего	-11037
персонаж	-11038
прежнему	-11039
разновид	-11040
рующаяся	-11041
солютная	-11042
стотелес	-11043
цветущее	-11044
штурмови	-11045
этажного	-11046
▁1873,0.	-11047
▁1982,0.	-11048
▁2003,0.	-11049
▁2194,0.	-11050
▁2195,0.	-11051
▁3090,0.	-11052
▁3310,0,	-11053
▁3400,0.	-11054
▁39599,0	-11055
▁416,136	-11056
▁9953.28	-11057
▁Revival	-11058
▁Антонис	-11059
▁Базилик	-11060
▁Бейквел	-11061
▁Бульвар	-11062
▁Виласом	-11063
▁Виченцу	-11064
▁Второго	-11065
▁Вуцисом	-11066
▁Государ	-11067
▁Деканом	-11068
▁Демоним	-11069
▁Жераром	-11070
▁Игороты	-11071
▁Йоханни	-11072
▁Красный	-11073
▁Максима	-11074
▁Мёдлинг	-11075
▁Насчиты	-11076
▁Никосом	-11077
▁Нортбру	-11078
▁Окленде	-11079
▁Питером	-11080
▁Политик	-11081
▁Получил	-11082
▁Рейтинг	-11083
▁Саммита	-11084
▁Свобода	-11085
▁Страной	-11086
▁Томасом	-11087
▁Уэллсом	-11088
▁Францию	-11089
▁Хаззард	-11090
▁Эверетт	-11091
▁Эйприла	-11092
▁Энхоорн	-11093
▁Ювентус	-11094
▁Юрисдик	-11095
▁автором	-11096
▁аррабиа	-11097
▁бататом	-11098
▁бульвар	-11099
▁бульона	-11100
▁включен	-11101
▁властью	-11102
▁выигран	-11103
▁вяленую	-11104
▁горячем	-11105
▁датским	-11106
▁датском	-11107
▁закончи	-11108
▁застрой	-11109
▁кампусе	-11110
▁капусты	-11111
▁команду	-11112
▁листьях	-11113
▁миссией	-11114
▁морожен	-11115
▁мясного	-11116
▁наимено	-11117
▁найдены	-11118
▁найдете	-11119
▁нанятым	-11120
▁обжатая	-11121
▁однажды	-11122
▁орегано	-11123
▁отметку	-11124
▁пеньета	-11125
▁питания	-11126
▁планета	-11127
▁показал	-11128
▁порядке	-11129
▁прежним	-11130
▁прошлым	-11131
▁ремёсел	-11132
▁рисовой	-11133
▁ротации	-11134
▁рутовых	-11135
▁создано	-11136
▁соленых	-11137
▁справоч	-11138
▁страной	-11139
▁торжест	-11140
▁участия	-11141
▁фильмом	-11142
▁центром	-11143
▁чичарон	-11144
▁яблоком	-11145
▁яванцев	-11146
▁языками	-11147
Deșteaptă	-11148
Вторжение	-11149
Железного	-11150
Президент	-11151
Швейцария	-11152
беральные	-11153
демократы	-11154
еральными	-11155
правления	-11156
▁120770,0	-11157
▁33012,0.	-11158
▁37116,0.	-11159
▁374976,0	-11160
▁47487,6.	-11161
▁85466,9.	-11162
▁National	-11163
▁Альваром	-11164
▁Ашхабада	-11165
▁Буссемой	-11166
▁Вкусовые	-11167
▁Генрихом	-11168
▁Джайлсом	-11169
▁Домашний	-11170
▁Кендалле	-11171
▁Китайцев	-11172
▁Клейтона	-11173
▁Концерты	-11174
▁Корнском	-11175
▁Кровяная	-11176
▁Лавровых	-11177
▁Лондоном	-11178
▁Магдебур	-11179
▁Манстера	-11180
▁Мексикан	-11181
▁Милионис	-11182
▁Петерсом	-11183
▁Пикардом	-11184
▁Сандовал	-11185
▁Смотрите	-11186
▁Талисман	-11187
▁Филиппом	-11188
▁Фландрии	-11189
▁Фландрия	-11190
▁Хайберцу	-11191
▁Ципрасом	-11192
▁Чилтоном	-11193
▁Экология	-11194
▁варианте	-11195
▁вертолет	-11196
▁вкусовые	-11197
▁возвышен	-11198
▁возникли	-11199
▁входящей	-11200
▁входящую	-11201
▁вымышлен	-11202
▁градусов	-11203
▁грудинку	-11204
▁дизайнер	-11205
▁длящийся	-11206
▁домашнее	-11207
▁жителями	-11208
▁запасным	-11209
▁зернёный	-11210
▁знаменит	-11211
▁клубнику	-11212
▁кудрявой	-11213
▁монархия	-11214
▁обладает	-11215
▁открытие	-11216
▁подаются	-11217
▁показала	-11218
▁портовое	-11219
▁похожего	-11220
▁придуман	-11221
▁прозвищу	-11222
▁прошлыми	-11223
▁размещен	-11224
▁сингапур	-11225
▁славится	-11226
▁строения	-11227
▁сэндвичи	-11228
▁типичной	-11229
▁толченая	-11230
▁турецкий	-11231
▁турецким	-11232
▁управляя	-11233
▁формация	-11234
Фиорентины	-11235
британский	-11236
надлежащий	-11237
нептуновый	-11238
посадочных	-11239
содержащий	-11240
штурмовики	-11241
▁16244700.	-11242
▁2006-12-3	-11243
▁488160,0,	-11244
▁69862200,	-11245
▁Buitenvel	-11246
▁Deșteaptă	-11247
▁Алексисом	-11248
▁Аррабиаты	-11249
▁Ауреолеса	-11250
▁Балкришна	-11251
▁Бенджамин	-11252
▁Награжден	-11253
▁Нортмором	-11254
▁Программа	-11255
▁Рожденный	-11256
▁Румынские	-11257
▁Теланганы	-11258
▁Франжипан	-11259
▁Фридрихом	-11260
▁Шнайдером	-11261
▁Эвереттом	-11262
▁Этнически	-11263
▁Эфиопский	-11264
▁авиабазой	-11265
▁академией	-11266
▁астронавт	-11267
▁беконного	-11268
▁вермишели	-11269
▁вовлечены	-11270
▁выбранный	-11271
▁выигрывал	-11272
▁выполнено	-11273
▁выполнены	-11274
▁действует	-11275
▁директора	-11276
▁известную	-11277
▁индийском	-11278
▁институту	-11279
▁испанской	-11280
▁используя	-11281
▁канадским	-11282
▁килограмм	-11283
▁китайский	-11284
▁корейской	-11285
▁менеджера	-11286
▁найденный	-11287
▁некоторые	-11288
▁необходим	-11289
▁оливковым	-11290
▁операторы	-11291
▁открытого	-11292
▁перевозят	-11293
▁политиком	-11294
▁последней	-11295
▁последняя	-11296
▁применяют	-11297
▁произошло	-11298
▁связанный	-11299
▁сделанная	-11300
▁сделанной	-11301
▁сельдерея	-11302
▁сенатором	-11303
▁служивший	-11304
▁сожалению	-11305
▁созданной	-11306
▁созданном	-11307
▁соседству	-11308
▁сражались	-11309
▁ссылочный	-11310
▁стоимость	-11311
▁сэндвичей	-11312
▁управляла	-11313
▁участвуют	-11314
▁фарерский	-11315
▁ценностей	-11316
▁чемпионат	-11317
▁эксплуата	-11318
Однодольные	-11319
Олимпийский	-11320
Профессиона	-11321
готовленный	-11322
жественного	-11323
удивительно	-11324
▁"87000823"	-11325
▁10.03.1983	-11326
▁20.01.1930	-11327
▁Абсолютная	-11328
▁Амстердаме	-11329
▁Англичанин	-11330
▁Аэропортом	-11331
▁Бундеслиге	-11332
▁Бундсгаард	-11333
▁Виртаненом	-11334
▁Горриганом	-11335
▁Директором	-11336
▁Ирландский	-11337
▁Лидирующая	-11338
▁Основанный	-11339
▁Популярный	-11340
▁Предыдущие	-11341
▁Префектура	-11342
▁Резиденция	-11343
▁Республику	-11344
▁Установлен	-11345
▁Филиппинцы	-11346
▁Фредериком	-11347
▁Якобинском	-11348
▁арахисовым	-11349
▁бакалавром	-11350
▁британцами	-11351
▁включающий	-11352
▁достижений	-11353
▁инженерный	-11354
▁институтом	-11355
▁испытатель	-11356
▁источником	-11357
▁количество	-11358
▁мексиканцы	-11359
▁нарезанную	-11360
▁нарезанных	-11361
▁населенный	-11362
▁нахождения	-11363
▁нескольких	-11364
▁периапсиды	-11365
▁персонажем	-11366
▁предыдущим	-11367
▁проводятся	-11368
▁работавший	-11369
▁республика	-11370
▁республики	-11371
▁сливочного	-11372
▁справочным	-11373
▁талисманом	-11374
▁урожденный	-11375
▁фиолетовый	-11376
▁франжипана	-11377
▁этническим	-11378
▁являющейся	-11379
аббревиатура	-11380
▁01.08.1974.	-11381
▁11.07.1907,	-11382
▁17.10.1933)	-11383
▁2005-11-26.	-11384
▁2015.06.27,	-11385
▁23.07.1927)	-11386
▁28.02.1966.	-11387
▁31.12.2006,	-11388
▁Андалусской	-11389
▁Аристотелес	-11390
▁Архитектура	-11391
▁Веллингтоне	-11392
▁Департамент	-11393
▁Локационный	-11394
▁Основателем	-11395
▁Официальные	-11396
▁Предыдущими	-11397
▁Семинарский	-11398
▁Тюдоровском	-11399
▁Управляемый	-11400
▁Управляющая	-11401
▁Фламандским	-11402
▁Швейцарским	-11403
▁американцев	-11404
▁арендаторов	-11405
▁архитектуру	-11406
▁бомбардиров	-11407
▁демократами	-11408
▁добавляется	-11409
▁завершенное	-11410
▁завершенной	-11411
▁конференция	-11412
▁малазийское	-11413
▁минангкабау	-11414
▁оперативной	-11415
▁перицентром	-11416
▁посвященное	-11417
▁представлен	-11418
▁проведенное	-11419
▁провинциаль	-11420
▁соревнуются	-11421
▁состязается	-11422
▁управляемый	-11423
▁устоявшаяся	-11424
▁участниками	-11425
▁чемпионской	-11426
▁этнохороним	-11427
▁юрисдикцией	-11428
обслуживающий	-11429
разновидность	-11430
расположенный	-11431
роамериканцев	-11432
▁183309000,0,	-11433
▁288749000000	-11434
▁34920600000,	-11435
▁Aalsmeerbaan	-11436
▁Aarhusiensis	-11437
▁Авиакомпания	-11438
▁Георгианский	-11439
▁Государствен	-11440
▁Гренландский	-11441
▁Камберлендом	-11442
▁Максимальная	-11443
▁Общественных	-11444
▁Прабхукумара	-11445
▁Председатель	-11446
▁Происходящий	-11447
▁Фламандского	-11448
▁альтернативы	-11449
▁англичанином	-11450
▁базирующаяся	-11451
▁вымышленного	-11452
▁департамента	-11453
▁истребителем	-11454
▁колумбийским	-11455
▁либеральными	-11456
▁наименование	-11457
▁находящегося	-11458
▁национальная	-11459
▁обыкновенную	-11460
▁поверхностью	-11461
▁политическим	-11462
▁построенного	-11463
▁руководители	-11464
▁соревновании	-11465
▁торжественно	-11466
▁традиционных	-11467
▁7729430000,0,	-11468
▁Международным	-11469
▁Установленный	-11470
▁Харлеммермере	-11471
▁архитектурным	-11472
▁базирующегося	-11473
▁возглавляемом	-11474
▁возглавляющий	-11475
▁индонезийским	-11476
▁исторического	-11477
▁корнуолльском	-11478
▁обслуживаются	-11479
▁ответственным	-11480
▁постмодернист	-11481
▁располагаются	-11482
▁расположением	-11483
▁собственником	-11484
▁Антверпенского	-11485
▁Интернационале	-11486
▁Консервативной	-11487
▁архитектурного	-11488
▁возглавляемого	-11489
▁встречающегося	-11490
▁муниципалитета	-11491
▁национальность	-11492
▁организованной	-11493
▁приготовленное	-11494
▁торжественного	-11495
первооткрыватель	-11496
▁184434000000,0.	-11497
▁279142000000,0,	-11498
▁416136000000,0,	-11499
▁Джаяварденепура	-11500
▁Эксплуатирующей	-11501
▁местонахождение	-11502
▁регистрационный	-11503
4"	-11504
56	-11505
рд	-11506
!».	-11507
,12	-11508
-04	-11509
-26	-11510
-8.	-11511
/>.	-11512
01.	-11513
21,	-11514
21.	-11515
APN	-11516
MIT	-11517
acy	-11518
arn	-11519
att	-11520
chn	-11521
efi	-11522
eld	-11523
llo	-11524
nti	-11525
orn	-11526
Вир	-11527
Воз	-11528
Кел	-11529
Лин	-11530
Мэй	-11531
бят	-11532
вию	-11533
вух	-11534
дол	-11535
еку	-11536
емы	-11537
жая	-11538
жеб	-11539
зию	-11540
лаф	-11541
пча	-11542
цей	-11543
цок	-11544
что	-11545
щем	-11546
▁Ca	-11547
▁ВБ	-11548
▁Ик	-11549
▁ес	-11550
▁чт	-11551
▁шо	-11552
,343	-11553
,718	-11554
-01.	-11555
-200	-11556
-4-2	-11557
.12,	-11558
.14.	-11559
/21,	-11560
1928	-11561
2,9.	-11562
971.	-11563
attl	-11564
echn	-11565
ical	-11566
mezz	-11567
mpus	-11568
orno	-11569
Ашер	-11570
Боль	-11571
Запа	-11572
Линк	-11573
амбо	-11574
ание	-11575
арус	-11576
бала	-11577
граж	-11578
дарт	-11579
дчик	-11580
ейна	-11581
ейпл	-11582
ждён	-11583
жима	-11584
илла	-11585
ионе	-11586
локи	-11587
льчо	-11588
манн	-11589
нале	-11590
нено	-11591
нией	-11592
ники	-11593
онти	-11594
раме	-11595
риса	-11596
чиня	-11597
чный	-11598
чшен	-11599
!"	-11600
":	-11601
4)	-11602
;"	-11603
ie	-11604
РБ	-11605
)”)	-11606
4".	-11607
дах	-11608
дру	-11609
ело	-11610
еты	-11611
кам	-11612
кви	-11613
лит	-11614
лях	-11615
хис	-11616
ыми	-11617
▁BL	-11618
▁ая	-11619
Зелл	-11620
веду	-11621
итая	-11622
лине	-11623
теле	-11624
шает	-11625
шеля	-11626
ярод	-11627
▁"03	-11628
▁"14	-11629
▁(17	-11630
▁0,9	-11631
▁07,	-11632
▁1.1	-11633
▁16,	-11634
▁165	-11635
▁238	-11636
▁28-	-11637
▁447	-11638
▁6,7	-11639
▁60-	-11640
▁850	-11641
▁997	-11642
▁ATA	-11643
▁BLT	-11644
▁Liv	-11645
▁MAT	-11646
▁Док	-11647
▁Лук	-11648
▁Най	-11649
▁Нар	-11650
▁Пра	-11651
▁бои	-11652
▁дав	-11653
▁мёд	-11654
▁ряд	-11655
▁сем	-11656
▁тел	-11657
▁тес	-11658
▁три	-11659
▁фиг	-11660
▁чёр	-11661
▁эго	-11662
-2007	-11663
-2014	-11664
07/19	-11665
2004.	-11666
92000	-11667
night	-11668
ntina	-11669
ocacy	-11670
pollo	-11671
Агила	-11672
Аурак	-11673
Баксо	-11674
Ларри	-11675
Левые	-11676
Матер	-11677
Паслё	-11678
Сейнт	-11679
ангом	-11680
бенок	-11681
бовью	-11682
бурге	-11683
давно	-11684
давят	-11685
джина	-11686
джлис	-11687
диове	-11688
доном	-11689
ельно	-11690
еркви	-11691
запад	-11692
йтинг	-11693
ковый	-11694
ковых	-11695
когда	-11696
крест	-11697
лажда	-11698
литый	-11699
"–	-11700
01	-11701
5"	-11702
GA	-11703
Он	-11704
39,	-11705
соб	-11706
▁AK	-11707
▁СС	-11708
195.	-11709
геса	-11710
емля	-11711
ляют	-11712
нину	-11713
писа	-11714
реат	-11715
сное	-11716
тицу	-11717
ущие	-11718
чном	-11719
▁AKA	-11720
бачой	-11721
грали	-11722
декан	-11723
камен	-11724
ковое	-11725
личес	-11726
лубой	-11727
мером	-11728
мотря	-11729
нанас	-11730
нварь	-11731
ниона	-11732
одним	-11733
парте	-11734
птица	-11735
район	-11736
ратко	-11737
рейцы	-11738
скопа	-11739
стати	-11740
ствии	-11741
стеса	-11742
стырь	-11743
стями	-11744
техас	-11745
транс	-11746
турой	-11747
удсом	-11748
уэлем	-11749
щимся	-11750
ющими	-11751
▁03",	-11752
▁1,12	-11753
▁1027	-11754
▁130.	-11755
▁3/21	-11756
▁349.	-11757
▁3933	-11758
▁43,0	-11759
▁896.	-11760
▁9,7.	-11761
▁Dane	-11762
▁Whit	-11763
▁Аора	-11764
▁Взры	-11765
▁Вудс	-11766
▁День	-11767
▁Димм	-11768
▁Души	-11769
▁Дэна	-11770
▁Запа	-11771
▁Наря	-11772
▁аяма	-11773
▁бобы	-11774
▁если	-11775
▁жизн	-11776
▁имея	-11777
▁лату	-11778
▁лука	-11779
▁млрд	-11780
▁обоз	-11781
▁спре	-11782
▁срав	-11783
▁став	-11784
▁трех	-11785
▁уйти	-11786
▁ушёл	-11787
▁факт	-11788
▁фана	-11789
-11-04	-11790
-130".	-11791
-1971.	-11792
agbaan	-11793
efield	-11794
Виртус	-11795
Вудсом	-11796
Дейлса	-11797
Дроэде	-11798
Манхэт	-11799
ДЛ	-11800
Ка	-11801
▁s	-11802
Бай	-11803
дал	-11804
как	-11805
отя	-11806
пив	-11807
рот	-11808
ска	-11809
тра	-11810
▁te	-11811
▁Бе	-11812
▁ша	-11813
гает	-11814
даря	-11815
дной	-11816
лько	-11817
наль	-11818
стом	-11819
тоге	-11820
туры	-11821
шний	-11822
ыгра	-11823
▁ПДЛ	-11824
▁Сле	-11825
▁вам	-11826
▁учи	-11827
Байма	-11828
асана	-11829
моном	-11830
повое	-11831
равоч	-11832
разве	-11833
форма	-11834
▁2007	-11835
▁Безе	-11836
▁Лига	-11837
▁Роем	-11838
▁Хотя	-11839
▁стан	-11840
▁цене	-11841
▁чтит	-11842
Мэйсон	-11843
Паблик	-11844
Хараме	-11845
Эмполи	-11846
амбоан	-11847
апиндо	-11848
аренье	-11849
бавный	-11850
вавшим	-11851
ваться	-11852
вающая	-11853
ведует	-11854
вейцар	-11855
вечает	-11856
визион	-11857
вшейся	-11858
вшемся	-11859
дежная	-11860
дингом	-11861
должил	-11862
ериала	-11863
жебную	-11864
зована	-11865
иллари	-11866
колада	-11867
кончив	-11868
крытие	-11869
ландцы	-11870
лафлин	-11871
лидеры	-11872
льская	-11873
маффин	-11874
милодо	-11875
минера	-11876
минуты	-11877
мового	-11878
потреб	-11879
родины	-11880
садьбы	-11881
сжатая	-11882
смичес	-11883
ческие	-11884
чённая	-11885
ыграла	-11886
▁"1928	-11887
▁"1968	-11888
▁01-07	-11889
▁1121,	-11890
▁1121.	-11891
▁1411,	-11892
▁1533.	-11893
▁16,37	-11894
▁17,92	-11895
▁1818.	-11896
▁1957.	-11897
▁1962.	-11898
▁1969.	-11899
-10	-11900
15.	-11901
500	-11902
код	-11903
▁"2	-11904
▁Ле	-11905
били	-11906
кана	-11907
лета	-11908
мона	-11909
тери	-11910
▁7,0	-11911
▁кле	-11912
▁нам	-11913
наход	-11914
сервы	-11915
стона	-11916
южная	-11917
▁Ауде	-11918
▁Боре	-11919
▁Лира	-11920
▁Теле	-11921
▁двух	-11922
вавший	-11923
дивший	-11924
другое	-11925
лучшен	-11926
пчатый	-11927
сподин	-11928
стовой	-11929
тивные	-11930
▁"2000	-11931
▁2/20.	-11932
▁211,0	-11933
▁2194.	-11934
▁2195,	-11935
▁2195.	-11936
▁22.1.	-11937
▁2702,	-11938
▁2744.	-11939
▁2776.	-11940
▁3/21.	-11941
▁4/22.	-11942
▁4349.	-11943
▁500,0	-11944
▁518,0	-11945
▁7/25.	-11946
▁733,0	-11947
▁8002.	-11948
▁9001.	-11949
▁Альба	-11950
▁Андре	-11951
▁Взрыв	-11952
▁Витал	-11953
▁Дейлс	-11954
▁Земля	-11955
▁Зонти	-11956
▁Иколо	-11957
▁Кевин	-11958
▁Когда	-11959
▁Кувай	-11960
▁Ливию	-11961
▁Мейпл	-11962
▁Милли	-11963
▁Мосту	-11964
▁Отеле	-11965
▁Париж	-11966
▁Пейна	-11967
▁Перед	-11968
▁Район	-11969
▁Рецеп	-11970
▁Слеем	-11971
▁Смило	-11972
▁Стюар	-11973
▁Таном	-11974
▁Хогао	-11975
▁автор	-11976
▁актер	-11977
▁актив	-11978
▁арене	-11979
▁белым	-11980
▁белых	-11981
▁больш	-11982
▁войны	-11983
▁вошел	-11984
▁выбра	-11985
▁герой	-11986
▁джема	-11987
▁други	-11988
▁жизнь	-11989
▁задей	-11990
▁запом	-11991
▁звали	-11992
▁знают	-11993
▁илоки	-11994
▁имена	-11995
▁итоге	-11996
▁ленту	-11997
▁ленты	-11998
▁любят	-11999
.5	-12000
!",	-12001
-8,	-12002
тую	-12003
чке	-12004
эйв	-12005
▁("	-12006
,592	-12007
iore	-12008
нули	-12009
рели	-12010
сена	-12011
тому	-12012
▁154	-12013
▁7.5	-12014
▁Мэр	-12015
▁Так	-12016
▁Эли	-12017
▁кур	-12018
▁тур	-12019
Ланку	-12020
ворит	-12021
жения	-12022
кущим	-12023
чиком	-12024
▁108"	-12025
▁200"	-12026
▁929.	-12027
▁Buzz	-12028
▁Дэйв	-12029
▁Рози	-12030
▁воды	-12031
▁живу	-12032
▁кино	-12033
▁отме	-12034
▁разы	-12035
▁реке	-12036
▁теле	-12037
11,592	-12038
держит	-12039
душная	-12040
▁2014-	-12041
▁2439,	-12042
▁2900.	-12043
▁Battl	-12044
▁Fiore	-12045
▁Мэром	-12046
▁вышла	-12047
▁измер	-12048
▁испол	-12049
▁кодом	-12050
▁можем	-12051
▁обоих	-12052
▁орхус	-12053
▁отбор	-12054
▁пищей	-12055
▁прише	-12056
▁равно	-12057
▁рисом	-12058
▁розид	-12059
▁ролях	-12060
▁самоу	-12061
▁слово	-12062
▁совер	-12063
▁стало	-12064
▁супом	-12065
▁типом	-12066
▁тогда	-12067
▁укроп	-12068
▁учебы	-12069
▁фигур	-12070
▁фунты	-12071
▁ходил	-12072
▁цитру	-12073
▁честь	-12074
▁шоссе	-12075
▁языки	-12076
Astérix	-12077
General	-12078
aagbaan	-12079
Амманна	-12080
Ашертон	-12081
Баймакс	-12082
Большой	-12083
Джаярод	-12084
Кастров	-12085
Лейпциг	-12086
бакалав	-12087
банские	-12088
варенье	-12089
выжатая	-12090
дартном	-12091
емпшира	-12092
енепура	-12093
еренгой	-12094
зидента	-12095
зийских	-12096
имостью	-12097
итайски	-12098
итальян	-12099
Ку	-12100
Кук	-12101
Нью	-12102
▁06	-12103
▁Им	-12104
дней	-12105
елий	-12106
икам	-12107
тным	-12108
умер	-12109
эрия	-12110
▁63,	-12111
▁Имп	-12112
▁нес	-12113
Techn	-12114
Риджа	-12115
берна	-12116
кипаж	-12117
ляция	-12118
мерно	-12119
откры	-12120
▁06/2	-12121
▁250.	-12122
▁Баки	-12123
▁одни	-12124
▁одну	-12125
▁тома	-12126
военно	-12127
данный	-12128
▁3300.	-12129
▁Баджи	-12130
▁Белый	-12131
▁Интер	-12132
▁Хэрия	-12133
▁кухне	-12134
▁устро	-12135
000000,	-12136
Родился	-12137
которых	-12138
менитая	-12139
плением	-12140
поненты	-12141
портный	-12142
предыду	-12143
рования	-12144
сконсин	-12145
справоч	-12146
стоянии	-12147
тически	-12148
язычный	-12149
▁"1-4-2	-12150
▁0,0455	-12151
▁07/25,	-12152
▁1,121,	-12153
▁1,982,	-12154
▁11/39,	-12155
▁1510,0	-12156
▁16/34.	-12157
▁17.28.	-12158
▁1773,0	-12159
▁1918",	-12160
▁2,195.	-12161
▁2900,0	-12162
▁3310,0	-12163
▁3453,0	-12164
▁4100,0	-12165
▁441092	-12166
▁929,0.	-12167
▁Apollo	-12168
▁Campus	-12169
▁Knight	-12170
▁Lumezz	-12171
▁Verona	-12172
▁Агреми	-12173
▁Адмира	-12174
▁Аллама	-12175
▁Алпине	-12176
▁Альвар	-12177
▁Альфон	-12178
▁Амарус	-12179
▁Амманн	-12180
▁Анкаре	-12181
▁Анкары	-12182
▁Афелий	-12183
▁Бориса	-12184
▁Будучи	-12185
▁Важный	-12186
▁Возгла	-12187
▁Грэмом	-12188
▁Деньги	-12189
▁Дроэда	-12190
▁Дроэде	-12191
▁Другой	-12192
▁Душица	-12193
▁Звание	-12194
▁Икбала	-12195
▁Иоганн	-12196
▁Кальчо	-12197
▁Кералу	-12198
▁Клодом	-12199
8.	-12200
▁"-	-12201
▁8,	-12202
▁BS	-12203
-11»	-12204
аной	-12205
вила	-12206
ящем	-12207
▁12"	-12208
▁171	-12209
▁715	-12210
▁788	-12211
▁Код	-12212
▁сих	-12213
▁сою	-12214
алере	-12215
бован	-12216
▁Моло	-12217
▁Тами	-12218
▁ирак	-12219
▁начи	-12220
▁ранг	-12221
бовать	-12222
бывает	-12223
ганиза	-12224
занный	-12225
ландию	-12226
лдасом	-12227
▁Голос	-12228
▁Малая	-12229
▁благо	-12230
▁динар	-12231
▁летал	-12232
▁любой	-12233
▁пират	-12234
▁ранга	-12235
▁стату	-12236
▁течет	-12237
▁факты	-12238
морсиль	-12239
▁1,121.	-12240
▁Крисом	-12241
▁Курицу	-12242
▁Малату	-12243
▁Минима	-12244
▁Митчел	-12245
▁Мишеля	-12246
▁Наряду	-12247
▁Обычно	-12248
▁Однако	-12249
▁Округа	-12250
▁Пакора	-12251
▁Пакору	-12252
▁Память	-12253
▁Петера	-12254
▁Покров	-12255
▁Полный	-12256
▁Работа	-12257
▁Ратуше	-12258
▁Ратушу	-12259
▁Родное	-12260
▁Рыцарь	-12261
▁Сирила	-12262
▁Спарте	-12263
▁Униона	-12264
▁Церкви	-12265
▁Числен	-12266
▁Экипаж	-12267
▁Эмполи	-12268
▁Юсуфом	-12269
▁Январь	-12270
▁альтер	-12271
▁ананас	-12272
▁апогей	-12273
▁банана	-12274
▁бататы	-12275
▁блюдах	-12276
▁больше	-12277
▁будучи	-12278
▁важная	-12279
▁валюту	-12280
▁вкусом	-12281
▁возвед	-12282
▁воздуш	-12283
▁втором	-12284
▁горное	-12285
▁градус	-12286
▁данное	-12287
▁делает	-12288
▁деньги	-12289
▁дизайн	-12290
▁длится	-12291
▁дополн	-12292
▁доступ	-12293
▁другой	-12294
▁душица	-12295
▁играть	-12296
▁измеря	-12297
▁имбиря	-12298
▁именно	-12299
▁103;	-12300
▁стили	-12301
вляемая	-12302
▁ископа	-12303
▁испано	-12304
▁кальма	-12305
▁канале	-12306
▁клецок	-12307
▁кратко	-12308
▁лётчик	-12309
▁местах	-12310
▁нежная	-12311
▁оборот	-12312
▁обосно	-12313
▁образо	-12314
▁общине	-12315
▁однодо	-12316
▁окрест	-12317
▁округу	-12318
▁остров	-12319
▁пакору	-12320
▁пакоры	-12321
▁память	-12322
▁парабо	-12323
▁пилоти	-12324
▁поданы	-12325
▁полета	-12326
▁похожи	-12327
▁призна	-12328
▁прикре	-12329
▁пришед	-12330
▁пробыл	-12331
▁проект	-12332
▁прошел	-12333
▁районы	-12334
▁ратушу	-12335
▁сахара	-12336
▁свиной	-12337
▁своему	-12338
▁службе	-12339
▁содерж	-12340
▁стилем	-12341
▁сыгран	-12342
▁тартом	-12343
▁телера	-12344
▁тесные	-12345
▁тестом	-12346
▁только	-12347
▁третью	-12348
▁услуги	-12349
▁уходом	-12350
▁учится	-12351
▁фигура	-12352
▁хорошо	-12353
▁частях	-12354
▁чёрный	-12355
▁широко	-12356
▁языках	-12357
▁январь	-12358
Аураклес	-12359
Винсента	-12360
Гемпшира	-12361
Железный	-12362
Западных	-12363
Портовое	-12364
Фаллуджу	-12365
амбоанги	-12366
аэропорт	-12367
беконный	-12368
вавшаяся	-12369
вариация	-12370
вианосцы	-12371
гречески	-12372
емейство	-12373
жимается	-12374
завершен	-12375
западнее	-12376
зидентом	-12377
каменело	-12378
китайски	-12379
лифорний	-12380
метровое	-12381
милодона	-12382
мущества	-12383
название	-12384
несбурге	-12385
отбивают	-12386
печенной	-12387
прозвище	-12388
разбитая	-12389
ращенное	-12390
рованная	-12391
рующимся	-12392
сийского	-12393
спроекти	-12394
ствующий	-12395
юмасанцы	-12396
▁1121,0,	-12397
▁1411,0,	-12398
▁1411,0.	-12399
▁167,94.	-12400
▁1773,0.	-12401
▁1818,0.	-12402
▁2004-07	-12403
▁2989,0.	-12404
▁3300,0.	-12405
▁3360,12	-12406
▁3684,0.	-12407
▁37116,0	-12408
▁3800,0,	-12409
▁4000,0,	-12410
▁4019,0.	-12411
▁479,343	-12412
▁488160,	-12413
▁488160.	-12414
▁511,592	-12415
▁605,718	-12416
▁85466,9	-12417
▁95040,0	-12418
▁Astérix	-12419
▁Falcons	-12420
▁Livorno	-12421
▁Whitman	-12422
▁Альянсу	-12423
▁Андрусе	-12424
▁Аплтона	-12425
▁Ахметом	-12426
▁Бетесде	-12427
▁Борелли	-12428
▁Буссемы	-12429
▁Востоке	-12430
▁Встреча	-12431
▁Главным	-12432
▁Датский	-12433
▁Дилтсом	-12434
▁Европар	-12435
▁Йоханна	-12436
▁Кампуса	-12437
▁Катанию	-12438
▁Клаусом	-12439
▁Лемпера	-12440
▁Меджлис	-12441
▁Местное	-12442
▁Населен	-12443
▁Недавно	-12444
▁Окончив	-12445
▁Оригина	-12446
▁Патрика	-12447
▁Потенца	-12448
▁Размеры	-12449
▁Рафаэль	-12450
▁Рисовые	-12451
▁Роберту	-12452
▁Саммите	-12453
▁Сборной	-12454
▁Свинина	-12455
▁Сенатор	-12456
▁Сладкий	-12457
▁Техасцы	-12458
▁Удинезе	-12459
▁Ужангом	-12460
▁Уитмена	-12461
▁Халидом	-12462
▁Цвиккау	-12463
▁Штёгера	-12464
▁Юджином	-12465
▁аматрич	-12466
▁базилик	-12467
▁большая	-12468
▁большой	-12469
▁бомбили	-12470
▁варенья	-12471
▁ведущая	-12472
▁великих	-12473
▁вступил	-12474
▁второго	-12475
▁выпущен	-12476
▁вырезки	-12477
▁высокий	-12478
▁высокой	-12479
▁выходил	-12480
▁выходом	-12481
▁вяленой	-12482
▁городке	-12483
▁городов	-12484
▁гранича	-12485
▁группам	-12486
▁губерна	-12487
▁датская	-12488
▁датчане	-12489
▁длинной	-12490
▁добавив	-12491
▁закуска	-12492
▁занятий	-12493
▁звездой	-12494
▁зданием	-12495
▁изделия	-12496
▁имеющее	-12497
▁канадца	-12498
▁кетчупа	-12499
▁курицей	-12500
▁латуком	-12501
▁либерал	-12502
▁любовью	-12503
▁местной	-12504
▁молоком	-12505
▁награды	-12506
▁нанятый	-12507
▁народом	-12508
▁начатое	-12509
▁некогда	-12510
▁немцами	-12511
▁область	-12512
▁общения	-12513
▁озвучил	-12514
▁окончив	-12515
▁округов	-12516
▁опытным	-12517
▁открыта	-12518
▁открыто	-12519
▁отнесён	-12520
▁перешел	-12521
▁площади	-12522
▁погибли	-12523
▁подчиня	-12524
▁покрыва	-12525
▁похожая	-12526
▁правило	-12527
▁приняли	-12528
▁принято	-12529
▁причаст	-12530
▁проведя	-12531
▁проекта	-12532
▁прошлом	-12533
▁распоря	-12534
▁ратушей	-12535
▁ребенок	-12536
▁рейтинг	-12537
▁ректора	-12538
▁религии	-12539
▁розидов	-12540
▁сапиндо	-12541
▁свинину	-12542
▁сделано	-12543
▁сделать	-12544
▁сегодня	-12545
▁сериала	-12546
▁сильный	-12547
▁службой	-12548
▁создала	-12549
▁состоял	-12550
▁спортом	-12551
▁сравнен	-12552
▁суповое	-12553
▁считают	-12554
▁текущим	-12555
▁титулом	-12556
▁умершим	-12557
▁употреб	-12558
▁усадьбы	-12559
▁установ	-12560
▁фанатов	-12561
▁хороший	-12562
▁цветных	-12563
▁частями	-12564
▁швейцар	-12565
▁являясь	-12566
Technical	-12567
Азербайдж	-12568
Астерикса	-12569
Бенджамин	-12570
Висконсин	-12571
Индонезия	-12572
Келламерх	-12573
Манхэттен	-12574
артамента	-12575
атакующий	-12576
ахобланко	-12577
брутализм	-12578
вательные	-12579
говорящей	-12580
известный	-12581
кельвинов	-12582
латинское	-12583
любителей	-12584
президент	-12585
разведчик	-12586
рутализму	-12587
сделанный	-12588
смическая	-12589
ссованная	-12590
странстве	-12591
формально	-12592
щательный	-12593
▁18443400	-12594
▁2014-15,	-12595
▁28.02.19	-12596
▁3360.12,	-12597
▁39332,9.	-12598
▁560090".	-12599
▁Kaagbaan	-12600
▁Академию	-12601
▁Антьокию	-12602
▁Аталанту	-12603
▁Байденом	-12604
▁Бакстоне	-12605
▁Бруклине	-12606
▁Виталдас	-12607
▁Гарденом	-12608
▁Господин	-12609
▁Дензилом	-12610
▁Джонсона	-12611
▁Дублином	-12612
▁Завершен	-12613
▁Закончен	-12614
▁Запасным	-12615
▁Заправка	-12616
▁Заправку	-12617
▁Ирландцы	-12618
▁Исконное	-12619
▁Использу	-12620
▁Кайахоге	-12621
▁Карлесом	-12622
▁Королева	-12623
▁Махмудом	-12624
▁Несмотря	-12625
▁Нортмора	-12626
▁Огастеса	-12627
▁Олландом	-12628
▁Организа	-12629
▁Основное	-12630
▁Паркером	-12631
▁Паттеном	-12632
▁Площадки	-12633
▁Покрытие	-12634
▁Почтовый	-12635
▁Пьюджина	-12636
▁Смилодон	-12637
▁Содержит	-12638
▁Стюартом	-12639
▁Сэндвича	-12640
▁Типичная	-12641
▁Цветущие	-12642
▁Церковью	-12643
▁Шелдоном	-12644
▁Шнайдера	-12645
▁Энхоорну	-12646
▁аббревиа	-12647
▁академию	-12648
▁арабский	-12649
▁близлежа	-12650
▁взлетная	-12651
▁включена	-12652
▁выиграна	-12653
▁выполнял	-12654
▁высокого	-12655
▁выступив	-12656
▁выходцем	-12657
▁гвоздика	-12658
▁говяжьей	-12659
▁действую	-12660
▁добавляя	-12661
▁домашним	-12662
▁забавный	-12663
▁заведует	-12664
▁закончен	-12665
▁зачислен	-12666
▁звездную	-12667
▁значимое	-12668
▁значимым	-12669
▁изобрели	-12670
▁индексом	-12671
▁иракский	-12672
▁каменный	-12673
▁колбасой	-12674
▁компанию	-12675
▁консервы	-12676
▁контроли	-12677
▁креветку	-12678
▁кровяную	-12679
▁лавровые	-12680
▁лавровых	-12681
▁любитель	-12682
▁меренгой	-12683
▁мертвого	-12684
▁местечке	-12685
▁названий	-12686
▁называли	-12687
▁народная	-12688
▁населена	-12689
▁населяет	-12690
▁наслажда	-12691
▁находясь	-12692
▁немецкая	-12693
▁номерами	-12694
▁обучался	-12695
▁операцию	-12696
▁отвечает	-12697
▁открытом	-12698
▁отыграла	-12699
▁очевидно	-12700
▁парламен	-12701
▁персонал	-12702
▁песочным	-12703
▁подразде	-12704
▁покрытие	-12705
▁посещают	-12706
▁почтовым	-12707
▁правящей	-12708
▁приготов	-12709
▁приправы	-12710
▁присвоил	-12711
▁пришлась	-12712
▁проектом	-12713
▁прозвали	-12714
▁проходит	-12715
▁пудингом	-12716
▁работали	-12717
▁регионов	-12718
▁регионом	-12719
▁репчатый	-12720
▁рубленые	-12721
▁создания	-12722
▁составом	-12723
▁торговый	-12724
▁участием	-12725
▁участник	-12726
▁школьные	-12727
▁шоколада	-12728
▁экипажем	-12729
Аматричана	-12730
Ольдендорф	-12731
бакалавров	-12732
говорящего	-12733
диовещания	-12734
жественное	-12735
итальянски	-12736
президента	-12737
справочный	-12738
урожденный	-12739
▁1907-2007	-12740
▁288749000	-12741
▁373513000	-12742
▁437170000	-12743
▁511592000	-12744
▁69862200.	-12745
▁Lumezzane	-12746
▁Авианосцы	-12747
▁Бакинский	-12748
▁Барселона	-12749
▁Бейквелле	-12750
▁Бреннером	-12751
▁Бухаресте	-12752
▁Вариацией	-12753
▁Воздушная	-12754
▁Вторжение	-12755
▁Городским	-12756
▁Греческий	-12757
▁Джексоном	-12758
▁Диагональ	-12759
▁Елизавету	-12760
▁Замбоанги	-12761
▁Зонтичных	-12762
▁Император	-12763
▁Индийское	-12764
▁Индийцами	-12765
▁Институте	-12766
▁Испанское	-12767
▁Кейптауне	-12768
▁Китайская	-12769
▁Китайские	-12770
▁Китайский	-12771
▁Китайское	-12772
▁Китайском	-12773
▁Корнуэлле	-12774
▁Кубанские	-12775
▁Маклафлин	-12776
▁Молдоффом	-12777
▁Монастырь	-12778
▁Настоящее	-12779
▁Нортбруке	-12780
▁Операторы	-12781
▁Родригеса	-12782
▁Связанный	-12783
▁Сенатором	-12784
▁Созданные	-12785
▁Стоимость	-12786
▁Уильямсом	-12787
▁Фарерском	-12788
▁Фрэнсисом	-12789
▁Чемпионом	-12790
▁Эмануэлем	-12791
▁авианосцы	-12792
▁аррабиату	-12793
▁ассамблея	-12794
▁асфальтом	-12795
▁благодаря	-12796
▁британцем	-12797
▁брутализм	-12798
▁воевавшие	-12799
▁вторжению	-12800
▁входивший	-12801
▁выступать	-12802
▁выступают	-12803
▁говорящей	-12804
▁говорящих	-12805
▁готовятся	-12806
▁демократы	-12807
▁добавлено	-12808
▁домашнего	-12809
▁достроили	-12810
▁завершены	-12811
▁закреплен	-12812
▁занимался	-12813
▁застройки	-12814
▁зернёного	-12815
▁игравшего	-12816
▁имущества	-12817
▁индийская	-12818
▁индийские	-12819
▁индийское	-12820
▁ирландцев	-12821
▁канадский	-12822
▁ключевого	-12823
▁кокосовым	-12824
▁коренными	-12825
▁местности	-12826
▁монастырь	-12827
▁мороженым	-12828
▁мученикам	-12829
▁названный	-12830
▁найденной	-12831
▁найденным	-12832
▁некоторых	-12833
▁областном	-12834
▁обозначен	-12835
▁обучается	-12836
▁общежития	-12837
▁озвучивал	-12838
▁отправлен	-12839
▁пенсионер	-12840
▁пирожного	-12841
▁подкласса	-12842
▁постройка	-12843
▁появилась	-12844
▁пребывает	-12845
▁придумали	-12846
▁принимала	-12847
▁припадает	-12848
▁провинцию	-12849
▁продолжил	-12850
▁профессии	-12851
▁резервный	-12852
▁родившись	-12853
▁руководил	-12854
▁румынский	-12855
▁сделанную	-12856
▁сенаторов	-12857
▁следующее	-12858
▁служебную	-12859
▁смилодона	-12860
▁создавший	-12861
▁созданное	-12862
▁составило	-12863
▁состоящее	-12864
▁состоящий	-12865
▁студентам	-12866
▁считаются	-12867
▁текстовой	-12868
▁управляло	-12869
▁устроился	-12870
▁цветковых	-12871
▁цветочные	-12872
▁чикагской	-12873
▁яванского	-12874
Азербайджан	-12875
Африканская	-12876
истребителя	-12877
расположено	-12878
▁2005-11-26	-12879
▁2013-11-04	-12880
▁2014-2015.	-12881
▁23.07.1923	-12882
▁28.02.1966	-12883
▁523329000,	-12884
▁Fiorentina	-12885
▁Амарусионе	-12886
▁Аматричану	-12887
▁Ассоциация	-12888
▁Ахмедабаде	-12889
▁Бартолоном	-12890
▁Висайского	-12891
▁Виталдасом	-12892
▁Елизаветой	-12893
▁Идентифика	-12894
▁Йоханнисом	-12895
▁Каталонией	-12896
▁Маклохлина	-12897
▁Молодежная	-12898
▁Оператором	-12899
▁Периапсида	-12900
▁Пучдемоном	-12901
▁Родившаяся	-12902
▁Спортпарка	-12903
▁Тамильский	-12904
▁Урожденное	-12905
▁Урожденным	-12906
▁Франклином	-12907
▁Футбольное	-12908
▁Футбольную	-12909
▁Футбольным	-12910
▁Чемпионами	-12911
▁Экзаминера	-12912
▁Этнической	-12913
▁абсолютная	-12914
▁английских	-12915
▁ассамблеей	-12916
▁базируются	-12917
▁болельщика	-12918
▁британских	-12919
▁воевавшими	-12920
▁возглавлен	-12921
▁дизайнером	-12922
▁дополнение	-12923
▁завербован	-12924
▁запомнился	-12925
▁изобретены	-12926
▁инженерном	-12927
▁ирландском	-12928
▁ископаемое	-12929
▁калифорний	-12930
▁каракатицу	-12931
▁китайского	-12932
▁компоненты	-12933
▁кунжутного	-12934
▁мемориалом	-12935
▁нарезанной	-12936
▁населенной	-12937
▁обнаружили	-12938
▁обслуживал	-12939
▁орхусского	-12940
▁основанном	-12941
▁основатель	-12942
▁пальмового	-12943
▁пасленовых	-12944
▁показывает	-12945
▁показывала	-12946
▁получившая	-12947
▁популярной	-12948
▁порядковый	-12949
▁порядковым	-12950
▁последнего	-12951
▁появляется	-12952
▁предыдущий	-12953
▁развернули	-12954
▁расстоянии	-12955
▁самолетами	-12956
▁связанного	-12957
▁содержащие	-12958
▁сокращенно	-12959
▁сообществе	-12960
▁состоялось	-12961
▁спортивные	-12962
▁спрессован	-12963
▁стоимостью	-12964
▁существуют	-12965
▁территория	-12966
▁трансляция	-12967
▁устричного	-12968
▁фактически	-12969
▁футбольная	-12970
▁футбольном	-12971
▁цитрусовых	-12972
▁этнический	-12973
▁юрисдикцию	-12974
▁являвшийся	-12975
▁являющееся	-12976
кондитерские	-12977
обнаруженное	-12978
обнаруженный	-12979
раздавленная	-12980
транспортный	-12981
▁01-07-1971.	-12982
▁04.11.2013,	-12983
▁11.07.1907)	-12984
▁11.07.1907.	-12985
▁14.07.2004.	-12986
▁18.11.1923.	-12987
▁2006-12-31,	-12988
▁2006.12.31,	-12989
▁2006.12.31.	-12990
▁2015-06-27,	-12991
▁23.04.1980.	-12992
▁23.07.1927.	-12993
▁Battlefield	-12994
▁Агремиасана	-12995
▁Архитекторы	-12996
▁Архитектуры	-12997
▁Банюмасанцы	-12998
▁Воспитывать	-12999
▁Вьетнамский	-13000
▁Итальянском	-13001
▁Итальянцами	-13002
▁Королевство	-13003
▁Космическая	-13004
▁Лаборатории	-13005
▁Либеральные	-13006
▁Магдебургом	-13007
▁Минимальная	-13008
▁Однодольных	-13009
▁Парламентом	-13010
▁Построенные	-13011
▁Построенный	-13012
▁Спортпарком	-13013
▁Управляемая	-13014
▁Численность	-13015
▁Юрисдикцией	-13016
▁авиационный	-13017
▁базирования	-13018
▁бразильском	-13019
▁вступлением	-13020
▁выполненную	-13021
▁вьетнамский	-13022
▁голландский	-13023
▁голландском	-13024
▁департамент	-13025
▁добавленные	-13026
▁достроенное	-13027
▁завершённый	-13028
▁закончилось	-13029
▁итальянских	-13030
▁коричневого	-13031
▁космическом	-13032
▁малазийский	-13033
▁малазийских	-13034
▁малазийском	-13035
▁находящиеся	-13036
▁необходимых	-13037
▁однодольных	-13038
▁одноименное	-13039
▁одноименном	-13040
▁официальное	-13041
▁официальные	-13042
▁параболичес	-13043
▁победителем	-13044
▁подаваемого	-13045
▁покровитель	-13046
▁попробовать	-13047
▁посвящённый	-13048
▁построенное	-13049
▁построенной	-13050
▁разработала	-13051
▁располагают	-13052
▁родившегося	-13053
▁сегодняшний	-13054
▁собственную	-13055
▁содержащего	-13056
▁сотрудником	-13057
▁специфичное	-13058
▁стандартном	-13059
▁температуре	-13060
▁управлявший	-13061
▁фигурировал	-13062
▁франжипаном	-13063
▁футбольному	-13064
▁швейцарском	-13065
Кастровиллари	-13066
возглавляемая	-13067
расположенное	-13068
установленный	-13069
▁183309000,0.	-13070
▁34920600000.	-13071
▁373513000,0.	-13072
▁416136000000	-13073
▁Американская	-13074
▁Андалусского	-13075
▁Георгианской	-13076
▁Департамента	-13077
▁Дербиширском	-13078
▁Дистрибьютор	-13079
▁Злакоцветных	-13080
▁Колумбийский	-13081
▁Лавроцветных	-13082
▁Мексиканский	-13083
▁Мичиганского	-13084
▁Неороманском	-13085
▁Оригинальное	-13086
▁Покровителем	-13087
▁Политическим	-13088
▁Традиционное	-13089
▁Транспортным	-13090
▁Туркменистан	-13091
▁аббревиатура	-13092
▁арендаторами	-13093
▁выполнявшего	-13094
▁георгианский	-13095
▁значительное	-13096
▁измельчённая	-13097
▁ингредиентам	-13098
▁используемым	-13099
▁истребителей	-13100
▁каталонского	-13101
▁кондитерским	-13102
▁максимальной	-13103
▁награжденный	-13104
▁называвшаяся	-13105
▁национальной	-13106
▁неороманский	-13107
▁озвучивается	-13108
▁операционная	-13109
▁операционной	-13110
▁операционную	-13111
▁организована	-13112
▁политические	-13113
▁посвященного	-13114
▁поставляется	-13115
▁появившегося	-13116
▁предлагается	-13117
▁представляют	-13118
▁присутствуют	-13119
▁происходящий	-13120
▁пространстве	-13121
▁ремесленника	-13122
▁руководителя	-13123
▁содержащийся	-13124
▁составляющей	-13125
▁управляющего	-13126
▁филиппинское	-13127
▁филиппинском	-13128
Джаяроденепура	-13129
подавательским	-13130
▁279142000000,	-13131
▁Антверпенским	-13132
▁Встречающийся	-13133
▁Йоханнесбурге	-13134
▁Международном	-13135
▁Насчитывающий	-13136
▁Неудивительно	-13137
▁Принадлежащий	-13138
▁Расположенные	-13139
▁Торжественное	-13140
▁Университетом	-13141
▁Филиппинского	-13142
▁аббревиатурой	-13143
▁авиакомпанией	-13144
▁академическим	-13145
▁альтернативой	-13146
▁встречающихся	-13147
▁индонезийской	-13148
▁использующими	-13149
▁лейбористской	-13150
▁национального	-13151
▁обслуживающая	-13152
▁принадлежащим	-13153
▁пуэрториканец	-13154
▁разработавшим	-13155
▁разработанная	-13156
▁расположенную	-13157
▁руководителей	-13158
▁сингапурского	-13159
▁соревноваться	-13160
▁соседствующий	-13161
▁соседствующим	-13162
▁транслируемом	-13163
▁туристический	-13164
▁установленной	-13165
▁участвовавший	-13166
▁283326000000.0	-13167
▁29919600000,0,	-13168
▁41498400000,0,	-13169
▁88234300000,0,	-13170
▁Альтернативным	-13171
▁Великобританию	-13172
▁Куттиккаттоора	-13173
▁Разновидностью	-13174
▁Сапиндоцветных	-13175
▁идентификатора	-13176
▁использоваться	-13177
▁обслуживающего	-13178
▁паслёноцветные	-13179
▁принадлежность	-13180
▁провинциальная	-13181
▁разновидностям	-13182
▁самоуправления	-13183
▁124950000000,0,	-13184
▁445895000000,0.	-13185
▁6155910000000,0	-13186
▁Законодательная	-13187
▁Идентификатором	-13188
▁Массачусетского	-13189
▁Транснептуновый	-13190
▁афроамериканцев	-13191
▁идентификаторов	-13192
▁испаноговорящей	-13193
▁образовательные	-13194
▁предоставленный	-13195
▁пуэрториканцами	-13196
▁разновидностями	-13197
▁транслированный	-13198
▁эксплуатируемая	-13199
▁эксплуатирующую	-13200
)")	-13201
-08	-13202
-09	-13203
/>,	-13204
14,	-13205
453	-13206
5")	-13207
53,	-13208
83.	-13209
96,	-13210
98,	-13211
ACF	-13212
BBC	-13213
pie	-13214
рёл	-13215
”"–	-13216
▁co	-13217
,00,	-13218
,142	-13219
,160	-13220
,756	-13221
-22.	-13222
-27.	-13223
/15.	-13224
0756	-13225
130.	-13226
3500	-13227
53,8	-13228
akes	-13229
arny	-13230
piec	-13231
stro	-13232
Алле	-13233
Алпи	-13234
Орёл	-13235
Эфио	-13236
деце	-13237
дьми	-13238
кеты	-13239
ллой	-13240
нице	-13241
печи	-13242
усов	-13243
чету	-13244
▁"(1	-13245
▁01/	-13246
▁2,2	-13247
▁2,9	-13248
▁42-	-13249
▁8.3	-13250
▁Luf	-13251
▁Pir	-13252
▁bar	-13253
▁cob	-13254
▁san	-13255
▁Аяз	-13256
▁Ещё	-13257
▁Яич	-13258
▁хаб	-13259
,160,	-13260
/1980	-13261
01/19	-13262
03-15	-13263
1966.	-13264
2015.	-13265
853,8	-13266
9,142	-13267
arnie	-13268
piece	-13269
Аллея	-13270
Биббо	-13271
Болта	-13272
Новых	-13273
Ювент	-13274
Южная	-13275
Юнион	-13276
бутер	-13277
вшими	-13278
глись	-13279
дроме	-13280
емуся	-13281
здной	-13282
земле	-13283
ксена	-13284
льпту	-13285
отбив	-13286
парка	-13287
подал	-13288
сладо	-13289
слуги	-13290
сыгра	-13291
трати	-13292
удеце	-13293
уемое	-13294
фиоре	-13295
шейся	-13296
шеные	-13297
ъесть	-13298
этому	-13299
271	-13300
.04.	-13301
вшую	-13302
▁082	-13303
60816	-13304
ющему	-13305
▁(17.	-13306
▁-14,	-13307
▁0252	-13308
▁07»)	-13309
▁1914	-13310
▁310.	-13311
▁4/22	-13312
▁476.	-13313
▁498,	-13314
▁518,	-13315
▁518.	-13316
▁597,	-13317
▁702,	-13318
▁733,	-13319
▁877.	-13320
▁896,	-13321
▁9,7,	-13322
▁Luft	-13323
▁Spor	-13324
▁barm	-13325
▁~500	-13326
▁Дина	-13327
▁Йорк	-13328
▁Квай	-13329
▁Лега	-13330
▁Лорд	-13331
▁Поря	-13332
▁Свою	-13333
▁Теку	-13334
▁Туда	-13335
▁Хоро	-13336
▁ачех	-13337
▁ведь	-13338
▁ветв	-13339
▁вкус	-13340
▁вожд	-13341
▁духо	-13342
▁инау	-13343
▁курд	-13344
▁мяса	-13345
▁нрав	-13346
▁обои	-13347
▁особ	-13348
▁пись	-13349
▁уезд	-13350
▁узло	-13351
.07.19	-13352
/1983.	-13353
000.0,	-13354
03-15)	-13355
07/197	-13356
33.213	-13357
4976,0	-13358
53,28.	-13359
Аммана	-13360
Черная	-13361
Черный	-13362
аворит	-13363
алерея	-13364
атагор	-13365
вавшей	-13366
вающих	-13367
вились	-13368
вшуюся	-13369
деляют	-13370
доступ	-13371
еспечи	-13372
жащего	-13373
йтинге	-13374
каслом	-13375
ковыми	-13376
крытая	-13377
лижнем	-13378
мовыми	-13379
округа	-13380
писать	-13381
покров	-13382
раздел	-13383
регион	-13384
роведя	-13385
розиды	-13386
садьба	-13387
собным	-13388
спитан	-13389
тчиком	-13390
хватах	-13391
эллсом	-13392
ющемся	-13393
▁1-4-2	-13394
▁1/19.	-13395
▁11146	-13396
▁11484	-13397
▁1202.	-13398
▁1533,	-13399
)”(	-13400
hav	-13401
havn	-13402
▁/27	-13403
▁603	-13404
▁луч	-13405
777),	-13406
итрой	-13407
ётчик	-13408
▁"193	-13409
▁"199	-13410
▁дань	-13411
718000	-13412
Псалом	-13413
териал	-13414
ттеджа	-13415
▁"1931	-13416
▁"1999	-13417
▁155,0	-13418
▁1820-	-13419
▁18330	-13420
▁1910,	-13421
▁1960.	-13422
▁2,215	-13423
▁2/20,	-13424
▁20-01	-13425
▁2439.	-13426
▁2744,	-13427
▁2776,	-13428
▁2989.	-13429
▁3,453	-13430
▁3,528	-13431
▁3/21,	-13432
▁3453.	-13433
▁3684.	-13434
▁39271	-13435
▁3990,	-13436
▁3993,	-13437
▁4/22,	-13438
▁4349,	-13439
▁43716	-13440
▁48810	-13441
▁7,08,	-13442
▁7/25,	-13443
▁Cakes	-13444
▁Pirat	-13445
▁Адэра	-13446
▁Вигор	-13447
▁Главу	-13448
▁Дайан	-13449
▁Джека	-13450
▁Дилтс	-13451
▁Докто	-13452
▁Желез	-13453
▁Забав	-13454
▁Лауру	-13455
▁Лучше	-13456
▁Найка	-13457
▁Ответ	-13458
▁Педас	-13459
▁Птицы	-13460
▁Участ	-13461
▁Элиот	-13462
▁Эндой	-13463
▁Эрлам	-13464
▁Юлией	-13465
▁абори	-13466
▁вождя	-13467
▁вошёл	-13468
▁горяч	-13469
▁давят	-13470
▁духов	-13471
▁игоро	-13472
▁комме	-13473
▁компо	-13474
▁конце	-13475
▁лавро	-13476
▁лауре	-13477
▁лучше	-13478
▁массы	-13479
▁несок	-13480
▁отбив	-13481
▁отдел	-13482
▁пошло	-13483
▁решен	-13484
▁семья	-13485
▁соору	-13486
▁строи	-13487
▁талис	-13488
▁телеэ	-13489
▁терми	-13490
▁турни	-13491
▁ухода	-13492
▁учебу	-13493
▁учить	-13494
▁факта	-13495
▁фирма	-13496
▁флоту	-13497
▁форми	-13498
▁хабом	-13499
Türk	-13500
Кёль	-13501
вшая	-13502
оруж	-13503
▁AFC	-13504
-2010	-13505
-2011	-13506
доним	-13507
краин	-13508
нарха	-13509
онарх	-13510
росле	-13511
участ	-13512
▁497.	-13513
▁вним	-13514
▁нуле	-13515
mazing	-13516
Кёльна	-13517
Монарх	-13518
вдоним	-13519
зросле	-13520
ладает	-13521
листом	-13522
раткое	-13523
▁03/21	-13524
▁Билла	-13525
▁Самая	-13526
▁Шесть	-13527
▁живёт	-13528
▁индей	-13529
▁корня	-13530
▁общее	-13531
▁соклу	-13532
▁этнос	-13533
▁южным	-13534
▁яични	-13535
-08-01.	-13536
-09-01.	-13537
-10-22.	-13538
-12-200	-13539
.07.193	-13540
04/1980	-13541
Amazing	-13542
Outlook	-13543
Лумпуре	-13544
Удинезе	-13545
Фаворит	-13546
Эфиопия	-13547
ановили	-13548
апсидой	-13549
ариация	-13550
вляющих	-13551
воритом	-13552
ворящей	-13553
дерману	-13554
зрослев	-13555
итающих	-13556
ителями	-13557
кийскую	-13558
коласом	-13559
корейцы	-13560
льптуры	-13561
местный	-13562
насчиты	-13563
нептуно	-13564
нийскую	-13565
отжатая	-13566
отлитый	-13567
популяр	-13568
порядок	-13569
пплтона	-13570
правкой	-13571
рование	-13572
русовых	-13573
сделано	-13574
седания	-13575
сладкий	-13576
содержа	-13577
создана	-13578
сподина	-13579
теристи	-13580
техасцы	-13581
управля	-13582
ценными	-13583
этажным	-13584
▁"(110)	-13585
▁06/24,	-13586
▁08.02.	-13587
▁10000.	-13588
▁11.04.	-13589
▁111464	-13590
▁12/30,	-13591
▁1202.8	-13592
▁13123.	-13593
▁17,28.	-13594
▁1873.0	-13595
▁2195,0	-13596
▁2439,0	-13597
▁2777),	-13598
▁3,990.	-13599
,28	-13600
28,	-13601
Арм	-13602
-16.	-13603
7,28	-13604
Рейс	-13605
ахом	-13606
ений	-13607
льфо	-13608
пуск	-13609
учно	-13610
▁07"	-13611
▁371	-13612
▁45-	-13613
▁50-	-13614
▁нуж	-13615
Армсе	-13616
айахо	-13617
зовым	-13618
неный	-13619
▁280.	-13620
▁310,	-13621
▁Anti	-13622
▁Шуту	-13623
▁Эрже	-13624
▁типу	-13625
000,00	-13626
Берлин	-13627
Кайахо	-13628
Сальва	-13629
Франси	-13630
выпуск	-13631
дольфо	-13632
кующие	-13633
ляющих	-13634
мывает	-13635
теплым	-13636
щиками	-13637
▁Радио	-13638
▁Часто	-13639
▁Шахом	-13640
▁войну	-13641
▁нужны	-13642
▁такую	-13643
Колумби	-13644
линовых	-13645
морских	-13646
хмадаба	-13647
▁117,28	-13648
▁17,28,	-13649
▁3684,0	-13650
▁37116,	-13651
▁4019,0	-13652
▁4349,0	-13653
▁440756	-13654
▁597,0,	-13655
▁Fights	-13656
▁Pirate	-13657
▁Sporti	-13658
▁sarnie	-13659
▁Абдулы	-13660
▁Адмиру	-13661
▁Андрею	-13662
▁Андрея	-13663
▁Базиру	-13664
▁Бананы	-13665
▁Барака	-13666
▁Вероны	-13667
▁Выбран	-13668
▁Говдой	-13669
▁Доктор	-13670
▁Интере	-13671
▁Каллой	-13672
▁Коллеж	-13673
▁Корний	-13674
▁Король	-13675
▁Кстати	-13676
▁Локомо	-13677
▁Лётчик	-13678
▁Малаец	-13679
▁Мерида	-13680
▁Меррил	-13681
▁Монарх	-13682
▁Найден	-13683
▁Научно	-13684
▁Обамой	-13685
▁Подава	-13686
▁Подкон	-13687
▁Получи	-13688
▁Пример	-13689
▁Работы	-13690
▁Рецепт	-13691
▁Святой	-13692
▁Точное	-13693
▁Фелипе	-13694
▁Чёрный	-13695
▁Элиота	-13696
▁Этичес	-13697
▁авиано	-13698
▁боевом	-13699
122	-13700
▁..	-13701
▁Te	-13702
обще	-13703
▁...	-13704
▁33,	-13705
▁Tex	-13706
▁Мед	-13707
▁Пуи	-13708
▁Эйр	-13709
▁люд	-13710
Немцы	-13711
дирек	-13712
довым	-13713
слого	-13714
сфаль	-13715
шение	-13716
▁184,	-13717
▁990,	-13718
▁Орла	-13719
▁Став	-13720
▁типо	-13721
-1930.	-13722
900,0,	-13723
алерею	-13724
висимо	-13725
жённая	-13726
ителей	-13727
конкур	-13728
сфальт	-13729
▁1500.	-13730
▁Texas	-13731
▁Орган	-13732
▁Потте	-13733
▁Преми	-13734
▁Пуига	-13735
▁карти	-13736
▁людям	-13737
▁почет	-13738
▁рейса	-13739
▁типов	-13740
▁южнее	-13741
зжённая	-13742
кусовые	-13743
нителей	-13744
работан	-13745
рейскую	-13746
рослого	-13747
стижнее	-13748
▁0,0122	-13749
▁184,43	-13750
▁Прежде	-13751
▁Премию	-13752
▁Эйрмен	-13753
▁бульва	-13754
▁величи	-13755
▁видами	-13756
▁вкусен	-13757
▁восток	-13758
▁всегда	-13759
▁выходе	-13760
▁герман	-13761
▁горных	-13762
▁другим	-13763
▁жудеце	-13764
▁изобра	-13765
▁инаугу	-13766
▁индиец	-13767
▁испыта	-13768
▁камней	-13769
▁киноди	-13770
▁класть	-13771
▁клецку	-13772
▁кстати	-13773
▁куряти	-13774
▁лауреа	-13775
▁лимона	-13776
▁листке	-13777
▁людьми	-13778
▁лётной	-13779
▁малаец	-13780
▁матери	-13781
▁обозна	-13782
▁обоими	-13783
▁общена	-13784
▁общину	-13785
▁одними	-13786
▁означа	-13787
▁окраин	-13788
▁отдает	-13789
▁отделе	-13790
▁отряде	-13791
▁офисом	-13792
▁пакоре	-13793
▁панира	-13794
▁планта	-13795
▁победу	-13796
▁подано	-13797
▁потому	-13798
▁причем	-13799
-8»	-13800
.0"	-13801
02-	-13802
▁,“	-13803
-02-	-13804
3.0"	-13805
царя	-13806
ъект	-13807
▁7.0	-13808
▁8.0	-13809
▁Bus	-13810
▁SpA	-13811
Малай	-13812
тится	-13813
эйлор	-13814
▁7.08	-13815
▁8.0,	-13816
▁живо	-13817
strona	-13818
Сиомай	-13819
емцами	-13820
сендви	-13821
▁1907)	-13822
▁1933-	-13823
▁Busin	-13824
▁Билли	-13825
▁Рафаэ	-13826
▁Сайру	-13827
▁арепу	-13828
▁грамм	-13829
▁живот	-13830
▁отряд	-13831
▁фильм	-13832
▁чичар	-13833
ботится	-13834
домстве	-13835
которым	-13836
манская	-13837
▁66063)	-13838
▁Клауса	-13839
▁Прошел	-13840
▁Тэйлор	-13841
▁болеют	-13842
▁запада	-13843
▁олимпи	-13844
▁пришли	-13845
▁пришёл	-13846
▁пункта	-13847
▁равной	-13848
▁равную	-13849
▁ракеты	-13850
▁родное	-13851
▁родном	-13852
▁рублен	-13853
▁рыбная	-13854
▁рыбной	-13855
▁рыбную	-13856
▁рыбных	-13857
▁рыцаря	-13858
▁самбал	-13859
▁следит	-13860
▁снимал	-13861
▁соклуб	-13862
▁соусов	-13863
▁спиной	-13864
▁список	-13865
▁съесть	-13866
▁тартах	-13867
▁тартов	-13868
▁точный	-13869
▁точным	-13870
▁третий	-13871
▁уездах	-13872
▁утверж	-13873
▁ученая	-13874
▁хребта	-13875
▁ценной	-13876
▁шалота	-13877
▁южного	-13878
▁яйцами	-13879
-2014-15	-13880
/04/1980	-13881
01/1930.	-13882
04718000	-13883
10.1933)	-13884
stronaut	-13885
Астерикс	-13886
Ахмадаба	-13887
Вариация	-13888
Кимберли	-13889
Колумбия	-13890
Малайзия	-13891
Официаль	-13892
Портовым	-13893
висимого	-13894
граждани	-13895
директор	-13896
долларов	-13897
есночное	-13898
жиданный	-13899
/38	-13900
3/3	-13901
-14»	-13902
атан	-13903
йнер	-13904
след	-13905
якса	-13906
▁305	-13907
-14».	-13908
3/31)	-13909
Аякса	-13910
Лавро	-13911
драго	-13912
йнеры	-13913
нимал	-13914
▁sang	-13915
▁Комп	-13916
▁Пище	-13917
▁млад	-13918
-130",	-13919
Алпина	-13920
гистри	-13921
откуда	-13922
послед	-13923
тудент	-13924
ческое	-13925
▁1959.	-13926
▁20-14	-13927
▁3500,	-13928
▁Викре	-13929
▁Лайле	-13930
▁вкуса	-13931
▁запас	-13932
▁знать	-13933
▁этими	-13934
атантом	-13935
дальнюю	-13936
зайнеры	-13937
туденты	-13938
▁3500,0	-13939
▁sanger	-13940
▁Бромом	-13941
▁Сущест	-13942
▁знаете	-13943
▁знаком	-13944
▁членам	-13945
зиденции	-13946
ительный	-13947
кельвина	-13948
лагаемый	-13949
латински	-13950
лучшения	-13951
мелинида	-13952
менителя	-13953
метровой	-13954
морсильи	-13955
морсилью	-13956
обладает	-13957
основное	-13958
основным	-13959
открытый	-13960
оцветных	-13961
покойный	-13962
представ	-13963
принадле	-13964
ращается	-13965
регистри	-13966
резается	-13967
родилась	-13968
сендвича	-13969
сладость	-13970
стафиоре	-13971
типичная	-13972
трольный	-13973
участник	-13974
эродроме	-13975
▁(13/31)	-13976
▁0,0473,	-13977
▁13017.0	-13978
▁1800,0,	-13979
▁1818,0,	-13980
▁184,434	-13981
▁1961-19	-13982
▁1982,0,	-13983
▁20843,8	-13984
▁2702,0,	-13985
▁2743,0,	-13986
▁2743,0.	-13987
▁2744,0,	-13988
▁2746,66	-13989
▁2776,0,	-13990
▁3500,0,	-13991
▁3800,00	-13992
▁3993,88	-13993
▁4019,0,	-13994
▁4100777	-13995
▁992,88,	-13996
▁Sportiv	-13997
▁Абердин	-13998
▁Адольфо	-13999
ess	-14000
Лиге	-14001
дить	-14002
игро	-14003
цлер	-14004
▁34-	-14005
▁Изю	-14006
▁Фир	-14007
▁зву	-14008
▁сын	-14009
2006,	-14010
Бачой	-14011
игрок	-14012
льцев	-14013
марно	-14014
рстве	-14015
шелся	-14016
щевой	-14017
▁3400	-14018
▁Изюм	-14019
▁араб	-14020
▁боро	-14021
▁диви	-14022
▁чаще	-14023
Винсен	-14024
Механи	-14025
водить	-14026
гранит	-14027
олотую	-14028
ратить	-14029
стемой	-14030
частли	-14031
▁(3500	-14032
▁Измер	-14033
▁Клубе	-14034
▁Клубы	-14035
▁Макен	-14036
▁Фирма	-14037
▁вмеща	-14038
▁правя	-14039
▁торте	-14040
2.2006,	-14041
Фламанд	-14042
дарстве	-14043
есноком	-14044
канцлер	-14045
риканец	-14046
скольку	-14047
спитале	-14048
уммарно	-14049
▁500,00	-14050
▁Давлен	-14051
▁звучит	-14052
▁паэлью	-14053
▁прокат	-14054
▁тамиль	-14055
12.2006,	-14056
Винсенте	-14057
Механика	-14058
кобендас	-14059
рающуюся	-14060
рождения	-14061
частливи	-14062
▁Алагоас	-14063
▁Альфонс	-14064
▁Андалуз	-14065
▁Андрусу	-14066
▁Асфальт	-14067
▁Бакстон	-14068
▁Бетесда	-14069
▁Ближнем	-14070
▁Ведущая	-14071
▁Вкусное	-14072
▁Выжатая	-14073
▁Высотой	-14074
▁Гейтсом	-14075
▁Главное	-14076
▁Голубой	-14077
▁Гренаде	-14078
▁Гренады	-14079
▁Деймона	-14080
▁Джорджа	-14081
▁Диммита	-14082
▁Диммите	-14083
▁Заксена	-14084
▁Золотую	-14085
▁Имеющая	-14086
▁Катании	-14087
▁Командо	-14088
▁Корейцы	-14089
▁Куриное	-14090
▁Либерал	-14091
▁Макензи	-14092
▁Меридой	-14093
▁Местный	-14094
▁Николас	-14095
▁Номером	-14096
▁Обсерва	-14097
▁Олланда	-14098
▁Органом	-14099
)»,	-14100
,773	-14101
2.88	-14102
202.	-14103
боды	-14104
ллот	-14105
сыра	-14106
▁1,4	-14107
▁ACF	-14108
-11»,	-14109
Округ	-14110
ителю	-14111
ондон	-14112
пуска	-14113
серия	-14114
струк	-14115
теряв	-14116
▁121.	-14117
▁1977	-14118
▁Виды	-14119
▁Фрук	-14120
▁сама	-14121
Лондон	-14122
ллотты	-14123
▁1,411	-14124
▁1,773	-14125
▁7202.	-14126
▁Рупия	-14127
▁Солда	-14128
▁война	-14129
▁осман	-14130
▁рабоч	-14131
▁шалот	-14132
этажная	-14133
▁1,411,	-14134
▁Аллана	-14135
▁Возник	-14136
▁Группа	-14137
▁Кельви	-14138
▁Колана	-14139
▁космос	-14140
струкция	-14141
терявшим	-14142
▁1516.67	-14143
▁3992.88	-14144
▁Получив	-14145
▁Помидор	-14146
▁Порядок	-14147
▁Работал	-14148
▁Ратушей	-14149
▁Рафаэля	-14150
▁Сегодня	-14151
▁Солдаты	-14152
▁Текущий	-14153
▁Улучшен	-14154
▁Уордена	-14155
▁Уэйанса	-14156
▁Фенвесе	-14157
▁Фруктов	-14158
▁Халимой	-14159
▁Хорошим	-14160
▁Хэлтона	-14161
▁Эндрюсе	-14162
▁Яичница	-14163
▁актером	-14164
▁бананом	-14165
▁батаков	-14166
▁большин	-14167
▁большое	-14168
▁бывшими	-14169
▁версией	-14170
▁ветчина	-14171
▁вкусное	-14172
▁воевала	-14173
▁впослед	-14174
▁выбрала	-14175
▁выбрали	-14176
▁вылитый	-14177
▁выпусти	-14178
▁вяленые	-14179
▁галерею	-14180
▁голланд	-14181
▁граница	-14182
▁данного	-14183
▁датской	-14184
▁длинная	-14185
▁другими	-14186
▁духовки	-14187
▁живущая	-14188
▁жителем	-14189
▁закуску	-14190
▁запуска	-14191
▁заслуги	-14192
▁значиме	-14193
▁значимо	-14194
▁игроков	-14195
▁измеряя	-14196
▁именами	-14197
▁имеющей	-14198
▁интерес	-14199
Mon	-14200
,513	-14201
ason	-14202
Прав	-14203
ваны	-14204
ильм	-14205
плён	-14206
хажи	-14207
▁358	-14208
▁473	-14209
▁513	-14210
▁910	-14211
▁BSc	-14212
▁Апл	-14213
▁Фёр	-14214
▁дик	-14215
▁хот	-14216
писан	-14217
пхоле	-14218
тория	-14219
▁352,	-14220
▁Луис	-14221
▁зона	-14222
▁опре	-14223
▁ходе	-14224
вечена	-14225
живает	-14226
ступен	-14227
▁1219.	-14228
▁1962,	-14229
▁358,0	-14230
▁8,33.	-14231
▁Barny	-14232
▁Mason	-14233
▁Общее	-14234
▁Типич	-14235
▁Фильм	-14236
▁Фёрст	-14237
▁бхажи	-14238
▁дикту	-14239
▁насту	-14240
▁работ	-14241
▁спорт	-14242
▁торты	-14243
▁чьего	-14244
Премьер	-14245
нийская	-14246
хипхоле	-14247
▁Арахис	-14248
▁Луисом	-14249
▁Одного	-14250
▁опреде	-14251
▁хотите	-14252
Marriott	-14253
Monocacy	-14254
ковечена	-14255
отбивную	-14256
ствованы	-14257
▁373,513	-14258
▁Аплтоне	-14259
▁Лауреат	-14260
▁Филиппа	-14261
▁дальнюю	-14262
▁диктует	-14263
▁каналом	-14264
▁картину	-14265
▁карьеры	-14266
▁кельвин	-14267
▁компози	-14268
▁корабле	-14269
▁корейцы	-14270
▁корнями	-14271
▁красной	-14272
▁красную	-14273
▁крупным	-14274
▁локация	-14275
▁мастера	-14276
▁медалей	-14277
▁миндалё	-14278
▁младший	-14279
▁момента	-14280
▁монарха	-14281
▁нанятых	-14282
▁наступи	-14283
▁начинал	-14284
▁начинку	-14285
▁немецко	-14286
▁нулевую	-14287
▁обычном	-14288
▁оригина	-14289
▁отделен	-14290
▁отжатая	-14291
▁относят	-14292
▁печенья	-14293
▁письмен	-14294
▁пищевой	-14295
▁планеты	-14296
▁покрыти	-14297
▁последу	-14298
▁потрати	-14299
/13	-14300
Еще	-14301
ктё	-14302
дусм	-14303
елям	-14304
рукт	-14305
▁03,	-14306
▁240	-14307
▁333	-14308
▁729	-14309
▁цит	-14310
гская	-14311
дишам	-14312
ителя	-14313
лютой	-14314
метры	-14315
родов	-14316
▁0,0,	-14317
▁1300	-14318
▁Плак	-14319
▁Рыба	-14320
▁актё	-14321
▁долл	-14322
Адишам	-14323
Мейсон	-14324
дусмот	-14325
куэтяу	-14326
несена	-14327
торами	-14328
▁1927.	-14329
▁1957;	-14330
▁2953.	-14331
▁33310	-14332
▁Грэма	-14333
▁Негре	-14334
▁главу	-14335
▁лаком	-14336
▁самых	-14337
▁сотен	-14338
▁судов	-14339
▁фрукт	-14340
07/1907	-14341
Амманну	-14342
Зеллнер	-14343
валютой	-14344
населен	-14345
раметры	-14346
▁130017	-14347
▁Декана	-14348
▁Панамы	-14349
▁Первый	-14350
▁лапшой	-14351
▁однако	-14352
▁примет	-14353
▁цитрус	-14354
07/1907.	-14355
07/1971.	-14356
дангская	-14357
пенгаген	-14358
торглись	-14359
▁410777)	-14360
▁Местная	-14361
▁Миллера	-14362
▁Райаном	-14363
▁актёров	-14364
▁владеют	-14365
▁внесена	-14366
▁выбрано	-14367
▁главную	-14368
▁жареных	-14369
▁жителям	-14370
▁империя	-14371
▁лакомят	-14372
▁народов	-14373
▁находящ	-14374
▁похожее	-14375
▁похожую	-14376
▁почетна	-14377
▁почтена	-14378
▁премией	-14379
▁приняла	-14380
▁принять	-14381
▁рабочую	-14382
▁разыгры	-14383
▁районах	-14384
▁ремесла	-14385
▁родного	-14386
▁связано	-14387
▁сезонах	-14388
▁служили	-14389
▁соверши	-14390
▁субъект	-14391
▁сушеные	-14392
▁считает	-14393
▁сыграет	-14394
▁сыграют	-14395
▁типична	-14396
▁томатов	-14397
▁турнире	-14398
▁узловым	-14399
ax	-14400
jax	-14401
Бел	-14402
баз	-14403
брь	-14404
мис	-14405
уже	-14406
цов	-14407
▁";	-14408
жжен	-14409
меть	-14410
ятой	-14411
▁259	-14412
▁744	-14413
▁Алк	-14414
▁Дин	-14415
▁дви	-14416
▁пят	-14417
▁ску	-14418
▁ува	-14419
▁чут	-14420
Белые	-14421
айлер	-14422
иссле	-14423
сидой	-14424
чения	-14425
▁Ajax	-14426
▁Бара	-14427
▁Оруж	-14428
▁Титу	-14429
▁движ	-14430
▁дома	-14431
▁пози	-14432
▁реки	-14433
▁чуть	-14434
злетно	-14435
иногда	-14436
лемпер	-14437
миссия	-14438
псидой	-14439
ченика	-14440
▁2005.	-14441
▁Азиат	-14442
▁Алкма	-14443
▁Возве	-14444
▁Десер	-14445
▁Титул	-14446
▁Южный	-14447
▁битва	-14448
▁затра	-14449
▁изоби	-14450
▁иметь	-14451
▁летно	-14452
▁малая	-14453
▁пятой	-14454
▁пятую	-14455
взлетно	-14456
жженной	-14457
зийскую	-14458
исследо	-14459
тельная	-14460
▁Бостон	-14461
▁Оружие	-14462
▁Тайлер	-14463
▁Шахбаз	-14464
▁битвах	-14465
▁импера	-14466
[...]
