<unk>	0
<s>	0
</s>	0
▁y	-0
ae	-1
▁A	-2
an	-3
▁yn	-4
dd	-5
▁M	-6
▁a	-7
▁g	-8
ol	-9
er	-10
▁Mae	-11
th	-12
▁c	-13
ei	-14
ia	-15
ar	-16
wy	-17
ll	-18
▁o	-19
▁m	-20
on	-21
▁C	-22
in	-23
ed	-24
en	-25
▁D	-26
al	-27
▁S	-28
▁mae	-29
or	-30
▁s	-31
▁gan	-32
yf	-33
▁B	-34
▁ll	-35
▁1	-36
ch	-37
▁G	-38
▁yw	-39
▁R	-40
as	-41
od	-42
yn	-43
ri	-44
▁U	-45
▁d	-46
▁ar	-47
eith	-48
▁Al	-49
el	-50
ydd	-51
edd	-52
iad	-53
edi	-54
ad	-55
▁r	-56
▁Un	-57
is	-58
es	-59
▁w	-60
▁lle	-61
▁P	-62
yd	-63
▁T	-64
▁yr	-65
▁p	-66
▁F	-67
iau	-68
▁gw	-69
▁b	-70
▁ei	-71
▁f	-72
eg	-73
am	-74
▁I	-75
wyr	-76
un	-77
▁L	-78
▁Unol	-79
00	-80
re	-81
ra	-82
odd	-83
▁wedi	-84
▁Dal	-85
wyd	-86
▁h	-87
▁Daleith	-88
▁sy	-89
▁rh	-90
▁Daleithiau	-91
wydd	-92
▁ch	-93
oedd	-94
wr	-95
▁W	-96
ys	-97
io	-98
▁H	-99
▁J	-100
aeth	-101
▁2	-102
at	-103
▁N	-104
au	-105
ic	-106
▁cyf	-107
il	-108
war	-109
et	-110
st	-111
af	-112
nd	-113
▁dd	-114
ir	-115
▁E	-116
▁Awyr	-117
warae	-118
▁gyf	-119
▁Y	-120
▁19	-121
ef	-122
ew	-123
▁lleol	-124
ur	-125
ant	-126
ig	-127
it	-128
lad	-129
▁chwarae	-130
ai	-131
ael	-132
wys	-133
▁t	-134
rif	-135
os	-136
▁K	-137
and	-138
ac	-139
ynn	-140
iaeth	-141
▁ym	-142
if	-143
▁gyfer	-144
▁i	-145
ud	-146
ne	-147
▁V	-148
oc	-149
red	-150
ex	-151
us	-152
yr	-153
ing	-154
ran	-155
▁e	-156
ers	-157
▁gyd	-158
ak	-159
om	-160
▁ac	-161
▁Ab	-162
enn	-163
▁cynn	-164
▁gr	-165
ans	-166
ill	-167
▁Roedd	-168
▁Maes	-169
▁O	-170
bl	-171
▁(	-172
erdd	-173
nod	-174
0.	-175
ym	-176
em	-177
dal	-178
erddor	-179
ab	-180
ell	-181
▁cerddor	-182
▁grp	-183
▁cynnwys	-184
ff	-185
rei	-186
wn	-187
▁l	-188
inas	-189
▁lleoliad	-190
▁Ch	-191
▁3	-192
▁Ff	-193
aen	-194
▁Ar	-195
art	-196
afodd	-197
gw	-198
ion	-199
▁cerddoriaeth	-200
ot	-201
▁Am	-202
▁New	-203
▁fel	-204
▁Rh	-205
▁Cafodd	-206
▁Gw	-207
▁Ad	-208
ip	-209
▁Ind	-210
▁â	-211
▁An	-212
og	-213
▁rhan	-214
ton	-215
ain	-216
▁Co	-217
edig	-218
ro	-219
efyd	-220
eol	-221
▁k	-222
▁un	-223
eithred	-224
▁And	-225
ian	-226
fod	-227
iai	-228
aelod	-229
yl	-230
ag	-231
all	-232
li	-233
ah	-234
▁prif	-235
▁lleoli	-236
▁St	-237
▁sydd	-238
▁As	-239
id	-240
▁eth	-241
lo	-242
ay	-243
nydd	-244
▁Aar	-245
▁gyda	-246
der	-247
wm	-248
enw	-249
gol	-250
▁ff	-251
▁Alb	-252
▁aelod	-253
01	-254
tl	-255
▁200	-256
ry	-257
neg	-258
ref	-259
▁De	-260
ap	-261
▁Ak	-262
av	-263
▁enw	-264
▁her	-265
yfr	-266
▁herwydd	-267
▁n	-268
aidd	-269
ey	-270
▁ardal	-271
▁Tex	-272
▁rheol	-273
▁5	-274
▁gwlad	-275
▁km	-276
ul	-277
ddi	-278
unt	-279
neud	-280
▁gwrei	-281
um	-282
▁cl	-283
▁di	-284
▁Texas	-285
▁FC	-286
iaith	-287
▁iaith	-288
yll	-289
▁Mar	-290
arth	-291
ni	-292
op	-293
▁am	-294
eric	-295
▁4	-296
arw	-297
ov	-298
ash	-299
obl	-300
▁met	-301
ington	-302
ore	-303
ladol	-304
▁Rhyn	-305
ent	-306
▁Cyf	-307
ert	-308
63	-309
▁ddinas	-310
ico	-311
▁hefyd	-312
gwladol	-313
▁gweithred	-314
im	-315
aes	-316
▁Aw	-317
res	-318
▁cyfans	-319
wch	-320
▁10	-321
▁Rhyngwladol	-322
wrth	-323
▁hyd	-324
wedd	-325
ric	-326
▁Alan	-327
▁gydran	-328
ist	-329
ont	-330
▁Alf	-331
yllt	-332
ysyllt	-333
aesneg	-334
oh	-335
yh	-336
yhoedd	-337
▁Alex	-338
he	-339
▁u	-340
ut	-341
bur	-342
baen	-343
DA	-344
riant	-345
▁0	-346
erth	-347
▁Cal	-348
qu	-349
▁sei	-350
ang	-351
end	-352
▁Can	-353
ust	-354
ones	-355
le	-356
▁Saesneg	-357
▁Aaron	-358
ard	-359
000.	-360
▁cael	-361
ob	-362
rydd	-363
ham	-364
▁Ac	-365
▁Anders	-366
orn	-367
▁Count	-368
nu	-369
▁Wash	-370
ett	-371
asan	-372
▁Americ	-373
▁County	-374
ena	-375
gan	-376
acon	-377
iv	-378
▁metr	-379
reu	-380
▁cyfl	-381
▁Sbaen	-382
▁11	-383
▁Atl	-384
▁ethol	-385
▁Washington	-386
8.	-387
ec	-388
ge	-389
lu	-390
▁farw	-391
ons	-392
eiriant	-393
6.	-394
ond	-395
▁cyfnod	-396
ama	-397
000	-398
ock	-399
▁drei	-400
▁oedd	-401
▁Yn	-402
▁gweithredu	-403
of	-404
▁Joh	-405
iant	-406
▁sgw	-407
-1	-408
ie	-409
▁Adam	-410
ech	-411
▁rhif	-412
▁uwch	-413
arc	-414
ein	-415
ws	-416
wbl	-417
wyn	-418
ros	-419
iana	-420
▁Br	-421
wyb	-422
ewn	-423
ben	-424
awr	-425
▁gwreiddi	-426
▁Mart	-427
ou	-428
laen	-429
bys	-430
▁Rom	-431
yrch	-432
ack	-433
▁Mad	-434
▁Martin	-435
▁dinas	-436
▁Ll	-437
ath	-438
efel	-439
▁dod	-440
▁AI	-441
ara	-442
âr	-443
ôb	-444
ta	-445
ong	-446
van	-447
barth	-448
zz	-449
ib	-450
▁Ap	-451
▁John	-452
▁Alexand	-453
liedig	-454
▁Calif	-455
ner	-456
▁lefel	-457
asanaeth	-458
fa	-459
▁gen	-460
▁pobl	-461
ork	-462
▁llyfr	-463
eor	-464
sg	-465
▁201	-466
▁Californ	-467
sh	-468
▁ganfod	-469
nas	-470
▁II	-471
▁Bak	-472
▁Ag	-473
wmni	-474
▁grpiau	-475
▁6	-476
▁Ei	-477
▁maes	-478
▁Eidal	-479
co	-480
ich	-481
▁ad	-482
▁or	-483
ston	-484
▁dref	-485
▁bacon	-486
wybr	-487
2.	-488
▁seiliedig	-489
son	-490
▁cyd	-491
artref	-492
▁Atlant	-493
▁uwchben	-494
iwyd	-495
▁Geor	-496
yddiad	-497
▁"	-498
▁York	-499
▁7	-500
ott	-501
▁Ant	-502
▁wneud	-503
4.	-504
iam	-505
eil	-506
nuol	-507
▁Alfred	-508
▁Ro	-509
onne	-510
▁sgwâr	-511
▁Z	-512
ollo	-513
▁India	-514
▁ethnuol	-515
▁clôb	-516
▁Californiad	-517
argan	-518
ord	-519
îm	-520
ala	-521
▁Aff	-522
▁Dan	-523
rifenn	-524
▁195	-525
eth	-526
ysylltu	-527
▁Albert	-528
▁farwodd	-529
ru	-530
▁tîm	-531
bo	-532
rian	-533
ja	-534
▁gweith	-535
▁Col	-536
ymder	-537
hus	-538
ee	-539
olf	-540
▁Bu	-541
00.	-542
iol	-543
▁Par	-544
▁Georg	-545
▁Aarhus	-546
▁Affric	-547
▁18	-548
sgrifenn	-549
pi	-550
ach	-551
aith	-552
▁8	-553
▁cwbl	-554
3.	-555
▁Will	-556
▁William	-557
iss	-558
▁Bar	-559
yg	-560
▁Aston	-561
5.	-562
ek	-563
lin	-564
nol	-565
ustin	-566
▁16	-567
eir	-568
ire	-569
isg	-570
▁Tech	-571
▁lans	-572
dul	-573
sio	-574
▁Abdul	-575
marc	-576
iet	-577
▁Gro	-578
ysbys	-579
▁rheoli	-580
edeg	-581
ysg	-582
▁Gu	-583
wng	-584
▁Mend	-585
▁Sp	-586
▁pen	-587
▁199	-588
▁Andre	-589
▁Is	-590
▁Ne	-591
ity	-592
▁Gwrth	-593
▁17	-594
▁Man	-595
▁Dd	-596
eem	-597
▁gael	-598
▁Akeem	-599
9.	-600
▁tra	-601
▁perth	-602
▁hysbys	-603
▁llwybr	-604
nes	-605
yw	-606
ersey	-607
▁Jersey	-608
eo	-609
iadau	-610
ser	-611
▁cwmni	-612
▁Unedig	-613
▁In	-614
▁cym	-615
▁cloc	-616
▁ysgrifenn	-617
ais	-618
rin	-619
▁gwreiddiol	-620
▁25	-621
▁All	-622
ull	-623
1.	-624
edol	-625
ya	-626
awn	-627
man	-628
▁rhedeg	-629
▁gyn	-630
▁Indones	-631
orth	-632
ura	-633
▁AIDA	-634
▁gwneud	-635
burg	-636
▁roedd	-637
▁Tur	-638
ez	-639
ort	-640
634	-641
rid	-642
▁fewn	-643
inc	-644
▁genre	-645
ysgol	-646
erb	-647
erf	-648
ron	-649
SA	-650
▁198	-651
).	-652
ilip	-653
▁Mex	-654
einydd	-655
▁Austin	-656
air	-657
ison	-658
eb	-659
iaidd	-660
ank	-661
▁Mexico	-662
▁Indiana	-663
▁Cl	-664
▁Pr	-665
▁12	-666
7.	-667
▁br	-668
erch	-669
▁eu	-670
▁City	-671
orff	-672
rych	-673
▁Gr	-674
egol	-675
arganfod	-676
ene	-677
ica	-678
▁Apollo	-679
efnydd	-680
▁chwaraewr	-681
dur	-682
eilad	-683
ik	-684
amp	-685
wyaf	-686
▁Ser	-687
own	-688
ofnod	-689
▁9	-690
ilyn	-691
▁Lond	-692
rem	-693
▁192	-694
▁193	-695
▁peiriant	-696
dod	-697
▁dreid	-698
▁IS	-699
lwyd	-700
ellir	-701
▁1634	-702
▁Ah	-703
▁de	-704
stod	-705
aw	-706
ifol	-707
hit	-708
gu	-709
que	-710
▁gysylltu	-711
▁clocb	-712
▁wlad	-713
▁AC	-714
▁cartref	-715
arya	-716
alays	-717
▁fydd	-718
yhoeddi	-719
▁Anderson	-720
vill	-721
▁Malays	-722
ev	-723
▁NA	-724
▁Indonesia	-725
ce	-726
ilom	-727
ino	-728
▁cyn	-729
▁NASA	-730
▁Ram	-731
▁Malaysia	-732
▁Affricaidd	-733
▁15	-734
▁sefyd	-735
▁Madrid	-736
▁Wedi	-737
▁myn	-738
ecord	-739
ella	-740
▁Gor	-741
ville	-742
aj	-743
▁Her	-744
0000	-745
▁hyn	-746
▁dyddiad	-747
gl	-748
kov	-749
▁14	-750
▁gl	-751
▁Record	-752
ma	-753
ace	-754
est	-755
▁nod	-756
de	-757
gh	-758
▁soc	-759
una	-760
▁AL	-761
▁Deyr	-762
▁Mich	-763
▁rock	-764
▁ymdd	-765
eks	-766
▁Whit	-767
▁Aleks	-768
▁Jones	-769
edr	-770
nau	-771
▁Ahm	-772
▁Ay	-773
rychiol	-774
▁chwydd	-775
▁lansio	-776
▁Deyrnas	-777
26	-778
▁myr	-779
▁arch	-780
cons	-781
uniad	-782
bor	-783
▁cyfanswm	-784
ens	-785
ct	-786
ph	-787
eiriad	-788
ny	-789
anol	-790
▁adeilad	-791
▁Au	-792
▁archif	-793
),	-794
▁ddel	-795
▁Chwarae	-796
drin	-797
▁UDA	-798
▁London	-799
▁gweithio	-800
oy	-801
ina	-802
▁Mendri	-803
▁Wil	-804
▁berch	-805
▁AF	-806
▁ne	-807
▁unig	-808
▁Mendrisio	-809
▁27	-810
▁White	-811
▁Ffont	-812
▁gwasanaeth	-813
▁Car	-814
10	-815
rth	-816
tist	-817
▁Rib	-818
▁Danmarc	-819
ôn	-820
▁gair	-821
ok	-822
icoff	-823
▁mwyaf	-824
▁Bl	-825
▁in	-826
▁She	-827
▁Adams	-828
▁cyflymder	-829
▁Ym	-830
ledd	-831
ânydd	-832
▁Ribicoff	-833
▁darganfod	-834
▁Pl	-835
▁Add	-836
▁Georgia	-837
-0	-838
any	-839
ita	-840
istan	-841
▁Tran	-842
▁31	-843
pard	-844
▁Shepard	-845
ddull	-846
▁amry	-847
wyddfa	-848
▁Aldrin	-849
▁Andrew	-850
ater	-851
▁orb	-852
onnell	-853
rt	-854
uno	-855
charya	-856
▁gwreidd	-857
▁Be	-858
▁Town	-859
▁artist	-860
▁Records	-861
adem	-862
▁Acharya	-863
eld	-864
000.0	-865
▁peil	-866
▁Su	-867
▁0.	-868
per	-869
chw	-870
▁Ob	-871
raff	-872
odiad	-873
▁Pres	-874
▁peilot	-875
▁Ver	-876
ylch	-877
▁Bus	-878
wl	-879
▁Sh	-880
▁Ell	-881
▁dan	-882
▁Awdur	-883
syl	-884
▁Sing	-885
az	-886
▁1634:	-887
92	-888
wyddon	-889
▁Groeg	-890
▁Unedol	-891
uf	-892
▁amser	-893
wrdd	-894
▁Gl	-895
-2	-896
hio	-897
▁byw	-898
▁llin	-899
ess	-900
▁Mah	-901
▁Arian	-902
▁Ohio	-903
▁Canad	-904
▁arddull	-905
▁Yr	-906
raham	-907
▁Abraham	-908
po	-909
iot	-910
▁per	-911
▁Penn	-912
▁dilyn	-913
-3	-914
▁Fran	-915
▁Elliot	-916
▁cyflwr	-917
▁cwblwyd	-918
si	-919
vania	-920
weddol	-921
sylvania	-922
▁Pennsylvania	-923
▁103	-924
reuwyd	-925
▁adeiladu	-926
▁Bat	-927
ilene	-928
▁Abilene	-929
▁gyfl	-930
▁Singap	-931
▁Atlanta	-932
pl	-933
▁Mat	-934
▁Akita	-935
Donnell	-936
▁weithred	-937
▁Sc	-938
▁Llo	-939
wysedd	-940
▁perthyn	-941
▁rheolydd	-942
▁Buzz	-943
▁Ffilip	-944
▁Gweith	-945
▁American	-946
fo	-947
▁cyfr	-948
▁gweinydd	-949
▁Sw	-950
▁Bean	-951
consin	-952
isconsin	-953
iedig	-954
▁Acc	-955
▁Wisconsin	-956
▁Atlantic	-957
ter	-958
▁See	-959
▁Albany	-960
55	-961
▁Ath	-962
▁Gog	-963
▁Turner	-964
yhoeddus	-965
▁Gogledd	-966
rad	-967
▁Lans	-968
oddwyd	-969
▁Awyrlu	-970
▁Gweithred	-971
wrc	-972
▁Abel	-973
▁Americaidd	-974
ass	-975
▁Sbaeneg	-976
▁berchen	-977
eri	-978
ewis	-979
negol	-980
ago	-981
aya	-982
▁Po	-983
▁Bur	-984
▁geiriad	-985
▁Singapore	-986
▁Akron	-987
▁Technegol	-988
MA	-989
▁ma	-990
ymyn	-991
▁Ystod	-992
▁Gwasanaeth	-993
▁glud	-994
str	-995
wlch	-996
▁Bo	-997
ub	-998
ych	-999
▁Ju	-1000
itar	-1001
▁Twrc	-1002
more	-1003
▁Pal	-1004
▁ebo	-1005
▁Lleol	-1006
▁@	-1007
▁Cyfl	-1008
chymyn	-1009
▁23	-1010
▁amryw	-1011
▁Newydd	-1012
erd	-1013
▁bl	-1014
▁Alv	-1015
ysylltiedig	-1016
taf	-1017
burn	-1018
▁Fel	-1019
aka	-1020
efnyddio	-1021
chwan	-1022
▁info	-1023
els	-1024
thm	-1025
▁Ber	-1026
▁Sch	-1027
▁orbifol	-1028
▁prifrif	-1029
▁ddelwedd	-1030
▁Kar	-1031
bb	-1032
▁GMA	-1033
▁Dech	-1034
▁neu	-1035
onnect	-1036
▁Connect	-1037
ippi	-1038
▁ped	-1039
ississ	-1040
ississippi	-1041
orol	-1042
▁Dav	-1043
aid	-1044
ddo	-1045
icut	-1046
olyg	-1047
▁Alm	-1048
▁Busnes	-1049
▁Mississippi	-1050
hw	-1051
▁At	-1052
▁DC	-1053
▁Ph	-1054
olis	-1055
ship	-1056
▁Township	-1057
▁Connecticut	-1058
▁Mc	-1059
▁NR	-1060
▁Angol	-1061
▁Auburn	-1062
nat	-1063
ales	-1064
erson	-1065
▁Angola	-1066
▁Aleksand	-1067
▁1.	-1068
unio	-1069
▁corff	-1070
▁swyddfa	-1071
▁Del	-1072
▁Med	-1073
erdam	-1074
▁196	-1075
▁llawn	-1076
mud	-1077
▁Fo	-1078
▁Ash	-1079
▁Iseld	-1080
osbarth	-1081
gin	-1082
aisa	-1083
▁nhw	-1084
▁1963	-1085
▁cyrch	-1086
▁Gellir	-1087
▁Technol	-1088
och	-1089
".	-1090
99	-1091
up	-1092
hau	-1093
▁AFC	-1094
▁Alc	-1095
▁Cof	-1096
▁ffu	-1097
▁Math	-1098
▁beiriant	-1099
za	-1100
ins	-1101
88	-1102
uqu	-1103
ares	-1104
erque	-1105
▁Albuqu	-1106
▁Albuquerque	-1107
▁Ara	-1108
▁Dis	-1109
▁Gwerth	-1110
71	-1111
Qu	-1112
atra	-1113
▁bob	-1114
▁eboch	-1115
wyrain	-1116
▁arian	-1117
▁Alexandr	-1118
▁Vir	-1119
▁Hall	-1120
▁Sgol	-1121
▁Canol	-1122
▁En	-1123
▁sia	-1124
ande	-1125
▁Pak	-1126
▁Awstr	-1127
▁Trane	-1128
▁Sri	-1129
▁creu	-1130
▁Obama	-1131
▁Barack	-1132
cio	-1133
emat	-1134
▁Calcio	-1135
ademia	-1136
ona	-1137
▁all	-1138
▁saf	-1139
▁weith	-1140
60	-1141
▁X	-1142
▁Pol	-1143
rainc	-1144
▁Alison	-1145
▁Ffrainc	-1146
▁gydrannau	-1147
erfyn	-1148
▁Arch	-1149
▁cofnod	-1150
▁Lleoliad	-1151
33	-1152
jas	-1153
dodd	-1154
▁Pakistan	-1155
asil	-1156
▁Jav	-1157
▁chw	-1158
Am	-1159
fu	-1160
imedr	-1161
abel	-1162
▁Inc	-1163
▁byr	-1164
▁brif	-1165
▁dian	-1166
▁label	-1167
▁Ol	-1168
▁Sol	-1169
itett	-1170
▁bobl	-1171
▁sand	-1172
itettura	-1173
▁Architettura	-1174
eim	-1175
ings	-1176
rest	-1177
▁Der	-1178
aheim	-1179
▁Adolf	-1180
▁Almaen	-1181
▁Anaheim	-1182
▁cymorth	-1183
haj	-1184
▁Garth	-1185
▁ymlaen	-1186
▁Arg	-1187
wrnod	-1188
▁Ardal	-1189
▁dianc	-1190
▁Brasil	-1191
▁rheolwr	-1192
▁Bang	-1193
▁Ahmet	-1194
▁Romeo	-1195
/2	-1196
igh	-1197
ini	-1198
▁Mon	-1199
▁yna	-1200
alore	-1201
▁Du	-1202
▁Or	-1203
ador	-1204
▁Tei	-1205
▁maen	-1206
▁Antares	-1207
▁Bangalore	-1208
▁SC	-1209
ewin	-1210
ginia	-1211
▁prifn	-1212
▁ganddo	-1213
▁Virginia	-1214
bal	-1215
anan	-1216
igan	-1217
▁amg	-1218
▁can	-1219
llewin	-1220
iwn	-1221
odge	-1222
▁Gyn	-1223
ionico	-1224
adh	-1225
▁mawrth	-1226
▁diwrnod	-1227
▁Gyhoeddus	-1228
▁The	-1229
▁Asia	-1230
▁Mawr	-1231
▁Michigan	-1232
▁Accademia	-1233
BN	-1234
ine	-1235
einë	-1236
fred	-1237
▁Ray	-1238
▁Tenn	-1239
▁Dodge	-1240
▁safle	-1241
▁ychwan	-1242
▁defnyddio	-1243
ber	-1244
▁21	-1245
▁ond	-1246
aceae	-1247
istir	-1248
iroedd	-1249
▁Rayel	-1250
▁Swistir	-1251
jax	-1252
▁20	-1253
▁La	-1254
arch	-1255
▁Baku	-1256
▁ISBN	-1257
▁Iseldiroedd	-1258
▁Ba	-1259
alen	-1260
wyth	-1261
▁terfyn	-1262
rist	-1263
▁uch	-1264
▁Ajax	-1265
▁Alfa	-1266
▁Char	-1267
iy	-1268
aba	-1269
par	-1270
▁arg	-1271
▁Canada	-1272
wer	-1273
ythm	-1274
▁Gur	-1275
▁Unolig	-1276
lith	-1277
▁Twrceg	-1278
ign	-1279
▁Har	-1280
shire	-1281
andeja	-1282
are	-1283
ero	-1284
▁ef	-1285
▁Rid	-1286
arajas	-1287
ingham	-1288
▁Adolfo	-1289
êm	-1290
etr	-1291
iri	-1292
▁Uru	-1293
▁unigol	-1294
▁Madison	-1295
▁29	-1296
eton	-1297
97	-1298
ask	-1299
▁Ho	-1300
▁Jam	-1301
▁Kov	-1302
▁com	-1303
wyl	-1304
ifil	-1305
▁Mos	-1306
▁Tsi	-1307
▁seil	-1308
▁Ariane	-1309
fan	-1310
lint	-1311
ewell	-1312
▁Appl	-1313
▁Bwlch	-1314
▁Flint	-1315
▁Sport	-1316
▁paisa	-1317
▁Tsieinë	-1318
▁Appleton	-1319
▁sandwydd	-1320
ive	-1321
▁SV	-1322
▁Pri	-1323
▁Asad	-1324
▁Eric	-1325
▁perthnas	-1326
SN	-1327
ira	-1328
unk	-1329
way	-1330
ychwyn	-1331
▁Ababa	-1332
▁gyfuno	-1333
▁gyntaf	-1334
BQ	-1335
aib	-1336
tar	-1337
alli	-1338
▁Juan	-1339
▁Lank	-1340
▁Taib	-1341
▁Dinas	-1342
vel	-1343
00.0	-1344
luna	-1345
▁NRBQ	-1346
▁Agnes	-1347
▁flaen	-1348
var	-1349
ignit	-1350
▁Llyfr	-1351
inignit	-1352
ast	-1353
osa	-1354
▁13	-1355
▁Acta	-1356
▁bres	-1357
▁Media	-1358
▁terfynu	-1359
▁Kh	-1360
wrop	-1361
▁Ben	-1362
▁Cam	-1363
▁Cle	-1364
veland	-1365
efydlwyd	-1366
wyddonol	-1367
▁AIDAluna	-1368
▁Cleveland	-1369
▁perthnasol	-1370
eal	-1371
▁AM	-1372
eral	-1373
▁bôn	-1374
▁Bacon	-1375
▁metel	-1376
▁Bionico	-1377
▁Awdurdod	-1378
▁197	-1379
▁cod	-1380
▁Ewrop	-1381
ouis	-1382
udni	-1383
▁Atlas	-1384
▁Black	-1385
▁Louis	-1386
udnikov	-1387
▁cyfrol	-1388
▁ffugol	-1389
▁Prudnikov	-1390
▁Dyn	-1391
▁Chin	-1392
▁James	-1393
▁ysgrifennu	-1394
▁ISSN	-1395
▁penn	-1396
nataka	-1397
Barajas	-1398
▁Karnataka	-1399
▁AZ	-1400
▁Th	-1401
egun	-1402
rang	-1403
▁1955	-1404
▁Mahmud	-1405
▁gludiant	-1406
pen	-1407
odol	-1408
▁Dar	-1409
ivers	-1410
▁Bandeja	-1411
91	-1412
ipe	-1413
▁dar	-1414
▁myl	-1415
icago	-1416
▁bryd	-1417
▁Abarth	-1418
▁Chicago	-1419
mp	-1420
▁Dr	-1421
avar	-1422
atric	-1423
eaidd	-1424
▁1000	-1425
▁Ayam	-1426
▁Hong	-1427
▁Jenn	-1428
▁Kong	-1429
▁mewn	-1430
▁Antio	-1431
▁Bavar	-1432
▁ymddog	-1433
▁cwblhau	-1434
▁Jennings	-1435
80	-1436
sai	-1437
ania	-1438
apan	-1439
esol	-1440
▁ddi	-1441
saire	-1442
▁Teisaire	-1443
▁5.	-1444
▁Sk	-1445
▁wn	-1446
▁gêm	-1447
▁Hamp	-1448
▁tros	-1449
▁cânydd	-1450
▁Hampshire	-1451
24	-1452
oj	-1453
adi	-1454
anco	-1455
eler	-1456
marcas	-1457
iva	-1458
yper	-1459
▁164	-1460
▁oes	-1461
▁2000	-1462
▁gwrth	-1463
▁Felipe	-1464
ypermarcas	-1465
▁al	-1466
eren	-1467
▁AMC	-1468
untain	-1469
▁Fountain	-1470
so	-1471
Gas	-1472
att	-1473
▁250	-1474
olfan	-1475
ufain	-1476
▁Java	-1477
▁bwys	-1478
▁llyf	-1479
eriGas	-1480
▁Lloeg	-1481
▁siarad	-1482
▁Unysgol	-1483
▁AmeriGas	-1484
▁gwreiddiadau	-1485
ney	-1486
pena	-1487
▁Tor	-1488
angos	-1489
raffu	-1490
glwydd	-1491
ilomar	-1492
▁Addis	-1493
▁Johnson	-1494
▁Asilomar	-1495
▁Os	-1496
▁Lanka	-1497
▁ddewis	-1498
▁Tsieinëeg	-1499
ôl	-1500
esh	-1501
lam	-1502
illa	-1503
redi	-1504
ynnu	-1505
▁Sam	-1506
▁cymh	-1507
▁ffoj	-1508
▁Alpena	-1509
▁dwysedd	-1510
oi	-1511
▁aw	-1512
▁Per	-1513
▁peniet	-1514
▁Sefydlwyd	-1515
▁Eli	-1516
▁Mary	-1517
▁Verm	-1518
▁Gynrychiol	-1519
eid	-1520
oll	-1521
guay	-1522
ight	-1523
ordd	-1524
▁191	-1525
grydd	-1526
▁ddisg	-1527
15	-1528
90	-1529
anc	-1530
hire	-1531
radd	-1532
▁Rob	-1533
▁Vis	-1534
▁Park	-1535
▁Ynys	-1536
▁marw	-1537
▁drefn	-1538
▁Uruguay	-1539
ão	-1540
ano	-1541
▁Af	-1542
liad	-1543
▁Gre	-1544
atraz	-1545
▁Amar	-1546
▁Ayers	-1547
▁Ridge	-1548
byshire	-1549
▁Alberto	-1550
▁amrywiad	-1551
▁weithredu	-1552
▁US	-1553
lues	-1554
▁Cra	-1555
▁For	-1556
▁Prif	-1557
▁Roma	-1558
▁golyg	-1559
▁Cyfuniad	-1560
▁gyflymder	-1561
▁cysylltiedig	-1562
75	-1563
▁Cyn	-1564
▁Ffrang	-1565
▁Robert	-1566
▁Andrews	-1567
▁Bakewell	-1568
▁Alexandra	-1569
▁Ewropeaidd	-1570
con	-1571
itra	-1572
▁San	-1573
▁rak	-1574
agnol	-1575
▁Argent	-1576
▁Vermont	-1577
▁Romagnol	-1578
64	-1579
ann	-1580
▁Az	-1581
▁raked	-1582
▁Alfons	-1583
▁Cyhoedd	-1584
▁llinell	-1585
▁dosbarth	-1586
▁Romagnoli	-1587
▁Derbyshire	-1588
unc	-1589
ves	-1590
▁is	-1591
abank	-1592
essio	-1593
▁Alessio	-1594
▁Sportiva	-1595
▁Chinabank	-1596
rac	-1597
▁RS	-1598
▁st	-1599
omot	-1600
▁yma	-1601
yddiaeth	-1602
▁sefydlwyd	-1603
omb	-1604
▁3.	-1605
▁Bor	-1606
redir	-1607
omotive	-1608
▁Alcatraz	-1609
43	-1610
CO	-1611
ji	-1612
ade	-1613
inn	-1614
ram	-1615
ryd	-1616
und	-1617
▁Er	-1618
▁Mo	-1619
▁Ill	-1620
▁ALCO	-1621
▁Alab	-1622
yddion	-1623
▁Acura	-1624
▁Serie	-1625
▁gyrch	-1626
lington	-1627
▁orchymyn	-1628
LC	-1629
▁Iq	-1630
illo	-1631
link	-1632
▁Com	-1633
ersus	-1634
inois	-1635
▁2006	-1636
▁Agra	-1637
▁Iqbal	-1638
▁Klink	-1639
oblanco	-1640
sterdam	-1641
▁Christ	-1642
▁Versus	-1643
▁Alabama	-1644
▁Illinois	-1645
70	-1646
-01	-1647
▁26	-1648
abat	-1649
ahra	-1650
▁Bir	-1651
joblanco	-1652
▁llofnod	-1653
▁allweddol	-1654
aska	-1655
▁Sar	-1656
abeth	-1657
▁2014	-1658
▁Lloegr	-1659
89	-1660
pool	-1661
▁100	-1662
▁Ala	-1663
▁Cab	-1664
▁Eliz	-1665
allero	-1666
▁Allen	-1667
▁cydwydd	-1668
▁Caballero	-1669
▁Elizabeth	-1670
borne	-1671
▁Alaa	-1672
▁seilio	-1673
▁Osborne	-1674
▁'	-1675
▁Hel	-1676
▁ses	-1677
allas	-1678
derney	-1679
udalen	-1680
▁dderb	-1681
▁Forrest	-1682
▁Alderney	-1683
rau	-1684
udi	-1685
▁8.	-1686
▁du	-1687
▁Cap	-1688
▁Stat	-1689
wmania	-1690
▁Hollo	-1691
▁Dallas	-1692
▁Holloway	-1693
▁Mathemat	-1694
▁cysylltu	-1695
▁Christian	-1696
▁chwaraewyd	-1697
CLC	-1698
emau	-1699
▁Zitar	-1700
▁Zitarros	-1701
▁Aleksandr	-1702
▁Blackpool	-1703
bach	-1704
weth	-1705
▁blaen	-1706
▁rhwng	-1707
▁Alfredo	-1708
▁Gorbach	-1709
▁Ffrangeg	-1710
▁Zitarrosa	-1711
erft	-1712
onda	-1713
wsia	-1714
▁Jon	-1715
▁Whe	-1716
▁Irac	-1717
▁Honda	-1718
▁Werft	-1719
▁cyflith	-1720
▁tudalen	-1721
12	-1722
iom	-1723
▁190	-1724
arfod	-1725
fuwyd	-1726
▁Asam	-1727
▁Audi	-1728
▁Birm	-1729
▁Abner	-1730
▁Bella	-1731
▁Press	-1732
▁Alaska	-1733
▁chwrth	-1734
ane	-1735
ila	-1736
pill	-1737
▁Bel	-1738
iadis	-1739
ident	-1740
00000.	-1741
oddodd	-1742
wethaf	-1743
▁Cater	-1744
▁gellir	-1745
▁person	-1746
▁Canolfan	-1747
▁Ajoblanco	-1748
▁Caterpill	-1749
▁Birmingham	-1750
▁Georgiadis	-1751
73	-1752
▁ymg	-1753
ontol	-1754
▁Mont	-1755
▁Frank	-1756
▁canfod	-1757
▁Rwmania	-1758
▁Amsterdam	-1759
▁President	-1760
▁Caterpillar	-1761
sis	-1762
▁Sg	-1763
choy	-1764
▁ALV	-1765
▁Ystodol	-1766
abin	-1767
akar	-1768
egon	-1769
▁Ham	-1770
gabat	-1771
▁OCLC	-1772
▁Sabin	-1773
▁sgwmp	-1774
▁Batchoy	-1775
▁Ashgabat	-1776
eon	-1777
oga	-1778
▁52	-1779
▁Cor	-1780
▁Deer	-1781
▁Luna	-1782
▁ddyn	-1783
▁Matador	-1784
▁gwaelod	-1785
▁of	-1786
onis	-1787
ietro	-1788
▁Pietro	-1789
pt	-1790
umb	-1791
▁Adonis	-1792
▁Gwrthdodd	-1793
▁Technoleg	-1794
68	-1795
ow	-1796
utt	-1797
ywydd	-1798
ahanol	-1799
65	-1800
agg	-1801
▁34	-1802
▁ôl	-1803
elod	-1804
nand	-1805
▁Ard	-1806
▁Sum	-1807
▁Dagg	-1808
▁enwi	-1809
varaya	-1810
▁Oregon	-1811
▁Philip	-1812
atriciana	-1813
vesvaraya	-1814
▁cyhoeddi	-1815
▁Alexandre	-1816
/3	-1817
blin	-1818
inol	-1819
▁Wal	-1820
▁Abub	-1821
▁Pena	-1822
▁gwyn	-1823
▁Alvah	-1824
▁Wheeler	-1825
▁diwethaf	-1826
ake	-1827
sta	-1828
uston	-1829
▁Main	-1830
▁Rock	-1831
stella	-1832
▁Adare	-1833
ilometr	-1834
▁Creuwyd	-1835
▁Houston	-1836
▁ddyddiad	-1837
▁Visvesvaraya	-1838
gen	-1839
rup	-1840
▁Wat	-1841
▁pop	-1842
raddi	-1843
▁Bhaj	-1844
▁bisg	-1845
▁penb	-1846
▁Watson	-1847
▁Gweinydd	-1848
▁AIDAstella	-1849
▁ysgrifennwyd	-1850
▁Ef	-1851
▁Big	-1852
▁Ert	-1853
▁Loc	-1854
▁Met	-1855
▁Mil	-1856
▁hwn	-1857
00.0.	-1858
▁Adis	-1859
▁Ddem	-1860
▁Kant	-1861
▁Azerb	-1862
▁cynnu	-1863
▁Colmore	-1864
▁Ertegun	-1865
LX	-1866
ix	-1867
asm	-1868
ors	-1869
ofod	-1870
▁TLX	-1871
asmus	-1872
▁2009	-1873
▁Mark	-1874
▁Blues	-1875
▁Abubakar	-1876
▁Amarillo	-1877
▁Locomotive	-1878
▁-	-1879
▁hop	-1880
▁Belg	-1881
▁Road	-1882
▁Zeal	-1883
▁bren	-1884
▁socs	-1885
reuodd	-1886
▁Craig	-1887
▁Gwaith	-1888
▁Cartref	-1889
▁Zealand	-1890
▁chânydd	-1891
ón	-1892
agu	-1893
Rosa	-1894
▁Gwr	-1895
▁cof	-1896
ennie	-1897
ennog	-1898
▁Moore	-1899
▁Palae	-1900
▁Scales	-1901
▁Albennie	-1902
▁Palaeontol	-1903
evy	-1904
▁101	-1905
▁Pau	-1906
▁por	-1907
uding	-1908
▁Bryd	-1909
▁Levy	-1910
▁Asser	-1911
▁eiliad	-1912
▁argraffu	-1913
wa	-1914
âp	-1915
add	-1916
owch	-1917
ware	-1918
▁Ass	-1919
onica	-1920
▁mill	-1921
▁Rhowch	-1922
▁Dechreuodd	-1923
ink	-1924
oup	-1925
▁bw	-1926
artal	-1927
ddiad	-1928
▁Sand	-1929
▁Binignit	-1930
Atl	-1931
col	-1932
gel	-1933
iwr	-1934
yst	-1935
▁30	-1936
aware	-1937
odiadol	-1938
▁cymhwys	-1939
▁Delaware	-1940
48	-1941
lie	-1942
rez	-1943
▁Mag	-1944
▁alma	-1945
Atlant	-1946
▁Verona	-1947
▁Charlie	-1948
▁dreinydd	-1949
▁Chwaraewyd	-1950
▁gweinyddio	-1951
▁Hypermarcas	-1952
.,	-1953
19	-1954
LA	-1955
68.	-1956
ail	-1957
gon	-1958
wil	-1959
▁iâ	-1960
▁Arm	-1961
▁ELA	-1962
▁Turk	-1963
ananam	-1964
▁pedas	-1965
▁Awstria	-1966
▁sgwmpas	-1967
isco	-1968
▁Lum	-1969
▁mil	-1970
▁tâp	-1971
▁Dublin	-1972
▁Cyhoeddi	-1973
rew	-1974
▁Pu	-1975
▁VI	-1976
▁Day	-1977
▁Dou	-1978
hyrch	-1979
▁farww	-1980
▁gwaith	-1981
▁Affrica	-1982
▁gweithredol	-1983
CC	-1984
▁Q	-1985
hag	-1986
etta	-1987
otel	-1988
xein	-1989
erick	-1990
yland	-1991
anesol	-1992
▁Andra	-1993
▁Angel	-1994
▁Arapi	-1995
▁drein	-1996
xeinoup	-1997
▁Allama	-1998
▁Maryland	-1999
▁llofnodi	-2000
dw	-2001
CCN	-2002
▁GT	-2003
▁Atat	-2004
▁Glen	-2005
awnwyd	-2006
penhag	-2007
▁2006.	-2008
▁rhiant	-2009
rychioli	-2010
▁sefydlu	-2011
▁Copenhag	-2012
▁Indiaidd	-2013
▁Sgolyddiaeth	-2014
21	-2015
vo	-2016
▁as	-2017
ense	-2018
ynth	-2019
▁Pet	-2020
▁Glas	-2021
▁LCCN	-2022
▁Rams	-2023
▁Hotel	-2024
Atlantig	-2025
ananaman	-2026
▁penbwrdd	-2027
▁Efxeinoup	-2028
▁Gorllewin	-2029
go	-2030
ilm	-2031
sal	-2032
▁Cr	-2033
bury	-2034
ievo	-2035
para	-2036
árez	-2037
▁600	-2038
▁Chievo	-2039
▁Helena	-2040
▁Suárez	-2041
▁cydran	-2042
▁Ardmore	-2043
ave	-2044
awd	-2045
eitl	-2046
▁Cru	-2047
▁Inf	-2048
▁Camp	-2049
▁Ffil	-2050
ynnwys	-2051
▁Marri	-2052
▁gwerth	-2053
▁Uniaeth	-2054
▁Cyfarfod	-2055
▁cymhwysiad	-2056
▁Amatriciana	-2057
efn	-2058
ics	-2059
▁tr	-2060
nell	-2061
▁Ion	-2062
▁Hunt	-2063
▁Cruis	-2064
▁Japan	-2065
▁gwreid	-2066
▁wnaeth	-2067
▁Tenness	-2068
▁Bavarian	-2069
▁gwreiddiad	-2070
8,	-2071
264	-2072
aro	-2073
ose	-2074
bbio	-2075
ilad	-2076
land	-2077
▁bro	-2078
▁ffr	-2079
▁Gwer	-2080
▁gwas	-2081
wyniad	-2082
ysburg	-2083
▁teitl	-2084
wyddion	-2085
▁Gubbio	-2086
▁ddiwedd	-2087
▁Marriott	-2088
▁Tennessee	-2089
eed	-2090
gor	-2091
uch	-2092
▁dr	-2093
raqu	-2094
iller	-2095
remia	-2096
▁Antwer	-2097
▁Miller	-2098
raquense	-2099
ettysburg	-2100
▁Arapiraquense	-2101
leg	-2102
pia	-2103
▁Sky	-2104
▁Tyr	-2105
▁van	-2106
▁awyr	-2107
▁Guiana	-2108
▁Angeles	-2109
▁Philipp	-2110
▁Gettysburg	-2111
▁Sgwyddonol	-2112
▁Los	-2113
▁ymbl	-2114
llunio	-2115
▁2009.	-2116
▁Bhajji	-2117
▁Ffontri	-2118
BC	-2119
▁&	-2120
asp	-2121
lau	-2122
men	-2123
▁bp	-2124
lege	-2125
lyfr	-2126
port	-2127
▁Lee	-2128
▁Wolf	-2129
▁Spart	-2130
▁Ampara	-2131
efnyddir	-2132
▁College	-2133
▁(6	-2134
edyn	-2135
ocia	-2136
outh	-2137
wayd	-2138
▁Rod	-2139
▁hir	-2140
▁Alph	-2141
▁Hera	-2142
▁Hess	-2143
▁Rich	-2144
▁Twil	-2145
▁syst	-2146
waydan	-2147
▁ffordd	-2148
▁Daggett	-2149
▁Jwaydan	-2150
▁Twilight	-2151
AI	-2152
ick	-2153
vin	-2154
▁Jo	-2155
ymed	-2156
▁300	-2157
▁Dim	-2158
▁Enw	-2159
▁Gan	-2160
▁Baade	-2161
▁seren	-2162
iniaeth	-2163
▁Poaceae	-2164
▁Turkmen	-2165
▁ychwaneg	-2166
iz	-2167
dav	-2168
▁Jr	-2169
aint	-2170
alle	-2171
▁185	-2172
▁Lake	-2173
▁Olym	-2174
▁Cwmni	-2175
▁chwis	-2176
▁gorff	-2177
▁Ganymed	-2178
▁Arlington	-2179
lou	-2180
▁po	-2181
ulia	-2182
▁Clau	-2183
▁Serg	-2184
aretta	-2185
▁Athen	-2186
uli	-2187
▁0-	-2188
▁el	-2189
berg	-2190
onso	-2191
▁Mor	-2192
▁Row	-2193
▁Ter	-2194
iadol	-2195
▁1910	-2196
▁Wasp	-2197
▁gefn	-2198
▁2014.	-2199
▁Bakso	-2200
▁Neave	-2201
yddlyfr	-2202
▁Afonso	-2203
▁Guruli	-2204
▁Adisham	-2205
▁Gwaelod	-2206
▁cyfartal	-2207
▁millimedr	-2208
25	-2209
30	-2210
fi	-2211
ns	-2212
hol	-2213
les	-2214
nan	-2215
arol	-2216
irey	-2217
llun	-2218
omat	-2219
reet	-2220
ation	-2221
erder	-2222
▁Airey	-2223
▁Allan	-2224
▁Burns	-2225
▁Costa	-2226
▁Sifil	-2227
▁maent	-2228
▁Colomb	-2229
▁Street	-2230
▁Walter	-2231
▁chwyddo	-2232
glwyddiad	-2233
▁Alpharetta	-2234
▁Efxeinoupolis	-2235
Ar	-2236
rill	-2237
ywyr	-2238
▁LaS	-2239
Quaid	-2240
asana	-2241
ddiol	-2242
▁Werder	-2243
▁sesiwn	-2244
▁LaSalle	-2245
▁McQuaid	-2246
AL	-2247
zh	-2248
ami	-2249
ier	-2250
rat	-2251
▁Qu	-2252
gell	-2253
orno	-2254
▁fod	-2255
▁oel	-2256
waith	-2257
▁wrth	-2258
ivorno	-2259
salami	-2260
▁llinyn	-2261
▁Dimitra	-2262
▁Ffilipion	-2263
DS	-2264
bra	-2265
ezz	-2266
▁cw	-2267
▁Bôn	-2268
▁Ste	-2269
Arena	-2270
elvin	-2271
remen	-2272
▁Cres	-2273
▁Dent	-2274
▁dros	-2275
ezzane	-2276
▁Manor	-2277
▁uchaf	-2278
▁Bremen	-2279
▁Antioch	-2280
▁prifnog	-2281
▁Lumezzane	-2282
▁Abdulsalami	-2283
BS	-2284
oln	-2285
estl	-2286
▁AIP	-2287
▁Ace	-2288
▁Bob	-2289
▁DBS	-2290
▁Iyr	-2291
▁Koc	-2292
▁syl	-2293
estley	-2294
▁Delta	-2295
▁gofod	-2296
▁saeth	-2297
▁Camilla	-2298
▁Priestley	-2299
▁dilyniant	-2300
yma	-2301
▁Ot	-2302
afen	-2303
▁BBC	-2304
▁Bol	-2305
▁Arab	-2306
▁Cyfr	-2307
▁rhag	-2308
▁Aleksey	-2309
▁gyhoeddi	-2310
▁ymddangos	-2311
uel	-2312
zny	-2313
itas	-2314
orid	-2315
wych	-2316
▁170	-2317
▁Ker	-2318
▁Pro	-2319
▁lli	-2320
▁cydd	-2321
▁Chiri	-2322
tonbury	-2323
▁Grozny	-2324
▁Agremia	-2325
▁Cruises	-2326
▁Livorno	-2327
▁Gwrthdod	-2328
▁archifyr	-2329
▁cerddorol	-2330
74	-2331
94	-2332
▁Dia	-2333
▁hip	-2334
okrat	-2335
▁llad	-2336
▁Dilyn	-2337
▁Ffinn	-2338
antville	-2339
▁Ynysoedd	-2340
▁Glastonbury	-2341
▁56	-2342
▁ni	-2343
adio	-2344
kins	-2345
rich	-2346
range	-2347
yddydd	-2348
▁Dales	-2349
▁Kovac	-2350
▁Orange	-2351
▁gychwyn	-2352
▁Chirikov	-2353
▁Grantville	-2354
LT	-2355
acy	-2356
her	-2357
oto	-2358
▁44	-2359
▁107	-2360
▁Frew	-2361
lament	-2362
▁Green	-2363
▁Milan	-2364
▁Samar	-2365
▁awdur	-2366
▁Arabeg	-2367
▁Lansio	-2368
ddodiadol	-2369
▁prifnodd	-2370
51	-2371
6,	-2372
77	-2373
93	-2374
be	-2375
acob	-2376
ried	-2377
ylde	-2378
▁BLT	-2379
▁roc	-2380
hambra	-2381
▁Alvis	-2382
▁Asunc	-2383
▁Fylde	-2384
▁bwrdd	-2385
▁rhythm	-2386
▁ynaeth	-2387
rederick	-2388
▁Ffinnir	-2389
▁Alhambra	-2390
▁Disbarth	-2391
▁Copenhagen	-2392
ci	-2393
▁ja	-2394
tone	-2395
▁Gaz	-2396
davad	-2397
▁Gufa	-2398
▁jazz	-2399
▁yngh	-2400
ennodd	-2401
▁Monoc	-2402
▁gitar	-2403
▁maint	-2404
▁Rufain	-2405
▁Amdavad	-2406
▁Spartak	-2407
▁prifnogd	-2408
▁traddodiadol	-2409
▁UT	-2410
▁kg	-2411
Marc	-2412
boza	-2413
▁Air	-2414
▁teo	-2415
Marce	-2416
odwedd	-2417
▁Anton	-2418
▁Roman	-2419
▁Gazett	-2420
▁cyrchu	-2421
▁Barboza	-2422
▁DeMarce	-2423
▁Richard	-2424
▁cyfansod	-2425
▁Bananaman	-2426
▁Frederick	-2427
▁Alexandria	-2428
46	-2429
90.	-2430
jan	-2431
▁22	-2432
igre	-2433
iyat	-2434
▁Disg	-2435
▁fath	-2436
ylchol	-2437
▁Wilder	-2438
án	-2439
ana	-2440
kma	-2441
mir	-2442
▁car	-2443
arait	-2444
kmaar	-2445
ogwyd	-2446
▁Rhan	-2447
▁Sara	-2448
▁band	-2449
▁mawr	-2450
aethol	-2451
▁nigre	-2452
▁Kharait	-2453
▁Parlament	-2454
▁Kharaitiyat	-2455
▁ysgrifennir	-2456
-4	-2457
pop	-2458
uro	-2459
▁AS	-2460
▁lr	-2461
ndir	-2462
▁Pop	-2463
▁cop	-2464
devan	-2465
▁Cape	-2466
ahalli	-2467
▁Franc	-2468
▁Zahra	-2469
▁Dargan	-2470
▁Ionawr	-2471
▁pedwar	-2472
▁Alkmaar	-2473
▁roddodd	-2474
▁Soldevan	-2475
▁Soldevanahalli	-2476
ald	-2477
▁Se	-2478
Soto	-2479
akov	-2480
akri	-2481
argh	-2482
atta	-2483
▁Sen	-2484
▁gor	-2485
shnan	-2486
▁5600	-2487
▁Chum	-2488
▁Radh	-2489
▁Disco	-2490
▁DeSoto	-2491
▁Parker	-2492
arghatta	-2493
akrishnan	-2494
ysylltiad	-2495
▁Chumakov	-2496
▁Llyfrgell	-2497
▁cyfartaledd	-2498
▁Hessarghatta	-2499
▁Radhakrishnan	-2500
wf	-2501
-17	-2502
ien	-2503
urf	-2504
yng	-2505
icia	-2506
▁Pen	-2507
oviet	-2508
sburg	-2509
▁ddau	-2510
▁disg	-2511
efndir	-2512
▁comim	-2513
▁Samaras	-2514
▁Geiriant	-2515
▁gwreidol	-2516
▁Argentina	-2517
ač	-2518
▁Lu	-2519
ebyg	-2520
ysell	-2521
▁Plac	-2522
▁Kovač	-2523
▁Porth	-2524
▁tebyg	-2525
▁Athenn	-2526
▁Rhythm	-2527
kilometr	-2528
▁ymddogol	-2529
▁cydwyddwyd	-2530
evid	-2531
▁Tom	-2532
irond	-2533
▁math	-2534
▁cedyn	-2535
▁mater	-2536
▁Bobina	-2537
▁Kerala	-2538
▁uchder	-2539
irondack	-2540
▁Dwyrain	-2541
▁gwladol	-2542
▁Montevid	-2543
▁flaenorol	-2544
▁Adirondack	-2545
▁gyflawnwyd	-2546
iff	-2547
ind	-2548
los	-2549
agor	-2550
guez	-2551
heed	-2552
wyll	-2553
▁Leg	-2554
wyddo	-2555
▁blou	-2556
▁bwif	-2557
▁llaw	-2558
ogaard	-2559
▁ystod	-2560
▁cyfrif	-2561
▁America	-2562
▁Bwlchol	-2563
▁Boogaard	-2564
▁Greenville	-2565
▁Montevideo	-2566
04	-2567
IT	-2568
788	-2569
rys	-2570
ench	-2571
inki	-2572
orri	-2573
rith	-2574
tion	-2575
uner	-2576
ymax	-2577
zmir	-2578
▁Gal	-2579
▁ail	-2580
otter	-2581
▁AZAL	-2582
▁Hels	-2583
▁Unit	-2584
▁ddar	-2585
Americ	-2586
▁Arena	-2587
▁Awyrdd	-2588
▁Baymax	-2589
▁Potter	-2590
fredinol	-2591
▁Ystodod	-2592
▁Helsinki	-2593
▁Turkmenistan	-2594
nei	-2595
wak	-2596
akis	-2597
ione	-2598
pace	-2599
uart	-2600
▁Hop	-2601
▁Lle	-2602
▁gof	-2603
▁res	-2604
illip	-2605
orddi	-2606
▁Lock	-2607
▁Indie	-2608
▁ffurf	-2609
▁Stuart	-2610
▁Bertone	-2611
▁Sarawak	-2612
▁Univers	-2613
▁ymblwyd	-2614
▁Lockheed	-2615
▁Gweriniaeth	-2616
iel	-2617
lyn	-2618
odi	-2619
▁01	-2620
▁73	-2621
diom	-2622
enos	-2623
▁Ces	-2624
▁Ful	-2625
▁Lar	-2626
iphol	-2627
ymouth	-2628
▁Madin	-2629
▁17068.	-2630
▁Fulton	-2631
▁Phillip	-2632
▁roddwyd	-2633
▁Claudiom	-2634
▁Schiphol	-2635
▁Alexander	-2636
▁weithredir	-2637
▁trosglwyddiad	-2638
era	-2639
▁Ut	-2640
▁AwH	-2641
adesh	-2642
anden	-2643
▁Clôb	-2644
▁Stev	-2645
▁Syst	-2646
neider	-2647
▁Uttar	-2648
▁Cesena	-2649
▁Michel	-2650
▁kelvin	-2651
▁llywyr	-2652
▁Hanesol	-2653
▁Pradesh	-2654
▁gyrchyn	-2655
andenberg	-2656
▁dreidydd	-2657
▁Schneider	-2658
▁gorchymyn	-2659
31	-2660
jo	-2661
kh	-2662
abad	-2663
cone	-2664
mann	-2665
▁Fal	-2666
▁Jar	-2667
aijan	-2668
▁Bund	-2669
▁Gren	-2670
▁Mass	-2671
▁nawr	-2672
Ammann	-2673
accone	-2674
▁gyfans	-2675
eithoedd	-2676
▁bisgedi	-2677
▁Azerbaijan	-2678
▁ddefnyddir	-2679
▁Claudiomaccone	-2680
ke	-2681
jab	-2682
yon	-2683
ção	-2684
▁28	-2685
▁Ty	-2686
▁te	-2687
▁110	-2688
▁Glo	-2689
▁Pun	-2690
▁kil	-2691
▁1950	-2692
▁Bill	-2693
espace	-2694
▁Brydd	-2695
▁Mosco	-2696
▁brofi	-2697
▁Punjab	-2698
▁Vandenberg	-2699
▁Arianespace	-2700
AC	-2701
CA	-2702
wp	-2703
ohn	-2704
ril	-2705
▁Ta	-2706
arat	-2707
arez	-2708
uren	-2709
▁Art	-2710
▁Sal	-2711
▁1923	-2712
▁Hero	-2713
▁Rott	-2714
▁Armin	-2715
▁Asher	-2716
▁Buuren	-2717
▁Antonis	-2718
▁chwisiad	-2719
▁Rotterdam	-2720
▁gysylltiedig	-2721
ung	-2722
▁AE	-2723
▁er	-2724
enir	-2725
ibal	-2726
iger	-2727
▁Bro	-2728
▁Cas	-2729
▁Mal	-2730
▁Sibal	-2731
▁Sifol	-2732
▁ffong	-2733
▁sbaen	-2734
▁Daniel	-2735
▁Harbor	-2736
▁Johann	-2737
▁Moscow	-2738
▁adilad	-2739
▁Ddemokrat	-2740
pat	-2741
allu	-2742
asso	-2743
urch	-2744
iopia	-2745
▁Lyon	-2746
▁USDA	-2747
▁Vinc	-2748
▁canol	-2749
▁Grasso	-2750
▁Paragu	-2751
▁Ymlaen	-2752
▁Lleoedd	-2753
▁Vincent	-2754
▁cefndir	-2755
▁Ann	-2756
▁Cat	-2757
▁Nod	-2758
▁arl	-2759
athan	-2760
ociaz	-2761
▁gran	-2762
elsohn	-2763
▁Arbor	-2764
▁Arros	-2765
▁perch	-2766
▁saesneg	-2767
ociazione	-2768
▁Jonathan	-2769
▁artistau	-2770
▁llyfrnod	-2771
▁Mendelsohn	-2772
▁ychwanegol	-2773
0.0	-2774
500	-2775
itr	-2776
▁Da	-2777
▁Iâ	-2778
atto	-2779
bbia	-2780
▁Eth	-2781
▁Gyd	-2782
▁Lah	-2783
▁bar	-2784
▁mar	-2785
gonal	-2786
redol	-2787
▁1036	-2788
▁1932	-2789
▁Llof	-2790
bbiata	-2791
▁Aires	-2792
▁banan	-2793
▁Carlos	-2794
▁Lahore	-2795
▁brenin	-2796
rabbiata	-2797
▁Cornell	-2798
▁bwysedd	-2799
▁sbaeneg	-2800
▁Diagonal	-2801
▁dderbynnu	-2802
20	-2803
29	-2804
ep	-2805
rh	-2806
ley	-2807
yan	-2808
eeds	-2809
▁Dem	-2810
▁Fer	-2811
▁Hip	-2812
▁Pan	-2813
▁São	-2814
▁ast	-2815
▁gyr	-2816
erbyn	-2817
ester	-2818
▁AIDS	-2819
▁Arem	-2820
▁Jack	-2821
▁Mars	-2822
▁blws	-2823
▁coch	-2824
wyddol	-2825
▁Andal	-2826
▁Gwrei	-2827
▁Buenos	-2828
▁puding	-2829
▁Llofnod	-2830
▁gwahanol	-2831
▁Unolysgol	-2832
rk	-2833
ulu	-2834
vap	-2835
alla	-2836
▁Moy	-2837
irage	-2838
▁1999	-2839
▁2015	-2840
▁Tama	-2841
▁Baked	-2842
▁Niger	-2843
▁Peter	-2844
▁oesau	-2845
vapalli	-2846
▁Manila	-2847
▁Moyine	-2848
▁Suarez	-2849
▁Erasmus	-2850
▁Uniaidd	-2851
▁Sarvapalli	-2852
95	-2853
mo	-2854
oza	-2855
gyfr	-2856
▁Hyg	-2857
▁Jal	-2858
▁mat	-2859
▁Gwyn	-2860
echrau	-2861
eiliad	-2862
igwydd	-2863
▁Aenir	-2864
▁Davut	-2865
▁chwyr	-2866
▁teulu	-2867
▁Academ	-2868
▁Virage	-2869
▁Mendoza	-2870
▁Romance	-2871
▁arlunio	-2872
▁Phillips	-2873
yk	-2874
▁$	-2875
777	-2876
ema	-2877
iea	-2878
▁Eg	-2879
▁FD	-2880
odyn	-2881
wson	-2882
▁los	-2883
10777	-2884
obend	-2885
▁Jaya	-2886
▁Long	-2887
▁Sarw	-2888
oraeth	-2889
▁Seren	-2890
▁Dawson	-2891
▁Hygiea	-2892
▁United	-2893
▁Agustin	-2894
▁Batagor	-2895
09	-2896
one	-2897
glas	-2898
irst	-2899
oger	-2900
onia	-2901
▁12.	-2902
▁Mas	-2903
▁pri	-2904
radab	-2905
▁Bert	-2906
▁Stan	-2907
▁Tyus	-2908
▁11264	-2909
ifiliau	-2910
obendas	-2911
▁Bertram	-2912
▁Polonica	-2913
▁golygydd	-2914
▁Francisco	-2915
▁Dechreuwyd	-2916
▁Palaeontolog	-2917
1,	-2918
14	-2919
AM	-2920
ij	-2921
rir	-2922
sen	-2923
▁at	-2924
▁sg	-2925
▁Bad	-2926
▁Egg	-2927
▁Joe	-2928
▁Mik	-2929
▁ych	-2930
800.0	-2931
adhim	-2932
▁Iill	-2933
▁copi	-2934
▁ddat	-2935
▁tran	-2936
ilaidd	-2937
nandez	-2938
▁1986.	-2939
▁Ahmad	-2940
▁Assad	-2941
▁Peron	-2942
▁rhagl	-2943
▁Cyflwr	-2944
▁Kadhim	-2945
▁Abradab	-2946
▁gwasana	-2947
▁diweddol	-2948
▁Hernandez	-2949
▁Alcobendas	-2950
▁lansoddwyd	-2951
7,	-2952
Ta	-2953
cup	-2954
hig	-2955
oni	-2956
ony	-2957
yff	-2958
anac	-2959
anil	-2960
ator	-2961
eyer	-2962
oria	-2963
ptun	-2964
▁AEK	-2965
▁Sil	-2966
estei	-2967
stock	-2968
▁Paul	-2969
▁hwnn	-2970
▁sail	-2971
ematis	-2972
ennill	-2973
▁Meyer	-2974
▁Torri	-2975
▁Nation	-2976
▁Neptun	-2977
▁cyfant	-2978
▁Douglas	-2979
▁Rostock	-2980
▁Saranac	-2981
▁Clematis	-2982
▁Colombia	-2983
▁unigrydd	-2984
▁Canadaidd	-2985
▁ddarganfod	-2986
▁Palaeontologica	-2987
",	-2988
98	-2989
RA	-2990
inh	-2991
▁mm	-2992
alim	-2993
psis	-2994
▁18.	-2995
▁Guj	-2996
▁III	-2997
▁Mai	-2998
▁Sid	-2999
ridge	-3000
▁Alba	-3001
▁Lysg	-3002
▁rhoi	-3003
dweeds	-3004
▁Terek	-3005
▁Sidcup	-3006
▁gwasgu	-3007
enchurch	-3008
▁Eilaidd	-3009
▁Rhufain	-3010
▁Americiau	-3011
▁Ddemokratig	-3012
WC	-3013
ban	-3014
ect	-3015
ids	-3016
▁4.	-3017
▁83	-3018
▁Sa	-3019
aner	-3020
iden	-3021
uell	-3022
ylor	-3023
▁151	-3024
▁Hus	-3025
▁NWC	-3026
pique	-3027
▁1099	-3028
▁2005	-3029
▁Arth	-3030
▁Cwbl	-3031
▁Mike	-3032
▁Mwyr	-3033
▁Part	-3034
▁litr	-3035
▁post	-3036
▁Biden	-3037
▁Halim	-3038
▁torri	-3039
▁ennill	-3040
▁Gujarat	-3041
▁cynnodd	-3042
▁Paraguay	-3043
▁ymddogwyd	-3044
▁Technolegol	-3045
RE	-3046
▁j	-3047
NAI	-3048
gyf	-3049
iba	-3050
urk	-3051
aneg	-3052
nais	-3053
quia	-3054
▁Gen	-3055
▁Tab	-3056
▁Vik	-3057
NAIRE	-3058
adium	-3059
ogram	-3060
▁Miri	-3061
acuell	-3062
deburg	-3063
▁Boston	-3064
▁ENAIRE	-3065
▁Jarama	-3066
acuellos	-3067
▁Lyonnais	-3068
▁Magdeburg	-3069
▁Wildweeds	-3070
▁Agremiação	-3071
▁Paracuellos	-3072
▁gweithrediad	-3073
idd	-3074
tle	-3075
▁43	-3076
agle	-3077
aill	-3078
alls	-3079
arem	-3080
paru	-3081
tica	-3082
▁Nar	-3083
▁efo	-3084
▁gwr	-3085
higbe	-3086
igner	-3087
▁Jens	-3088
▁Mosk	-3089
▁agor	-3090
▁1963.	-3091
▁Plant	-3092
▁gwydd	-3093
igneria	-3094
▁Borman	-3095
▁Sergio	-3096
▁diwedd	-3097
▁Akhigbe	-3098
▁cyfredol	-3099
▁kilogram	-3100
▁Antioquia	-3101
▁ddewiswyd	-3102
▁Arrabbiata	-3103
18	-3104
age	-3105
ras	-3106
tic	-3107
cian	-3108
▁Nik	-3109
antry	-3110
rannu	-3111
▁fers	-3112
ederal	-3113
icitas	-3114
▁Inter	-3115
▁Solan	-3116
▁Tirst	-3117
▁Texans	-3118
▁Stadium	-3119
▁Tirstrup	-3120
▁weithredwyd	-3121
05	-3122
4,	-3123
ca	-3124
ynh	-3125
ifer	-3126
ineg	-3127
lein	-3128
orge	-3129
unud	-3130
▁Wid	-3131
▁cys	-3132
▁net	-3133
gannu	-3134
▁1089	-3135
▁full	-3136
000000	-3137
asedig	-3138
▁Cylch	-3139
▁Jorge	-3140
▁tomat	-3141
▁2014-1	-3142
riedrich	-3143
▁Ataturk	-3144
▁Eidaleg	-3145
▁Swyddfa	-3146
▁Ethiopia	-3147
▁amseriad	-3148
▁Felicitas	-3149
▁Ffilifiliau	-3150
yb	-3151
azz	-3152
odo	-3153
▁Cu	-3154
▁Fl	-3155
▁SB	-3156
itol	-3157
▁Eang	-3158
▁Euro	-3159
▁Pinh	-3160
averal	-3161
bridge	-3162
heredd	-3163
▁Manch	-3164
▁bwlch	-3165
▁Morgan	-3166
▁llawer	-3167
▁Andalus	-3168
▁Pinhais	-3169
▁Shivers	-3170
▁Monocacy	-3171
▁Williams	-3172
▁Canaveral	-3173
▁Manchester	-3174
▁chwrthdodd	-3175
3,	-3176
42	-3177
47	-3178
St	-3179
eff	-3180
oho	-3181
ood	-3182
saf	-3183
viv	-3184
▁2.	-3185
▁55	-3186
idro	-3187
ixma	-3188
udio	-3189
wper	-3190
▁Des	-3191
▁dos	-3192
ruppo	-3193
uttik	-3194
▁1998	-3195
▁Jose	-3196
▁Soho	-3197
▁grwp	-3198
attoor	-3199
▁2015.	-3200
▁Aelod	-3201
▁Julia	-3202
▁Powys	-3203
▁Prydd	-3204
▁Sixma	-3205
▁arall	-3206
ersburg	-3207
▁Attica	-3208
▁Cowper	-3209
▁Gorsaf	-3210
▁Gruppo	-3211
▁Isidro	-3212
▁Kuttik	-3213
▁Sumatra	-3214
▁Andalusia	-3215
▁Friedrich	-3216
▁cyfheredd	-3217
▁ddinasydd	-3218
▁dilyniwyd	-3219
▁Gweinyddwr	-3220
▁perchennog	-3221
9,	-3222
arr	-3223
iga	-3224
ärt	-3225
▁47	-3226
wsel	-3227
ykes	-3228
▁Dol	-3229
▁Hir	-3230
▁Hum	-3231
▁Rah	-3232
brill	-3233
▁Kuch	-3234
▁bwng	-3235
▁llam	-3236
shafen	-3237
▁David	-3238
▁Dykes	-3239
▁cyfan	-3240
▁munud	-3241
kattoor	-3242
▁newydd	-3243
▁Falcons	-3244
▁Kuching	-3245
▁Tennant	-3246
▁adiladu	-3247
▁Gwreiddiol	-3248
▁Gweithredwr	-3249
▁Kuttikkattoor	-3250
192	-3251
ies	-3252
imo	-3253
iye	-3254
raz	-3255
▁Im	-3256
loch	-3257
vent	-3258
ydia	-3259
▁Lok	-3260
▁Otk	-3261
▁Jazz	-3262
▁fini	-3263
▁1932.	-3264
▁Boris	-3265
▁Catal	-3266
▁Davis	-3267
▁Humph	-3268
▁Lydia	-3269
▁nifer	-3270
▁Athens	-3271
▁Brwsel	-3272
▁cyfuno	-3273
▁mylwyr	-3274
▁Hamburg	-3275
▁Rhanbarth	-3276
▁gweithwyr	-3277
▁lleoliadol	-3278
▁Mathemategol	-3279
22	-3280
sk	-3281
ado	-3282
ale	-3283
ato	-3284
osi	-3285
ped	-3286
voc	-3287
▁Go	-3288
▁KW	-3289
▁pl	-3290
6391	-3291
eiro	-3292
eyes	-3293
eyin	-3294
ines	-3295
phal	-3296
wlad	-3297
▁109	-3298
▁Ent	-3299
▁Est	-3300
▁Seb	-3301
▁Sem	-3302
▁Way	-3303
ilton	-3304
nando	-3305
▁Brom	-3306
▁hwyr	-3307
eithio	-3308
eonato	-3309
vocado	-3310
▁Reyes	-3311
▁ymysg	-3312
▁Gwrthd	-3313
▁Indian	-3314
▁Sebast	-3315
▁grwpiau	-3316
▁Fernando	-3317
▁Figneria	-3318
▁cynllunio	-3319
▁Brasileiro	-3320
▁Campeonato	-3321
▁gynrychioli	-3322
▁Friedrichshafen	-3323
▁45	-3324
ando	-3325
atch	-3326
usuf	-3327
▁Hap	-3328
▁den	-3329
wybod	-3330
▁1927	-3331
▁1928	-3332
▁1996	-3333
▁Khor	-3334
▁Ryan	-3335
▁llyw	-3336
apolis	-3337
colini	-3338
▁Jusuf	-3339
▁Kalla	-3340
▁polis	-3341
ynthpop	-3342
▁Staten	-3343
▁Cofrest	-3344
▁Michele	-3345
▁Asuncion	-3346
▁Fforaeth	-3347
▁Humphrys	-3348
▁Marcolini	-3349
▁ieithoedd	-3350
▁cysylltiad	-3351
▁Americaiddau	-3352
▁Indianapolis	-3353
bh	-3354
kar	-3355
oma	-3356
▁oh	-3357
colo	-3358
elle	-3359
ilmi	-3360
▁Mot	-3361
▁coc	-3362
▁yml	-3363
rtiye	-3364
▁Cros	-3365
▁Advan	-3366
▁Bengo	-3367
▁Hilmi	-3368
▁Scott	-3369
▁ohoni	-3370
ysgodyn	-3371
▁Akarya	-3372
▁gwrthd	-3373
▁Antwerp	-3374
▁cyfrwng	-3375
▁hwyrach	-3376
▁uwchder	-3377
▁Otkrtiye	-3378
▁Catalonia	-3379
▁amgylchol	-3380
▁berchennog	-3381
▁gwasanaethau	-3382
ve	-3383
▁–	-3384
atu	-3385
rie	-3386
udd	-3387
▁Cy	-3388
eidd	-3389
olig	-3390
pedo	-3391
wyau	-3392
▁26-	-3393
▁700	-3394
▁Bal	-3395
▁Nix	-3396
▁Top	-3397
▁Funk	-3398
▁Lira	-3399
▁Seil	-3400
▁bass	-3401
iction	-3402
parwyd	-3403
▁Darff	-3404
▁Icolo	-3405
▁Rhydd	-3406
▁Valls	-3407
▁Manuel	-3408
▁Sarwak	-3409
▁ynghyd	-3410
▁Awstral	-3411
▁Federal	-3412
▁Torpedo	-3413
▁cyhoedd	-3414
▁Cofrestr	-3415
▁cyfluniad	-3416
23	-3417
se	-3418
8-1	-3419
CAO	-3420
ish	-3421
6063	-3422
rawf	-3423
▁399	-3424
▁Mer	-3425
▁sef	-3426
6391)	-3427
Zahra	-3428
endam	-3429
ional	-3430
rafft	-3431
▁1101	-3432
▁1962	-3433
▁Fort	-3434
▁ICAO	-3435
▁Linc	-3436
▁Parc	-3437
▁gram	-3438
▁pwys	-3439
▁trwm	-3440
archer	-3441
▁Gwael	-3442
▁Stell	-3443
▁prawf	-3444
tarella	-3445
▁(66391)	-3446
▁Cynnwys	-3447
▁Larcher	-3448
▁Lincoln	-3449
000000.0.	-3450
▁Gwahanol	-3451
▁chreuwyd	-3452
▁milimedr	-3453
▁Addasedig	-3454
▁ddosbarth	-3455
▁Mattarella	-3456
▁Stellendam	-3457
67	-3458
165	-3459
eau	-3460
iat	-3461
lub	-3462
rae	-3463
▁03	-3464
akur	-3465
eoli	-3466
▁ACM	-3467
▁Ger	-3468
▁Mol	-3469
▁aml	-3470
angra	-3471
ennol	-3472
▁1994	-3473
igator	-3474
▁Croma	-3475
▁eraill	-3476
▁mylwydd	-3477
▁Brydeith	-3478
▁weithodd	-3479
▁Lansoddwyd	-3480
▁Cyhoeddiwyd	-3481
52	-3482
FK	-3483
New	-3484
VAC	-3485
eip	-3486
its	-3487
lov	-3488
mar	-3489
nab	-3490
nie	-3491
poc	-3492
kara	-3493
well	-3494
▁PFK	-3495
iomay	-3496
▁1097	-3497
▁Cast	-3498
▁Fiat	-3499
▁Gwar	-3500
edabad	-3501
▁symud	-3502
▁Ankara	-3503
▁Thakur	-3504
▁Gazette	-3505
▁Jackson	-3506
▁cydwedd	-3507
▁Synthpop	-3508
▁binignit	-3509
▁Cyhoeddwyd	-3510
▁Llyfrgrydd	-3511
03	-3512
wt	-3513
ame	-3514
asg	-3515
ces	-3516
enz	-3517
nal	-3518
▁6.	-3519
▁88	-3520
▁Ga	-3521
ddir	-3522
egor	-3523
inco	-3524
oglu	-3525
otta	-3526
▁737	-3527
▁Caf	-3528
▁Chi	-3529
▁Syl	-3530
▁fet	-3531
ingen	-3532
ocier	-3533
▁1001	-3534
▁Bath	-3535
▁HVAC	-3536
▁Jeff	-3537
▁Vein	-3538
▁glas	-3539
▁greu	-3540
▁hyff	-3541
▁llyn	-3542
▁Golyg	-3543
▁Izmir	-3544
▁Paulo	-3545
▁Saith	-3546
▁dewis	-3547
▁eidal	-3548
▁ffilm	-3549
ticinco	-3550
wynoedd	-3551
▁Gawsia	-3552
▁Crocier	-3553
▁Metapan	-3554
▁dderbyn	-3555
▁dreidau	-3556
▁Advances	-3557
▁systemau	-3558
▁Ahmedabad	-3559
▁cyfeiriad	-3560
▁iaithoedd	-3561
▁Veinticinco	-3562
ayo	-3563
oko	-3564
ymh	-3565
▁Di	-3566
hatt	-3567
ogol	-3568
qadd	-3569
reff	-3570
ster	-3571
▁252	-3572
▁ARA	-3573
▁Arr	-3574
▁Fav	-3575
▁Old	-3576
▁Rol	-3577
-4165	-3578
endra	-3579
orida	-3580
ungar	-3581
▁1913	-3582
▁Bolt	-3583
▁Joko	-3584
▁Modi	-3585
▁Tony	-3586
000.0.	-3587
hattan	-3588
qaddum	-3589
▁Adran	-3590
▁Dynam	-3591
▁cocos	-3592
gyfrydd	-3593
yrhyrch	-3594
▁Widodo	-3595
▁ffynth	-3596
▁system	-3597
▁Cynllun	-3598
▁Dyddiad	-3599
▁Florida	-3600
▁Gwyddon	-3601
▁Lansodd	-3602
▁chwrthd	-3603
▁darparu	-3604
wybodaeth	-3605
▁Crociere	-3606
▁Narendra	-3607
▁ddinasol	-3608
▁Davutoglu	-3609
▁Olympique	-3610
▁Ffenchurch	-3611
▁gweinyddol	-3612
di	-3613
326	-3614
▁Mi	-3615
▁RO	-3616
▁VK	-3617
-130	-3618
ermo	-3619
ewid	-3620
uron	-3621
▁Tan	-3622
▁eff	-3623
▁gei	-3624
▁nud	-3625
erydd	-3626
esing	-3627
igwyd	-3628
▁Port	-3629
▁Wick	-3630
▁bydd	-3631
hajlov	-3632
▁16000	-3633
▁Chief	-3634
▁Grove	-3635
▁Yacob	-3636
▁ddyll	-3637
▁gynnu	-3638
esinghe	-3639
▁Hungar	-3640
▁Palermo	-3641
▁Wickrem	-3642
▁Dyddlyfr	-3643
▁Mihajlov	-3644
▁Antwerpen	-3645
▁Wolfsburg	-3646
▁Gweithredol	-3647
▁gorffennodd	-3648
▁Wickremesinghe	-3649
16	-3650
AG	-3651
439	-3652
zig	-3653
ürk	-3654
▁AT	-3655
▁ys	-3656
ennu	-3657
isch	-3658
▁000	-3659
▁Hyd	-3660
▁elf	-3661
▁tro	-3662
▁yng	-3663
umbus	-3664
▁1930	-3665
▁1993	-3666
▁AFIT	-3667
▁Cand	-3668
▁Club	-3669
▁Lanc	-3670
▁Lars	-3671
▁Leip	-3672
▁Mayo	-3673
▁Nath	-3674
▁Saab	-3675
▁Ward	-3676
eirnod	-3677
wblwyd	-3678
▁25326	-3679
▁Deram	-3680
▁Haput	-3681
▁Malai	-3682
▁Twrci	-3683
▁Vicia	-3684
▁marww	-3685
▁Rasmus	-3686
▁Atatürk	-3687
▁Halimah	-3688
▁Leipzig	-3689
▁Canonica	-3690
▁Manhattan	-3691
▁Rasmussen	-3692
▁ganfodwyd	-3693
▁Darganfuwyd	-3694
TU	-3695
80.	-3696
ern	-3697
use	-3698
▁Do	-3699
▁Vf	-3700
ball	-3701
onol	-3702
real	-3703
utte	-3704
▁Luf	-3705
▁Mac	-3706
ennau	-3707
▁Jano	-3708
▁ddeb	-3709
10777)	-3710
ersham	-3711
hangra	-3712
iriant	-3713
▁Popov	-3714
▁Rutte	-3715
▁trosi	-3716
▁Crosse	-3717
▁Siomay	-3718
national	-3719
reiddiad	-3720
▁17068.8	-3721
▁Busnesu	-3722
▁gwestei	-3723
▁Haputale	-3724
▁Montreal	-3725
▁dyddlyfr	-3726
▁mynodiad	-3727
▁Gweithodd	-3728
▁ddosbarthu	-3729
▁International	-3730
uk	-3731
va	-3732
HAM	-3733
bul	-3734
ola	-3735
ryw	-3736
via	-3737
▁63	-3738
▁Ml	-3739
pinc	-3740
plex	-3741
stan	-3742
▁295	-3743
▁Dra	-3744
▁Roy	-3745
▁dre	-3746
▁oed	-3747
umber	-3748
▁Gott	-3749
▁Gwys	-3750
▁King	-3751
▁Prim	-3752
▁RHAM	-3753
▁Uned	-3754
▁gymh	-3755
▁punk	-3756
iddiad	-3757
▁Semin	-3758
▁Tyrol	-3759
▁ddynt	-3760
▁marbl	-3761
geniwyd	-3762
pincott	-3763
▁Ffwyth	-3764
▁George	-3765
▁Rhanol	-3766
▁miliwn	-3767
▁Adeilad	-3768
▁Complex	-3769
▁Wilkins	-3770
▁astudio	-3771
▁Columbus	-3772
▁cyddiwyd	-3773
▁Alligator	-3774
/36	-3775
alb	-3776
cyf	-3777
ghe	-3778
met	-3779
▁(4	-3780
▁33	-3781
▁MB	-3782
▁Ru	-3783
▁Ts	-3784
▁Yu	-3785
eill	-3786
etti	-3787
ford	-3788
omas	-3789
osun	-3790
▁Lip	-3791
▁MTU	-3792
▁Tit	-3793
▁Yin	-3794
▁ell	-3795
6063)	-3796
gheau	-3797
uster	-3798
▁000.	-3799
▁Accr	-3800
▁Rose	-3801
yddwyd	-3802
▁Badoi	-3803
▁Casey	-3804
▁Istan	-3805
▁Tosun	-3806
dwyrain	-3807
ociaeth	-3808
▁Plante	-3809
▁Sylvia	-3810
▁Thomas	-3811
▁Titans	-3812
▁(66063)	-3813
▁560090.	-3814
▁pennawd	-3815
▁(410777)	-3816
▁Americau	-3817
▁Bergheau	-3818
▁Ddwyrain	-3819
▁Ffontain	-3820
▁Istanbul	-3821
▁Faversham	-3822
▁Gottingen	-3823
▁McDonnell	-3824
▁blaenorol	-3825
▁ddatgannu	-3826
▁Accrington	-3827
▁Lippincott	-3828
/28	-3829
524	-3830
akh	-3831
gos	-3832
zon	-3833
▁TC	-3834
▁Vo	-3835
▁na	-3836
ainm	-3837
race	-3838
▁Lam	-3839
▁dau	-3840
erenc	-3841
etrot	-3842
ontra	-3843
oriad	-3844
wngar	-3845
ärtel	-3846
▁131.	-3847
▁Imst	-3848
▁epoc	-3849
▁llim	-3850
▁Gozon	-3851
▁Jonny	-3852
▁Ranil	-3853
▁Rodri	-3854
▁lladd	-3855
ainment	-3856
▁Entert	-3857
▁Ferenc	-3858
▁Gwarch	-3859
▁Härtel	-3860
▁Petrot	-3861
▁Charles	-3862
▁Newport	-3863
▁giriant	-3864
▁rheolol	-3865
▁unwaith	-3866
▁pysgodyn	-3867
▁rhaglenn	-3868
▁Petrotrin	-3869
▁University	-3870
▁Associazione	-3871
▁Entertainment	-3872
5,	-3873
tu	-3874
uc	-3875
426	-3876
ior	-3877
ius	-3878
ión	-3879
kin	-3880
loc	-3881
rit	-3882
▁7.	-3883
▁Es	-3884
788)	-3885
Kalb	-3886
apsi	-3887
iazz	-3888
▁186	-3889
▁31-	-3890
▁475	-3891
▁Cit	-3892
▁Gos	-3893
▁Pec	-3894
▁Sus	-3895
adier	-3896
uleau	-3897
uncan	-3898
yniad	-3899
▁genr	-3900
0000.0	-3901
iazzia	-3902
▁131.6	-3903
▁2005.	-3904
▁Wiley	-3905
▁Cumber	-3906
▁DeKalb	-3907
▁Duncan	-3908
▁Legend	-3909
▁Prwsia	-3910
▁Stadio	-3911
▁Susana	-3912
▁Viking	-3913
wydwaith	-3914
▁Piazzia	-3915
▁Rouleau	-3916
▁Plymouth	-3917
▁Grenadier	-3918
▁Ysgrifenn	-3919
▁Cumberland	-3920
▁Nigeriaidd	-3921
0,	-3922
DE	-3923
DEN	-3924
alo	-3925
jah	-3926
orf	-3927
ris	-3928
yet	-3929
▁CO	-3930
▁si	-3931
ampd	-3932
egis	-3933
esur	-3934
riad	-3935
▁(15	-3936
▁320	-3937
▁Don	-3938
▁Ros	-3939
▁mod	-3940
ering	-3941
ogson	-3942
yddol	-3943
▁164,	-3944
▁Isab	-3945
▁ddyf	-3946
▁ddyl	-3947
burban	-3948
endorf	-3949
varosi	-3950
▁0-439	-3951
▁2006,	-3952
▁Brook	-3953
▁CODEN	-3954
▁Johns	-3955
▁Sampd	-3956
▁barny	-3957
▁megis	-3958
▁ysgol	-3959
92000.0	-3960
allujah	-3961
laethol	-3962
▁475426	-3963
▁Cyfans	-3964
▁Llwybr	-3965
▁pennaf	-3966
▁trance	-3967
▁(15788)	-3968
▁Awyrwyr	-3969
▁Hopkins	-3970
▁arbarth	-3971
▁Hamilton	-3972
▁Isabelle	-3973
▁Suburban	-3974
▁Cyflymder	-3975
▁Oldendorf	-3976
▁Rodriguez	-3977
▁Sampdoria	-3978
▁Solanales	-3979
▁cyfeirnod	-3980
▁Richardson	-3981
▁Llyfrgellwyr	-3982
ân	-3983
rop	-3984
wmp	-3985
▁da	-3986
enaw	-3987
estr	-3988
igol	-3989
oris	-3990
umai	-3991
ward	-3992
▁Gar	-3993
▁Sgw	-3994
wydyn	-3995
▁Awth	-3996
▁Real	-3997
▁Tarr	-3998
▁2000.	-3999
▁Baths	-4000
▁Botta	-4001
▁Bures	-4002
▁Doris	-4003
▁Maran	-4004
▁Mario	-4005
▁Marys	-4006
▁Mason	-4007
▁Paris	-4008
▁graff	-4009
▁model	-4010
▁ywyau	-4011
ilomedr	-4012
▁Contra	-4013
▁Pogson	-4014
▁drafft	-4015
▁rhestr	-4016
▁Rolando	-4017
▁Tarrant	-4018
▁gynnwys	-4019
▁rheolir	-4020
▁Fallujah	-4021
▁dosbarthu	-4022
▁Marysville	-4023
▁Ferencvarosi	-4024
/1	-4025
AS	-4026
da	-4027
kop	-4028
led	-4029
off	-4030
ome	-4031
▁Pe	-4032
avlo	-4033
bank	-4034
itut	-4035
poul	-4036
▁Ffr	-4037
▁Nov	-4038
▁Pra	-4039
▁Tel	-4040
kopis	-4041
olina	-4042
utsis	-4043
vador	-4044
yswyr	-4045
▁Carr	-4046
Soviet	-4047
buster	-4048
oridis	-4049
poulos	-4050
▁17000	-4051
▁Drago	-4052
▁Fflam	-4053
▁Makis	-4054
▁Nikos	-4055
▁Pavlo	-4056
▁Valen	-4057
▁Shumai	-4058
▁mwydyn	-4059
▁Cyflith	-4060
▁Massimo	-4061
▁Monarch	-4062
▁Seilodd	-4063
▁Voridis	-4064
▁Voutsis	-4065
▁drefnod	-4066
▁Argentin	-4067
▁Carolina	-4068
▁Dynamics	-4069
▁Ffilipio	-4070
▁Prokopis	-4071
▁Salvador	-4072
▁ffrwyddo	-4073
▁Rhwydwaith	-4074
▁Parkersburg	-4075
▁Pavlopoulos	-4076
▁dreidyddion	-4077
11	-4078
83	-4079
55)	-4080
ide	-4081
our	-4082
▁Fe	-4083
▁ab	-4084
▁ty	-4085
ajan	-4086
atar	-4087
elos	-4088
laus	-4089
rhan	-4090
uben	-4091
▁Hen	-4092
▁Nad	-4093
▁Zam	-4094
▁ben	-4095
▁cyr	-4096
anner	-4097
aster	-4098
ybiau	-4099
ymach	-4100
▁Hein	-4101
▁eiso	-4102
▁medd	-4103
entina	-4104
rywydd	-4105
▁Barny	-4106
▁Klaus	-4107
▁Qatar	-4108
▁leoli	-4109
▁Cofnod	-4110
▁Moskow	-4111
▁Soviet	-4112
▁ddyrch	-4113
ymachine	-4114
▁Burbank	-4115
▁Mahajan	-4116
▁Sumitra	-4117
▁Busnesau	-4118
▁cyfuniad	-4119
▁ddisgill	-4120
▁drefnydd	-4121
▁Awstralia	-4122
▁gweithodd	-4123
▁Greymachine	-4124
▁hypermarcas	-4125
290	-4126
339	-4127
cos	-4128
ith	-4129
noy	-4130
▁sb	-4131
adzh	-4132
ague	-4133
bour	-4134
etch	-4135
noye	-4136
▁120	-4137
▁But	-4138
▁Sec	-4139
▁Van	-4140
ctech	-4141
hines	-4142
umbai	-4143
▁Pall	-4144
▁Pryd	-4145
▁Yuzh	-4146
▁blus	-4147
▁feth	-4148
oddiad	-4149
ventus	-4150
▁Gadzh	-4151
▁Paisa	-4152
▁Space	-4153
▁cyddi	-4154
000000.	-4155
▁Bavari	-4156
▁Gwreid	-4157
▁Mumbai	-4158
▁Puding	-4159
▁Rahman	-4160
▁Trance	-4161
▁cynnig	-4162
▁eisoes	-4163
▁Arctech	-4164
▁Butuner	-4165
▁Huseyin	-4166
▁Steuben	-4167
▁Juventus	-4168
▁Ymlaenol	-4169
▁Yuzhnoye	-4170
▁hyffordd	-4171
▁Gwaithodd	-4172
▁priodwedd	-4173
▁Burlington	-4174
▁ddefnyddio	-4175
▁gweinyddwr	-4176
ba	-4177
ná	-4178
196	-4179
Art	-4180
ogy	-4181
▁09	-4182
▁97	-4183
▁Sé	-4184
erto	-4185
iput	-4186
ndez	-4187
oddi	-4188
riet	-4189
▁Bum	-4190
▁Cys	-4191
▁Hec	-4192
▁Lau	-4193
▁ber	-4194
▁tri	-4195
ediad	-4196
fwrdd	-4197
▁9000	-4198
▁Iloc	-4199
▁Kent	-4200
▁Koln	-4201
▁Perm	-4202
▁Rash	-4203
▁Wien	-4204
▁gwar	-4205
nández	-4206
otball	-4207
udding	-4208
▁1996.	-4209
▁Amkar	-4210
▁Bwrth	-4211
▁Guner	-4212
▁House	-4213
▁Iulia	-4214
▁Jacob	-4215
▁Série	-4216
▁baner	-4217
▁hwnnw	-4218
iputera	-4219
▁Bundes	-4220
▁Motors	-4221
▁dangos	-4222
▁ddebwt	-4223
▁Ilocano	-4224
▁ymysgol	-4225
▁Almaeneg	-4226
▁Franklin	-4227
▁Hernández	-4228
▁brenhines	-4229
▁Bumiputera	-4230
ts	-4231
1.2	-4232
aum	-4233
oro	-4234
the	-4235
gust	-4236
imov	-4237
mond	-4238
oles	-4239
ough	-4240
vano	-4241
▁Iâg	-4242
▁MBA	-4243
▁bod	-4244
▁cyw	-4245
▁cân	-4246
▁pan	-4247
-1768	-4248
iffig	-4249
ipras	-4250
oniad	-4251
▁Aure	-4252
▁Bawr	-4253
▁Fior	-4254
▁Gant	-4255
▁Gard	-4256
▁Rakh	-4257
▁gynn	-4258
▁rodd	-4259
▁29000	-4260
▁Nodau	-4261
▁Rheol	-4262
▁Alexis	-4263
▁August	-4264
▁Barkov	-4265
▁Placid	-4266
▁Rashid	-4267
▁cyfres	-4268
▁ffojal	-4269
▁Bundesl	-4270
▁Cwblhau	-4271
▁Tsipras	-4272
▁avocado	-4273
▁comedol	-4274
▁gartref	-4275
▁gorffen	-4276
▁Aureoles	-4277
▁Heinlein	-4278
▁Rakhimov	-4279
▁amrypsis	-4280
▁Jefferson	-4281
▁Indonesiaidd	-4282
▁Jacksonville	-4283
.)	-4284
87	-4285
670	-4286
ada	-4287
chr	-4288
oit	-4289
▁FK	-4290
▁so	-4291
eing	-4292
oman	-4293
paty	-4294
▁Kub	-4295
▁Oli	-4296
▁pob	-4297
▁str	-4298
ierce	-4299
stown	-4300
▁2013	-4301
▁Gang	-4302
▁Glob	-4303
▁Graz	-4304
▁Lviv	-4305
▁ochr	-4306
3000.0	-4307
dalene	-4308
wyddyn	-4309
▁Gydag	-4310
▁efoch	-4311
▁preff	-4312
▁63800.0	-4313
▁Karpaty	-4314
▁Primera	-4315
▁Sandesh	-4316
▁gyhoedd	-4317
rietstown	-4318
▁253260.0	-4319
▁Infantry	-4320
▁Cynllunio	-4321
▁Ffontrydd	-4322
▁Magdalene	-4323
▁effeithio	-4324
▁archiforol	-4325
IV	-4326
rí	-4327
075	-4328
aph	-4329
inos	-4330
roes	-4331
▁ACF	-4332
▁Val	-4333
▁pat	-4334
itsot	-4335
onejo	-4336
wyddi	-4337
▁Medd	-4338
▁gwel	-4339
▁gynh	-4340
aphosa	-4341
eilltu	-4342
ríguez	-4343
▁Cyril	-4344
▁Gloom	-4345
▁Pwlad	-4346
▁Super	-4347
▁adoro	-4348
▁brons	-4349
▁organ	-4350
antinos	-4351
emaster	-4352
▁560090	-4353
▁Conejo	-4354
▁Mitsot	-4355
▁Pierce	-4356
▁Wilson	-4357
▁Ychwan	-4358
▁granit	-4359
▁Belgaum	-4360
▁clybiau	-4361
▁Gwreidol	-4362
▁Systemau	-4363
▁Addiction	-4364
▁Cambridge	-4365
▁Ramaphosa	-4366
▁Rodríguez	-4367
▁ymgychwyn	-4368
▁Darfforddi	-4369
▁Fiorentina	-4370
▁Mitsotakis	-4371
▁Globemaster	-4372
--	-4373
57	-4374
-04	-4375
-07	-4376
-3.	-4377
izo	-4378
onz	-4379
uma	-4380
▁36	-4381
▁DA	-4382
▁Vi	-4383
▁ol	-4384
bell	-4385
eddi	-4386
erty	-4387
mill	-4388
onst	-4389
otus	-4390
than	-4391
▁277	-4392
▁Eat	-4393
▁Ioh	-4394
▁Mam	-4395
▁Pes	-4396
▁Sif	-4397
▁and	-4398
▁mms	-4399
▁sam	-4400
anger	-4401
annis	-4402
boang	-4403
toman	-4404
▁1933	-4405
▁Alma	-4406
▁Core	-4407
▁Glad	-4408
▁sylf	-4409
ategor	-4410
ritiba	-4411
▁Lokke	-4412
▁Lotus	-4413
▁Stern	-4414
▁llwyr	-4415
frediad	-4416
▁Boeing	-4417
▁Ebrill	-4418
▁Gerard	-4419
▁Sergey	-4420
▁Stoger	-4421
▁Gantydd	-4422
▁Superle	-4423
▁bandiau	-4424
▁2014-15.	-4425
▁Iohannis	-4426
▁Zamboang	-4427
▁Valencian	-4428
▁Bundesliga	-4429
▁ddarparwyd	-4430
▁Harrietstown	-4431
2,	-4432
3-	-4433
pe	-4434
/19	-4435
ceg	-4436
sel	-4437
yth	-4438
▁53	-4439
annu	-4440
edon	-4441
illi	-4442
▁210	-4443
▁Eis	-4444
▁Ffu	-4445
▁HIV	-4446
▁Ych	-4447
endic	-4448
phalt	-4449
▁2001	-4450
▁2004	-4451
▁Cent	-4452
▁Llad	-4453
▁ranc	-4454
▁ymyn	-4455
etchup	-4456
gherty	-4457
▁Konst	-4458
▁Rhyng	-4459
▁adnab	-4460
▁ffunk	-4461
▁fwyaf	-4462
▁stril	-4463
yddiwyd	-4464
▁Dothan	-4465
▁Eaters	-4466
▁Seagle	-4467
▁Sendic	-4468
▁States	-4469
▁Steven	-4470
▁comics	-4471
▁cysawd	-4472
▁polisi	-4473
▁sambal	-4474
▁sanger	-4475
▁Jalisco	-4476
▁Penarol	-4477
▁Silvano	-4478
▁cynllun	-4479
▁Curitiba	-4480
▁Gazettes	-4481
▁Dougherty	-4482
▁cydrannau	-4483
▁ychwanegu	-4484
▁Mathematica	-4485
▁Konstantinos	-4486
Kh	-4487
ue	-4488
Khor	-4489
asiz	-4490
elkh	-4491
enep	-4492
etts	-4493
otte	-4494
rypt	-4495
udol	-4496
ukum	-4497
▁11.	-4498
▁159	-4499
▁32.	-4500
▁Abh	-4501
▁Uch	-4502
▁cyl	-4503
▁lig	-4504
▁tec	-4505
achus	-4506
orsaf	-4507
▁Coup	-4508
▁Palo	-4509
▁Puig	-4510
▁Seco	-4511
Hwngar	-4512
atrick	-4513
ukumar	-4514
▁01-01	-4515
▁Kotte	-4516
▁Peced	-4517
▁Rasiz	-4518
▁adeil	-4519
▁ellir	-4520
elkhand	-4521
enepura	-4522
▁Berlin	-4523
▁Byswyr	-4524
▁Nathol	-4525
▁Galicia	-4526
▁Ottoman	-4527
▁Patrick	-4528
▁bwysydd	-4529
▁comimig	-4530
▁granola	-4531
▁poaceae	-4532
achusetts	-4533
▁Jayaward	-4534
▁Rasizade	-4535
▁Gweithfan	-4536
▁Hamburger	-4537
▁Philippino	-4538
▁amrywiadau	-4539
▁bresiddiad	-4540
▁Bundelkhand	-4541
▁Massachusetts	-4542
▁Jayawardenepura	-4543
kg	-4544
erh	-4545
rio	-4546
yde	-4547
▁El	-4548
▁Ma	-4549
▁cm	-4550
bost	-4551
ords	-4552
reek	-4553
ucci	-4554
▁23-	-4555
▁8.3	-4556
▁Pag	-4557
▁Tud	-4558
▁dde	-4559
ansel	-4560
elman	-4561
night	-4562
▁1850	-4563
▁Bako	-4564
▁Bers	-4565
▁Cull	-4566
▁Dave	-4567
▁Publ	-4568
▁ddym	-4569
▁lliw	-4570
00.000	-4571
6000.0	-4572
amater	-4573
arwodd	-4574
▁Artur	-4575
▁Clyde	-4576
▁Demak	-4577
▁Hefyd	-4578
▁Jalan	-4579
▁Medel	-4580
▁Oberh	-4581
▁Sands	-4582
▁Sened	-4583
▁codau	-4584
▁fwyth	-4585
▁gradd	-4586
eymouth	-4587
▁Taylor	-4588
▁Bersatu	-4589
▁Cullins	-4590
▁Gwyseid	-4591
▁Pagnell	-4592
▁Panucci	-4593
▁organau	-4594
ottingham	-4595
▁Golygydd	-4596
▁cyfrannu	-4597
▁gymharol	-4598
▁kilomedr	-4599
▁kilometr	-4600
▁Hungarica	-4601
▁rhaglenni	-4602
▁Oberhelman	-4603
▁archifrith	-4604
▁Llyfrgryddiaeth	-4605
òs	-4606
-0.	-4607
252	-4608
911	-4609
97.	-4610
Uni	-4611
ecs	-4612
ryf	-4613
▁51	-4614
▁70	-4615
▁Ex	-4616
▁Iw	-4617
▁eb	-4618
apán	-4619
elin	-4620
ital	-4621
odau	-4622
werf	-4623
▁108	-4624
▁546	-4625
▁Dig	-4626
▁Hor	-4627
▁Sat	-4628
▁awt	-4629
▁dat	-4630
▁dim	-4631
▁ysg	-4632
aiser	-4633
raero	-4634
▁Humb	-4635
▁Pain	-4636
▁ffug	-4637
▁gall	-4638
▁peth	-4639
▁rhym	-4640
▁unol	-4641
werfen	-4642
▁1969.	-4643
▁Arròs	-4644
▁Awadh	-4645
▁Croes	-4646
▁Steve	-4647
▁blwch	-4648
▁newid	-4649
▁Kaiser	-4650
▁Swords	-4651
▁bresen	-4652
▁ffrwyd	-4653
anseliwr	-4654
▁Mwyrydd	-4655
▁Seminar	-4656
▁Stanley	-4657
▁ddigwyd	-4658
▁dechrau	-4659
▁marwodd	-4660
▁orbitol	-4661
▁Asunción	-4662
▁Humberto	-4663
▁Ychwaneg	-4664
▁clocbiau	-4665
▁Antwerfen	-4666
▁cyfrwngau	-4667
▁Awstriaidd	-4668
▁Cwblhauwyd	-4669
▁kilogramau	-4670
▁cynrychioli	-4671
▁gweithredir	-4672
▁gyffredinol	-4673
▁Ysgrifennwyd	-4674
84	-4675
bar	-4676
bet	-4677
ger	-4678
kap	-4679
neu	-4680
upé	-4681
▁75	-4682
3329	-4683
anda	-4684
dwin	-4685
eare	-4686
ecor	-4687
edel	-4688
igib	-4689
itan	-4690
libb	-4691
lied	-4692
ties	-4693
ynau	-4694
▁Grp	-4695
▁McL	-4696
▁Tic	-4697
▁dro	-4698
▁hen	-4699
ichar	-4700
inach	-4701
lynol	-4702
wyrdd	-4703
▁(192	-4704
▁4410	-4705
▁Pont	-4706
▁ddis	-4707
▁rhai	-4708
▁wydd	-4709
-01-01	-4710
eareas	-4711
elskap	-4712
omatig	-4713
▁1962.	-4714
▁Auron	-4715
▁Barch	-4716
▁Edwin	-4717
▁Flibb	-4718
▁Sgwâr	-4719
▁cyfar	-4720
▁genfa	-4721
▁oedol	-4722
▁sesam	-4723
ertigib	-4724
oughlin	-4725
▁523329	-4726
▁Akties	-4727
▁Lancia	-4728
▁Luanda	-4729
▁System	-4730
▁Ticino	-4731
▁arwydd	-4732
▁syddir	-4733
000000.0	-4734
Taqaddum	-4735
ashville	-4736
bhukumar	-4737
▁(19255)	-4738
▁Awyrdod	-4739
▁General	-4740
▁Georges	-4741
▁Legends	-4742
▁Metapán	-4743
▁cychwyn	-4744
▁symudol	-4745
▁tomatau	-4746
▁Adeiladu	-4747
▁gyfuniad	-4748
ertigibbet	-4749
▁Ffilipino	-4750
▁Llofnodir	-4751
▁awtomatig	-4752
▁gwrthdaro	-4753
▁Cynllunodd	-4754
▁Ffreiddiad	-4755
▁Gwybodaeth	-4756
▁Llofnodwyd	-4757
▁McLoughlin	-4758
▁Ponteareas	-4759
▁Philippineg	-4760
▁Aktieselskap	-4761
▁Flibbertigibbet	-4762
3.9	-4763
5.3	-4764
aul	-4765
avn	-4766
byn	-4767
ije	-4768
ool	-4769
▁04	-4770
▁ST	-4771
bydd	-4772
eddy	-4773
jang	-4774
otyl	-4775
tans	-4776
üner	-4777
▁Ari	-4778
▁Cym	-4779
▁MIT	-4780
▁Mel	-4781
▁Min	-4782
▁Ska	-4783
▁Uni	-4784
▁dyn	-4785
▁gar	-4786
▁hun	-4787
▁nad	-4788
▁ton	-4789
elije	-4790
ensis	-4791
gorot	-4792
orwyd	-4793
thavn	-4794
▁1500	-4795
▁5594	-4796
▁Gonz	-4797
▁Gran	-4798
▁Isel	-4799
▁Korn	-4800
▁ymyl	-4801
raddio	-4802
▁1513.	-4803
▁1957.	-4804
▁1979.	-4805
▁44075	-4806
▁Reddy	-4807
▁Salem	-4808
▁Union	-4809
▁bafen	-4810
▁Ddinas	-4811
▁Igorot	-4812
▁School	-4813
▁banana	-4814
▁cylind	-4815
▁cyntaf	-4816
▁eboedd	-4817
eiliedig	-4818
otyledon	-4819
▁Grenada	-4820
▁Gwrthwn	-4821
▁Javaneg	-4822
▁Sifilol	-4823
▁categor	-4824
▁Asherton	-4825
▁Darganfu	-4826
▁Lufthavn	-4827
▁lladdwyd	-4828
▁Kornelije	-4829
▁gwrthrych	-4830
▁Aleksander	-4831
▁Aleksandra	-4832
▁gwesteiwyr	-4833
▁Ddemociaeth	-4834
75)	-4835
8.0	-4836
awl	-4837
gyr	-4838
▁61	-4839
▁93	-4840
▁Ya	-4841
9942	-4842
apio	-4843
fysg	-4844
imed	-4845
ywir	-4846
▁10.	-4847
▁194	-4848
▁Pas	-4849
▁Reb	-4850
▁Tim	-4851
▁asl	-4852
▁hon	-4853
▁mwy	-4854
▁pro	-4855
andon	-4856
ansas	-4857
ffalo	-4858
phins	-4859
▁(290	-4860
▁3500	-4861
▁Copi	-4862
▁Corn	-4863
▁Gyfr	-4864
▁Wich	-4865
▁cwmp	-4866
▁rash	-4867
Taylor	-4868
ellion	-4869
▁10000	-4870
▁1955.	-4871
▁2004.	-4872
▁Ffong	-4873
▁Roger	-4874
▁amgyl	-4875
▁ffynh	-4876
▁resol	-4877
elinids	-4878
▁Benoit	-4879
▁Brooke	-4880
▁Cafwyd	-4881
▁Chiefs	-4882
▁Kansas	-4883
orllewin	-4884
▁(29075)	-4885
▁Bhangra	-4886
▁Brandon	-4887
▁Buffalo	-4888
▁Michael	-4889
▁Wichita	-4890
▁chwyrdd	-4891
▁hynrydd	-4892
igwyddodd	-4893
▁Dolphins	-4894
▁Gwarchod	-4895
▁Infraero	-4896
▁Pasiffig	-4897
▁canlynol	-4898
▁ganfuwyd	-4899
▁Dilyniwyd	-4900
▁Nashville	-4901
▁hyfforddu	-4902
▁0-439-1768	-4903
▁Prabhukumar	-4904
▁Zamboangans	-4905
56	-4906
Bl	-4907
ić	-4908
-11	-4909
-15	-4910
-20	-4911
ián	-4912
kub	-4913
▁Te	-4914
1634	-4915
anes	-4916
ical	-4917
inor	-4918
rata	-4919
ryth	-4920
öger	-4921
▁24.	-4922
▁Awd	-4923
▁Rov	-4924
▁Rws	-4925
▁UTC	-4926
▁VfL	-4927
▁Vic	-4928
▁pef	-4929
Black	-4930
orizo	-4931
▁1901	-4932
▁1918	-4933
▁3180	-4934
▁Cloc	-4935
▁Hard	-4936
▁Weil	-4937
▁arem	-4938
▁dasg	-4939
▁drwy	-4940
rediad	-4941
▁1956.	-4942
▁Chall	-4943
▁Ddran	-4944
▁Stock	-4945
▁Valer	-4946
▁chreu	-4947
▁llyng	-4948
▁179942	-4949
▁Errata	-4950
▁Pesaka	-4951
▁gorsaf	-4952
▁hengon	-4953
▁siarir	-4954
▁tywyll	-4955
▁Ardalal	-4956
▁Cerddor	-4957
▁Sififol	-4958
▁Teitans	-4959
▁agorwyd	-4960
▁blaenor	-4961
▁Castilla	-4962
▁Cynhyrch	-4963
▁Disgwydd	-4964
▁ddyniant	-4965
▁Challinor	-4966
▁Lleoliwyd	-4967
▁Sebastián	-4968
96	-4969
Al	-4970
rd	-4971
920	-4972
abi	-4973
aet	-4974
cao	-4975
gew	-4976
sch	-4977
tor	-4978
urs	-4979
ver	-4980
▁50	-4981
▁9.	-4982
▁CE	-4983
▁Ha	-4984
▁SK	-4985
0002	-4986
amel	-4987
cabi	-4988
wynt	-4989
▁0.0	-4990
▁211	-4991
▁Lim	-4992
▁Oth	-4993
▁Peñ	-4994
▁dew	-4995
▁rap	-4996
1634:	-4997
Izmir	-4998
tenaw	-4999
▁Awst	-5000
▁Comm	-5001
▁Dian	-5002
▁Dros	-5003
▁Fall	-5004
▁Pwyl	-5005
▁Zuma	-5006
▁cwar	-5007
▁geir	-5008
▁part	-5009
▁stat	-5010
gewood	-5011
▁1.524	-5012
▁1995.	-5013
▁2016.	-5014
▁Creek	-5015
▁Ernie	-5016
▁Garch	-5017
▁Maine	-5018
▁Perón	-5019
▁Rwsia	-5020
▁Satem	-5021
▁fersi	-5022
▁gallu	-5023
ameleon	-5024
▁Balder	-5025
▁Knight	-5026
▁Poales	-5027
▁Stöger	-5028
▁Tyrceg	-5029
▁berson	-5030
▁derbyn	-5031
▁fyddog	-5032
resennol	-5033
▁Darwodd	-5034
▁Dechrau	-5035
▁Harbour	-5036
▁Maccabi	-5037
▁Terrace	-5038
▁amgylch	-5039
▁fersiwn	-5040
▁llywydd	-5041
Blackwell	-5042
▁Campbell	-5043
▁Weymouth	-5044
▁cyrchfan	-5045
▁ddechrau	-5046
▁gyrriant	-5047
▁Chameleon	-5048
▁Gwyddonol	-5049
▁Rebellion	-5050
▁Ridgewood	-5051
▁ddiweddar	-5052
▁gyhoeddus	-5053
▁Agremiacao	-5054
▁California	-5055
▁drosglwydd	-5056
▁Commelinids	-5057
▁Darfforddiwyd	-5058
40	-5059
hl	-5060
âm	-5061
ša	-5062
5.0	-5063
aca	-5064
aer	-5065
aza	-5066
ddu	-5067
epa	-5068
oba	-5069
orc	-5070
roe	-5071
▁05	-5072
000,	-5073
2603	-5074
4071	-5075
80.7	-5076
avan	-5077
eens	-5078
ellf	-5079
enwi	-5080
ezon	-5081
hitl	-5082
ieto	-5083
leas	-5084
mewn	-5085
osod	-5086
quez	-5087
▁ATK	-5088
▁Ana	-5089
▁Bay	-5090
▁Nid	-5091
▁Orb	-5092
▁USA	-5093
ecorp	-5094
elery	-5095
iniša	-5096
rique	-5097
thaca	-5098
under	-5099
urnal	-5100
▁Dona	-5101
▁Eald	-5102
▁Mant	-5103
▁Ruth	-5104
▁View	-5105
apioca	-5106
ebrill	-5107
rydydd	-5108
▁10030	-5109
▁1930.	-5110
▁2011.	-5111
▁Ddans	-5112
▁Nieto	-5113
▁Plaza	-5114
▁Pleas	-5115
▁befel	-5116
▁brown	-5117
▁eicon	-5118
▁lliwf	-5119
▁nudle	-5120
▁ynddi	-5121
hitleri	-5122
▁142603	-5123
▁Monroe	-5124
▁Public	-5125
▁Queens	-5126
▁Quezon	-5127
▁Siniša	-5128
▁llithm	-5129
▁teclyn	-5130
▁wasana	-5131
raddiwyd	-5132
▁Caravan	-5133
▁Enrique	-5134
▁Journal	-5135
▁Orbital	-5136
▁Thunder	-5137
▁asphalt	-5138
▁ketchup	-5139
amaterion	-5140
▁Pleasant	-5141
▁cyfantad	-5142
▁flaenwyd	-5143
▁serenodd	-5144
▁Mantecorp	-5145
▁Washtenaw	-5146
▁Cyflawnwyd	-5147
▁Ddansiaeth	-5148
▁Gweinyddir	-5149
▁Mihajlović	-5150
▁drewyddion	-5151
▁Gwarchodion	-5152
▁Gweithredir	-5153
▁Monocotyledon	-5154
45	-5155
49	-5156
Gw	-5157
ha	-5158
yc	-5159
-06	-5160
-93	-5161
158	-5162
7.1	-5163
717	-5164
elw	-5165
meg	-5166
ous	-5167
uda	-5168
▁08	-5169
▁Sb	-5170
▁fó	-5171
091.	-5172
9343	-5173
alaj	-5174
enan	-5175
erol	-5176
iton	-5177
vard	-5178
▁280	-5179
▁Myn	-5180
▁War	-5181
▁bak	-5182
itoba	-5183
orman	-5184
rywyr	-5185
▁1907	-5186
▁Craf	-5187
▁Guad	-5188
▁Lega	-5189
▁Olus	-5190
▁Pobl	-5191
▁bwyl	-5192
▁jame	-5193
▁porc	-5194
asanjo	-5195
elwald	-5196
udiant	-5197
▁43717	-5198
▁Anbar	-5199
▁Eagle	-5200
▁Thema	-5201
▁Urich	-5202
▁arepa	-5203
alajara	-5204
aliaeth	-5205
orcilla	-5206
▁10.264	-5207
▁479343	-5208
▁Adenan	-5209
▁Ithaca	-5210
▁Samuda	-5211
▁Solent	-5212
▁6004071	-5213
▁Capitol	-5214
▁Harvard	-5215
▁Olympia	-5216
▁Rheolol	-5217
▁banerol	-5218
▁cyfrydd	-5219
▁periton	-5220
▁sefydol	-5221
▁Manitoba	-5222
▁Olusegun	-5223
▁ddyniwyd	-5224
▁Ealdorman	-5225
▁Sebastian	-5226
▁dangosydd	-5227
▁Academical	-5228
▁441092000.0	-5229
▁Guadalajara	-5230
▁ychwanegwyd	-5231
▁ysgrifennodd	-5232
As	-5233
âg	-5234
-3,	-5235
/21	-5236
3-0	-5237
352	-5238
5.4	-5239
die	-5240
lar	-5241
uso	-5242
▁38	-5243
▁87	-5244
▁Ku	-5245
▁MA	-5246
▁Ra	-5247
-425	-5248
2164	-5249
arta	-5250
azio	-5251
ddie	-5252
enin	-5253
glia	-5254
inis	-5255
niad	-5256
omst	-5257
prif	-5258
yria	-5259
▁187	-5260
▁288	-5261
▁373	-5262
▁Awt	-5263
▁Cir	-5264
▁Gab	-5265
▁Jak	-5266
▁Mul	-5267
▁Sau	-5268
▁Ysg	-5269
▁sen	-5270
-2060	-5271
itiba	-5272
patac	-5273
raidd	-5274
unodd	-5275
yddon	-5276
▁2160	-5277
▁Beef	-5278
▁Cant	-5279
▁Danc	-5280
▁Holl	-5281
▁Iuso	-5282
▁Rand	-5283
▁dron	-5284
▁geni	-5285
▁holl	-5286
▁teow	-5287
-4253-	-5288
000.0,	-5289
fredin	-5290
▁1927.	-5291
▁39971	-5292
▁Afara	-5293
▁Awgol	-5294
▁Billy	-5295
▁Borth	-5296
▁Lazio	-5297
▁blues	-5298
▁indie	-5299
America	-5300
Hwngari	-5301
liedwyd	-5302
▁162164	-5303
▁Anglia	-5304
▁Awyrch	-5305
▁Ffryth	-5306
▁Goslar	-5307
▁golygu	-5308
▁llenwi	-5309
morcilla	-5310
▁560090,	-5311
▁Carroll	-5312
▁Jakarta	-5313
▁Nadolig	-5314
▁chichar	-5315
▁cyfradd	-5316
patacones	-5317
▁Coritiba	-5318
▁Hollande	-5319
▁Obasanjo	-5320
▁cydweddu	-5321
▁ffynthol	-5322
▁162164091.	-5323
58	-5324
zo	-5325
395	-5326
900	-5327
ipo	-5328
iti	-5329
jon	-5330
ler	-5331
oek	-5332
old	-5333
oli	-5334
umi	-5335
vaz	-5336
wth	-5337
wym	-5338
▁07	-5339
▁41	-5340
atin	-5341
ayas	-5342
eghl	-5343
ombe	-5344
park	-5345
ydor	-5346
▁Eon	-5347
▁Put	-5348
▁eit	-5349
▁mon	-5350
-06-2	-5351
1582.	-5352
hames	-5353
ioedd	-5354
odwyd	-5355
▁1957	-5356
▁1959	-5357
▁8388	-5358
▁Isis	-5359
▁Lled	-5360
▁Marv	-5361
▁Tecs	-5362
▁Toek	-5363
▁Walt	-5364
▁orff	-5365
▁sago	-5366
aroedd	-5367
eghlal	-5368
▁1862.	-5369
▁37351	-5370
▁52395	-5371
▁Ahvaz	-5372
▁Aniti	-5373
▁Block	-5374
▁dreif	-5375
▁ffont	-5376
▁hunan	-5377
▁swydd	-5378
▁tried	-5379
▁Almond	-5380
▁Brenin	-5381
▁Cyfrif	-5382
▁Franco	-5383
▁Portal	-5384
▁Thames	-5385
▁rasher	-5386
8-1-4165	-5387
reiddiol	-5388
▁01-01-1	-5389
▁Peñarol	-5390
▁Unieith	-5391
▁Unolysg	-5392
▁Visayas	-5393
▁Wolfman	-5394
▁Argraffu	-5395
▁Candombe	-5396
▁Dynodiad	-5397
▁Toekomst	-5398
▁bakewell	-5399
▁cwblwydd	-5400
▁gwaithio	-5401
▁strilion	-5402
▁Canseliwr	-5403
▁Esteghlal	-5404
▁Ffrythion	-5405
▁Sehitleri	-5406
▁llyfraddi	-5407
▁presennol	-5408
▁wasanaeth	-5409
▁523951582.	-5410
▁437170000.0	-5411
▁Blockbuster	-5412
▁Darganfuodd	-5413
8-1-4165-4253-	-5414
ea	-5415
tà	-5416
-2)	-5417
090	-5418
603	-5419
ahn	-5420
ean	-5421
ebi	-5422
ere	-5423
ieg	-5424
ket	-5425
pel	-5426
yah	-5427
ymg	-5428
▁6,	-5429
▁On	-5430
3528	-5431
enza	-5432
ogan	-5433
ovel	-5434
ychw	-5435
▁3.8	-5436
▁610	-5437
▁Bru	-5438
▁Esp	-5439
▁Fut	-5440
▁Pic	-5441
▁Sef	-5442
▁Wys	-5443
ciano	-5444
tario	-5445
▁32.2	-5446
▁360.	-5447
▁Bebi	-5448
▁Cupé	-5449
▁Diya	-5450
▁Iâll	-5451
▁Mahe	-5452
▁Olad	-5453
▁Opel	-5454
▁Roll	-5455
▁VIAG	-5456
▁cent	-5457
▁ddin	-5458
▁gwir	-5459
▁mwyn	-5460
▁tart	-5461
000270	-5462
market	-5463
yahoga	-5464
▁1963,	-5465
▁2001.	-5466
▁52090	-5467
▁Città	-5468
▁Oddie	-5469
▁Rabad	-5470
▁Spall	-5471
▁Trans	-5472
▁enwau	-5473
▁novel	-5474
▁1-4165	-5475
▁Batumi	-5476
▁Danmar	-5477
▁Derbyn	-5478
▁Senant	-5479
▁pennau	-5480
▁platin	-5481
wyddoedd	-5482
▁8000270	-5483
▁Luciano	-5484
▁Oladipo	-5485
▁Ontario	-5486
▁Roberts	-5487
▁cylindr	-5488
▁eitemau	-5489
▁ethnydd	-5490
▁Cuyahoga	-5491
▁Cyfreith	-5492
▁Goslarer	-5493
▁Rabadash	-5494
▁Serennau	-5495
▁chwyddor	-5496
▁dynodiad	-5497
▁2015-06-2	-5498
▁Gwaelodol	-5499
▁Newmarket	-5500
▁Spalletti	-5501
▁chicharon	-5502
▁chwisiant	-5503
▁Williamson	-5504
▁chwaraewyr	-5505
▁1-4165-2060	-5506
▁Cerddoriaeth	-5507
Yr	-5508
iu	-5509
me	-5510
ps	-5511
/27	-5512
3.8	-5513
4.0	-5514
749	-5515
fed	-5516
gre	-5517
rot	-5518
▁3,	-5519
▁AK	-5520
AIDS	-5521
Mawr	-5522
Univ	-5523
adbo	-5524
aleg	-5525
aple	-5526
emar	-5527
esel	-5528
full	-5529
iaid	-5530
kles	-5531
nodd	-5532
wedi	-5533
ycam	-5534
▁1.2	-5535
▁331	-5536
▁5.3	-5537
▁911	-5538
▁Ast	-5539
▁End	-5540
▁Nij	-5541
▁Tra	-5542
▁USD	-5543
▁ang	-5544
▁ban	-5545
▁bri	-5546
▁der	-5547
▁grr	-5548
▁iâg	-5549
▁ool	-5550
aiden	-5551
efnod	-5552
ember	-5553
iffer	-5554
itute	-5555
megen	-5556
orden	-5557
ourou	-5558
ropol	-5559
tland	-5560
wneud	-5561
▁Bart	-5562
▁Inst	-5563
▁Mech	-5564
▁Mell	-5565
▁Moro	-5566
▁Taro	-5567
▁Wyss	-5568
▁drwm	-5569
▁gwbl	-5570
▁llus	-5571
▁mylg	-5572
adboud	-5573
grethe	-5574
ryptio	-5575
wydron	-5576
▁2013.	-5577
▁Brodd	-5578
▁Chanc	-5579
▁Gofod	-5580
▁Maple	-5581
▁Sycam	-5582
▁Tudor	-5583
emariam	-5584
urakles	-5585
wyddodd	-5586
▁288749	-5587
▁Arthur	-5588
▁Castle	-5589
▁Kourou	-5590
▁Oliver	-5591
▁Panama	-5592
▁Penyet	-5593
▁Rwsieg	-5594
▁Worden	-5595
▁cwarel	-5596
▁dewser	-5597
▁mawron	-5598
▁meddal	-5599
▁Desaleg	-5600
▁Londron	-5601
▁Polydor	-5602
▁Radboud	-5603
▁neilltu	-5604
▁trydydd	-5605
▁Awyrrydd	-5606
▁Comysgol	-5607
▁Mamiffer	-5608
▁National	-5609
▁Nijmegen	-5610
▁November	-5611
▁Sycamore	-5612
▁abebrill	-5613
6000000.0.	-5614
▁Institute	-5615
▁Margrethe	-5616
▁Sportpark	-5617
▁ddyllunio	-5618
▁Philippine	-5619
▁cyffrediad	-5620
FC	-5621
ky	-5622
no	-5623
vd	-5624
2.8	-5625
597	-5626
6.0	-5627
80-	-5628
adw	-5629
eca	-5630
eig	-5631
len	-5632
neb	-5633
ofn	-5634
pig	-5635
teo	-5636
vis	-5637
▁67	-5638
90.9	-5639
alez	-5640
angk	-5641
asol	-5642
edan	-5643
emon	-5644
enzi	-5645
eron	-5646
iaol	-5647
ield	-5648
ileo	-5649
inam	-5650
king	-5651
loom	-5652
ousa	-5653
utch	-5654
▁AFB	-5655
▁FAS	-5656
▁Jos	-5657
▁Lib	-5658
▁Mun	-5659
▁Mus	-5660
▁Qiu	-5661
▁arf	-5662
▁fwy	-5663
▁gul	-5664
▁hyw	-5665
33968	-5666
60363	-5667
64597	-5668
843.8	-5669
ampus	-5670
ennai	-5671
eroid	-5672
ieter	-5673
imiau	-5674
nodar	-5675
osion	-5676
▁1904	-5677
▁3.04	-5678
▁Bloc	-5679
▁Blvd	-5680
▁Cynn	-5681
▁Fons	-5682
▁Gyda	-5683
▁Karl	-5684
▁Kras	-5685
▁Kway	-5686
▁Mata	-5687
▁Unid	-5688
▁chil	-5689
▁cwâr	-5690
▁euro	-5691
▁iddo	-5692
▁name	-5693
▁patr	-5694
▁reol	-5695
ellors	-5696
▁1933.	-5697
▁1958.	-5698
▁2000,	-5699
▁490.9	-5700
▁Bloom	-5701
▁Colon	-5702
▁Kesel	-5703
▁Krist	-5704
▁Renzi	-5705
▁Sousa	-5706
▁Xiaol	-5707
▁atred	-5708
▁cerdd	-5709
▁porth	-5710
▁ymuno	-5711
eithiau	-5712
▁660363	-5713
▁Candle	-5714
▁Dieter	-5715
▁Maiden	-5716
▁Matteo	-5717
▁Mellow	-5718
▁Styria	-5719
▁statws	-5720
ysgraddi	-5721
▁30843.8	-5722
▁9364597	-5723
▁Cameron	-5724
▁Chennai	-5725
▁Cornish	-5726
▁Estadio	-5727
▁Fonseca	-5728
▁Galileo	-5729
▁Hecking	-5730
▁bwngwyl	-5731
▁ddargan	-5732
▁ddywydd	-5733
▁fyddwth	-5734
▁252000.0	-5735
▁Aurakles	-5736
▁Cyfrannu	-5737
▁Ffilipei	-5738
▁Gonzalez	-5739
▁Kristina	-5740
▁Xiaolong	-5741
▁asteroid	-5742
▁bwynoedd	-5743
▁ddiweddu	-5744
▁ffojliad	-5745
▁Ffilimiau	-5746
▁Ffilipein	-5747
▁Fflameidd	-5748
▁Krasnodar	-5749
▁amrywiant	-5750
▁briodwedd	-5751
▁centimedr	-5752
▁cofnodion	-5753
▁lleoliwyd	-5754
▁safleoedd	-5755
▁syddogwyd	-5756
ellorsville	-5757
▁Affricaeth	-5758
▁Nottingham	-5759
AT	-5760
wg	-5761
ze	-5762
▁.	-5763
-16	-5764
718	-5765
aeg	-5766
aur	-5767
ela	-5768
har	-5769
lun	-5770
rah	-5771
sky	-5772
ïau	-5773
ñol	-5774
▁UC	-5775
▁my	-5776
▁pe	-5777
5589	-5778
Amin	-5779
aber	-5780
apur	-5781
eppe	-5782
etro	-5783
ewan	-5784
idad	-5785
opod	-5786
wich	-5787
ynol	-5788
▁-3.	-5789
▁125	-5790
▁129	-5791
▁16.	-5792
▁605	-5793
▁Jac	-5794
▁Saf	-5795
▁Tob	-5796
▁boc	-5797
▁fón	-5798
▁gwe	-5799
▁kms	-5800
3000.	-5801
akrah	-5802
eoria	-5803
irley	-5804
riwyd	-5805
ynedd	-5806
▁1986	-5807
▁Chap	-5808
▁Gius	-5809
▁Hail	-5810
▁Iach	-5811
▁Kenn	-5812
▁Mols	-5813
▁Sask	-5814
▁Tink	-5815
▁Trin	-5816
▁Veil	-5817
▁cynh	-5818
▁roll	-5819
▁1923.	-5820
▁347.1	-5821
▁70634	-5822
▁Berry	-5823
▁Dinam	-5824
▁Faber	-5825
▁Horch	-5826
▁Kuban	-5827
▁Logan	-5828
▁Metal	-5829
▁Tomsk	-5830
▁dewyr	-5831
▁dychw	-5832
▁ffrâm	-5833
▁fwych	-5834
▁lluch	-5835
▁maeon	-5836
▁sengl	-5837
▁wneir	-5838
400000.	-5839
▁135589	-5840
▁605718	-5841
▁Arwydd	-5842
▁Benton	-5843
▁Bysell	-5844
▁Center	-5845
▁Crafts	-5846
▁Ground	-5847
▁Gwneud	-5848
▁Hanner	-5849
▁Peoria	-5850
▁Tobago	-5851
▁dronol	-5852
atchewan	-5853
▁Daggash	-5854
▁Desmond	-5855
▁Ffantry	-5856
▁Iachini	-5857
▁Olympig	-5858
▁Shirley	-5859
▁Tinkham	-5860
▁aelodau	-5861
▁benodol	-5862
▁sylfaen	-5863
ropolitan	-5864
seiliedig	-5865
▁125800.0	-5866
▁Azerbaid	-5867
▁Colombeg	-5868
▁Giuseppe	-5869
▁Gweithaf	-5870
▁Trinidad	-5871
▁Academedi	-5872
▁Spaceport	-5873
▁Unysgolydd	-5874
▁Hailemariam	-5875
▁Saskatchewan	-5876
▁523951582.33968	-5877
wc	-5878
aac	-5879
por	-5880
rku	-5881
rol	-5882
rym	-5883
▁60	-5884
▁Bn	-5885
▁CD	-5886
▁Ev	-5887
2447	-5888
9705	-5889
emer	-5890
jona	-5891
riol	-5892
ymud	-5893
▁1.8	-5894
▁512	-5895
▁722	-5896
▁99.	-5897
▁Awg	-5898
▁Gol	-5899
▁Pat	-5900
▁Sci	-5901
▁Web	-5902
▁dol	-5903
▁iâd	-5904
▁mas	-5905
achie	-5906
arest	-5907
ephal	-5908
ffydd	-5909
illin	-5910
inisa	-5911
wylch	-5912
▁1971	-5913
▁Aviv	-5914
▁Awto	-5915
▁Azin	-5916
▁East	-5917
▁Enda	-5918
▁Expl	-5919
▁Hold	-5920
▁Jama	-5921
▁Prâg	-5922
▁Punk	-5923
▁Shan	-5924
▁bhaj	-5925
▁byrl	-5926
▁cris	-5927
▁derb	-5928
▁llyg	-5929
▁modd	-5930
▁syth	-5931
▁tref	-5932
ledydd	-5933
▁1987.	-5934
▁Amhar	-5935
▁Isaac	-5936
▁Kenny	-5937
▁Rojas	-5938
▁Turin	-5939
▁Tyrci	-5940
▁brith	-5941
▁sylfa	-5942
▁139705	-5943
▁162447	-5944
▁Cyfres	-5945
▁Dillin	-5946
▁Pwyleg	-5947
▁Sinisa	-5948
▁Arddull	-5949
▁Cynnodd	-5950
▁comimio	-5951
▁digwydd	-5952
▁gwerydd	-5953
▁unigryw	-5954
ephalopod	-5955
wyddiaeth	-5956
▁Chwyddon	-5957
▁Coreaidd	-5958
▁Cysoniad	-5959
▁Gludiant	-5960
▁Limerick	-5961
▁Stanford	-5962
▁blwyddyn	-5963
▁cyforiad	-5964
▁ddyfannu	-5965
▁preffect	-5966
▁Chwaraewr	-5967
▁Explosion	-5968
▁Ffwythiad	-5969
▁Indoneseg	-5970
▁Shanachie	-5971
▁lansioedd	-5972
▁Lokomotive	-5973
▁Mihajlovic	-5974
▁Rhyddogwyd	-5975
▁categorïau	-5976
▁dosbarthir	-5977
▁herwyddion	-5978
▁cyffredinol	-5979
▁Gwyddoniaeth	-5980
▁cyfansoddiad	-5981
▁Gynrychiolion	-5982
▁Gweithrediadau	-5983
'.	-5984
0-	-5985
AA	-5986
XN	-5987
uy	-5988
-12	-5989
622	-5990
aik	-5991
ate	-5992
mil	-5993
ogo	-5994
urt	-5995
▁00	-5996
▁39	-5997
▁AG	-5998
▁Sl	-5999
▁an	-6000
0.0.	-6001
7392	-6002
9447	-6003
ajji	-6004
awth	-6005
blyg	-6006
cema	-6007
ebol	-6008
eniz	-6009
esen	-6010
iyev	-6011
lect	-6012
oyet	-6013
then	-6014
▁448	-6015
▁698	-6016
▁973	-6017
▁Arp	-6018
▁Bre	-6019
▁CEO	-6020
▁Gio	-6021
▁Gus	-6022
▁RCA	-6023
▁Reg	-6024
6000.	-6025
aniad	-6026
aracy	-6027
metel	-6028
olone	-6029
olygu	-6030
redig	-6031
ynnau	-6032
yrwyr	-6033
▁"192	-6034
▁1989	-6035
▁5115	-6036
▁Drum	-6037
▁Live	-6038
▁Naik	-6039
▁Seat	-6040
▁Stad	-6041
▁Tesh	-6042
▁chyf	-6043
▁garn	-6044
▁hogo	-6045
▁ligg	-6046
739224	-6047
anilow	-6048
ganfod	-6049
rysler	-6050
▁1516.	-6051
▁1981.	-6052
▁1983.	-6053
▁39447	-6054
▁Baduy	-6055
▁Elect	-6056
▁Evang	-6057
▁Halla	-6058
▁Llawn	-6059
▁Lwybr	-6060
▁Marry	-6061
▁Perth	-6062
▁Poyet	-6063
▁Steel	-6064
▁Unysg	-6065
▁Veniz	-6066
▁elfen	-6067
▁fófod	-6068
▁gemau	-6069
▁myneg	-6070
orthwyr	-6071
▁410777	-6072
▁698622	-6073
▁Bruins	-6074
▁Claude	-6075
▁Darien	-6076
▁Dinamo	-6077
▁Giovan	-6078
▁Mulatu	-6079
▁Telang	-6080
▁-3.3528	-6081
▁5739224	-6082
▁Banilow	-6083
▁Buscema	-6084
▁Gangsta	-6085
▁Safonol	-6086
▁Teshome	-6087
▁bionico	-6088
▁budding	-6089
▁crisiad	-6090
▁ddisgyn	-6091
▁flaenir	-6092
▁gallwch	-6093
▁lansodd	-6094
▁weithio	-6095
▁Canfuwyd	-6096
▁Chrysler	-6097
▁Football	-6098
▁Pallesen	-6099
▁personel	-6100
▁Bartolone	-6101
▁Evangelos	-6102
▁Gadzhiyev	-6103
▁Gyfrinach	-6104
▁Venizelos	-6105
▁bananaman	-6106
▁drafftiau	-6107
▁gwyddonol	-6108
▁gydranedd	-6109
▁rheolaeth	-6110
▁ddyllunodd	-6111
▁llofnodwyd	-6112
▁cynhaliaeth	-6113
▁Ddansiaethau	-6114
▁metropolitan	-6115
▁Fredericksburg	-6116
."	-6117
II	-6118
TE	-6119
ck	-6120
tt	-6121
êl	-6122
ín	-6123
/35	-6124
11.	-6125
2-2	-6126
9.0	-6127
Ass	-6128
III	-6129
Roy	-6130
liw	-6131
nyk	-6132
olt	-6133
pur	-6134
ren	-6135
ryp	-6136
sex	-6137
sit	-6138
uad	-6139
uas	-6140
▁89	-6141
▁Ir	-6142
▁Le	-6143
▁en	-6144
▁op	-6145
-033	-6146
9618	-6147
afay	-6148
aiff	-6149
angl	-6150
asgu	-6151
añol	-6152
beat	-6153
erny	-6154
ette	-6155
ions	-6156
llen	-6157
olai	-6158
omer	-6159
▁17.	-6160
▁36.	-6161
▁414	-6162
▁560	-6163
▁AGR	-6164
▁Bab	-6165
▁Bib	-6166
▁Fox	-6167
▁Pac	-6168
▁Sim	-6169
▁Wig	-6170
▁far	-6171
▁jav	-6172
▁neg	-6173
▁rup	-6174
Athen	-6175
Royce	-6176
anyum	-6177
arese	-6178
laeth	-6179
otaur	-6180
raedd	-6181
razil	-6182
ument	-6183
ustín	-6184
▁1980	-6185
▁2011	-6186
▁21.2	-6187
▁497.	-6188
▁Bach	-6189
▁Dane	-6190
▁Diaz	-6191
▁Fuad	-6192
▁Gron	-6193
▁High	-6194
▁Linn	-6195
▁Moga	-6196
▁Raul	-6197
▁Sant	-6198
▁Tref	-6199
▁XIII	-6200
▁bach	-6201
▁crem	-6202
▁darg	-6203
▁fedi	-6204
▁goch	-6205
▁pian	-6206
Wakrah	-6207
ernykh	-6208
robeat	-6209
rypnyk	-6210
▁0-670	-6211
▁69618	-6212
▁Adsit	-6213
▁Arion	-6214
▁Blaen	-6215
▁Citta	-6216
▁Colan	-6217
▁Dewis	-6218
▁Essex	-6219
▁Lafay	-6220
▁Masum	-6221
▁Rolls	-6222
▁South	-6223
▁chili	-6224
▁chwbl	-6225
▁doler	-6226
▁finii	-6227
▁trans	-6228
▁triad	-6229
600000.	-6230
aithwyd	-6231
elsberg	-6232
nalillo	-6233
sbridge	-6234
wyddiad	-6235
▁Gadzhi	-6236
▁Marius	-6237
▁Mosgos	-6238
▁Rivers	-6239
▁Static	-6240
▁Torino	-6241
▁chilli	-6242
▁cymryd	-6243
▁dyddol	-6244
▁mering	-6245
▁mynych	-6246
angledig	-6247
▁Agustín	-6248
▁Alfonso	-6249
▁Gardner	-6250
▁Nikolai	-6251
▁Whitman	-6252
▁chorizo	-6253
▁chreuwr	-6254
▁gynhwys	-6255
▁tapioca	-6256
anyumasan	-6257
▁Chernykh	-6258
▁Giovanni	-6259
▁Monument	-6260
▁Peiriant	-6261
▁Skrypnyk	-6262
▁cyfarfod	-6263
▁hwnnwydd	-6264
▁0-670-033	-6265
▁Lafayette	-6266
▁Riverside	-6267
▁Wreiddiol	-6268
▁1913-01-01	-6269
▁Aleksandre	-6270
▁Babelsberg	-6271
▁Bernalillo	-6272
▁ddylennodd	-6273
▁sefyddiwyd	-6274
▁Mathematics	-6275
▁ysgrifennwr	-6276
▁Ffwythwyniad	-6277
▁Gweithredydd	-6278
▁diweddweddol	-6279
▁Knightsbridge	-6280
13	-6281
Ab	-6282
BI	-6283
cu	-6284
ki	-6285
ld	-6286
oğ	-6287
2.3	-6288
3.0	-6289
4.9	-6290
7.0	-6291
afu	-6292
ata	-6293
dem	-6294
raj	-6295
▁ID	-6296
▁KV	-6297
3309	-6298
6521	-6299
7055	-6300
adol	-6301
cuit	-6302
edau	-6303
elen	-6304
iaeg	-6305
ific	-6306
iwyr	-6307
oğlu	-6308
sche	-6309
urol	-6310
yddi	-6311
▁14.	-6312
▁292	-6313
▁336	-6314
▁5.4	-6315
▁94.	-6316
▁Dwy	-6317
▁Gra	-6318
▁Klu	-6319
▁Qar	-6320
▁STV	-6321
▁Sei	-6322
▁Vit	-6323
▁ael	-6324
▁cwb	-6325
▁dda	-6326
▁lyr	-6327
00000	-6328
Watch	-6329
ailan	-6330
atown	-6331
entyn	-6332
etown	-6333
rakov	-6334
wyneb	-6335
▁1974	-6336
▁Gene	-6337
▁Koch	-6338
▁Mold	-6339
▁Oros	-6340
▁Pale	-6341
▁Solo	-6342
▁Tait	-6343
▁USAF	-6344
▁Vila	-6345
▁Wolt	-6346
▁cofn	-6347
▁dean	-6348
▁gula	-6349
chawth	-6350
demont	-6351
geniad	-6352
orffor	-6353
parodd	-6354
rajaya	-6355
wyddor	-6356
▁1913.	-6357
▁1931.	-6358
▁1974.	-6359
▁344.9	-6360
▁41498	-6361
▁99.83	-6362
▁Maher	-6363
▁Mater	-6364
▁Sauli	-6365
▁ddatg	-6366
▁sgwng	-6367
0000003	-6368
▁183309	-6369
▁296521	-6370
▁Brazil	-6371
▁Carles	-6372
▁Island	-6373
▁Kluwer	-6374
▁Parana	-6375
▁Valery	-6376
▁Viktor	-6377
▁americ	-6378
▁bysell	-6379
▁efoedd	-6380
▁fetaid	-6381
▁kailan	-6382
▁penyet	-6383
football	-6384
▁Brydeig	-6385
▁Circuit	-6386
▁Cyfesur	-6387
▁Fflameg	-6388
▁Futebol	-6389
▁Pacific	-6390
▁Wolters	-6391
▁chefnod	-6392
▁grywydd	-6393
▁pudding	-6394
wngwladol	-6395
▁Afrobeat	-6396
▁Barchiad	-6397
▁Mechelen	-6398
▁Minotaur	-6399
▁Petrakov	-6400
▁adeilwyd	-6401
▁cymhapsi	-6402
▁weithwyr	-6403
▁ynghylch	-6404
efnyddiwyd	-6405
footballer	-6406
▁80002709.	-6407
▁Chinatown	-6408
▁Davutoğlu	-6409
▁Ffilipiau	-6410
▁Putrajaya	-6411
▁eiconegol	-6412
▁Puigdemont	-6413
▁gorffenwyd	-6414
▁gynrychiol	-6415
▁gwrthrychau	-6416
▁1-4165-2060-0.	-6417
5-	-6418
bg	-6419
by	-6420
ln	-6421
oa	-6422
-26	-6423
/32	-6424
4.7	-6425
711	-6426
92.	-6427
977	-6428
chi	-6429
ego	-6430
ese	-6431
gyn	-6432
hem	-6433
keh	-6434
▁He	-6435
----	-6436
-201	-6437
0008	-6438
6468	-6439
6798	-6440
7.43	-6441
bhai	-6442
elly	-6443
exas	-6444
ling	-6445
orks	-6446
orld	-6447
phen	-6448
rewe	-6449
weed	-6450
wyni	-6451
ywng	-6452
▁1.9	-6453
▁12,	-6454
▁2.0	-6455
▁299	-6456
▁Dun	-6457
▁Gêm	-6458
▁Hai	-6459
▁Mak	-6460
▁Vfl	-6461
▁aro	-6462
▁bas	-6463
▁ech	-6464
▁ler	-6465
▁pic	-6466
6702.	-6467
Abadi	-6468
ediol	-6469
riela	-6470
ynnag	-6471
▁1174	-6472
▁1995	-6473
▁Arms	-6474
▁Dick	-6475
▁Eman	-6476
▁Hays	-6477
▁José	-6478
▁Nova	-6479
▁Okeh	-6480
▁Rahm	-6481
▁Reid	-6482
▁Rhes	-6483
▁Sach	-6484
▁Vlad	-6485
▁aeth	-6486
▁lira	-6487
▁lled	-6488
▁olym	-6489
▁soja	-6490
▁soya	-6491
▁ymyr	-6492
646863	-6493
679831	-6494
aethau	-6495
andlun	-6496
esterf	-6497
option	-6498
ordodd	-6499
rhyrch	-6500
stodol	-6501
yddodd	-6502
▁15788	-6503
▁1905.	-6504
▁19238	-6505
▁1959.	-6506
▁25977	-6507
▁34920	-6508
▁523.9	-6509
▁Alama	-6510
▁Bibbo	-6511
▁Crewe	-6512
▁Genoa	-6513
▁Iloch	-6514
▁Kochi	-6515
▁Silva	-6516
▁Works	-6517
▁World	-6518
▁bajji	-6519
▁gwrch	-6520
▁langk	-6521
▁negre	-6522
Univers	-6523
▁107.43	-6524
▁299196	-6525
▁Haider	-6526
▁Ionair	-6527
▁Melaka	-6528
▁Rovers	-6529
▁Tennis	-6530
▁Unolol	-6531
▁bynnag	-6532
▁cwmpas	-6533
▁dargan	-6534
▁glasau	-6535
▁penfan	-6536
▁pwysig	-6537
▁ymddir	-6538
optional	-6539
▁Agorwyd	-6540
▁Avocado	-6541
▁Awgrydd	-6542
▁Digweed	-6543
▁Emanuel	-6544
▁Georgeg	-6545
▁Gwrthyn	-6546
▁Jamaica	-6547
▁Rutland	-6548
▁Sachsen	-6549
▁Serenau	-6550
▁Stephen	-6551
▁Telanga	-6552
▁ffurfio	-6553
▁javaneg	-6554
▁rhannol	-6555
▁ysgolol	-6556
andlungen	-6557
millimedr	-6558
▁2014-201	-6559
▁89646863	-6560
▁Azerbaer	-6561
▁Berliner	-6562
▁Chesterf	-6563
▁Francois	-6564
▁Gabriela	-6565
▁Iseldiad	-6566
▁Michetti	-6567
▁Taqaddum	-6568
▁langkuas	-6569
▁meringue	-6570
▁rhwydron	-6571
▁traffydd	-6572
▁93645978.	-6573
▁Dilyniant	-6574
▁Priodwedd	-6575
Universitas	-6576
▁259776702.	-6577
▁Banyumasan	-6578
▁ffojliadol	-6579
▁gyfansoddi	-6580
▁2015-06-27.	-6581
▁Dynrychioli	-6582
▁bysellfwrdd	-6583
▁ddiweddaraf	-6584
▁Chesterfield	-6585
SV	-6586
-92	-6587
312	-6588
39.	-6589
573	-6590
75,	-6591
807	-6592
adt	-6593
ark	-6594
bwn	-6595
eum	-6596
gof	-6597
ilo	-6598
ora	-6599
yle	-6600
öln	-6601
▁AD	-6602
▁os	-6603
▁ya	-6604
4.33	-6605
4.55	-6606
550-	-6607
6463	-6608
adwy	-6609
aeme	-6610
ancy	-6611
elez	-6612
erix	-6613
inau	-6614
jano	-6615
ouri	-6616
utty	-6617
▁168	-6618
▁488	-6619
▁Arn	-6620
▁Cel	-6621
▁Cyd	-6622
▁Eva	-6623
▁Fir	-6624
▁Gyr	-6625
▁Ilo	-6626
▁Jan	-6627
▁Kir	-6628
▁Paz	-6629
▁Pob	-6630
▁Sip	-6631
▁Yna	-6632
▁Zah	-6633
▁arb	-6634
acker	-6635
annol	-6636
artel	-6637
fanol	-6638
iseum	-6639
yddir	-6640
▁11/2	-6641
▁1987	-6642
▁2008	-6643
▁8.33	-6644
▁Blou	-6645
▁Gair	-6646
▁Juha	-6647
▁Köln	-6648
▁Lyle	-6649
▁Mond	-6650
▁Sadi	-6651
▁Slay	-6652
▁Vant	-6653
▁Virt	-6654
▁ethn	-6655
▁ffat	-6656
▁ffol	-6657
▁ffor	-6658
▁gell	-6659
▁myol	-6660
▁nudl	-6661
▁siar	-6662
911339	-6663
Campus	-6664
edelia	-6665
illeri	-6666
illwyr	-6667
ustadt	-6668
ventry	-6669
wychwr	-6670
▁1955,	-6671
▁74.33	-6672
▁Baner	-6673
▁Bhaji	-6674
▁Kuala	-6675
▁Larry	-6676
▁Malay	-6677
▁Nouri	-6678
▁Warne	-6679
▁adran	-6680
▁amlau	-6681
▁cofof	-6682
▁felly	-6683
▁llyfn	-6684
▁month	-6685
▁mwyth	-6686
▁popul	-6687
▁ymwyr	-6688
-92550-	-6689
4.55312	-6690
einster	-6691
▁100305	-6692
▁836463	-6693
▁Awdurd	-6694
▁Battle	-6695
▁Ganges	-6696
▁Graeme	-6697
▁Gronfa	-6698
▁Hartel	-6699
▁Iloilo	-6700
▁Joseph	-6701
▁Lumpur	-6702
▁Othman	-6703
▁Tejano	-6704
▁Wiener	-6705
▁agored	-6706
▁amrywi	-6707
▁drewyr	-6708
▁fetaet	-6709
▁geirir	-6710
▁geniad	-6711
▁gysgol	-6712
▁marwww	-6713
▁oeswyr	-6714
▁orffel	-6715
▁tomato	-6716
▁westei	-6717
thelwald	-6718
▁7679831	-6719
▁Asterix	-6720
▁Francis	-6721
▁Seattle	-6722
▁Vantage	-6723
▁Vicenza	-6724
▁awgrydd	-6725
▁byddwch	-6726
▁clôbiau	-6727
▁cyrchyn	-6728
▁darfysg	-6729
▁ddyrchu	-6730
▁gwerthu	-6731
▁rhaglen	-6732
Gweithred	-6733
▁41911339	-6734
▁Coliseum	-6735
▁Coventry	-6736
▁Hessisch	-6737
▁Mondelez	-6738
▁Morthwyr	-6739
▁Neustadt	-6740
▁Orllewin	-6741
▁Rosaceae	-6742
▁Saithiau	-6743
▁Sandwich	-6744
▁dreibydd	-6745
▁millimed	-6746
▁trefnydd	-6747
▁ymblwydd	-6748
▁Darparwyd	-6749
▁Defnyddir	-6750
▁cyfanelod	-6751
▁cynnwysau	-6752
▁datganfod	-6753
▁Gweithoedd	-6754
▁Olympiacos	-6755
▁Petersburg	-6756
▁SpaceWatch	-6757
▁cyfansodol	-6758
▁gitariaeth	-6759
▁llyfrnodau	-6760
▁440756000.0	-6761
▁479343000.0	-6762
▁Californian	-6763
▁Indonesiaeg	-6764
▁Superleague	-6765
▁weithredodd	-6766
▁29919600000.	-6767
▁drosglwyddiad	-6768
▁Gynrychiolaeth	-6769
▁419113394.55312	-6770
,1	-6771
41	-6772
OK	-6773
hn	-6774
ér	-6775
üs	-6776
-05	-6777
/01	-6778
12.	-6779
150	-6780
22.	-6781
517	-6782
608	-6783
648	-6784
729	-6785
AGE	-6786
ati	-6787
eis	-6788
erg	-6789
had	-6790
ice	-6791
iit	-6792
val	-6793
yam	-6794
▁24	-6795
▁42	-6796
▁Dh	-6797
▁KC	-6798
3.0.	-6799
4989	-6800
56-3	-6801
570.	-6802
8024	-6803
9-01	-6804
aird	-6805
arif	-6806
awra	-6807
esse	-6808
fuir	-6809
mile	-6810
onet	-6811
orta	-6812
rain	-6813
reuß	-6814
▁127	-6815
▁388	-6816
▁464	-6817
▁ESA	-6818
▁Gys	-6819
▁Gér	-6820
▁HOK	-6821
▁Hüs	-6822
▁Kad	-6823
▁Red	-6824
▁USF	-6825
▁VAM	-6826
▁ach	-6827
▁dwy	-6828
▁fan	-6829
52497	-6830
drini	-6831
eague	-6832
ectra	-6833
eldon	-6834
ylwyr	-6835
▁0-71	-6836
▁0.01	-6837
▁1856	-6838
▁1920	-6839
▁1966	-6840
▁3807	-6841
▁4150	-6842
▁Bari	-6843
▁Chis	-6844
▁Cohn	-6845
▁Cour	-6846
▁Creu	-6847
▁Ffug	-6848
▁Gary	-6849
▁Myst	-6850
▁Post	-6851
▁SAGE	-6852
▁Wall	-6853
▁bodh	-6854
▁dein	-6855
▁iill	-6856
▁taro	-6857
ashire	-6858
iensis	-6859
luniad	-6860
olaeth	-6861
▁144.7	-6862
▁18.29	-6863
▁1928.	-6864
▁2008.	-6865
▁Benit	-6866
▁Brith	-6867
▁Emile	-6868
▁Laura	-6869
▁Match	-6870
▁Preuß	-6871
▁Pugin	-6872
▁Reith	-6873
▁Trefn	-6874
▁angen	-6875
▁atgof	-6876
▁butty	-6877
▁bynau	-6878
▁chans	-6879
▁cylch	-6880
▁gwael	-6881
▁llywf	-6882
56-3648	-6883
570.608	-6884
glwyddo	-6885
uronnes	-6886
▁254989	-6887
▁352497	-6888
▁464517	-6889
▁Arnhem	-6890
▁Bloues	-6891
▁Brydeg	-6892
▁Cyfuno	-6893
▁Garden	-6894
▁Gérard	-6895
▁Kaduna	-6896
▁Lankan	-6897
▁Lufkin	-6898
▁Meride	-6899
▁Roemer	-6900
▁Sharif	-6901
▁Shorta	-6902
▁bhajji	-6903
▁bwysaf	-6904
▁creuwr	-6905
▁farwww	-6906
▁geirio	-6907
▁gyfran	-6908
▁1516.67	-6909
▁94.8024	-6910
▁Coaracy	-6911
▁Coronet	-6912
▁Hüseyin	-6913
▁Moldoff	-6914
▁Sheldon	-6915
▁Vitesse	-6916
▁Ysgrydd	-6917
▁bandeja	-6918
▁bhangra	-6919
▁chwyrch	-6920
▁cywasgu	-6921
▁draddio	-6922
▁drefydd	-6923
▁gysyllt	-6924
▁hanesol	-6925
▁prifnas	-6926
▁seilodd	-6927
dysgraddi	-6928
▁Augustus	-6929
▁Boldrini	-6930
▁Chisinau	-6931
▁Demokrat	-6932
▁Leinster	-6933
▁Rhanesol	-6934
▁cysawdau	-6935
▁ddwyrain	-6936
▁diweddar	-6937
▁llyfrwyr	-6938
▁strwyddi	-6939
▁16244700.	-6940
▁Cyhoeddir	-6941
▁Cyhoeddus	-6942
▁Daleithig	-6943
▁Preußisch	-6944
▁chwyddodd	-6945
▁Blocbuster	-6946
▁Lancashire	-6947
▁0-7156-3648	-6948
▁511592000.0	-6949
▁520906000.0	-6950
▁Ychwanegwyd	-6951
▁amatriciana	-6952
▁ddatgryptio	-6953
▁ffynhonnell	-6954
▁Aarhusiensis	-6955
▁Abhandlungen	-6956
▁Gweithredodd	-6957
▁254989570.608	-6958
-8	-6959
br	-6960
ôs	-6961
úl	-6962
üt	-6963
/1.	-6964
14.	-6965
937	-6966
ATA	-6967
Cyf	-6968
Ord	-6969
TEC	-6970
bws	-6971
fin	-6972
myn	-6973
ral	-6974
tig	-6975
uld	-6976
▁8,	-6977
▁BC	-6978
▁Ed	-6979
▁MD	-6980
▁Mr	-6981
▁Ps	-6982
▁wa	-6983
-932	-6984
2343	-6985
42.3	-6986
7888	-6987
Arth	-6988
abab	-6989
alin	-6990
aned	-6991
awdd	-6992
baan	-6993
bien	-6994
deon	-6995
edah	-6996
eikh	-6997
eiwn	-6998
ival	-6999
mine	-7000
mira	-7001
reid	-7002
ryll	-7003
wndd	-7004
wyol	-7005
▁27-	-7006
▁374	-7007
▁404	-7008
▁535	-7009
▁846	-7010
▁Abu	-7011
▁Büt	-7012
▁Gyf	-7013
▁Len	-7014
▁Rus	-7015
▁Sao	-7016
▁Vor	-7017
▁cad	-7018
▁dem	-7019
▁nir	-7020
47055	-7021
7080.	-7022
72943	-7023
Ordon	-7024
Zawra	-7025
emonw	-7026
enzie	-7027
iliad	-7028
newid	-7029
onson	-7030
wpiad	-7031
▁0.21	-7032
▁125.	-7033
▁8500	-7034
▁Anth	-7035
▁Atal	-7036
▁Bell	-7037
▁Boer	-7038
▁Busn	-7039
▁Darf	-7040
▁Gwef	-7041
▁IATA	-7042
▁Iwer	-7043
▁Raúl	-7044
▁Ximo	-7045
▁siwr	-7046
ainain	-7047
antino	-7048
ediant	-7049
jonaid	-7050
▁10252	-7051
▁1202.	-7052
▁18.52	-7053
▁1976.	-7054
▁1986,	-7055
▁1989.	-7056
▁87888	-7057
▁Alton	-7058
▁Atica	-7059
▁Diego	-7060
▁Eurol	-7061
▁Galac	-7062
▁Guard	-7063
▁Gynol	-7064
▁Güner	-7065
▁Horri	-7066
▁Kedah	-7067
▁Kirby	-7068
▁Odeon	-7069
▁Psych	-7070
▁Steyr	-7071
▁Ujang	-7072
▁Zahar	-7073
▁amgen	-7074
▁bwrth	-7075
▁ganol	-7076
▁llydd	-7077
▁papur	-7078
wythiad	-7079
▁"1634:	-7080
▁1142.3	-7081
▁772943	-7082
▁882343	-7083
▁Admira	-7084
▁Bujang	-7085
▁Canfod	-7086
▁Courco	-7087
▁Dayton	-7088
▁Herrku	-7089
▁Lladin	-7090
▁Mawrth	-7091
▁Moskos	-7092
▁Russel	-7093
▁Shabab	-7094
▁Sheikh	-7095
▁Stalin	-7096
▁Vectra	-7097
▁Wacker	-7098
▁celery	-7099
▁ddeldi	-7100
▁dimedr	-7101
▁fforio	-7102
▁triydd	-7103
▁000.000	-7104
▁837080.	-7105
▁Bütüner	-7106
▁Carmine	-7107
▁Español	-7108
▁cysyllt	-7109
▁dychwel	-7110
▁gludafu	-7111
▁hywddir	-7112
▁mynegol	-7113
00000000.	-7114
sefydlwyd	-7115
▁Atlantig	-7116
▁Broddiol	-7117
▁Ddaethol	-7118
▁Dosbarth	-7119
▁Eidalion	-7120
▁Horrigan	-7121
▁Mystriol	-7122
▁Santilli	-7123
▁bwillwyr	-7124
▁cyrraedd	-7125
▁ddigwydd	-7126
▁farwwodd	-7127
▁symudiad	-7128
▁01-01-191	-7129
▁475426000	-7130
▁Cyfrywydd	-7131
▁Infantino	-7132
▁Partiaeth	-7133
▁Sbaenbaen	-7134
▁chwyddiad	-7135
▁cyhoeddwr	-7136
▁ddyrhyrch	-7137
▁gwasbarth	-7138
▁gyffredin	-7139
▁179942000.	-7140
▁475426000.	-7141
▁Charleston	-7142
▁Euroleague	-7143
▁Technology	-7144
▁derbyddwyd	-7145
▁gysylltiad	-7146
▁0-439-17684	-7147
▁373513000.0	-7148
▁Bloomington	-7149
▁Psychedelia	-7150
▁gyfansodwyd	-7151
▁Courcouronnes	-7152
▁Demokratiaeth	-7153
▁254989570.60815	-7154
IS	-7155
ii	-7156
na	-7157
ât	-7158
/23	-7159
131	-7160
484	-7161
6,3	-7162
905	-7163
RAA	-7164
Ver	-7165
arf	-7166
ari	-7167
aré	-7168
cov	-7169
den	-7170
eda	-7171
fft	-7172
ify	-7173
mut	-7174
nam	-7175
sor	-7176
ute	-7177
ynt	-7178
zii	-7179
▁0,	-7180
▁57	-7181
▁Hu	-7182
▁co	-7183
▁fh	-7184
▁fl	-7185
-374	-7186
1613	-7187
9142	-7188
acew	-7189
acio	-7190
asim	-7191
eged	-7192
goch	-7193
holm	-7194
psey	-7195
rice	-7196
rome	-7197
wark	-7198
wser	-7199
ydol	-7200
▁142	-7201
▁31.	-7202
▁44.	-7203
▁787	-7204
▁945	-7205
▁Bwc	-7206
▁Gat	-7207
▁Gwy	-7208
▁Rev	-7209
▁aus	-7210
▁cam	-7211
▁sar	-7212
-05-2	-7213
5.324	-7214
adion	-7215
andro	-7216
assic	-7217
atins	-7218
cover	-7219
gywir	-7220
iadwy	-7221
ymiau	-7222
yrchu	-7223
▁0.04	-7224
▁167.	-7225
▁1936	-7226
▁Apul	-7227
▁Beth	-7228
▁Ffed	-7229
▁Ffôn	-7230
▁Hull	-7231
▁Jahn	-7232
▁Mish	-7233
▁ORAA	-7234
▁Sons	-7235
▁Wind	-7236
▁asod	-7237
▁brys	-7238
▁bwbl	-7239
▁eith	-7240
▁fynh	-7241
▁mynd	-7242
▁reso	-7243
▁roch	-7244
▁sawl	-7245
▁troi	-7246
▁ymth	-7247
-26131	-7248
Verona	-7249
adwood	-7250
eering	-7251
enburg	-7252
ietnam	-7253
ischen	-7254
ursema	-7255
wyrwyr	-7256
▁125.8	-7257
▁1622.	-7258
▁1966.	-7259
▁1971.	-7260
▁1989,	-7261
▁23900	-7262
▁41613	-7263
▁Aless	-7264
▁Canto	-7265
▁Cerdd	-7266
▁Chute	-7267
▁Corea	-7268
▁Gwych	-7269
▁Londr	-7270
▁Price	-7271
▁State	-7272
▁Velod	-7273
▁Worth	-7274
▁ailad	-7275
▁chwau	-7276
▁mesur	-7277
atinsky	-7278
▁279142	-7279
▁560937	-7280
▁75.324	-7281
▁Awdydd	-7282
▁Digify	-7283
▁Falcon	-7284
▁Gyntaf	-7285
▁Helmut	-7286
▁Newark	-7287
▁Spacew	-7288
▁Tabaré	-7289
▁Turzii	-7290
▁Unigol	-7291
▁chwfft	-7292
▁cywasg	-7293
▁ddinal	-7294
▁diwser	-7295
▁ebrill	-7296
▁gyfres	-7297
▁pobwyr	-7298
▁transl	-7299
▁ymlawn	-7300
Americau	-7301
▁Awyrbws	-7302
▁Catania	-7303
▁Classic	-7304
▁Dancydd	-7305
▁Dempsey	-7306
▁Mishkin	-7307
▁Randall	-7308
▁Revival	-7309
▁Windsor	-7310
▁amgylfa	-7311
▁datblyg	-7312
▁dwyrain	-7313
▁mynychu	-7314
▁safonol	-7315
▁Bwcarest	-7316
▁Bysellau	-7317
▁Duursema	-7318
▁Gweithio	-7319
▁Rhoddwyd	-7320
▁Torriwyd	-7321
▁Unoligig	-7322
▁cyfansol	-7323
▁cyferbyn	-7324
▁elfennau	-7325
▁fforddau	-7326
▁gwartref	-7327
▁gwledydd	-7328
▁gynbarth	-7329
▁orllewin	-7330
▁polisiwr	-7331
▁serenydd	-7332
-374-26131	-7333
▁Apulensis	-7334
▁Broadwood	-7335
▁Fenchurch	-7336
▁Hardcover	-7337
▁Recordiau	-7338
▁Stockholm	-7339
▁Stockport	-7340
▁Superleeg	-7341
▁Velodrome	-7342
▁archifrif	-7343
▁geiriadol	-7344
▁gludfwrdd	-7345
▁roddogwyd	-7346
▁Alessandro	-7347
▁Arthilleri	-7348
▁Bolatinsky	-7349
▁Digwyddodd	-7350
▁Salvadoran	-7351
▁Spacewatch	-7352
▁chwrthdaro	-7353
▁golygymiau	-7354
▁gwybodaeth	-7355
▁Cynhyrchwyd	-7356
▁Darffordodd	-7357
▁Gwrthdodiad	-7358
▁0-439-17685-	-7359
▁ChievoVerona	-7360
▁gwrthdaroedd	-7361
▁Mathematischen	-7362
▁259776702.47055	-7363
,7	-7364
Ce	-7365
bi	-7366
áz	-7367
ên	-7368
▁v	-7369
-83	-7370
2.0	-7371
213	-7372
592	-7373
86.	-7374
ble	-7375
cin	-7376
din	-7377
gus	-7378
hai	-7379
hov	-7380
ror	-7381
upp	-7382
▁$3	-7383
▁65	-7384
▁BS	-7385
▁Nu	-7386
▁yl	-7387
1484	-7388
3326	-7389
8-16	-7390
9371	-7391
Mich	-7392
abag	-7393
ajub	-7394
amil	-7395
ebre	-7396
esda	-7397
guin	-7398
ifft	-7399
wain	-7400
▁"19	-7401
▁221	-7402
▁3.9	-7403
▁570	-7404
▁Adv	-7405
▁Men	-7406
▁PSV	-7407
▁Vaz	-7408
▁Váz	-7409
▁bat	-7410
▁cal	-7411
▁pos	-7412
▁the	-7413
01-83	-7414
ajaya	-7415
enawd	-7416
ennig	-7417
hoven	-7418
innah	-7419
niant	-7420
ongol	-7421
▁4000	-7422
▁Awol	-7423
▁Bydd	-7424
▁Eind	-7425
▁Kash	-7426
▁Kids	-7427
▁Kupp	-7428
▁Liga	-7429
▁Sago	-7430
▁Univ	-7431
▁Vala	-7432
▁elma	-7433
▁ffin	-7434
▁lyru	-7435
▁sais	-7436
▁sgol	-7437
▁siên	-7438
Cealla	-7439
aballi	-7440
ateurs	-7441
blwydd	-7442
erberg	-7443
eregol	-7444
nabydd	-7445
raceae	-7446
uniwyd	-7447
werydd	-7448
wladol	-7449
▁1.905	-7450
▁1996,	-7451
▁1998.	-7452
▁39371	-7453
▁48816	-7454
▁8.334	-7455
▁Blank	-7456
▁Cynth	-7457
▁Donal	-7458
▁Duane	-7459
▁Gellf	-7460
▁Gorff	-7461
▁Guryn	-7462
▁Gyrch	-7463
▁Iaith	-7464
▁Laird	-7465
▁Maint	-7466
▁Sumac	-7467
▁Tamil	-7468
▁Urugw	-7469
▁Vajub	-7470
▁allan	-7471
▁blwyd	-7472
▁ffojl	-7473
▁olymp	-7474
▁piano	-7475
▁rhyng	-7476
▁111484	-7477
▁1580.7	-7478
▁283326	-7479
▁570592	-7480
▁787711	-7481
▁870008	-7482
▁Awstri	-7483
▁Cruise	-7484
▁Golfan	-7485
▁Iwerdd	-7486
▁Jinnah	-7487
▁Milano	-7488
▁Sefrif	-7489
▁Senawd	-7490
▁Tywydd	-7491
▁codiad	-7492
▁gediad	-7493
▁lladin	-7494
▁mynwyr	-7495
▁priodd	-7496
▁rwpiad	-7497
▁Asajaya	-7498
▁Awyrfan	-7499
▁Barajas	-7500
▁Penguin	-7501
▁Qarabag	-7502
▁Vazquez	-7503
▁Vázquez	-7504
▁Ychwydd	-7505
▁amnewid	-7506
▁chwblod	-7507
▁cynrydd	-7508
▁gwraidd	-7509
▁gwyddon	-7510
▁mathiau	-7511
▁rhaniad	-7512
▁sgwmpai	-7513
Ceallaigh	-7514
cyfluniad	-7515
ieithoedd	-7516
wyddiadau	-7517
▁Cofnodol	-7518
▁Dewiswyd	-7519
▁Ffederol	-7520
▁Martinez	-7521
▁Richland	-7522
▁Simonson	-7523
▁Vajubhai	-7524
▁chwiliad	-7525
▁dewiswyd	-7526
▁geiriwyd	-7527
▁gyrchfan	-7528
▁pennaeth	-7529
▁rheolwyd	-7530
▁Eindhoven	-7531
▁echeregol	-7532
▁oeswyddol	-7533
▁pedwerydd	-7534
▁peritonit	-7535
00000000003	-7536
▁Kupperberg	-7537
▁Lansoddodd	-7538
▁Sarwaballi	-7539
▁Seiliedwyd	-7540
▁amgylchedd	-7541
▁cephalopod	-7542
▁chwyddoedd	-7543
▁cyfaniadol	-7544
▁mylwyddion	-7545
▁sefydigwyd	-7546
Associazione	-7547
▁Technolegau	-7548
▁cyfeiriadur	-7549
▁drosglwyddi	-7550
▁0-670-03380-	-7551
▁6603633000.0	-7552
▁meddalweddol	-7553
PS	-7554
hu	-7555
ug	-7556
zs	-7557
▁Ä	-7558
-1,	-7559
3.1	-7560
495	-7561
744	-7562
Jaw	-7563
fon	-7564
ght	-7565
imm	-7566
law	-7567
lus	-7568
min	-7569
pot	-7570
vio	-7571
zze	-7572
▁$8	-7573
▁68	-7574
▁HA	-7575
▁SN	-7576
▁Uk	-7577
▁eg	-7578
▁th	-7579
9.0.	-7580
aedd	-7581
chez	-7582
coni	-7583
ekal	-7584
empe	-7585
head	-7586
icip	-7587
iles	-7588
ioli	-7589
itzs	-7590
ohne	-7591
otto	-7592
owda	-7593
redd	-7594
riot	-7595
sain	-7596
wick	-7597
ärts	-7598
▁$55	-7599
▁21-	-7600
▁45.	-7601
▁746	-7602
▁880	-7603
▁Bri	-7604
▁Byd	-7605
▁Cri	-7606
▁Dul	-7607
▁Dyl	-7608
▁Fru	-7609
▁Grr	-7610
▁HAL	-7611
▁Iir	-7612
▁McK	-7613
▁Mem	-7614
▁Nor	-7615
▁Rap	-7616
▁SVE	-7617
▁byd	-7618
▁cos	-7619
▁deb	-7620
▁fun	-7621
▁lyn	-7622
▁ngh	-7623
▁rom	-7624
-07-2	-7625
-12-3	-7626
ainen	-7627
asket	-7628
chmyn	-7629
cinny	-7630
egory	-7631
einst	-7632
genre	-7633
ietam	-7634
indir	-7635
inell	-7636
metig	-7637
noleg	-7638
untry	-7639
▁108.	-7640
▁1301	-7641
▁15,1	-7642
▁1981	-7643
▁3000	-7644
▁5300	-7645
▁Aust	-7646
▁Bury	-7647
▁Cook	-7648
▁Dept	-7649
▁Gell	-7650
▁Quay	-7651
▁Seri	-7652
▁Wein	-7653
▁ddia	-7654
▁prot	-7655
egunda	-7656
hadodd	-7657
icipal	-7658
immons	-7659
landeg	-7660
mpique	-7661
rannol	-7662
▁"1928	-7663
▁$875,	-7664
▁01/01	-7665
▁12495	-7666
▁2001,	-7667
▁Adnan	-7668
▁Carpi	-7669
▁Diane	-7670
▁Fitzs	-7671
▁Giles	-7672
▁Gowda	-7673
▁Hamad	-7674
▁Hambg	-7675
▁Hohne	-7676
▁Jarmo	-7677
▁Kekal	-7678
▁Kempe	-7679
▁Ukrop	-7680
▁ddydd	-7681
▁gwain	-7682
▁hanes	-7683
▁pwysu	-7684
00000.0	-7685
bwyniad	-7686
ebrezze	-7687
lusconi	-7688
utaceae	-7689
waraeth	-7690
▁'1634:	-7691
▁167.94	-7692
▁2777.0	-7693
▁880573	-7694
▁Addans	-7695
▁Bright	-7696
▁Chapin	-7697
▁Dianne	-7698
▁Feinst	-7699
▁Fruits	-7700
▁Garage	-7701
▁Nadiol	-7702
▁Sparta	-7703
▁Tabare	-7704
▁Travis	-7705
▁Uchder	-7706
▁Unedeg	-7707
▁achosi	-7708
▁ampsis	-7709
▁cyflym	-7710
▁ffojli	-7711
▁ffrydd	-7712
▁gwared	-7713
▁gymhar	-7714
▁mwyfin	-7715
▁nudleu	-7716
▁patrât	-7717
▁raniad	-7718
▁unolig	-7719
▁ymlawr	-7720
▁ymwydd	-7721
ietnameg	-7722
▁1907-07	-7723
▁Anthony	-7724
▁Central	-7725
▁Chilton	-7726
▁Ffindir	-7727
▁Gregory	-7728
▁Gwerydd	-7729
▁Neilltu	-7730
▁Sandage	-7731
▁Sbaenor	-7732
▁Segunda	-7733
▁country	-7734
▁cyfarch	-7735
▁dyddydd	-7736
▁ganfuir	-7737
▁nudliau	-7738
▁perchen	-7739
▁reoliad	-7740
▁sefydig	-7741
▁serenad	-7742
▁stadion	-7743
Americiau	-7744
▁60040714	-7745
▁Adnabydd	-7746
▁Antietam	-7747
▁Awyrchol	-7748
▁Bethesda	-7749
▁Brooklyn	-7750
▁Cyfredig	-7751
▁Deptford	-7752
▁Goscinny	-7753
▁Guardian	-7754
▁McKenzie	-7755
▁Singapur	-7756
▁cosmetig	-7757
▁cysoniad	-7758
▁gitarist	-7759
Americaidd	-7760
▁124950000	-7761
▁2006-12-3	-7762
▁Feinstein	-7763
▁Gwneudwyd	-7764
▁Lauraceae	-7765
▁Municipal	-7766
▁Universit	-7767
▁dargraddi	-7768
▁peritonid	-7769
▁polisiydd	-7770
▁rheololad	-7771
▁wnaithwyd	-7772
▁Äthelwald	-7773
▁142603000.	-7774
▁440756000.	-7775
▁Berlusconi	-7776
▁Celebrezze	-7777
▁Derbyniwyd	-7778
▁Kekalainen	-7779
▁Neilltuwyd	-7780
▁cyflwyniad	-7781
▁cynllunydd	-7782
▁gyhoeddwyd	-7783
▁Asociazione	-7784
▁Fitzsimmons	-7785
▁Gorffennodd	-7786
▁orchymynwyr	-7787
▁peritonitis	-7788
▁0-439-92550-	-7789
▁Cyhoeddiadau	-7790
▁Williamsburg	-7791
▁ddarganfuwyd	-7792
▁gweithredydd	-7793
8-1-4165-4253-7.	-7794
-7	-7795
02	-7796
39	-7797
Ag	-7798
GP	-7799
cl	-7800
rf	-7801
wb	-7802
/30	-7803
30.	-7804
589	-7805
Dyn	-7806
PGP	-7807
USA	-7808
aff	-7809
ani	-7810
hop	-7811
iya	-7812
mer	-7813
ogh	-7814
ost	-7815
pis	-7816
ria	-7817
sol	-7818
ulo	-7819
wan	-7820
øke	-7821
▁1,	-7822
▁1-	-7823
▁35	-7824
▁78	-7825
▁AW	-7826
▁CA	-7827
▁HE	-7828
▁RQ	-7829
▁sh	-7830
-214	-7831
-263	-7832
1951	-7833
5895	-7834
67-7	-7835
7151	-7836
92.6	-7837
City	-7838
Nair	-7839
Quwa	-7840
amin	-7841
anta	-7842
awaz	-7843
ello	-7844
evel	-7845
ivis	-7846
lott	-7847
oleg	-7848
olfo	-7849
reta	-7850
rett	-7851
tred	-7852
ulai	-7853
▁17-	-7854
▁4.8	-7855
▁507	-7856
▁556	-7857
▁7.5	-7858
▁Cyl	-7859
▁Dil	-7860
▁Fis	-7861
▁Jec	-7862
▁Kap	-7863
▁Mig	-7864
▁Tuk	-7865
▁Vig	-7866
▁Zor	-7867
▁col	-7868
▁cwm	-7869
▁dib	-7870
▁reg	-7871
-03-0	-7872
2.88.	-7873
PGPAC	-7874
achos	-7875
agine	-7876
alows	-7877
anyan	-7878
astik	-7879
dinas	-7880
elsea	-7881
ennas	-7882
enzil	-7883
etrov	-7884
iadur	-7885
ipane	-7886
manov	-7887
naeth	-7888
ulous	-7889
ustig	-7890
yddor	-7891
▁0002	-7892
▁0965	-7893
▁1147	-7894
▁140.	-7895
▁168.	-7896
▁1700	-7897
▁1976	-7898
▁1983	-7899
▁2016	-7900
▁3.99	-7901
▁368.	-7902
▁Arts	-7903
▁Bung	-7904
▁Clôl	-7905
▁Faro	-7906
▁Jill	-7907
▁Jong	-7908
▁Luis	-7909
▁Løke	-7910
▁Much	-7911
▁Orth	-7912
▁Rhif	-7913
▁Roch	-7914
▁Wart	-7915
▁byll	-7916
▁darf	-7917
▁osel	-7918
▁peir	-7919
▁rysg	-7920
88-263	-7921
Jawiya	-7922
cyfans	-7923
gyfeid	-7924
illing	-7925
ogheda	-7926
tredia	-7927
▁1962,	-7928
▁233.9	-7929
▁33168	-7930
▁77151	-7931
▁783.1	-7932
▁992.6	-7933
▁Arese	-7934
▁Arrôs	-7935
▁Asidd	-7936
▁Cyfer	-7937
▁Divis	-7938
▁Dunne	-7939
▁Elihu	-7940
▁Grand	-7941
▁Groen	-7942
▁Gwyaf	-7943
▁Homer	-7944
▁Mwyll	-7945
▁Nawaz	-7946
▁Ramis	-7947
▁Roque	-7948
▁Royce	-7949
▁Symud	-7950
▁cwbig	-7951
▁ddelc	-7952
▁ddymu	-7953
▁elysg	-7954
▁gludo	-7955
▁olygu	-7956
▁penni	-7957
▁porwr	-7958
▁sbwng	-7959
▁soced	-7960
▁ymgyf	-7961
▁ymgym	-7962
Agremia	-7963
portiva	-7964
strwydd	-7965
▁445895	-7966
▁Celery	-7967
▁Denzil	-7968
▁Disney	-7969
▁Ffugol	-7970
▁Fisher	-7971
▁Holdon	-7972
▁Jaciau	-7973
▁Llopis	-7974
▁Lysgau	-7975
▁McNair	-7976
▁Miguel	-7977
▁Ploleg	-7978
▁Rwyddi	-7979
▁Silvio	-7980
▁Sipila	-7981
▁Studio	-7982
▁Uchben	-7983
▁bwysig	-7984
▁ffudol	-7985
▁gwarch	-7986
▁gwrnod	-7987
▁metrau	-7988
▁rhwydd	-7989
▁syddog	-7990
00000000	-7991
artaledd	-7992
▁2005-11	-7993
▁3800.0.	-7994
▁Antonio	-7995
▁Austria	-7996
▁Chelsea	-7997
▁Cwblwyd	-7998
▁Cyflwyb	-7999
▁Daniele	-8000
▁Darfysg	-8001
▁Garrett	-8002
▁Hussain	-8003
▁Imagine	-8004
▁Istodol	-8005
▁Lambien	-8006
▁Larreta	-8007
▁Llinell	-8008
▁Matchst	-8009
▁Plastik	-8010
▁Plentyn	-8011
▁Polonia	-8012
▁Porffor	-8013
▁Rodolfo	-8014
▁Roeddol	-8015
▁Rosales	-8016
▁Zoratto	-8017
▁batagor	-8018
▁boblwyr	-8019
▁chwddir	-8020
▁gwblwyd	-8021
▁ychwydd	-8022
lottetown	-8023
▁0965-214	-8024
▁140000.0	-8025
▁1622.213	-8026
▁Atalanta	-8027
▁Awyrchyn	-8028
▁Awyrwydd	-8029
▁Ddaethau	-8030
▁Drogheda	-8031
▁Gwrthddu	-8032
▁Londrain	-8033
▁Olmpique	-8034
▁Populous	-8035
▁Shilling	-8036
▁Tukmanov	-8037
▁Unedegol	-8038
▁academia	-8039
▁cyfantas	-8040
▁dilynwyd	-8041
▁ethnynol	-8042
▁fetaetau	-8043
▁neilltuo	-8044
▁nodiadau	-8045
▁poblennu	-8046
80.700000.	-8047
Agremiação	-8048
▁Bungalows	-8049
▁Carrarese	-8050
▁Craftsman	-8051
▁Cyfunowyd	-8052
▁Darparodd	-8053
▁Deportiva	-8054
▁Gweithiau	-8055
▁Muchachos	-8056
▁Samtredia	-8057
▁chwyddiau	-8058
▁dychwelyd	-8059
▁523329000.	-8060
▁837080.744	-8061
▁Atlantaidd	-8062
▁Cerddiaeth	-8063
▁Cynhyrchwr	-8064
▁americaidd	-8065
▁ffynthiant	-8066
▁gyhoeddiwr	-8067
▁gymharadwy	-8068
▁weithredol	-8069
▁Azerbaidani	-8070
▁Llyfrgellau	-8071
▁adnabyddydd	-8072
▁trosglwyddo	-8073
▁Llyfrgellion	-8074
▁Charlottetown	-8075
▁288749000000.0.	-8076
▁ddisgilliniaeth	-8077
Ac	-8078
HE	-8079
sw	-8080
te	-8081
-1.	-8082
-10	-8083
-55	-8084
15.	-8085
269	-8086
7-3	-8087
919	-8088
999	-8089
UDA	-8090
avk	-8091
eng	-8092
etw	-8093
iku	-8094
itl	-8095
nez	-8096
ota	-8097
oug	-8098
wle	-8099
yav	-8100
▁5,	-8101
▁Et	-8102
▁NZ	-8103
▁WB	-8104
▁ps	-8105
0068	-8106
5694	-8107
6448	-8108
7.41	-8109
86.2	-8110
MAHE	-8111
Star	-8112
acan	-8113
aide	-8114
ashi	-8115
bale	-8116
beni	-8117
erik	-8118
erts	-8119
fant	-8120
gwyd	-8121
gydd	-8122
iben	-8123
irat	-8124
kies	-8125
list	-8126
loat	-8127
ogna	-8128
orod	-8129
ress	-8130
ring	-8131
salm	-8132
ulas	-8133
wodd	-8134
wyri	-8135
ínez	-8136
▁10,	-8137
▁173	-8138
▁3.5	-8139
▁324	-8140
▁476	-8141
▁657	-8142
▁Awc	-8143
▁Awr	-8144
▁Eug	-8145
▁Max	-8146
▁Ped	-8147
▁add	-8148
▁dyf	-8149
▁eis	-8150
▁ers	-8151
▁gys	-8152
▁iâr	-8153
▁sgl	-8154
7-301	-8155
73-55	-8156
Stars	-8157
Texas	-8158
adolu	-8159
atten	-8160
avkaz	-8161
bashi	-8162
chder	-8163
davia	-8164
eiden	-8165
ensio	-8166
estro	-8167
evelt	-8168
guson	-8169
ietta	-8170
ijano	-8171
isiad	-8172
mpico	-8173
obiol	-8174
ordon	-8175
toria	-8176
wmpas	-8177
▁0455	-8178
▁1418	-8179
▁1862	-8180
▁1931	-8181
▁1952	-8182
▁258.	-8183
▁5000	-8184
▁524.	-8185
▁55.4	-8186
▁Adel	-8187
▁Buck	-8188
▁Clay	-8189
▁Ddis	-8190
▁Efes	-8191
▁Flam	-8192
▁Grey	-8193
▁Hort	-8194
▁Huib	-8195
▁Iwan	-8196
▁Jean	-8197
▁Jecc	-8198
▁Nard	-8199
▁Netw	-8200
▁Odin	-8201
▁Puya	-8202
▁Roos	-8203
▁Rosa	-8204
▁Star	-8205
▁Stor	-8206
▁Swed	-8207
▁Ymdd	-8208
▁ayam	-8209
▁chau	-8210
▁cudd	-8211
▁lanc	-8212
▁marf	-8213
▁meth	-8214
▁siam	-8215
269-93	-8216
Michel	-8217
bourne	-8218
einëeg	-8219
fredig	-8220
oeddol	-8221
yavsky	-8222
▁1.955	-8223
▁1296.	-8224
▁17023	-8225
▁486.2	-8226
▁Annie	-8227
▁Atiku	-8228
▁Aulas	-8229
▁Barry	-8230
▁Blwch	-8231
▁Chris	-8232
▁Cyfes	-8233
▁Fight	-8234
▁Filip	-8235
▁Fowle	-8236
▁Gould	-8237
▁Libia	-8238
▁Llais	-8239
▁Medal	-8240
▁Music	-8241
▁Place	-8242
▁Rover	-8243
▁Saeth	-8244
▁Sedan	-8245
▁Spata	-8246
▁Ymysg	-8247
▁arfer	-8248
▁byrno	-8249
▁cofio	-8250
▁cwban	-8251
▁gynol	-8252
▁jameu	-8253
▁llaen	-8254
▁motto	-8255
▁parth	-8256
▁sboug	-8257
▁sedan	-8258
▁sgwar	-8259
▁synau	-8260
eoliwyd	-8261
ikavkaz	-8262
loating	-8263
▁11473.	-8264
▁368.65	-8265
▁456448	-8266
▁Affair	-8267
▁Alania	-8268
▁Artist	-8269
▁Banner	-8270
▁Capitl	-8271
▁Comysg	-8272
▁Cyfwym	-8273
▁Eugene	-8274
▁Ffudol	-8275
▁Gordon	-8276
▁Leiden	-8277
▁Moscos	-8278
▁Patten	-8279
▁Random	-8280
▁Regina	-8281
▁Rosids	-8282
▁Singer	-8283
▁Spring	-8284
▁Virtus	-8285
▁chwech	-8286
▁griant	-8287
▁gyrchu	-8288
▁ymarch	-8289
▁yrwain	-8290
obiology	-8291
ontology	-8292
riotiaid	-8293
▁1473-55	-8294
▁Amharic	-8295
▁Anadolu	-8296
▁Arbarth	-8297
▁Bologna	-8298
▁Brwseli	-8299
▁Entella	-8300
▁Etiopia	-8301
▁Huskies	-8302
▁Lansing	-8303
▁Lledodd	-8304
▁Marsden	-8305
▁Moskosg	-8306
▁Mwyrlau	-8307
▁Network	-8308
▁Odinson	-8309
▁Quijano	-8310
▁Stanyan	-8311
▁Studios	-8312
▁Unolydd	-8313
▁allwedd	-8314
▁bodhran	-8315
▁byredig	-8316
▁cyfarau	-8317
▁ddymedr	-8318
▁farweth	-8319
▁geiriau	-8320
▁protein	-8321
▁sylfawr	-8322
56947-301	-8323
acanestro	-8324
frediadau	-8325
▁0002-932	-8326
▁Adelaide	-8327
▁Amateurs	-8328
▁División	-8329
▁Ferguson	-8330
▁Fighting	-8331
▁Flameidd	-8332
▁Huiberts	-8333
▁Marietta	-8334
▁Martínez	-8335
▁Moldavia	-8336
▁Olimpico	-8337
▁Philippe	-8338
▁Victoria	-8339
▁archifif	-8340
▁ddarparu	-8341
▁wneudwyd	-8342
▁Belyavsky	-8343
▁Cyfrinach	-8344
▁Darganfod	-8345
▁Deyrnasol	-8346
▁Gwaithiau	-8347
▁Hortensio	-8348
▁Melbourne	-8349
▁Recordion	-8350
▁Roosevelt	-8351
▁Sanderson	-8352
▁chwrthdod	-8353
▁cydwblwyd	-8354
▁mawrthwyr	-8355
▁tywynoedd	-8356
▁westeiwyd	-8357
inghamshire	-8358
▁296521000.	-8359
▁Cwblhadodd	-8360
▁Cyflwychwr	-8361
▁Dynrychiol	-8362
▁Iseldiadol	-8363
▁flaenorwyd	-8364
▁gychwynwyd	-8365
▁marwolaeth	-8366
▁preffectur	-8367
▁seiliedwyd	-8368
▁475426000.0	-8369
▁605718000.0	-8370
▁Universitas	-8371
▁Vladikavkaz	-8372
▁ddigwyddodd	-8373
▁gweinyddion	-8374
▁gwreiddiwyd	-8375
▁0-7156-3648-	-8376
▁88234300000.	-8377
▁Efxeinoupoli	-8378
▁Paleobiology	-8379
▁Turkmenbashi	-8380
▁Chwyddonyddon	-8381
▁Pallacanestro	-8382
▁Rhyngwngwladol	-8383
▁ymysgysylltiad	-8384
▁Buckinghamshire	-8385
▁Gynrychioliadau	-8386
54	-8387
mm	-8388
ng	-8389
-28	-8390
/03	-8391
01.	-8392
250	-8393
26.	-8394
4.1	-8395
6.3	-8396
722	-8397
770	-8398
833	-8399
894	-8400
904	-8401
ajo	-8402
bly	-8403
cul	-8404
cyr	-8405
gia	-8406
hek	-8407
ioc	-8408
kgs	-8409
mit	-8410
mun	-8411
mán	-8412
neo	-8413
oes	-8414
rix	-8415
row	-8416
tur	-8417
upi	-8418
uzz	-8419
wci	-8420
win	-8421
wyo	-8422
yrh	-8423
▁"0	-8424
▁"1	-8425
▁94	-8426
▁Av	-8427
▁ED	-8428
▁NJ	-8429
▁Ni	-8430
▁Up	-8431
▁VA	-8432
▁VD	-8433
▁tv	-8434
,000	-8435
0025	-8436
1961	-8437
2.0.	-8438
2445	-8439
3.95	-8440
516.	-8441
5591	-8442
7701	-8443
Acta	-8444
atow	-8445
ayat	-8446
elli	-8447
isan	-8448
lwyr	-8449
ryst	-8450
siwn	-8451
spor	-8452
uzzi	-8453
érix	-8454
▁08.	-8455
▁177	-8456
▁28-	-8457
▁Amc	-8458
▁Fen	-8459
▁Fff	-8460
▁Gas	-8461
▁Kai	-8462
▁Mes	-8463
▁ava	-8464
▁fin	-8465
▁gwn	-8466
▁not	-8467
▁pak	-8468
▁rôl	-8469
-04-2	-8470
0000.	-8471
arrón	-8472
attro	-8473
bably	-8474
blwyd	-8475
cules	-8476
egion	-8477
ituta	-8478
lwydd	-8479
munde	-8480
onnau	-8481
orial	-8482
paris	-8483
tures	-8484
▁1299	-8485
▁1820	-8486
▁1914	-8487
▁1990	-8488
▁250.	-8489
▁3148	-8490
▁4.14	-8491
▁Anni	-8492
▁Awel	-8493
▁Band	-8494
▁Dino	-8495
▁Doll	-8496
▁Dydd	-8497
▁Dyma	-8498
▁Fodd	-8499
▁Gall	-8500
▁Gawr	-8501
▁Jati	-8502
▁Leon	-8503
▁Lliw	-8504
▁Mewn	-8505
▁Mynd	-8506
▁Rest	-8507
▁Tamp	-8508
▁Tren	-8509
▁Trot	-8510
▁Uwch	-8511
▁West	-8512
▁Wide	-8513
▁allg	-8514
▁arth	-8515
▁chaf	-8516
▁daro	-8517
▁does	-8518
▁funk	-8519
▁need	-8520
▁roff	-8521
▁rupi	-8522
▁sain	-8523
▁stri	-8524
▁yrru	-8525
516.63	-8526
8-16-1	-8527
aratoi	-8528
erfynu	-8529
fylwyr	-8530
iitake	-8531
ilable	-8532
rovill	-8533
ylwydd	-8534
▁140.8	-8535
▁1920,	-8536
▁1983,	-8537
▁2368.	-8538
▁24.0.	-8539
▁27250	-8540
▁33626	-8541
▁37701	-8542
▁50000	-8543
▁Anand	-8544
▁Breaz	-8545
▁Brian	-8546
▁Caiff	-8547
▁Colin	-8548
▁Daneg	-8549
▁Graaf	-8550
▁Irwin	-8551
▁Katow	-8552
▁Lions	-8553
▁North	-8554
▁Patel	-8555
▁Pirat	-8556
▁Power	-8557
▁Preff	-8558
▁Round	-8559
▁Sanat	-8560
▁Senad	-8561
▁Unang	-8562
▁bydau	-8563
▁ffugl	-8564
▁frang	-8565
▁islaw	-8566
▁kilod	-8567
▁metal	-8568
▁panel	-8569
▁posau	-8570
▁rupia	-8571
▁sifft	-8572
▁wyrdd	-8573
minster	-8574
ynhyrch	-8575
ysgriad	-8576
▁0.0112	-8577
▁1.9558	-8578
▁10,252	-8579
▁1104.1	-8580
▁1421.2	-8581
▁1920-0	-8582
▁611961	-8583
▁615591	-8584
▁703.95	-8585
▁Accord	-8586
▁Basket	-8587
▁Borneo	-8588
▁Carrie	-8589
▁Ddemoc	-8590
▁Donald	-8591
▁Fenves	-8592
▁Hwngar	-8593
▁Kerman	-8594
▁Moench	-8595
▁Motion	-8596
▁Picchi	-8597
▁Sweden	-8598
▁boding	-8599
▁byrwyd	-8600
▁cuddio	-8601
▁cymedr	-8602
▁darnau	-8603
▁ddelen	-8604
▁drosod	-8605
▁ffongl	-8606
▁ffwyth	-8607
▁llamau	-8608
▁oester	-8609
▁oesydd	-8610
▁opsiwn	-8611
▁pakora	-8612
▁troedd	-8613
▁ymgyfr	-8614
icharrón	-8615
▁08-16-1	-8616
▁3202445	-8617
▁Armando	-8618
▁Bavareg	-8619
▁Cyfrydd	-8620
▁Grounds	-8621
▁Heceddi	-8622
▁Horacio	-8623
▁Javanes	-8624
▁Manuzzi	-8625
▁Mwyryll	-8626
▁Nigeria	-8627
▁Orosmán	-8628
▁Quattro	-8629
▁Tampere	-8630
▁Trenton	-8631
▁Trotsky	-8632
▁chafodd	-8633
▁ddrafft	-8634
▁dibynnu	-8635
▁dreient	-8636
▁ffongol	-8637
▁finiwyd	-8638
▁gweithu	-8639
▁matador	-8640
▁paratoi	-8641
▁preffef	-8642
▁seibydd	-8643
▁wyddwyr	-8644
▁ymlaeth	-8645
▁ymynion	-8646
rovillari	-8647
▁100305.0	-8648
▁1513.722	-8649
▁87888500	-8650
▁Annibale	-8651
▁Floating	-8652
▁Gasparis	-8653
▁Hercules	-8654
▁Katowice	-8655
▁Legendau	-8656
▁Llyfrnod	-8657
▁Pictures	-8658
▁cydweddi	-8659
▁ddarllen	-8660
▁probably	-8661
▁rhagosod	-8662
▁swyddfan	-8663
geniadwydd	-8664
▁60040714.	-8665
▁89646863.	-8666
▁Anandiben	-8667
▁Restituta	-8668
▁Rhyngrydd	-8669
▁Robertson	-8670
▁Ychwanegu	-8671
▁available	-8672
▁bresgrydd	-8673
▁chwyddion	-8674
▁dreforiad	-8675
▁peiriadau	-8676
▁ymddiaeth	-8677
▁0002-9327.	-8678
▁183309000.	-8679
▁6155910000	-8680
▁Cylchbarth	-8681
▁Gweithredu	-8682
▁Japaneaidd	-8683
▁Recordings	-8684
▁Solanaceae	-8685
▁Warnemunde	-8686
▁cyfansoddi	-8687
▁cyhoeddiwr	-8688
▁1-56947-301	-8689
▁Cyfrinachol	-8690
▁Groenlandeg	-8691
▁Nathlaethol	-8692
▁Westminster	-8693
▁translation	-8694
▁41498400000.	-8695
▁Istanbulspor	-8696
▁digwyddiadau	-8697
▁ymddangoswyd	-8698
▁Castrovillari	-8699
8-1-4165-4253-7	-8700
▁0-439-17684-0.	-8701
',	-8702
An	-8703
Km	-8704
fn	-8705
rl	-8706
ät	-8707
-03	-8708
/04	-8709
20.	-8710
71.	-8711
8-0	-8712
AAJ	-8713
Man	-8714
bol	-8715
cht	-8716
dam	-8717
erm	-8718
eys	-8719
fwl	-8720
fyn	-8721
gue	-8722
gyd	-8723
ilä	-8724
iog	-8725
urd	-8726
ärf	-8727
▁80	-8728
▁GA	-8729
▁IV	-8730
▁KY	-8731
▁LA	-8732
▁MO	-8733
▁Si	-8734
▁WW	-8735
▁fd	-8736
▁ly	-8737
-204	-8738
/198	-8739
39.3	-8740
46-8	-8741
7.14	-8742
Alfa	-8743
Duch	-8744
HAAJ	-8745
ahle	-8746
ajor	-8747
alib	-8748
blau	-8749
chol	-8750
erle	-8751
iang	-8752
icop	-8753
ilys	-8754
mere	-8755
odox	-8756
pion	-8757
reus	-8758
rwng	-8759
shek	-8760
udap	-8761
wski	-8762
wyno	-8763
▁"97	-8764
▁$10	-8765
▁03.	-8766
▁08/	-8767
▁274	-8768
▁500	-8769
▁Ald	-8770
▁Con	-8771
▁Dyd	-8772
▁Neg	-8773
▁Pap	-8774
▁Raf	-8775
▁Rub	-8776
▁Tze	-8777
▁bot	-8778
▁byf	-8779
▁fêl	-8780
▁pep	-8781
▁yst	-8782
58-28	-8783
aetyr	-8784
blaen	-8785
borgh	-8786
cwmni	-8787
ianza	-8788
kaidd	-8789
schap	-8790
wympo	-8791
wywyd	-8792
ynydd	-8793
▁0.02	-8794
▁0473	-8795
▁121.	-8796
▁13/3	-8797
▁1360	-8798
▁161.	-8799
▁1857	-8800
▁2003	-8801
▁2112	-8802
▁Ahri	-8803
▁Back	-8804
▁Cake	-8805
▁Cust	-8806
▁Doug	-8807
▁Ffat	-8808
▁Head	-8809
▁Hyff	-8810
▁Iyrr	-8811
▁Kurd	-8812
▁Marc	-8813
▁Maya	-8814
▁Phil	-8815
▁Pick	-8816
▁Prin	-8817
▁Serb	-8818
▁Stam	-8819
▁Yong	-8820
▁asam	-8821
▁cryf	-8822
▁cynt	-8823
▁droc	-8824
▁dydd	-8825
▁ffoc	-8826
▁gwrn	-8827
▁llym	-8828
▁psic	-8829
▁rhed	-8830
▁rhes	-8831
8-0-15	-8832
aliber	-8833
edelig	-8834
etroit	-8835
fwlwyr	-8836
inegro	-8837
lededd	-8838
ogaeth	-8839
ristol	-8840
rywiol	-8841
solini	-8842
sville	-8843
udolph	-8844
yrchol	-8845
ysellf	-8846
▁16.55	-8847
▁178.0	-8848
▁1907.	-8849
▁2215.	-8850
▁2776.	-8851
▁47290	-8852
▁77.41	-8853
▁8.500	-8854
▁Budap	-8855
▁Carlo	-8856
▁Dutch	-8857
▁Gates	-8858
▁Gwyth	-8859
▁Harry	-8860
▁Henry	-8861
▁Leach	-8862
▁Lewis	-8863
▁Preus	-8864
▁Sahle	-8865
▁Sbard	-8866
▁Socia	-8867
▁Speed	-8868
▁Sulai	-8869
▁Tudyk	-8870
▁chwng	-8871
▁cloch	-8872
▁cyfes	-8873
▁cyfni	-8874
▁cyrdd	-8875
▁deiwn	-8876
▁dimed	-8877
▁diwyr	-8878
▁dreib	-8879
▁fwrdd	-8880
▁grydd	-8881
▁llyff	-8882
▁lyain	-8883
▁reoli	-8884
▁saith	-8885
▁teith	-8886
▁troed	-8887
-204770	-8888
erlecht	-8889
icopter	-8890
wychydd	-8891
wyddydd	-8892
▁0567-7	-8893
▁1046-8	-8894
▁1299.0	-8895
▁1732-2	-8896
▁AMHAAJ	-8897
▁Agorod	-8898
▁Baltig	-8899
▁Benito	-8900
▁Brodol	-8901
▁Campus	-8902
▁Chiang	-8903
▁Clancy	-8904
▁Colwyn	-8905
▁Cyfydd	-8906
▁Johnny	-8907
▁Kelvin	-8908
▁Powell	-8909
▁Prague	-8910
▁Schärf	-8911
▁Sysgol	-8912
▁Unidol	-8913
▁Unoleg	-8914
▁almond	-8915
▁bresid	-8916
▁brysur	-8917
▁chryst	-8918
▁cwympo	-8919
▁cymgyn	-8920
▁dewydd	-8921
▁gynnig	-8922
▁pediol	-8923
▁saetyr	-8924
▁sglawn	-8925
▁ymgymg	-8926
Sovieteg	-8927
borghini	-8928
▁1296.65	-8929
▁1558-28	-8930
▁Alianza	-8931
▁Amharig	-8932
▁Awduron	-8933
▁Country	-8934
▁Detroit	-8935
▁Kaliber	-8936
▁Kapitan	-8937
▁Liberal	-8938
▁Mosgosg	-8939
▁Munster	-8940
▁Pickard	-8941
▁Rudolph	-8942
▁acustig	-8943
▁adnabod	-8944
▁amgrypt	-8945
▁clociau	-8946
▁dreiaid	-8947
▁egysgol	-8948
▁gwblhau	-8949
▁gwrchwr	-8950
▁gwredig	-8951
▁gyfrwng	-8952
▁marweth	-8953
▁rhwyddo	-8954
▁sefyddi	-8955
▁strilfa	-8956
▁ynafodd	-8957
6000000.0	-8958
Amsterdam	-8959
▁1588-263	-8960
▁2014-15,	-8961
▁Budapest	-8962
▁Cylbarth	-8963
▁Dilyniwr	-8964
▁Ffatrydd	-8965
▁Galactic	-8966
▁Gellfrif	-8967
▁Hardwick	-8968
▁Memorial	-8969
▁Orthodox	-8970
▁Preussis	-8971
▁Stamford	-8972
▁Sulaiman	-8973
▁Tranmere	-8974
▁Ychafodd	-8975
▁archifon	-8976
▁cyfansad	-8977
▁cyfnodol	-8978
▁datblygu	-8979
▁ddynaeth	-8980
▁dilyniad	-8981
▁ffoledol	-8982
▁gwrthiau	-8983
▁gysyllti	-8984
▁siampion	-8985
▁ychafodd	-8986
▁ysgogwyd	-8987
▁01-01-195	-8988
▁39447000.	-8989
▁46451790.	-8990
▁57059226.	-8991
▁57392246.	-8992
▁Alvinegro	-8993
▁Bibbowski	-8994
▁Chwaraeth	-8995
▁Cyfristol	-8996
▁Ddeithiau	-8997
▁Ellington	-8998
▁Groundiau	-8999
▁Mussolini	-9000
▁Papenburg	-9001
▁Socialist	-9002
▁cerddoria	-9003
▁ganlededd	-9004
▁ymgymegol	-9005
▁15,100.000	-9006
▁373513000.	-9007
▁479343000.	-9008
▁Anderlecht	-9009
▁Argentinol	-9010
▁Cottingham	-9011
▁Cyfluniwyd	-9012
▁Graafschap	-9013
▁Gwrthdings	-9014
▁Helicopter	-9015
▁Reidsville	-9016
▁Tywyddedol	-9017
▁cerddorydd	-9018
▁cydwyddodd	-9019
▁cyhoeddiad	-9020
▁cyhoeddwyd	-9021
▁cynrychiol	-9022
▁dderbynwyd	-9023
▁0-374-26131	-9024
▁Awstrikaidd	-9025
▁Cyffredinol	-9026
▁Daleithedig	-9027
▁Ddemociaidd	-9028
▁Disgwyddion	-9029
▁Grwyddiadau	-9030
▁Lamborghini	-9031
▁Universität	-9032
▁cyhoeddiwyd	-9033
▁dosbarthiad	-9034
8-0-15-204770	-9035
Amsterdamsche	-9036
▁$380.700000.	-9037
▁Cyfresyddydd	-9038
▁Gwasanaethau	-9039
▁Gweithrediad	-9040
▁cysylltiadau	-9041
▁ddefnyddiwyd	-9042
▁Valencianaidd	-9043
▁0-439-17685-9.	-9044
▁416136000000.0.	-9045
sm	-9046
ád	-9047
ôt	-9048
125	-9049
482	-9050
925	-9051
980	-9052
BCT	-9053
asa	-9054
cot	-9055
fel	-9056
ika	-9057
lem	-9058
ofu	-9059
olk	-9060
uti	-9061
ysh	-9062
▁OB	-9063
▁RB	-9064
▁Sq	-9065
▁Ud	-9066
▁fr	-9067
▁ri	-9068
-26.	-9069
14.8	-9070
633-	-9071
8.0.	-9072
920,	-9073
arde	-9074
azan	-9075
dale	-9076
dodi	-9077
ivil	-9078
lion	-9079
mell	-9080
orse	-9081
ourt	-9082
oyal	-9083
pert	-9084
ript	-9085
roch	-9086
siad	-9087
yang	-9088
▁01,	-9089
▁178	-9090
▁219	-9091
▁230	-9092
▁270	-9093
▁371	-9094
▁4.6	-9095
▁439	-9096
▁Bod	-9097
▁Coc	-9098
▁Cyt	-9099
▁Hav	-9100
▁Jah	-9101
▁Lal	-9102
▁Mod	-9103
▁Por	-9104
▁Pur	-9105
▁Rhy	-9106
▁Sob	-9107
▁Srl	-9108
▁Zar	-9109
▁abb	-9110
▁ann	-9111
▁ddu	-9112
▁dir	-9113
▁sol	-9114
-130.	-9115
653-0	-9116
80-63	-9117
98055	-9118
Symud	-9119
actor	-9120
agoza	-9121
chion	-9122
derzo	-9123
efine	-9124
garde	-9125
glwyd	-9126
inese	-9127
iolet	-9128
istic	-9129
liedi	-9130
nival	-9131
ocacy	-9132
ombon	-9133
thers	-9134
uring	-9135
wngol	-9136
yanin	-9137
yddwr	-9138
▁0155	-9139
▁168,	-9140
▁1905	-9141
▁1953	-9142
▁1967	-9143
▁1969	-9144
▁4349	-9145
▁597.	-9146
▁Ardd	-9147
▁Boat	-9148
▁Bres	-9149
▁Darb	-9150
▁Fawr	-9151
▁Harc	-9152
▁Hill	-9153
▁Keys	-9154
▁Kuet	-9155
▁MBAs	-9156
▁Polo	-9157
▁SBCT	-9158
▁Sans	-9159
▁Wave	-9160
▁Well	-9161
▁Zell	-9162
▁chan	-9163
▁dram	-9164
▁drin	-9165
▁kmps	-9166
▁llen	-9167
▁llig	-9168
▁llun	-9169
▁ostr	-9170
▁rwyr	-9171
▁tofu	-9172
Unique	-9173
byniad	-9174
eirydd	-9175
ennwyd	-9176
raddol	-9177
yshkin	-9178
▁"1930	-9179
▁03/04	-9180
▁10264	-9181
▁11/29	-9182
▁1857.	-9183
▁19255	-9184
▁1928,	-9185
▁1941.	-9186
▁1972.	-9187
▁1974,	-9188
▁1981,	-9189
▁1982.	-9190
▁2005,	-9191
▁258.2	-9192
▁32.2.	-9193
▁3746.	-9194
▁556,3	-9195
▁914.8	-9196
▁Brown	-9197
▁Chung	-9198
▁Civil	-9199
▁Cwndd	-9200
▁Eredi	-9201
▁Golff	-9202
▁Horse	-9203
▁Jamie	-9204
▁Kazan	-9205
▁Lledd	-9206
▁Loyal	-9207
▁Major	-9208
▁Party	-9209
▁Psalm	-9210
▁Pwynt	-9211
▁Radio	-9212
▁Rapid	-9213
▁Roeth	-9214
▁Rubin	-9215
▁Wheel	-9216
▁Wneud	-9217
▁argyl	-9218
▁argym	-9219
▁chlos	-9220
▁ellym	-9221
▁gwyaf	-9222
▁methu	-9223
▁nodyn	-9224
▁rupee	-9225
▁sbong	-9226
▁ymeth	-9227
asiedig	-9228
chionne	-9229
damsche	-9230
nolegol	-9231
patbhai	-9232
perties	-9233
ryddion	-9234
ynnasol	-9235
▁0.0068	-9236
▁121.92	-9237
▁1239.3	-9238
▁19255)	-9239
▁44.125	-9240
▁498055	-9241
▁Awelod	-9242
▁Awyrll	-9243
▁Calero	-9244
▁Chapel	-9245
▁Corpor	-9246
▁Crisis	-9247
▁Custom	-9248
▁Dancer	-9249
▁Design	-9250
▁Gwerin	-9251
▁Herald	-9252
▁Iwerir	-9253
▁Jahist	-9254
▁Kashub	-9255
▁Marcos	-9256
▁Partid	-9257
▁Rhedeg	-9258
▁Stadil	-9259
▁Stadyn	-9260
▁Uderzo	-9261
▁Violet	-9262
▁Warton	-9263
▁Ymddir	-9264
▁allgyr	-9265
▁bisgci	-9266
▁blanco	-9267
▁bresol	-9268
▁chauff	-9269
▁cwylch	-9270
▁cydodd	-9271
▁ddisgw	-9272
▁ddylch	-9273
▁mascot	-9274
▁patrôt	-9275
▁poblif	-9276
▁sarnie	-9277
▁sielod	-9278
--------	-9279
kilomedr	-9280
▁0001-83	-9281
▁0269-93	-9282
▁1080-63	-9283
▁1360-04	-9284
▁2014-15	-9285
▁253260.	-9286
▁Academy	-9287
▁Awgryll	-9288
▁Cammell	-9289
▁Disgwyl	-9290
▁Espanol	-9291
▁Lalbhai	-9292
▁Modling	-9293
▁Opelika	-9294
▁Philips	-9295
▁Sadique	-9296
▁Sansone	-9297
▁Seminol	-9298
▁Sgolion	-9299
▁Stevens	-9300
▁Udinese	-9301
▁Unocacy	-9302
▁Unolith	-9303
▁Zellner	-9304
▁brennas	-9305
▁darllen	-9306
▁ddangos	-9307
▁gofwedd	-9308
▁gyrrydd	-9309
▁llwyneb	-9310
▁marblen	-9311
▁poblwyr	-9312
▁saisiau	-9313
▁strilad	-9314
▁ymgyrch	-9315
▁ôlraddi	-9316
653-0633-	-9317
8,600000.	-9318
▁83646315	-9319
▁Brasilia	-9320
▁Carnival	-9321
▁Cyfanswm	-9322
▁Electric	-9323
▁Eredivis	-9324
▁Filipino	-9325
▁Fortress	-9326
▁Harcourt	-9327
▁Havering	-9328
▁Holdings	-9329
▁Keystone	-9330
▁Panamach	-9331
▁Panthers	-9332
▁Paraguai	-9333
▁Preffect	-9334
▁Redefine	-9335
▁Rochdale	-9336
▁Sobyanin	-9337
▁Uniteith	-9338
▁Zaragoza	-9339
▁canolfan	-9340
▁categori	-9341
▁cwbanell	-9342
▁cyfannau	-9343
▁cyflaned	-9344
▁dilyniwr	-9345
▁flwyddyn	-9346
▁fynhyrch	-9347
▁gwarchol	-9348
▁gyfanswm	-9349
▁penfanfa	-9350
▁seiliedi	-9351
▁syddogol	-9352
gyfeidiwyd	-9353
▁1936-05-2	-9354
▁1980-04-2	-9355
▁2014-2015	-9356
▁523329000	-9357
▁Awyrdodol	-9358
▁Gwrthrych	-9359
▁Mawrthwyr	-9360
▁Naryshkin	-9361
▁Universal	-9362
▁adeiladwr	-9363
▁allgyrchu	-9364
▁chwyddoch	-9365
▁cyfeithio	-9366
▁cyhoeddus	-9367
▁ddewisodd	-9368
▁ddisgannu	-9369
▁draddiwyd	-9370
▁gwaithodd	-9371
▁gwarediad	-9372
▁139705000.	-9373
▁Argentineg	-9374
▁Chicharrón	-9375
▁Dalpatbhai	-9376
▁Darbyddwyd	-9377
▁Marchionne	-9378
▁Preussisch	-9379
▁Properties	-9380
▁arrabbiata	-9381
▁blwyddoedd	-9382
▁cwblhauwyd	-9383
▁cyflymwydd	-9384
▁frangipane	-9385
▁llyfforddi	-9386
▁meddalwedd	-9387
▁rhaglennig	-9388
▁2005-11-26.	-9389
▁523329000.0	-9390
▁Colombiaidd	-9391
▁Corporation	-9392
▁Cyfreithiad	-9393
▁Cyfreithiol	-9394
▁Gyffredinol	-9395
▁Gyfrinachol	-9396
▁Patriotiaid	-9397
▁Turkmenabat	-9398
▁Valencianol	-9399
▁cyfeirnodol	-9400
▁ddigwyddiad	-9401
▁dreibyddion	-9402
▁hengoniadol	-9403
▁swyddogaeth	-9404
▁$875,400000.	-9405
▁Gynrychiolau	-9406
▁americaiddau	-9407
▁perthynnasol	-9408
▁Gwrthdodiadol	-9409
▁0-439-92550-9.	-9410
▁349206000000.0.	-9411
66	-9412
ET	-9413
HP	-9414
PT	-9415
cr	-9416
eu	-9417
jg	-9418
my	-9419
rs	-9420
ua	-9421
ço	-9422
/22	-9423
/33	-9424
00,	-9425
008	-9426
214	-9427
52.	-9428
73.	-9429
78.	-9430
907	-9431
ABI	-9432
AID	-9433
eow	-9434
hot	-9435
inx	-9436
jor	-9437
lez	-9438
loi	-9439
ori	-9440
pyr	-9441
une	-9442
wen	-9443
yaz	-9444
▁54	-9445
▁74	-9446
▁84	-9447
▁PC	-9448
▁SJ	-9449
▁XC	-9450
▁ap	-9451
▁fe	-9452
▁gu	-9453
▁pr	-9454
/200	-9455
188.	-9456
2.88	-9457
ISET	-9458
Math	-9459
adze	-9460
ahan	-9461
atov	-9462
biza	-9463
bryd	-9464
dway	-9465
eist	-9466
enta	-9467
erry	-9468
genr	-9469
gyda	-9470
igua	-9471
jgal	-9472
ludd	-9473
mund	-9474
onga	-9475
oods	-9476
oraf	-9477
oton	-9478
ranc	-9479
syll	-9480
tlef	-9481
urio	-9482
wall	-9483
ysgu	-9484
ádio	-9485
ález	-9486
çois	-9487
▁0-7	-9488
▁64.	-9489
▁678	-9490
▁900	-9491
▁ATA	-9492
▁AWH	-9493
▁Ayr	-9494
▁Cov	-9495
▁Den	-9496
▁Did	-9497
▁Far	-9498
▁GFC	-9499
▁Lan	-9500
▁Lli	-9501
▁OAA	-9502
▁Rox	-9503
▁Tri	-9504
▁cel	-9505
▁eil	-9506
▁ion	-9507
▁man	-9508
▁pes	-9509
▁plc	-9510
19691	-9511
9-01.	-9512
Anton	-9513
Sosod	-9514
acter	-9515
adija	-9516
affey	-9517
ardar	-9518
egodi	-9519
enawr	-9520
jorie	-9521
rifin	-9522
rises	-9523
roedd	-9524
wärts	-9525
▁1985	-9526
▁1988	-9527
▁3800	-9528
▁5.57	-9529
▁6214	-9530
▁737.	-9531
▁AFAS	-9532
▁Aids	-9533
▁Arib	-9534
▁Ayaz	-9535
▁Bent	-9536
▁CEPT	-9537
▁Cawl	-9538
▁Chil	-9539
▁Dale	-9540
▁Darc	-9541
▁Eros	-9542
▁Fair	-9543
▁Hook	-9544
▁Line	-9545
▁Nock	-9546
▁RoPS	-9547
▁Rona	-9548
▁Syth	-9549
▁Tawr	-9550
▁Teow	-9551
▁agos	-9552
▁ddio	-9553
▁fawn	-9554
▁feta	-9555
▁glic	-9556
▁grin	-9557
▁gryf	-9558
▁sioc	-9559
▁tenn	-9560
▁tron	-9561
/03/19	-9562
akaria	-9563
elodol	-9564
ershot	-9565
gyfrif	-9566
karest	-9567
yrchwr	-9568
▁08/26	-9569
▁1855.	-9570
▁1908.	-9571
▁1911.	-9572
▁1913,	-9573
▁1988.	-9574
▁1990.	-9575
▁2014,	-9576
▁2015,	-9577
▁3078.	-9578
▁31.48	-9579
▁3360.	-9580
▁45.97	-9581
▁524.5	-9582
▁53502	-9583
▁610.0	-9584
▁875.4	-9585
▁9000.	-9586
▁Dilts	-9587
▁Ffror	-9588
▁Guana	-9589
▁Gwlad	-9590
▁Ibiza	-9591
▁Jerry	-9592
▁Lladd	-9593
▁Maria	-9594
▁Metro	-9595
▁Parod	-9596
▁Robur	-9597
▁Sadiq	-9598
▁Sammy	-9599
▁Seith	-9600
▁Siena	-9601
▁Uchaf	-9602
▁Woods	-9603
▁boced	-9604
▁botwm	-9605
▁brodd	-9606
▁copur	-9607
▁darff	-9608
▁ddias	-9609
▁debut	-9610
▁disco	-9611
▁dwyno	-9612
▁ethnu	-9613
▁gwiri	-9614
▁matyr	-9615
▁oedau	-9616
▁penta	-9617
▁perip	-9618
▁proff	-9619
▁profi	-9620
▁rithm	-9621
▁union	-9622
-09-01.	-9623
00.000.	-9624
Antonio	-9625
wynaeth	-9626
ysgrydd	-9627
▁0.0482	-9628
▁18.52.	-9629
▁414984	-9630
▁519691	-9631
▁64.008	-9632
▁880025	-9633
▁APGPAC	-9634
▁Airman	-9635
▁Anyang	-9636
▁Arifin	-9637
▁Crises	-9638
▁Cyfont	-9639
▁Dynamo	-9640
▁Edmund	-9641
▁Farmer	-9642
▁Fforaf	-9643
▁Frywyr	-9644
▁Graves	-9645
▁Groton	-9646
▁Gyfres	-9647
▁Incpot	-9648
▁Kurdeg	-9649
▁Lanark	-9650
▁Legion	-9651
▁Lysell	-9652
▁Manley	-9653
▁Ordway	-9654
▁Sardar	-9655
▁Senawr	-9656
▁Serbia	-9657
▁Statig	-9658
▁Storrs	-9659
▁Urugwg	-9660
▁Wnaeth	-9661
▁amgylg	-9662
▁bannau	-9663
▁ddaeth	-9664
▁draffu	-9665
▁fhennu	-9666
▁gwelog	-9667
▁gynnal	-9668
▁llywth	-9669
▁poblol	-9670
▁porpyr	-9671
▁wraidd	-9672
▁ychydd	-9673
▁ylwyau	-9674
Hwngareg	-9675
iffigion	-9676
jgaladze	-9677
▁01-01-2	-9678
▁01/01/2	-9679
▁1939-01	-9680
▁2009-04	-9681
▁3746.66	-9682
▁62145.3	-9683
▁Adolygu	-9684
▁Antigua	-9685
▁Blaenir	-9686
▁Cwyddor	-9687
▁Estádio	-9688
▁Generic	-9689
▁Iyrrydd	-9690
▁Khadija	-9691
▁Kubatov	-9692
▁Mawrnas	-9693
▁Milonga	-9694
▁Mynaeth	-9695
▁Orosman	-9696
▁Pwladin	-9697
▁Roxbury	-9698
▁Saethol	-9699
▁Tapioca	-9700
▁Zakaria	-9701
▁abbrill	-9702
▁amgenol	-9703
▁annilys	-9704
▁ardalau	-9705
▁blwyddo	-9706
▁bresgyr	-9707
▁cyflawn	-9708
▁cymgyni	-9709
▁ddemonw	-9710
▁ddisgwt	-9711
▁ddyfann	-9712
▁dinasau	-9713
▁dreinwr	-9714
▁eilaidd	-9715
▁ffactor	-9716
▁fyddodd	-9717
▁ganwydd	-9718
▁gludiad	-9719
▁graffes	-9720
▁llywiau	-9721
▁orchmyn	-9722
▁penbeni	-9723
▁sglawni	-9724
▁trombon	-9725
▁3992.88.	-9726
▁57392246	-9727
▁87000823	-9728
▁Americeg	-9729
▁Blaenwyd	-9730
▁Bukarest	-9731
▁Dyddiwyd	-9732
▁Fairhead	-9733
▁François	-9734
▁González	-9735
▁Gwerthwr	-9736
▁Jacobean	-9737
▁Javanese	-9738
▁Lansiant	-9739
▁Marjorie	-9740
▁Nockalls	-9741
▁Pallotta	-9742
▁Seminary	-9743
▁Serenodd	-9744
▁Vorwärts	-9745
▁arllunio	-9746
▁calonnau	-9747
▁cyflwyth	-9748
▁cyrchydd	-9749
▁cysgodyn	-9750
▁ddelfull	-9751
▁dwynoedd	-9752
▁elysgwyr	-9753
▁ffynhell	-9754
▁joblanco	-9755
▁llyniant	-9756
▁matyrwyr	-9757
▁poblwydd	-9758
▁tomateau	-9759
▁49805501.	-9760
▁76798317.	-9761
▁83646315.	-9762
▁Aldershot	-9763
▁Bentegodi	-9764
▁Blackburn	-9765
▁Character	-9766
▁Covington	-9767
▁Cyfwymiol	-9768
▁Fietnameg	-9769
▁Hyfforddi	-9770
▁Rwmaniaia	-9771
▁Seithasol	-9772
▁ddisgwydd	-9773
▁defnyddir	-9774
▁rhwychydd	-9775
▁sylfaenol	-9776
▁ymgymgyng	-9777
▁ymysgogol	-9778
▁380700000.	-9779
▁560937000.	-9780
▁Deyrnasnas	-9781
▁Dosbarthir	-9782
▁Unysgysgol	-9783
▁dderbynwyr	-9784
▁ddisgillfa	-9785
▁ddisgillin	-9786
▁neilltuwyd	-9787
▁psicedelig	-9788
laethlaethol	-9789
▁1913-01-01.	-9790
▁1969-09-01.	-9791
▁331683000.0	-9792
▁6603633000.	-9793
▁Azerbaidjan	-9794
▁Cyfrifiadur	-9795
▁Lanarkshire	-9796
▁Manjgaladze	-9797
▁cydweddiwyd	-9798
▁drosglwyddo	-9799
▁gyhoeddiwyd	-9800
▁syddodiadol	-9801
▁ysgraddiwyd	-9802
▁0-374-26131-	-9803
▁0-7653-0633-	-9804
▁135589000.0.	-9805
▁Ffiliffigion	-9806
▁Ychwaneguwyd	-9807
▁Affricaiddion	-9808
▁chwyrchyddion	-9809
▁1-56947-301-3.	-9810
▁288749000000.0	-9811
▁352497000000.0.	-9812
6-	-9813
72	-9814
gr	-9815
kt	-9816
-02	-9817
015	-9818
12,	-9819
17,	-9820
200	-9821
304	-9822
70,	-9823
70.	-9824
77.	-9825
Add	-9826
Ind	-9827
Mex	-9828
Naf	-9829
Tud	-9830
aan	-9831
alw	-9832
com	-9833
eeg	-9834
hok	-9835
iki	-9836
iop	-9837
leh	-9838
mos	-9839
psi	-9840
rch	-9841
ryn	-9842
ult	-9843
uss	-9844
wrn	-9845
wrs	-9846
zhi	-9847
âmp	-9848
▁$,	-9849
▁46	-9850
▁Mu	-9851
▁SS	-9852
▁ai	-9853
-01.	-9854
-04.	-9855
236-	-9856
7531	-9857
Cast	-9858
Naft	-9859
amer	-9860
ante	-9861
arst	-9862
elor	-9863
elyn	-9864
enue	-9865
ezia	-9866
hnes	-9867
inna	-9868
ited	-9869
lawn	-9870
nukt	-9871
odal	-9872
oite	-9873
rall	-9874
redu	-9875
uval	-9876
wyrr	-9877
yron	-9878
ysgw	-9879
ythr	-9880
zhny	-9881
▁11,	-9882
▁233	-9883
▁25,	-9884
▁265	-9885
▁360	-9886
▁814	-9887
▁Asa	-9888
▁Baj	-9889
▁Ech	-9890
▁Fre	-9891
▁Gig	-9892
▁Jep	-9893
▁Lic	-9894
▁Sof	-9895
▁SpA	-9896
▁Uab	-9897
▁arm	-9898
▁clo	-9899
▁dig	-9900
▁fes	-9901
▁gil	-9902
2.846	-9903
Sbaen	-9904
Tudor	-9905
abian	-9906
acchi	-9907
afoni	-9908
ancye	-9909
bacon	-9910
cloch	-9911
crust	-9912
cyrru	-9913
dales	-9914
ector	-9915
ediwr	-9916
ennus	-9917
gwydd	-9918
ience	-9919
iopeg	-9920
mosys	-9921
offin	-9922
orino	-9923
ostig	-9924
sbury	-9925
urtis	-9926
warts	-9927
ylyfr	-9928
âmpia	-9929
▁000,	-9930
▁07/2	-9931
▁173.	-9932
▁1800	-9933
▁1872	-9934
▁1896	-9935
▁1909	-9936
▁1961	-9937
▁404,	-9938
▁657.	-9939
▁9833	-9940
▁Acad	-9941
▁Aerm	-9942
▁Aeth	-9943
▁Bryn	-9944
▁Ciro	-9945
▁Coco	-9946
▁Ider	-9947
▁KABI	-9948
▁Kell	-9949
▁Kiss	-9950
▁Kupé	-9951
▁Llig	-9952
▁Llim	-9953
▁Numa	-9954
▁Oleh	-9955
▁Prov	-9956
▁Rick	-9957
▁Runc	-9958
▁Rwyd	-9959
▁Sess	-9960
▁SqKm	-9961
▁Tart	-9962
▁Vica	-9963
▁Zest	-9964
▁barm	-9965
▁byrd	-9966
▁cadw	-9967
▁chwy	-9968
▁cwrs	-9969
▁ddyb	-9970
▁dych	-9971
▁dysg	-9972
▁faes	-9973
▁gaer	-9974
▁galw	-9975
▁gwyb	-9976
▁hynn	-9977
▁llif	-9978
▁llor	-9979
▁lwyr	-9980
▁matt	-9981
▁peso	-9982
▁porg	-9983
▁rhol	-9984
▁seif	-9985
-10-17	-9986
00000,	-9987
887531	-9988
amergh	-9989
anaeth	-9990
church	-9991
geniol	-9992
iannau	-9993
kelvin	-9994
reddol	-9995
utched	-9996
uvalan	-9997
wiliad	-9998
wyrion	-9999
▁"1923	-10000
▁15/33	-10001
▁1820.	-10002
▁1862,	-10003
▁1901.	-10004
▁1957,	-10005
▁2014–	-10006
▁211.2	-10007
▁24.4.	-10008
▁268.0	-10009
▁66063	-10010
▁94509	-10011
▁Aarus	-10012
▁Basim	-10013
▁Byron	-10014
▁Cafaf	-10015
▁Cfant	-10016
▁Child	-10017
▁Comic	-10018
▁Ddisg	-10019
▁Duhok	-10020
▁Dylai	-10021
▁Engin	-10022
▁Gabor	-10023
▁Golau	-10024
▁Inukt	-10025
▁Levan	-10026
▁Magik	-10027
▁Mexic	-10028
▁Minna	-10029
▁Norwy	-10030
▁Parti	-10031
▁Pedas	-10032
▁Plack	-10033
▁Profi	-10034
▁Qasim	-10035
▁Unith	-10036
▁Vigor	-10037
▁acura	-10038
▁arwyl	-10039
▁caiff	-10040
▁cello	-10041
▁chloi	-10042
▁cwydd	-10043
▁farau	-10044
▁ffath	-10045
▁gellf	-10046
▁gydag	-10047
▁gyrru	-10048
▁pepur	-10049
▁solan	-10050
▁strwy	-10051
▁waith	-10052
0000.0.	-10053
ddiadau	-10054
etrovir	-10055
gwblwyd	-10056
gyfryfr	-10057
ianaeth	-10058
indales	-10059
odiadau	-10060
omeriki	-10061
wyredig	-10062
▁0.0455	-10063
▁0.0473	-10064
▁0.0925	-10065
▁161.54	-10066
▁349206	-10067
▁Ashdod	-10068
▁Avenue	-10069
▁Bodley	-10070
▁Campia	-10071
▁Collin	-10072
▁Curtis	-10073
▁Câmpia	-10074
▁Doburg	-10075
▁Edward	-10076
▁Eisner	-10077
▁Ffilif	-10078
▁Ffranc	-10079
▁Ffrwyd	-10080
▁Fortin	-10081
▁Hearst	-10082
▁Hector	-10083
▁Jepson	-10084
▁Licata	-10085
▁Luzhny	-10086
▁Maesol	-10087
▁Moraes	-10088
▁Prince	-10089
▁Ramsey	-10090
▁Roland	-10091
▁Romano	-10092
▁Samuel	-10093
▁Scharf	-10094
▁Varese	-10095
▁arsyll	-10096
▁bisgau	-10097
▁bywydd	-10098
▁celeri	-10099
▁cennus	-10100
▁cwneud	-10101
▁cyngon	-10102
▁ddeleg	-10103
▁demonw	-10104
▁ffugio	-10105
▁genreg	-10106
▁gwasan	-10107
▁hanner	-10108
▁moffin	-10109
▁rwyddo	-10110
▁stadio	-10111
▁tennis	-10112
▁ymladd	-10113
▁ysgrif	-10114
millimed	-10115
urturing	-10116
▁3310.0.	-10117
▁Acehnes	-10118
▁Asphalt	-10119
▁Belgrad	-10120
▁Cefndir	-10121
▁Chorizo	-10122
▁Cutched	-10123
▁Cyfledd	-10124
▁Darcydd	-10125
▁Dargwyd	-10126
▁Dwysedd	-10127
▁Geering	-10128
▁Gigante	-10129
▁Granola	-10130
▁Gwyafaf	-10131
▁Ketchup	-10132
▁Kissing	-10133
▁Kubelle	-10134
▁Lamezia	-10135
▁Limited	-10136
▁Meneist	-10137
▁Nigereg	-10138
▁Osmosys	-10139
▁Runcorn	-10140
▁Sanchez	-10141
▁Science	-10142
▁Solanum	-10143
▁Webster	-10144
▁adeilwr	-10145
▁aelodol	-10146
▁aethodd	-10147
▁amrypsi	-10148
▁awduron	-10149
▁blaenir	-10150
▁cadwydd	-10151
▁comimik	-10152
▁cwmniad	-10153
▁ddisgyl	-10154
▁derfynu	-10155
▁eiconol	-10156
▁gwarant	-10157
▁gwyddol	-10158
▁gyffred	-10159
▁lwyriad	-10160
▁mynwydd	-10161
▁swyddol	-10162
▁sylfais	-10163
▁troedau	-10164
Addiction	-10165
▁76798317	-10166
▁Bachelor	-10167
▁Cornwall	-10168
▁Cynthpop	-10169
▁Dilynodd	-10170
▁Dilynwyd	-10171
▁Ethiopeg	-10172
▁Iwerddir	-10173
▁Pecorino	-10174
▁Sessions	-10175
▁Shiitake	-10176
▁Shuvalan	-10177
▁Sociaeth	-10178
▁Symudiad	-10179
▁Unololol	-10180
▁Vorwarts	-10181
▁adnabydd	-10182
▁brithryd	-10183
▁chauffir	-10184
▁chwyblau	-10185
▁cyfansio	-10186
▁dreidwyr	-10187
▁ellymiad	-10188
▁ffrwydro	-10189
▁gwerthwr	-10190
▁gyforiad	-10191
▁rutaceae	-10192
threiddiad	-10193
▁0965-2140	-10194
▁1857-03-0	-10195
▁1907-07-1	-10196
▁1939-01-0	-10197
▁51969173.	-10198
▁605718000	-10199
▁Aermacchi	-10200
▁Azerbaerb	-10201
▁Cafoddodd	-10202
▁Cofnodion	-10203
▁Cyflwybyr	-10204
▁Gwaithfan	-10205
▁Inuktitut	-10206
▁Khomeriki	-10207
▁Zestafoni	-10208
▁addasedig	-10209
▁adeiladwy	-10210
▁bresennol	-10211
▁chanfuwyd	-10212
▁chwynaeth	-10213
▁cyfrannol	-10214
▁ddiweddol	-10215
▁ddiwethaf	-10216
▁drosglwyd	-10217
▁hyfforddi	-10218
▁mylwyrwyr	-10219
▁orbrediad	-10220
▁rhanbarth	-10221
▁01-01-1913	-10222
▁1080-6377.	-10223
▁135589000.	-10224
▁1588-2632.	-10225
▁2001-01-01	-10226
▁520906000.	-10227
▁9833516.63	-10228
▁Aethelwald	-10229
▁Bloomsbury	-10230
▁Cephalopod	-10231
▁Cyfwyredig	-10232
▁Cyfysgriad	-10233
▁Gweithriad	-10234
▁Kellamergh	-10235
▁Preffectur	-10236
▁Unysgoledd	-10237
▁ailadwywyd	-10238
▁blaenorwyr	-10239
▁byrlwyniad	-10240
▁chwaraeydd	-10241
▁cychwynnol	-10242
▁cyfarchiad	-10243
▁cyfrifoedd	-10244
▁cyrchfanol	-10245
▁darfforddi	-10246
▁darllenwyr	-10247
▁ddisgyniad	-10248
▁ffwythiant	-10249
▁gwerthiant	-10250
▁gynhwysydd	-10251
▁mylgylchol	-10252
▁8788850000.	-10253
▁Cyfartaledd	-10254
▁Engineering	-10255
▁Golygyddwyd	-10256
▁Gweinyddodd	-10257
▁Gweithrywyr	-10258
▁Gwythwyniad	-10259
▁graddyddydd	-10260
▁Affricaiddau	-10261
▁Gwaithyddion	-10262
▁Gwyddonyddon	-10263
▁Ysgrifennodd	-10264
▁gynhwysiadau	-10265
▁Cynllunoddodd	-10266
▁0-670-03380-4.	-10267
▁0-7653-0633-6.	-10268
▁124950000000.0.	-10269
▁978-0-15-204770	-10270
ao	-10271
km	-10272
Ôl	-10273
öd	-10274
-58	-10275
-87	-10276
064	-10277
084	-10278
18.	-10279
483	-10280
6.5	-10281
9.9	-10282
Sem	-10283
ady	-10284
azi	-10285
des	-10286
dol	-10287
eit	-10288
ené	-10289
erk	-10290
imr	-10291
inz	-10292
ium	-10293
iwg	-10294
kel	-10295
nos	-10296
ryt	-10297
rán	-10298
tau	-10299
wdd	-10300
▁2)	-10301
▁76	-10302
▁MS	-10303
▁NY	-10304
▁TV	-10305
▁gy	-10306
▁hp	-10307
▁Ôl	-10308
-339	-10309
114.	-10310
4.0.	-10311
421.	-10312
8015	-10313
Cune	-10314
achk	-10315
amon	-10316
asha	-10317
berh	-10318
biau	-10319
bori	-10320
bros	-10321
ctor	-10322
dwif	-10323
ecyn	-10324
eded	-10325
egeg	-10326
egyn	-10327
eiaf	-10328
eled	-10329
endo	-10330
ewed	-10331
faen	-10332
fedd	-10333
iddi	-10334
imir	-10335
iyah	-10336
jill	-10337
mood	-10338
ogne	-10339
orni	-10340
oroi	-10341
pany	-10342
rikh	-10343
sage	-10344
tiad	-10345
uila	-10346
wngw	-10347
yfru	-10348
ylid	-10349
yrus	-10350
▁$87	-10351
▁155	-10352
▁248	-10353
▁298	-10354
▁851	-10355
▁ADO	-10356
▁Abe	-10357
▁Clo	-10358
▁Cop	-10359
▁Dau	-10360
▁Hab	-10361
▁Lom	-10362
▁Mau	-10363
▁Möd	-10364
▁Nav	-10365
▁Pot	-10366
▁WWI	-10367
▁Wet	-10368
▁Yma	-10369
▁Yms	-10370
▁abt	-10371
▁awr	-10372
▁ced	-10373
▁ddo	-10374
▁fif	-10375
▁jam	-10376
▁nid	-10377
▁unr	-10378
-02-2	-10379
65-87	-10380
AIDBI	-10381
Lwybr	-10382
Manus	-10383
Semin	-10384
avson	-10385
brose	-10386
dding	-10387
ebror	-10388
eirio	-10389
enect	-10390
feren	-10391
fredu	-10392
idiad	-10393
ionov	-10394
iwgal	-10395
jamin	-10396
lands	-10397
metal	-10398
monde	-10399
odist	-10400
owwyr	-10401
redin	-10402
ricio	-10403
undeb	-10404
unwyd	-10405
▁0348	-10406
▁18.0	-10407
▁1908	-10408
▁2012	-10409
▁214,	-10410
▁682,	-10411
▁770,	-10412
▁817,	-10413
▁9064	-10414
▁9312	-10415
▁Bass	-10416
▁Boul	-10417
▁Cans	-10418
▁Cold	-10419
▁Ddod	-10420
▁Ddyb	-10421
▁Dila	-10422
▁Gori	-10423
▁Guar	-10424
▁Gust	-10425
▁Haag	-10426
▁Horn	-10427
▁Kend	-10428
▁Kota	-10429
▁Laan	-10430
▁Link	-10431
▁Lour	-10432
▁Makh	-10433
▁Mest	-10434
▁Monf	-10435
▁Muse	-10436
▁Nasa	-10437
▁Nebr	-10438
▁Owen	-10439
▁Rene	-10440
▁René	-10441
▁Sazi	-10442
▁Stra	-10443
▁Turc	-10444
▁Urug	-10445
▁aiam	-10446
▁ardd	-10447
▁chyn	-10448
▁cwib	-10449
▁cysg	-10450
▁ddwy	-10451
▁eisg	-10452
▁fwrn	-10453
▁fwyd	-10454
▁gans	-10455
▁goll	-10456
▁hynh	-10457
▁iâdd	-10458
▁osod	-10459
▁staf	-10460
▁trin	-10461
92000.	-10462
Gweith	-10463
Mexico	-10464
angled	-10465
antain	-10466
eirwyd	-10467
eisiau	-10468
enosha	-10469
eoliad	-10470
eonawr	-10471
estina	-10472
fynell	-10473
ionion	-10474
millan	-10475
native	-10476
opedol	-10477
skaidd	-10478
tiadau	-10479
▁13017	-10480
▁1411.	-10481
▁1856.	-10482
▁1868.	-10483
▁1965.	-10484
▁1972,	-10485
▁1978.	-10486
▁1985.	-10487
▁1987,	-10488
▁1988,	-10489
▁2000)	-10490
▁2003.	-10491
▁2013,	-10492
▁286.5	-10493
▁37124	-10494
▁37497	-10495
▁429.9	-10496
▁497.0	-10497
▁Alter	-10498
▁Amser	-10499
▁Anzhi	-10500
▁Argym	-10501
▁Bajik	-10502
▁Baron	-10503
▁Cantu	-10504
▁Cewed	-10505
▁Chino	-10506
▁Clerk	-10507
▁Cyrus	-10508
▁Damon	-10509
▁Darch	-10510
▁Eberh	-10511
▁Eloch	-10512
▁Grydd	-10513
▁Gylch	-10514
▁Irlam	-10515
▁Macri	-10516
▁Papur	-10517
▁Putin	-10518
▁Rwydd	-10519
▁Senal	-10520
▁Sgwif	-10521
▁Spell	-10522
▁Vance	-10523
▁Weber	-10524
▁Wells	-10525
▁arros	-10526
▁atodi	-10527
▁baron	-10528
▁borth	-10529
▁byrnu	-10530
▁chliw	-10531
▁cwndd	-10532
▁cyfer	-10533
▁ddarf	-10534
▁glawn	-10535
▁gwasg	-10536
▁gwirl	-10537
▁hynny	-10538
▁hynyd	-10539
▁llusg	-10540
▁mwych	-10541
▁mwyll	-10542
▁myntl	-10543
▁naill	-10544
▁oelod	-10545
▁pened	-10546
▁texas	-10547
▁veric	-10548
▁ymgyl	-10549
000000,	-10550
4837.14	-10551
achkala	-10552
aniaeth	-10553
baniyah	-10554
cartref	-10555
dwifwyr	-10556
endower	-10557
ference	-10558
ibiaeth	-10559
yllinol	-10560
▁$875.4	-10561
▁1.9304	-10562
▁148015	-10563
▁3800.0	-10564
▁44114.	-10565
▁Aguila	-10566
▁Amerik	-10567
▁Angela	-10568
▁Barrow	-10569
▁Bresin	-10570
▁Castel	-10571
▁Cloedd	-10572
▁Creuwr	-10573
▁Gaffey	-10574
▁Gwylch	-10575
▁Lompoc	-10576
▁McCune	-10577
▁Merkel	-10578
▁Nardol	-10579
▁Navajo	-10580
▁Puerto	-10581
▁Rafael	-10582
▁Rhoedd	-10583
▁Sereno	-10584
▁Unione	-10585
▁Wayans	-10586
▁Ymwyrr	-10587
▁Ynaeth	-10588
▁agosaf	-10589
▁bachso	-10590
▁bannol	-10591
▁blouau	-10592
▁choroi	-10593
▁cynryd	-10594
▁ddywng	-10595
▁elfenw	-10596
▁gallir	-10597
▁gwneir	-10598
▁gysell	-10599
▁herwyr	-10600
▁ionawr	-10601
▁lleiaf	-10602
▁pwysau	-10603
▁rhoedd	-10604
▁rholio	-10605
▁roddir	-10606
▁sgwngr	-10607
▁weitho	-10608
▁ymegol	-10609
▁yrwydd	-10610
eithfull	-10611
enectady	-10612
oddiadau	-10613
▁1865-87	-10614
▁1930-01	-10615
▁3992.88	-10616
▁45000.0	-10617
▁488160.	-10618
▁9064084	-10619
▁Affaith	-10620
▁Andreea	-10621
▁Company	-10622
▁Cyswydd	-10623
▁Fiction	-10624
▁Guancye	-10625
▁Gwerthn	-10626
▁Gwladol	-10627
▁Kendall	-10628
▁Kenosha	-10629
▁Lourdes	-10630
▁Mahmood	-10631
▁Mamfull	-10632
▁McManus	-10633
▁Menasha	-10634
▁Mestizo	-10635
▁Mödling	-10636
▁Pecedau	-10637
▁Potenza	-10638
▁Pudding	-10639
▁Rhowwyr	-10640
▁Sausage	-10641
▁Tecsecs	-10642
▁Tractor	-10643
▁Unyddol	-10644
▁Wilfred	-10645
▁acostig	-10646
▁arferol	-10647
▁argraff	-10648
▁byrledd	-10649
▁cysellf	-10650
▁effeith	-10651
▁elyswyr	-10652
▁flaenor	-10653
▁golygyr	-10654
▁gweitho	-10655
▁gwelydd	-10656
▁gynnydd	-10657
▁lliwiau	-10658
▁lluchus	-10659
▁poblwyl	-10660
▁priodal	-10661
▁sandwci	-10662
▁stafell	-10663
▁sylwydd	-10664
▁wneudir	-10665
apindales	-10666
gorllewin	-10667
gweithred	-10668
gyddogwyd	-10669
ynyddoedd	-10670
▁000.000.	-10671
▁31887531	-10672
▁46451790	-10673
▁Boulogne	-10674
▁Ddinasol	-10675
▁Eberhard	-10676
▁Erfynell	-10677
▁Guarania	-10678
▁Jacabian	-10679
▁Mauricio	-10680
▁Meneisto	-10681
▁Nebraska	-10682
▁Othynedd	-10683
▁Pariaeth	-10684
▁Rodionov	-10685
▁Seithiau	-10686
▁Sgwyddon	-10687
▁Springer	-10688
▁Unysgysg	-10689
▁Vladimir	-10690
▁Wetlands	-10691
▁archifor	-10692
▁byrlwybr	-10693
▁cwyddodd	-10694
▁cyfaniad	-10695
▁cyflwrth	-10696
▁cymedrol	-10697
▁ddylennu	-10698
▁dewisodd	-10699
▁dirgrydd	-10700
▁fethodau	-10701
▁ffojliwr	-10702
▁ffontain	-10703
▁gwasanau	-10704
▁gyflunio	-10705
▁gyfredol	-10706
▁labeliau	-10707
▁leoliwyd	-10708
▁llinellu	-10709
▁lluchder	-10710
▁llyfradd	-10711
▁llyfriad	-10712
▁mattiwyr	-10713
▁plantain	-10714
▁torriwyd	-10715
▁ymysgrif	-10716
▁1920-08-1	-10717
▁Andalwsia	-10718
▁Awyrddion	-10719
▁Awyrluedd	-10720
▁Benitoite	-10721
▁Cyfeiriad	-10722
▁Disgwyrdd	-10723
▁Glendower	-10724
▁Gustavson	-10725
▁Macmillan	-10726
▁Mosgosgos	-10727
▁Nurturing	-10728
▁Partiaidd	-10729
▁Polskaidd	-10730
▁Portiwgal	-10731
▁Rhyddorol	-10732
▁Samarahan	-10733
▁Seiliedig	-10734
▁Senadaeth	-10735
▁Sgoliaeth	-10736
▁Triestina	-10737
▁Uniaethol	-10738
▁Wangledig	-10739
▁cyfrifenn	-10740
▁ddarganfu	-10741
▁ffrwydron	-10742
▁ffynthell	-10743
▁graffegol	-10744
▁gwelogwyr	-10745
▁orbreddol	-10746
▁perthynol	-10747
▁rheoliwyd	-10748
▁rhodiadol	-10749
▁rhwyddoch	-10750
▁vericelli	-10751
▁ymddogodd	-10752
▁ynghywydd	-10753
00.000.000.	-10754
▁1046-8188.	-10755
▁1732-2421.	-10756
▁1933-10-17	-10757
▁2014-2015.	-10758
▁2015-06-27	-10759
▁211200000.	-10760
▁7729430000	-10761
▁8514837.14	-10762
▁Almaenaidd	-10763
▁Awcnolegol	-10764
▁Brazilegol	-10765
▁Conference	-10766
▁Cynllunwyd	-10767
▁Ddybwyniad	-10768
▁Gweithrall	-10769
▁Gwreiddiad	-10770
▁Habbaniyah	-10771
▁Hornchurch	-10772
▁Mathemateg	-10773
▁Sbangledig	-10774
▁Warnemonde	-10775
▁chanserydd	-10776
▁cynnwysedd	-10777
▁ddigwydrol	-10778
▁diwrnodydd	-10779
▁fethrhyrch	-10780
▁gyfansodol	-10781
▁gynhwysedd	-10782
▁olympiadol	-10783
▁orffelodol	-10784
▁trombonist	-10785
▁08-16-1920,	-10786
▁108.600000.	-10787
▁1936-05-21.	-10788
▁39971000000	-10789
▁560937000.0	-10790
▁611961000.0	-10791
▁69862200.0.	-10792
▁Alternative	-10793
▁Azerbaerbyn	-10794
▁Daleithoedd	-10795
▁Makhachkala	-10796
▁Parlamentol	-10797
▁Schenectady	-10798
▁darganfodwr	-10799
▁darganfuwyd	-10800
▁dderbyddwyd	-10801
▁gorffennwyd	-10802
▁gweithredwr	-10803
▁ymddangosir	-10804
▁139705000.0.	-10805
▁142603000.0.	-10806
▁Americanaidd	-10807
▁Awstraliaidd	-10808
▁Azerbaerbaid	-10809
▁Paleontology	-10810
▁preffefniant	-10811
▁ymddangosodd	-10812
▁283326000000.	-10813
▁Chwyddoniaeth	-10814
▁88234300000.0.	-10815
")	-10816
81	-10817
BL	-10818
DL	-10819
Rh	-10820
fl	-10821
pr	-10822
tă	-10823
âd	-10824
ça	-10825
-2.	-10826
421	-10827
9-2	-10828
Alc	-10829
Bar	-10830
LCN	-10831
RBL	-10832
The	-10833
adc	-10834
afn	-10835
bod	-10836
bri	-10837
deb	-10838
dir	-10839
edt	-10840
eia	-10841
ewr	-10842
pan	-10843
ryr	-10844
tal	-10845
wal	-10846
wyf	-10847
ygu	-10848
ysu	-10849
âne	-10850
ère	-10851
▁92	-10852
▁Cw	-10853
▁Me	-10854
▁Pé	-10855
▁fn	-10856
▁ia	-10857
/21.	-10858
/26.	-10859
1.2.	-10860
7.0.	-10861
80-4	-10862
Geor	-10863
ISSN	-10864
Vern	-10865
agen	-10866
aish	-10867
ajib	-10868
alid	-10869
aptă	-10870
auck	-10871
azak	-10872
cati	-10873
ción	-10874
deen	-10875
edwr	-10876
enna	-10877
este	-10878
etau	-10879
geni	-10880
gryd	-10881
hinx	-10882
iito	-10883
irir	-10884
itch	-10885
line	-10886
meid	-10887
oody	-10888
raca	-10889
ranu	-10890
seil	-10891
ther	-10892
ucky	-10893
unch	-10894
urir	-10895
wgau	-10896
ynes	-10897
▁07.	-10898
▁15.	-10899
▁153	-10900
▁18-	-10901
▁2.4	-10902
▁216	-10903
▁401	-10904
▁434	-10905
▁438	-10906
▁6.7	-10907
▁63.	-10908
▁672	-10909
▁Aid	-10910
▁Aso	-10911
▁Buc	-10912
▁Bwl	-10913
▁Dat	-10914
▁Emp	-10915
▁Fyd	-10916
▁Gai	-10917
▁Lem	-10918
▁Mao	-10919
▁Nak	-10920
▁PDL	-10921
▁Pil	-10922
▁SSD	-10923
▁Swc	-10924
▁Sán	-10925
▁Tal	-10926
▁Wee	-10927
▁Ymg	-10928
▁Yml	-10929
▁arw	-10930
▁din	-10931
▁hol	-10932
▁hyr	-10933
▁inc	-10934
▁llu	-10935
▁lly	-10936
▁med	-10937
▁mes	-10938
▁mis	-10939
▁oef	-10940
▁pip	-10941
▁ras	-10942
AMAHE	-10943
Mater	-10944
achim	-10945
adori	-10946
bient	-10947
bwrdd	-10948
edict	-10949
edodd	-10950
edome	-10951
ellau	-10952
ellen	-10953
engir	-10954
gwedi	-10955
itari	-10956
jonau	-10957
nuolo	-10958
olksw	-10959
orain	-10960
ordan	-10961
orsal	-10962
rales	-10963
ropop	-10964
stedt	-10965
walki	-10966
wneir	-10967
woody	-10968
wrceg	-10969
ypsis	-10970
▁0068	-10971
▁1,12	-10972
▁1023	-10973
▁16/3	-10974
▁1878	-10975
▁1911	-10976
▁1982	-10977
▁265.	-10978
▁714.	-10979
▁806.	-10980
▁972.	-10981
▁Aber	-10982
▁Amat	-10983
▁Book	-10984
▁Bush	-10985
▁CRBL	-10986
▁Clob	-10987
▁Copé	-10988
▁Dein	-10989
▁Deça	-10990
▁Ffin	-10991
▁Ffud	-10992
▁Gale	-10993
▁Gerd	-10994
▁Hwng	-10995
▁Ilau	-10996
▁Iran	-10997
▁LLCN	-10998
▁Meth	-10999
▁Mrku	-11000
▁Prêl	-11001
▁Rund	-11002
▁Sami	-11003
▁Sedi	-11004
▁Spag	-11005
▁Tros	-11006
▁Wild	-11007
▁Yuan	-11008
▁blae	-11009
▁byth	-11010
▁cimr	-11011
▁cyff	-11012
▁cymg	-11013
▁ddim	-11014
▁diwr	-11015
▁droi	-11016
▁gant	-11017
▁iddi	-11018
▁olaf	-11019
▁rhir	-11020
▁turt	-11021
▁uned	-11022
▁ynys	-11023
12.200	-11024
Asocia	-11025
adcast	-11026
aminer	-11027
barthu	-11028
clutch	-11029
codiad	-11030
eddedd	-11031
efydol	-11032
elliad	-11033
iapsis	-11034
icaidd	-11035
iladol	-11036
ishers	-11037
lynnau	-11038
nodiad	-11039
ussels	-11040
uttlef	-11041
wyniol	-11042
ysgwch	-11043
▁1.800	-11044
▁13/31	-11045
▁1904,	-11046
▁1909.	-11047
▁1914.	-11048
▁1920.	-11049
▁1923,	-11050
▁1929.	-11051
▁1932,	-11052
▁1948.	-11053
▁1956,	-11054
▁1964.	-11055
▁2002.	-11056
▁2004,	-11057
▁2009,	-11058
▁2016,	-11059
▁21.2.	-11060
▁29075	-11061
▁3500.	-11062
▁973.0	-11063
▁AMAHE	-11064
▁Anfon	-11065
▁Arsyl	-11066
▁Awdod	-11067
▁Awyrl	-11068
▁Batak	-11069
▁Colón	-11070
▁Cymyl	-11071
▁Ddian	-11072
▁Ffant	-11073
▁Ffugl	-11074
▁First	-11075
▁Gauck	-11076
▁Giant	-11077
▁Group	-11078
▁Lligg	-11079
▁Mitch	-11080
▁Najib	-11081
▁Negre	-11082
▁Nodol	-11083
▁Popul	-11084
▁Pérez	-11085
▁Razak	-11086
▁Royal	-11087
▁Sofia	-11088
▁banjo	-11089
▁bwynt	-11090
▁chwar	-11091
▁chynh	-11092
▁copas	-11093
▁ddych	-11094
▁draff	-11095
▁gludd	-11096
▁gwart	-11097
▁gynth	-11098
▁hynes	-11099
▁hynod	-11100
▁litra	-11101
▁llais	-11102
▁mylon	-11103
▁nodau	-11104
▁penyn	-11105
▁peydd	-11106
▁radio	-11107
▁sarni	-11108
▁seill	-11109
▁thema	-11110
▁ymwng	-11111
Barisan	-11112
Duchère	-11113
Sosodeg	-11114
esurydd	-11115
llunodd	-11116
olisiwr	-11117
wyrrydd	-11118
▁$556,3	-11119
▁$556.3	-11120
▁0.0155	-11121
▁08/26.	-11122
▁11/29.	-11123
▁2776.0	-11124
▁336265	-11125
▁600.0.	-11126
▁900.0.	-11127
▁ATISET	-11128
▁Akiito	-11129
▁Asocia	-11130
▁Brewer	-11131
▁Cysell	-11132
▁Ducati	-11133
▁Dulbyn	-11134
▁Empoli	-11135
▁Faroeg	-11136
▁Ffugio	-11137
▁Futbol	-11138
▁German	-11139
▁Inline	-11140
▁Jonawr	-11141
▁Jordan	-11142
▁Khalid	-11143
▁LaVern	-11144
▁Launch	-11145
▁Lemper	-11146
▁Mother	-11147
▁Primer	-11148
▁Sphinx	-11149
▁Summit	-11150
▁Teague	-11151
▁Unwydd	-11152
▁Valenc	-11153
▁Vienna	-11154
▁Volksw	-11155
▁abtill	-11156
▁apapsi	-11157
▁bresur	-11158
▁buding	-11159
▁campus	-11160
▁canlin	-11161
▁colomb	-11162
▁cynnal	-11163
▁eisiau	-11164
▁ffoldi	-11165
▁gansod	-11166
▁glawnu	-11167
▁gweled	-11168
▁gwrein	-11169
▁gyfrol	-11170
▁gyrwyr	-11171
▁isradd	-11172
▁lanced	-11173
▁llimon	-11174
▁llorfa	-11175
▁llywng	-11176
▁lywydd	-11177
▁rascon	-11178
▁rhifau	-11179
▁sgwydd	-11180
▁syddol	-11181
▁wladau	-11182
▁ymthyn	-11183
Alcatraz	-11184
blwblwyd	-11185
ddwblwyd	-11186
eddiaeth	-11187
icharron	-11188
▁1896-02	-11189
▁2013-11	-11190
▁2215.0.	-11191
▁2702.0.	-11192
▁2776.0.	-11193
▁3990.0.	-11194
▁4349.0.	-11195
▁8700082	-11196
▁Ambient	-11197
▁Ambrose	-11198
▁Astérix	-11199
▁Borough	-11200
▁Cfantas	-11201
▁Didburg	-11202
▁Faroese	-11203
▁Ffforff	-11204
▁Hwngare	-11205
▁Jahisto	-11206
▁Joachim	-11207
▁Llorain	-11208
▁Pwyntir	-11209
▁Romanes	-11210
▁Sbardyr	-11211
▁Sififil	-11212
▁Suwalki	-11213
▁Sánchez	-11214
▁Urugwig	-11215
▁Uwchben	-11216
▁Virtuti	-11217
▁bocedol	-11218
▁byrlwyr	-11219
▁cerddop	-11220
▁chliwau	-11221
▁daroedd	-11222
▁dreidwr	-11223
▁dreinau	-11224
▁eidaleg	-11225
▁ffocysu	-11226
▁gellell	-11227
▁gitarad	-11228
▁gwirlen	-11229
▁gyflawn	-11230
▁gynorth	-11231
▁gyrchni	-11232
▁gyriant	-11233
▁iaithau	-11234
▁peripsi	-11235
▁pianist	-11236
▁poblion	-11237
▁rhannau	-11238
▁sandesh	-11239
▁seilied	-11240
▁weinydd	-11241
▁wledydd	-11242
▁ybyniad	-11243
▁ychrydd	-11244
▁ymarcho	-11245
▁ymgywir	-11246
adcasting	-11247
rifennwyd	-11248
uttlefish	-11249
yrhyrchol	-11250
▁1202.846	-11251
▁192000.0	-11252
▁80002709	-11253
▁8805735.	-11254
▁Aberdeen	-11255
▁Acehnese	-11256
▁Arwyddol	-11257
▁Benedict	-11258
▁Brussels	-11259
▁Bucarest	-11260
▁Chwiliad	-11261
▁Cofnodau	-11262
▁Cyferydd	-11263
▁Cytundeb	-11264
▁Dewisodd	-11265
▁Deçaaptă	-11266
▁Dunwoody	-11267
▁Firedome	-11268
▁Galactig	-11269
▁Generics	-11270
▁Gweirydd	-11271
▁Hwngareg	-11272
▁Kentucky	-11273
▁Kilometr	-11274
▁Laurales	-11275
▁Militari	-11276
▁Mitchell	-11277
▁Nakadori	-11278
▁Portland	-11279
▁Regional	-11280
▁Rutaceae	-11281
▁Spangled	-11282
▁Ymddirol	-11283
▁Ymddodol	-11284
▁amgodiad	-11285
▁amgyrwyr	-11286
▁amrediad	-11287
▁arbennig	-11288
▁archifeg	-11289
▁ardaliau	-11290
▁awdurdod	-11291
▁boblwydd	-11292
▁bwrthiau	-11293
▁choroizo	-11294
▁cynnodyn	-11295
▁cyrddedi	-11296
▁darganfu	-11297
▁ddisgiad	-11298
▁ddyrchdi	-11299
▁fdyrchwr	-11300
▁ffurfiau	-11301
▁gwrchydd	-11302
▁gwrthddu	-11303
▁llamodau	-11304
▁llyngwyr	-11305
▁mynegiad	-11306
▁olympiad	-11307
▁teithryd	-11308
▁terfynol	-11309
▁ymgyfryd	-11310
▁ymlaenol	-11311
▁1473-5571	-11312
▁1558-2868	-11313
▁1930-01-2	-11314
▁1998-07-2	-11315
▁31.12.200	-11316
▁45644811.	-11317
▁69862200.	-11318
▁Appletone	-11319
▁Arapiraca	-11320
▁Californi	-11321
▁Ffigneria	-11322
▁Gorchymyn	-11323
▁Gwarchion	-11324
▁Matchstix	-11325
▁Partisiad	-11326
▁Rundstedt	-11327
▁Serenedig	-11328
▁Spagnuolo	-11329
▁almaMater	-11330
▁amgrywiol	-11331
▁chrystodi	-11332
▁chwrthddu	-11333
▁chwyrrydd	-11334
▁chwythiad	-11335
▁ddisbarth	-11336
▁dychwneud	-11337
▁gweithfan	-11338
▁gyhoeddwr	-11339
▁gynnwysau	-11340
▁llinellau	-11341
▁llinynnau	-11342
▁llyfrgell	-11343
▁llywyrion	-11344
▁periapsis	-11345
▁trosiadwy	-11346
▁wreiddiol	-11347
Gweithredwr	-11348
▁0001-8392.	-11349
▁0269-9370.	-11350
▁1473-5571.	-11351
▁1907-07-11	-11352
▁1980-04-23	-11353
▁Addasiedig	-11354
▁Almaenaeth	-11355
▁Americaedd	-11356
▁Awstralian	-11357
▁Basketball	-11358
▁Brazileidd	-11359
▁Canolynnau	-11360
▁Chicharron	-11361
▁Chwyddonol	-11362
▁Cyfansegol	-11363
▁Cyflwyniad	-11364
▁Cyflwyniol	-11365
▁Demociaeth	-11366
▁Eredivisie	-11367
▁Georgetown	-11368
▁Motherwell	-11369
▁Population	-11370
▁Publishers	-11371
▁Volkswagen	-11372
▁arbarthiad	-11373
▁cyrchfanfa	-11374
▁cysellfell	-11375
▁ddisgyniwr	-11376
▁ddyfannwyd	-11377
▁diweddaraf	-11378
▁lansoddodd	-11379
▁seiloddwyd	-11380
gysylltiedig	-11381
▁108,600000.	-11382
▁1907-07-11.	-11383
▁2006-12-31.	-11384
▁Blwchwyniad	-11385
▁Canadaiddau	-11386
▁Gweriniaidd	-11387
▁Philifiliau	-11388
▁Rhywyddonol	-11389
▁allgyrannol	-11390
▁blynyddoedd	-11391
▁chwyddochol	-11392
▁ddisgyniant	-11393
▁ddisgyniwyd	-11394
▁ddiweddwedd	-11395
▁fynhyrhyrch	-11396
▁perthynedig	-11397
▁preffectedr	-11398
▁15100000000.	-11399
▁179942000.0,	-11400
▁179942000.0.	-11401
▁7715100000.0	-11402
▁Broadcasting	-11403
▁Cyffrediadau	-11404
▁Cythreiddiad	-11405
▁darfysgraddi	-11406
▁ddisgwyddodd	-11407
▁ychwaneguwyd	-11408
▁0-670-03380-4	-11409
▁279142000000.	-11410
▁0-374-26131-8.	-11411
▁Ddemokratiaeth	-11412
/0	-11413
4"	-11414
61	-11415
76	-11416
DD	-11417
LG	-11418
MI	-11419
PN	-11420
SH	-11421
TH	-11422
VI	-11423
hp	-11424
şá	-11425
▁×	-11426
-08	-11427
-18	-11428
.94	-11429
/05	-11430
/1,	-11431
/18	-11432
1.0	-11433
43.	-11434
48.	-11435
504	-11436
533	-11437
92"	-11438
ACM	-11439
AIP	-11440
ASK	-11441
All	-11442
Ast	-11443
Bro	-11444
Col	-11445
Dem	-11446
Gro	-11447
Ham	-11448
Met	-11449
Oct	-11450
adu	-11451
als	-11452
aná	-11453
aru	-11454
che	-11455
een	-11456
eni	-11457
esa	-11458
feo	-11459
fnu	-11460
gog	-11461
hef	-11462
int	-11463
ken	-11464
lan	-11465
ndr	-11466
nip	-11467
oux	-11468
ple	-11469
roi	-11470
ryg	-11471
uck	-11472
uth	-11473
zio	-11474
▁2,	-11475
▁85	-11476
▁Km	-11477
▁Mw	-11478
▁NV	-11479
▁TN	-11480
▁be	-11481
▁by	-11482
▁cr	-11483
▁io	-11484
▁ro	-11485
▁su	-11486
/192	-11487
/201	-11488
0348	-11489
20,7	-11490
5.42	-11491
6110	-11492
7.16	-11493
80,7	-11494
920.	-11495
Ayam	-11496
Neil	-11497
OCLC	-11498
PSTH	-11499
Sham	-11500
VIAG	-11501
abau	-11502
abağ	-11503
adao	-11504
alai	-11505
apta	-11506
cara	-11507
cion	-11508
dydd	-11509
dynh	-11510
erau	-11511
fino	-11512
flot	-11513
iann	-11514
inzo	-11515
kpot	-11516
maen	-11517
metr	-11518
nard	-11519
olch	-11520
onei	-11521
onod	-11522
ryng	-11523
sius	-11524
weld	-11525
▁"00	-11526
▁1.7	-11527
▁112	-11528
▁140	-11529
▁184	-11530
▁25.	-11531
▁264	-11532
▁469	-11533
▁541	-11534
▁609	-11535
▁7.9	-11536
▁AKA	-11537
▁ASD	-11538
▁Ars	-11539
▁Awl	-11540
▁BSc	-11541
▁Ban	-11542
▁CFC	-11543
▁EMI	-11544
▁FLG	-11545
▁Fyn	-11546
▁Gir	-11547
▁Hwn	-11548
▁Ice	-11549
▁Out	-11550
▁Ral	-11551
▁Sov	-11552
▁Taw	-11553
▁Teh	-11554
▁Tîm	-11555
▁Yst	-11556
▁Zan	-11557
▁anh	-11558
▁bel	-11559
▁but	-11560
▁cha	-11561
▁est	-11562
▁fys	-11563
▁heb	-11564
▁jon	-11565
▁olg	-11566
▁pad	-11567
▁par	-11568
▁pew	-11569
▁rac	-11570
▁sak	-11571
▁sgr	-11572
-03-1	-11573
-130,	-11574
00.0,	-11575
50000	-11576
Hambg	-11577
India	-11578
Metal	-11579
aanst	-11580
adwyr	-11581
afwyd	-11582
aleon	-11583
amedr	-11584
anics	-11585
arkey	-11586
arrar	-11587
chydd	-11588
ddodd	-11589
ebron	-11590
egano	-11591
enner	-11592
eresa	-11593
eshol	-11594
esiwn	-11595
etrau	-11596
field	-11597
ghlin	-11598
ingue	-11599
ipion	-11600
itrus	-11601
noedd	-11602
onges	-11603
opher	-11604
raeth	-11605
reded	-11606
regol	-11607
usins	-11608
wngau	-11609
ysiad	-11610
▁1.55	-11611
▁11.3	-11612
▁1472	-11613
▁15.1	-11614
▁164.	-11615
▁1891	-11616
▁1941	-11617
▁1948	-11618
▁1956	-11619
▁24.0	-11620
▁25.0	-11621
▁34.0	-11622
▁62.0	-11623
▁765.	-11624
▁9504	-11625
▁Aman	-11626
▁Ando	-11627
▁Bozo	-11628
▁Ddel	-11629
▁Derb	-11630
▁Dnip	-11631
▁Doom	-11632
▁Dydy	-11633
▁Ever	-11634
▁Ffoj	-11635
▁Ffot	-11636
▁Flem	-11637
▁Hock	-11638
▁Iros	-11639
▁Kate	-11640
▁Kill	-11641
▁LASK	-11642
▁Lane	-11643
▁Linz	-11644
▁Nola	-11645
▁Pant	-11646
▁Peşá	-11647
▁Prem	-11648
▁Rico	-11649
▁Rwsg	-11650
▁Saes	-11651
▁Sbra	-11652
▁Sell	-11653
▁Unes	-11654
▁Unff	-11655
▁Unig	-11656
▁Vigo	-11657
▁Wang	-11658
▁Wink	-11659
▁Wydd	-11660
▁Zwan	-11661
▁cott	-11662
▁eidd	-11663
▁ffyn	-11664
▁ffôn	-11665
▁glaw	-11666
▁gron	-11667
▁gryd	-11668
▁gwef	-11669
▁gwen	-11670
▁gwer	-11671
▁iobl	-11672
▁mein	-11673
▁mult	-11674
▁oddi	-11675
▁oher	-11676
▁olif	-11677
▁oren	-11678
▁plac	-11679
▁sgan	-11680
▁sgyl	-11681
▁trol	-11682
▁ymys	-11683
-17684	-11684
Echder	-11685
Shamal	-11686
aisand	-11687
alliga	-11688
eceddi	-11689
eddill	-11690
eniwyd	-11691
etcher	-11692
golygu	-11693
gyfans	-11694
inoedd	-11695
nesota	-11696
ofnodi	-11697
oligol	-11698
onaidd	-11699
pannas	-11700
rangeg	-11701
reidol	-11702
rester	-11703
rychol	-11704
uthale	-11705
wbaidd	-11706
wnaeth	-11707
wysiad	-11708
yfrydd	-11709
▁10237	-11710
▁1418.	-11711
▁18.09	-11712
▁1890.	-11713
▁19.94	-11714
▁1936.	-11715
▁1959,	-11716
▁1969,	-11717
▁1980.	-11718
▁1985,	-11719
▁2004-	-11720
▁37.16	-11721
▁3800.	-11722
▁535.0	-11723
▁755.3	-11724
▁Anzio	-11725
▁Arist	-11726
▁Bronz	-11727
▁Cello	-11728
▁Chuck	-11729
▁Clocb	-11730
▁Drake	-11731
▁EISSN	-11732
▁Erosi	-11733
▁Fflem	-11734
▁Ffrâm	-11735
▁Istod	-11736
▁Josef	-11737
▁Leeds	-11738
▁Llwyd	-11739
▁Minas	-11740
▁Mount	-11741
▁Nidol	-11742
▁Orfeo	-11743
▁Perez	-11744
▁Pilot	-11745
▁Point	-11746
▁Ricky	-11747
▁Rwyth	-11748
▁Saint	-11749
▁Tabak	-11750
▁Tadao	-11751
▁Temer	-11752
▁Weith	-11753
▁Wärts	-11754
▁Zamba	-11755
▁anfon	-11756
▁argyf	-11757
▁brwyr	-11758
▁bwngw	-11759
▁carib	-11760
▁cofaf	-11761
▁comet	-11762
▁ddyni	-11763
▁diwng	-11764
▁gwasb	-11765
▁lansu	-11766
▁mwyni	-11767
▁oeded	-11768
▁perol	-11769
▁rythm	-11770
▁short	-11771
▁super	-11772
▁yeddi	-11773
Associa	-11774
Astérix	-11775
Georgia	-11776
comflot	-11777
eiddeid	-11778
ellfell	-11779
ennaeth	-11780
etrovsk	-11781
glwyddi	-11782
ianaidd	-11783
kenhead	-11784
leoliad	-11785
oneiche	-11786
wediwyd	-11787
▁0.0348	-11788
▁03/21.	-11789
▁146110	-11790
▁185.42	-11791
▁2160.0	-11792
▁497.0.	-11793
▁518.0.	-11794
▁597.0.	-11795
▁Argymg	-11796
▁Bridge	-11797
▁Citrus	-11798
▁Codiad	-11799
▁Cwmpas	-11800
▁Cyflau	-11801
▁Cymryd	-11802
▁Dimmit	-11803
▁Farrar	-11804
▁Ffineg	-11805
▁Ffongl	-11806
▁Ffrith	-11807
▁Forest	-11808
▁Foster	-11809
▁Gators	-11810
▁Giroux	-11811
▁Golygu	-11812
▁Gyrryd	-11813
▁Hardie	-11814
▁Inkpot	-11815
▁Lansor	-11816
▁Llyfrc	-11817
▁Maesau	-11818
▁Maleia	-11819
▁Mwyryd	-11820
▁Paraná	-11821
▁Penins	-11822
▁Puroch	-11823
▁Rhywir	-11824
▁Script	-11825
▁Shinzo	-11826
▁Sipilä	-11827
▁Straus	-11828
▁Unorol	-11829
▁Wyddor	-11830
▁Zaanst	-11831
▁amerik	-11832
▁argrau	-11833
▁borsal	-11834
▁bwyser	-11835
▁cafodd	-11836
▁codiau	-11837
▁cofryf	-11838
▁cyfrin	-11839
▁cyfryd	-11840
▁cyfrym	-11841
▁ddiofn	-11842
▁ddyfru	-11843
▁genryd	-11844
▁gwrthn	-11845
▁hynedd	-11846
▁lliwio	-11847
▁llwydd	-11848
▁llygod	-11849
▁myysgu	-11850
▁piperi	-11851
▁record	-11852
▁reshol	-11853
▁române	-11854
▁sefrif	-11855
▁sgradd	-11856
▁siecyn	-11857
▁syddod	-11858
▁trafnu	-11859
▁twrceg	-11860
▁ymgynn	-11861
▁ymyrch	-11862
/03/1983	-11863
01-8392"	-11864
Americai	-11865
Weymouth	-11866
allistic	-11867
angkabau	-11868
angoswyd	-11869
cyfanswm	-11870
esteapta	-11871
▁1800.0.	-11872
▁1923-11	-11873
▁2014-10	-11874
▁2014–15	-11875
▁2368.05	-11876
▁3360.12	-11877
▁3500.0.	-11878
▁8805735	-11879
▁Acadedi	-11880
▁Alvarez	-11881
▁Barisan	-11882
▁Brenner	-11883
▁Bryning	-11884
▁Bwlodol	-11885
▁Bylchol	-11886
▁Cafafau	-11887
▁Cousins	-11888
▁Datblyg	-11889
▁Delfino	-11890
▁Dniprop	-11891
▁Eidalig	-11892
▁Everett	-11893
▁Ffforol	-11894
▁Graddol	-11895
▁Gyrchyn	-11896
▁Iyrddir	-11897
▁Llywydd	-11898
▁Nugenre	-11899
▁Pescara	-11900
▁Premier	-11901
▁Qarabağ	-11902
▁Sbragia	-11903
▁Theresa	-11904
▁Unoledd	-11905
▁Winkler	-11906
▁Wreidol	-11907
▁arbedwr	-11908
▁argylch	-11909
▁arthnas	-11910
▁blaendr	-11911
▁bodhrán	-11912
▁bwylwyr	-11913
▁coconod	-11914
▁cottage	-11915
▁cwaredd	-11916
▁cyswydd	-11917
▁ddebain	-11918
▁defnydd	-11919
▁draffru	-11920
▁effaith	-11921
▁elysgol	-11922
▁fetaetr	-11923
▁ffojell	-11924
▁gategor	-11925
▁graffor	-11926
▁gwaredu	-11927
▁hywneud	-11928
▁llyfysg	-11929
▁llyngau	-11930
▁peilydd	-11931
▁penniad	-11932
▁penodol	-11933
▁pewlion	-11934
▁porffor	-11935
▁rashher	-11936
▁siariau	-11937
▁soligol	-11938
▁strwyth	-11939
▁syddodd	-11940
▁yngrydd	-11941
Alligator	-11942
ilometrau	-11943
lleoliwyd	-11944
ryddiaeth	-11945
ythrennau	-11946
▁1865-878	-11947
▁3078.48.	-11948
▁78771100	-11949
▁Awcnoleg	-11950
▁Canolydd	-11951
▁Cyflaeth	-11952
▁Dinasydd	-11953
▁Dyddedol	-11954
▁Electrol	-11955
▁Fletcher	-11956
▁Germania	-11957
▁Gronfais	-11958
▁Mamnight	-11959
▁Meringue	-11960
▁Mularkey	-11961
▁Paramedr	-11962
▁Rheolydd	-11963
▁Rhyddydd	-11964
▁Swyddydd	-11965
▁Unedigol	-11966
▁Weithfan	-11967
▁Wneudwyd	-11968
▁Wärtsilä	-11969
▁Ymysgrif	-11970
▁adeilion	-11971
▁anhysbys	-11972
▁cofnodio	-11973
▁cydranni	-11974
▁cyfesydd	-11975
▁cyflunio	-11976
▁ffrangeg	-11977
▁ganfodir	-11978
▁garnison	-11979
▁gorchmyn	-11980
▁gyfansod	-11981
▁gysgannu	-11982
▁iaithiau	-11983
▁llyfrwng	-11984
▁oherwydd	-11985
▁penipion	-11986
▁peyddion	-11987
▁sandwich	-11988
▁ygeniwyd	-11989
Asociación	-11990
enburgbaan	-11991
ylliniaeth	-11992
▁0567-7920	-11993
▁1932-07-2	-11994
▁380700000	-11995
▁399710000	-11996
▁488160.0.	-11997
▁78771100.	-11998
▁87000823.	-11999
▁88002539.	-12000
▁90640840.	-12001
▁Academiad	-12002
▁Andersson	-12003
▁Arwyddwyr	-12004
▁Brithrydd	-12005
▁Canserydd	-12006
▁Cyfeirnod	-12007
▁Cyfesurdd	-12008
▁Cyffredig	-12009
▁Cyfrannol	-12010
▁Cyfresydd	-12011
▁Cymylwydd	-12012
▁Forrester	-12013
▁Geraisand	-12014
▁Gravesham	-12015
▁Haputhale	-12016
▁Matchstik	-12017
▁Mechanics	-12018
▁Minnesota	-12019
▁Pantaleon	-12020
▁Unidynedd	-12021
▁Unoligion	-12022
▁amnewidol	-12023
▁artistion	-12024
▁arwyddion	-12025
▁blaenorod	-12026
▁chwyddiol	-12027
▁cyfaniant	-12028
▁cyffredig	-12029
▁cymgyniad	-12030
▁ddewisiad	-12031
▁diweddodd	-12032
▁dreientau	-12033
▁ffwythiad	-12034
▁fynhyrchu	-12035
▁garnisiad	-12036
▁gwreiddol	-12037
▁gwreidiau	-12038
▁gyffredol	-12039
▁gynoddiad	-12040
▁llyfrwydd	-12041
▁mylwyddol	-12042
▁prifnogal	-12043
▁sefydigol	-12044
▁teclynnau	-12045
▁weithriad	-12046
▁ymgylchol	-12047
Association	-12048
Gweithredol	-12049
dynhyrhyrch	-12050
▁10.264,000	-12051
▁10/03/1983	-12052
▁1360-0443.	-12053
▁2006-12-31	-12054
▁441092000.	-12055
▁7715100000	-12056
▁8788850000	-12057
▁Asociacion	-12058
▁Birkenhead	-12059
▁Cyflwybydd	-12060
▁Gwefyddydd	-12061
▁Gweithredo	-12062
▁Gweithrydd	-12063
▁Gwerthiant	-12064
▁Gwrthdwydd	-12065
▁Gwyddonion	-12066
▁Kashwbaidd	-12067
▁Sapindales	-12068
▁Schoneiche	-12069
▁Sgolyddion	-12070
▁Sociaethol	-12071
▁Sovcomflot	-12072
▁Zaanstreek	-12073
▁adeiladwyd	-12074
▁amgylchiad	-12075
▁archifredu	-12076
▁arsyllunio	-12077
▁ddisgolygu	-12078
▁ddyrhyrchu	-12079
▁ddywyddodd	-12080
▁derbyniwyd	-12081
▁diweddwedd	-12082
▁ganwyddedd	-12083
▁herwyddydd	-12084
▁llyfraddio	-12085
▁prifyddydd	-12086
▁proffesiwn	-12087
▁shortcrust	-12088
▁solanaceae	-12089
ysgrifennwyd	-12090
▁"0001-8392"	-12091
▁01-01-1913,	-12092
▁01-01-1959.	-12093
▁1930-01-20.	-12094
▁1939-01-03,	-12095
▁296521000.0	-12096
▁371240000.0	-12097
▁7729430000.	-12098
▁Christopher	-12099
▁Cyfansodwyd	-12100
▁Cyferyddion	-12101
▁Eidalionion	-12102
▁Minangkabau	-12103
▁Springfield	-12104
▁canlinellau	-12105
▁ffonglwyddo	-12106
▁gyfartaledd	-12107
▁penfanfanol	-12108
▁ymblwyddwyd	-12109
▁"0-374-26131	-12110
▁$556,300000.	-12111
▁10264000000.	-12112
▁Affricaiddig	-12113
▁Ddianibiaeth	-12114
▁Gweithredwyd	-12115
▁Gwychbwyniad	-12116
▁Gyswyddiaeth	-12117
▁Roeddlaethol	-12118
▁cymorthiaeth	-12119
▁ddisgillinol	-12120
▁gyfansoddiad	-12121
▁meddalweddau	-12122
▁ymgychwynwyd	-12123
▁0-439-17684-0	-12124
▁3997100000000	-12125
▁Cyfreithiadau	-12126
▁Gweithwyddion	-12127
▁Sgwyddoniaeth	-12128
▁ymgymgyngdodi	-12129
▁1516.670000003	-12130
▁283326000000.0	-12131
▁352497000000.0	-12132
▁3997100000000.	-12133
▁Dnipropetrovsk	-12134
▁Llyfrgelliaeth	-12135
▁Zwanenburgbaan	-12136
▁ddisgilliniaid	-12137
▁drosglwyddiwyd	-12138
▁gweithrediadol	-12139
▁377016000000.0.	-12140
▁Socialistaethau	-12141
CE	-12142
LK	-12143
Or	-12144
ZF	-12145
ft	-12146
hb	-12147
ly	-12148
-19	-12149
.),	-12150
04.	-12151
201	-12152
202	-12153
31.	-12154
434	-12155
58.	-12156
6.1	-12157
94.	-12158
968	-12159
ACY	-12160
Dra	-12161
Eng	-12162
ICE	-12163
Pol	-12164
Squ	-12165
Yol	-12166
aak	-12167
bio	-12168
bus	-12169
dau	-12170
del	-12171
eez	-12172
ekt	-12173
emi	-12174
ews	-12175
hyd	-12176
inb	-12177
irt	-12178
ism	-12179
lly	-12180
mni	-12181
oth	-12182
rep	-12183
saw	-12184
wio	-12185
wll	-12186
yed	-12187
ött	-12188
▁02	-12189
▁32	-12190
▁Ea	-12191
▁Gm	-12192
▁JP	-12193
▁Rw	-12194
▁TS	-12195
▁Wc	-12196
▁XM	-12197
▁Ys	-12198
▁ZF	-12199
▁cc	-12200
▁ea	-12201
▁et	-12202
▁gm	-12203
▁ph	-12204
▁tu	-12205
▁wm	-12206
-02.	-12207
-18.	-12208
-28.	-12209
3.26	-12210
466.	-12211
487.	-12212
5294	-12213
58-3	-12214
8-11	-12215
953.	-12216
Cent	-12217
Mark	-12218
Wide	-12219
aaki	-12220
adau	-12221
adeh	-12222
agam	-12223
anen	-12224
asin	-12225
ated	-12226
ault	-12227
bert	-12228
cynt	-12229
dwyl	-12230
dwyo	-12231
egro	-12232
eine	-12233
eiri	-12234
elir	-12235
erig	-12236
ewdi	-12237
fael	-12238
fedr	-12239
ghan	-12240
gsta	-12241
gwyr	-12242
hbaz	-12243
iago	-12244
iaia	-12245
iman	-12246
inho	-12247
ithm	-12248
itle	-12249
ladd	-12250
leth	-12251
lubu	-12252
meer	-12253
mert	-12254
nall	-12255
ndau	-12256
neth	-12257
nwys	-12258
odir	-12259
olol	-12260
onse	-12261
orit	-12262
ould	-12263
ousi	-12264
ovao	-12265
post	-12266
quil	-12267
quir	-12268
rind	-12269
taly	-12270
tron	-12271
umpl	-12272
wbig	-12273
will	-12274
wyod	-12275
yana	-12276
ydlu	-12277
ymwn	-12278
yngr	-12279
ynni	-12280
ynyd	-12281
ysur	-12282
▁"87	-12283
▁-7,	-12284
▁08,	-12285
▁166	-12286
▁2.5	-12287
▁2.7	-12288
▁234	-12289
▁345	-12290
▁368	-12291
▁38.	-12292
▁5.7	-12293
▁524	-12294
▁7/2	-12295
▁714	-12296
▁800	-12297
▁83.	-12298
▁925	-12299
▁ABI	-12300
▁ASB	-12301
▁ATW	-12302
▁AWD	-12303
▁Ddu	-12304
▁Dir	-12305
▁Gem	-12306
▁Gwe	-12307
▁Jul	-12308
▁Kam	-12309
▁Kim	-12310
▁Lit	-12311
▁Lys	-12312
▁Oed	-12313
▁PAS	-12314
▁Pim	-12315
▁Rwm	-12316
▁SLK	-12317
▁Unr	-12318
▁VIH	-12319
▁awH	-12320
▁bwl	-12321
▁cwp	-12322
▁dis	-12323
▁fiz	-12324
▁ged	-12325
▁gol	-12326
▁kmr	-12327
▁lit	-12328
▁nnu	-12329
▁pol	-12330
▁rws	-12331
▁rys	-12332
▁taf	-12333
▁tor	-12334
-9327	-12335
12.31	-12336
25-58	-12337
7.14.	-12338
7116.	-12339
Alvin	-12340
Drake	-12341
Engle	-12342
Groeg	-12343
Porth	-12344
ablin	-12345
aenod	-12346
arcel	-12347
arlem	-12348
ashed	-12349
berly	-12350
class	-12351
edain	-12352
eezed	-12353
efror	-12354
efydd	-12355
eineg	-12356
ellit	-12357
elydd	-12358
ement	-12359
ennir	-12360
entel	-12361
faeth	-12362
incio	-12363
inoly	-12364
omato	-12365
onald	-12366
relly	-12367
roses	-12368
rwydd	-12369
stman	-12370
wyydd	-12371
yrydd	-12372
▁-71.	-12373
▁0252	-12374
▁0999	-12375
▁1.98	-12376
▁1533	-12377
▁1776	-12378
▁1855	-12379
▁1947	-12380
▁1973	-12381
▁25.2	-12382
▁28.0	-12383
▁2900	-12384
▁334.	-12385
▁346.	-12386
▁404.	-12387
▁470.	-12388
▁5.75	-12389
▁52.0	-12390
▁6.81	-12391
▁657,	-12392
▁734.	-12393
▁875,	-12394
▁Awgw	-12395
▁Bank	-12396
▁Carl	-12397
▁Cons	-12398
▁Dean	-12399
▁Deit	-12400
▁Disf	-12401
▁Enge	-12402
▁Erth	-12403
▁Fydd	-12404
▁Gior	-12405
▁Gysg	-12406
▁Gött	-12407
▁Lion	-12408
▁Llei	-12409
▁Magu	-12410
▁Maka	-12411
▁Myth	-12412
▁Olif	-12413
▁Pang	-12414
▁Rhag	-12415
▁Sill	-12416
▁Wirt	-12417
▁Wlad	-12418
▁Yemi	-12419
▁amod	-12420
▁ased	-12421
▁cedd	-12422
▁cedi	-12423
▁chwr	-12424
▁cwci	-12425
▁ench	-12426
▁engh	-12427
▁fhes	-12428
▁fysg	-12429
▁hard	-12430
▁hoff	-12431
▁iawn	-12432
▁larc	-12433
▁mynt	-12434
▁neto	-12435
▁pale	-12436
▁rech	-12437
▁rwan	-12438
▁siwn	-12439
▁unrh	-12440
▁weld	-12441
▁ychw	-12442
,720,7	-12443
000823	-12444
APGPAC	-12445
adegol	-12446
agamie	-12447
alaigh	-12448
anaidd	-12449
anerau	-12450
bynwyr	-12451
chwedi	-12452
efniad	-12453
eleine	-12454
icelli	-12455
inbajo	-12456
ingian	-12457
lander	-12458
liadol	-12459
noddol	-12460
ondiss	-12461
ordydd	-12462
rifiad	-12463
wngwng	-12464
wychol	-12465
yddiol	-12466
yrwydd	-12467
▁$108.	-12468
▁0236-	-12469
▁07/25	-12470
▁09/27	-12471
▁16.76	-12472
▁17.73	-12473
▁17.99	-12474
▁1904.	-12475
▁1910.	-12476
▁1911,	-12477
▁1913)	-12478
▁1921.	-12479
▁1927,	-12480
▁1930,	-12481
▁19880	-12482
▁1995,	-12483
▁2011,	-12484
▁33968	-12485
▁4000.	-12486
▁4387.	-12487
▁556.3	-12488
▁686.0	-12489
▁9953.	-12490
▁Amryd	-12491
▁Aquil	-12492
▁Arrow	-12493
▁Arwyr	-12494
▁Awyrd	-12495
▁Books	-12496
▁Bruce	-12497
▁Caflu	-12498
▁Cantù	-12499
▁Cofio	-12500
▁Coupe	-12501
▁EPSTH	-12502
▁Einho	-12503
▁Elkin	-12504
▁Frews	-12505
▁Guian	-12506
▁Hanes	-12507
▁Ismir	-12508
▁Italy	-12509
▁Klubu	-12510
▁Lloch	-12511
▁Morol	-12512
▁Motor	-12513
▁Mwyaf	-12514
▁Paras	-12515
▁Simon	-12516
▁Stars	-12517
▁Tiger	-12518
▁Tyrin	-12519
▁Valor	-12520
▁adref	-12521
▁aslic	-12522
▁bhaji	-12523
▁bylle	-12524
▁cedol	-12525
▁clofn	-12526
▁cyfru	-12527
▁dibyn	-12528
▁dinar	-12529
▁doedd	-12530
▁dredd	-12531
▁dumpl	-12532
▁elekt	-12533
▁fetau	-12534
▁fwyll	-12535
▁gandd	-12536
▁glawf	-12537
▁gludf	-12538
▁gosod	-12539
▁gwerb	-12540
▁gwmni	-12541
▁gywir	-12542
▁honed	-12543
▁hovao	-12544
▁hynor	-12545
▁iwrth	-12546
▁kilom	-12547
▁llygi	-12548
▁llywb	-12549
▁malai	-12550
▁mynba	-12551
▁padeh	-12552
▁partr	-12553
▁pecor	-12554
▁perau	-12555
▁porff	-12556
▁rhanu	-12557
▁title	-12558
▁wedyn	-12559
▁ychir	-12560
▁ymlaf	-12561
▁yngon	-12562
Duchere	-12563
atorion	-12564
barthol	-12565
eiddiad	-12566
eiladol	-12567
erfynol	-12568
ethiant	-12569
gyfyddi	-12570
iaethol	-12571
mermeer	-12572
oritner	-12573
osodiad	-12574
postela	-12575
quirari	-12576
rychiad	-12577
smashed	-12578
wyddiol	-12579
wyfaedd	-12580
▁$875,4	-12581
▁07.14.	-12582
▁140000	-12583
▁184434	-12584
▁192000	-12585
▁2014.0	-12586
▁2158-3	-12587
▁2215.0	-12588
▁253.26	-12589
▁2900.0	-12590
▁2989.0	-12591
▁3.3528	-12592
▁3.500.	-12593
▁3310.0	-12594
▁37116.	-12595
▁47487.	-12596
▁85466.	-12597
▁94531.	-12598
▁AAIDBI	-12599
▁Airbus	-12600
▁Ardwyr	-12601
▁Awyrol	-12602
▁Barcel	-12603
▁Barney	-12604
▁Breman	-12605
▁Cafons	-12606
▁Castal	-12607
▁Conges	-12608
▁Crespi	-12609
▁Criona	-12610
▁Cydran	-12611
▁Cyfarf	-12612
▁Cysawd	-12613
▁Desoto	-12614
▁Ffilib	-12615
▁Ffotol	-12616
▁Guyana	-12617
▁Hockey	-12618
▁Iroseg	-12619
▁Little	-12620
▁Moskog	-12621
▁Mughan	-12622
▁Pakora	-12623
▁Partit	-12624
▁Purple	-12625
▁Rhanil	-12626
▁Rhywyr	-12627
▁Rocket	-12628
▁Romain	-12629
▁Seffan	-12630
▁Spanol	-12631
▁Spañol	-12632
▁Sports	-12633
▁Tanaka	-12634
▁Tehran	-12635
▁Tomato	-12636
▁Tywyll	-12637
▁Vinoly	-12638
▁Warsaw	-12639
▁Ymryll	-12640
▁amlwyr	-12641
▁amynni	-12642
▁argyll	-12643
▁bachyn	-12644
▁bangra	-12645
▁blusau	-12646
▁borsaf	-12647
▁bwmpas	-12648
▁cefnod	-12649
▁chirir	-12650
▁chwedi	-12651
▁cwmpai	-12652
▁cydwyd	-12653
▁cymedd	-12654
▁darpar	-12655
▁dderby	-12656
▁ddisgu	-12657
▁ddiwng	-12658
▁diwydd	-12659
▁drefnu	-12660
▁drolch	-12661
▁drwydd	-12662
▁enurir	-12663
▁felipe	-12664
▁finiir	-12665
▁froddi	-12666
▁fynhoi	-12667
▁ganddi	-12668
▁gansel	-12669
▁gedaen	-12670
▁genres	-12671
▁golled	-12672
▁gronfa	-12673
▁gwrand	-12674
▁gyfrif	-12675
▁herwdd	-12676
▁iddiad	-12677
▁lansed	-12678
▁lansor	-12679
▁llwyth	-12680
▁llywau	-12681
▁multai	-12682
▁nudles	-12683
▁patryt	-12684
▁rapper	-12685
▁rhanau	-12686
▁rhanol	-12687
▁romano	-12688
▁should	-12689
▁siomay	-12690
▁string	-12691
▁syddai	-12692
▁tafell	-12693
▁wmddir	-12694
▁ymgyng	-12695
▁ymylon	-12696
-17684-0	-12697
Squeezed	-12698
asinense	-12699
kelvinau	-12700
ofnodiad	-12701
yanbarth	-12702
yrhyrchu	-12703
▁0025-58	-12704
▁13017.0	-12705
▁1974-08	-12706
▁2900.0.	-12707
▁4000.0.	-12708
▁Advance	-12709
▁Asiddeg	-12710
▁Assault	-12711
▁Awyrnod	-12712
▁Bawrceg	-12713
▁Bernard	-12714
▁Brydeeg	-12715
▁Caniant	-12716
▁Capital	-12717
▁Celsius	-12718
▁Cychwyn	-12719
▁Cylchal	-12720
▁Diliman	-12721
▁Ffinneg	-12722
▁Fflemeg	-12723
▁Gemmill	-12724
▁Giorgos	-12725
▁Gofodol	-12726
▁Haarlem	-12727
▁Japaneg	-12728
▁Kaminis	-12729
▁Lammert	-12730
▁Maguire	-12731
▁Marousi	-12732
▁Marwodd	-12733
▁Masaaki	-12734
▁Mathews	-12735
▁Methodd	-12736
▁Nardwyr	-12737
▁Niddiol	-12738
▁Norbert	-12739
▁Peninsa	-12740
▁Peşákar	-12741
▁Rhaniad	-12742
▁Rhedodd	-12743
▁Rwyrwyr	-12744
▁Scotteg	-12745
▁Sefydol	-12746
▁Shehbaz	-12747
▁Trydydd	-12748
▁Unithri	-12749
▁america	-12750
▁archifr	-12751
▁blwydau	-12752
▁brithyn	-12753
▁byrniad	-12754
▁cediant	-12755
▁chwneud	-12756
▁chwylch	-12757
▁cometig	-12758
▁cyfantf	-12759
▁cyfledd	-12760
▁cyfranu	-12761
▁cyfrifo	-12762
▁cynorol	-12763
▁darwodd	-12764
▁ddyniad	-12765
▁eithryd	-12766
▁ffathol	-12767
▁ffurfro	-12768
▁fyddwch	-12769
▁gangsta	-12770
▁golygyf	-12771
▁gryddir	-12772
▁gwaredd	-12773
▁gwasodd	-12774
▁gwrthwy	-12775
▁gwrwydd	-12776
▁gyfradd	-12777
▁gyrlwyr	-12778
▁hynhwys	-12779
▁labelau	-12780
▁milfedd	-12781
▁milimed	-12782
▁monarch	-12783
▁pefgell	-12784
▁perapsi	-12785
▁rwyddyn	-12786
▁sandwyr	-12787
▁seiliau	-12788
▁weddill	-12789
▁ymnoleg	-12790
▁ymysgri	-12791
▁ystrydd	-12792
0002-9327	-12793
Alvinegro	-12794
Atlantiol	-12795
etrovirus	-12796
odistrian	-12797
rhyrhyrch	-12798
▁1480153.	-12799
▁57059226	-12800
▁69862200	-12801
▁93645978	-12802
▁Addysgol	-12803
▁Alphonse	-12804
▁Aquilino	-12805
▁Balistic	-12806
▁Benjamin	-12807
▁Borrelly	-12808
▁Children	-12809
▁Comaracy	-12810
▁Cydbarth	-12811
▁Cyflaned	-12812
▁Cylchfan	-12813
▁Dhalaigh	-12814
▁Dhonnell	-12815
▁Disgrydd	-12816
▁Disgwyol	-12817
▁Einhoorn	-12818
▁Examiner	-12819
▁Ffantrym	-12820
▁Ffederal	-12821
▁Fflander	-12822
▁Gellfell	-12823
▁Gerstman	-12824
▁Gwrthnos	-12825
▁Kimberly	-12826
▁Laughlin	-12827
▁Mewyddor	-12828
▁Monaster	-12829
▁Museoedd	-12830
▁Osinbajo	-12831
▁Pimentel	-12832
▁Porthric	-12833
▁Rhoeddol	-12834
▁Santiago	-12835
▁Satellit	-12836
▁Sbaesneg	-12837
▁Schuster	-12838
▁Symudedd	-12839
▁Terfynol	-12840
▁Tywyddol	-12841
▁Wirtanen	-12842
▁Ymlaenod	-12843
▁amgylchd	-12844
▁amgypsis	-12845
▁bresiddi	-12846
▁brysurio	-12847
▁bwyntiau	-12848
▁chwyrddi	-12849
▁cwediant	-12850
▁cyfrydol	-12851
▁ddinasir	-12852
▁ddymylch	-12853
▁eidalidd	-12854
▁ffatriad	-12855
▁ffopedol	-12856
▁ffuglach	-12857
▁fyddedol	-12858
▁gwainydd	-12859
▁gwaredig	-12860
▁gwynnwys	-12861
▁ioblanco	-12862
▁lleoliol	-12863
▁marblwyr	-12864
▁pecorino	-12865
▁penbodol	-12866
▁penfanol	-12867
▁pwysigol	-12868
▁rhyngofn	-12869
▁rhythmau	-12870
▁seillwyr	-12871
▁sgylfael	-12872
▁syddrydd	-12873
▁synthpop	-12874
▁weithfan	-12875
gyffrediad	-12876
yrhyrhyrch	-12877
▁"87000823	-12878
▁1360-0443	-12879
▁1891-05-2	-12880
▁1989-02-2	-12881
▁3.992.88.	-12882
▁318875313	-12883
▁32024459.	-12884
▁324,720,7	-12885
▁Arrondiss	-12886
▁Arsylwydd	-12887
▁Balingian	-12888
▁Ballistic	-12889
▁Barcelona	-12890
▁Brasilion	-12891
▁Broddogol	-12892
▁Bwrthdodd	-12893
▁Cofnoddol	-12894
▁Cyfeceddi	-12895
▁Cyfluniad	-12896
▁Ddisbarth	-12897
▁Ddisodiad	-12898
▁Disgysgol	-12899
▁Ffilifino	-12900
▁Ffrwydron	-12901
▁Grwyddiad	-12902
▁Gwneudodd	-12903
▁Göttingen	-12904
▁Lladdodol	-12905
▁Lleoeddau	-12906
▁Madeleine	-12907
▁Rwyddoedd	-12908
▁Saesnegol	-12909
▁Superleag	-12910
▁Taquirari	-12911
▁Tywynoedd	-12912
▁Unedoledd	-12913
▁arwylwodd	-12914
▁bresgyrdd	-12915
▁chwyddydd	-12916
▁cyffredin	-12917
▁cyfrifiad	-12918
▁cyfryddog	-12919
▁cyfrywydd	-12920
▁cyfyddiad	-12921
▁dangoswyd	-12922
▁dyfeisiau	-12923
▁elwyddion	-12924
▁ethnyddol	-12925
▁gwirioedd	-12926
▁gynodwedd	-12927
▁gynrywydd	-12928
▁parlament	-12929
▁penfanfan	-12930
▁rhyngradd	-12931
▁terfynodd	-12932
▁ychwyddol	-12933
▁ymddirodd	-12934
▁ynaithwyd	-12935
▁1558-2868.	-12936
▁1800000000	-12937
▁1865-8784.	-12938
▁1959-01-01	-12939
▁2006.12.31	-12940
▁331683000.	-12941
▁439-92550-	-12942
▁AEthelwald	-12943
▁Americanas	-12944
▁Americegau	-12945
▁Compostela	-12946
▁Cuttlefish	-12947
▁Cyfesurydd	-12948
▁Cyfrifiant	-12949
▁Cyfyddeddi	-12950
▁Cyfyddiant	-12951
▁Favoritner	-12952
▁Federalism	-12953
▁Ffilipineg	-12954
▁Llyfrnodau	-12955
▁Primerwydd	-12956
▁Retrovirus	-12957
▁Rhyngwngol	-12958
▁Romanesque	-12959
▁Rwyddiadau	-12960
▁Vermicelli	-12961
▁adeiladion	-12962
▁amgryptiol	-12963
▁chanseliwr	-12964
▁chânyddydd	-12965
▁cymorthwyo	-12966
▁cynllunodd	-12967
▁ddarparodd	-12968
▁ddiweddaru	-12969
▁digwyddiad	-12970
▁digwyddodd	-12971
▁dilyniadwy	-12972
▁dosbarthwr	-12973
▁ffynhannol	-12974
▁grafforddi	-12975
▁gychwynodd	-12976
▁gyffrediad	-12977
▁gyhoeddiad	-12978
▁gynnyddiwr	-12979
▁llywyddion	-12980
▁mynwyddion	-12981
▁poblwysedd	-12982
▁translated	-12983
▁ychwanegwr	-12984
▁ymddechrau	-12985
▁ymgynnogol	-12986
▁ymysgoledd	-12987
▁01-01-2000.	-12988
▁1907-07-11)	-12989
▁1913-01-01,	-12990
▁1920-08-16.	-12991
▁1932-07-27.	-12992
▁2009-04-04.	-12993
▁2014-10-28.	-12994
▁211.200000.	-12995
▁31.12.2006.	-12996
▁556,300000.	-12997
▁Academiaeth	-12998
▁Academicals	-12999
▁Ffforffegol	-13000
▁Gwychwyniad	-13001
▁Gwyseiddeid	-13002
▁Kashubiaeth	-13003
▁darfysgogol	-13004
▁ddarllenwyd	-13005
▁ddisgryptio	-13006
▁defnyddiwyd	-13007
▁golygyddion	-13008
▁gweinyddwyd	-13009
▁preffefniad	-13010
▁statwsysgol	-13011
▁weithredydd	-13012
▁135589000.0,	-13013
▁183309000.0,	-13014
▁Affricaethol	-13015
▁Cyfansoddiad	-13016
▁Darfraddiwyd	-13017
▁Ffontryddion	-13018
▁Gwrthwniaeth	-13019
▁Monarchiaeth	-13020
▁Pangasinense	-13021
▁amgryptiadol	-13022
▁dreinwyddion	-13023
▁paleontology	-13024
▁ymgychwynodd	-13025
▁ymysgysylltu	-13026
dynhyrhyrchwyd	-13027
▁41498400000.0	-13028
▁445895000000.	-13029
▁6700000000003	-13030
▁Affricaiddiau	-13031
▁"0-374-26131-8	-13032
▁377016000000.0	-13033
▁416136000000.0	-13034
▁6155910000000.	-13035
▁Arrondissement	-13036
▁Dynrychiolaeth	-13037
▁Gweithredolydd	-13038
▁Haarlemmermeer	-13039
▁Sgoliaethiaeth	-13040
▁ffuglwngwladol	-13041
▁preffectoraeth	-13042
▁Ddansiaethiaeth	-13043
▁ddisgylliniaeth	-13044
";	-13045
#:	-13046
//	-13047
3)	-13048
44	-13049
5"	-13050
53	-13051
86	-13052
9"	-13053
AZ	-13054
EG	-13055
In	-13056
OB	-13057
UP	-13058
Ur	-13059
Yn	-13060
bn	-13061
du	-13062
eh	-13063
ko	-13064
ku	-13065
la	-13066
sr	-13067
ty	-13068
we	-13069
ww	-13070
âl	-13071
âs	-13072
ém	-13073
▁%	-13074
▁É	-13075
'),	-13076
/10	-13077
/31	-13078
032	-13079
188	-13080
28.	-13081
529	-13082
632	-13083
678	-13084
7,1	-13085
7.7	-13086
800	-13087
://	-13088
;",	-13089
Ajo	-13090
Cal	-13091
Diy	-13092
EAT	-13093
Lam	-13094
Mer	-13095
Tao	-13096
aed	-13097
ajw	-13098
alt	-13099
alu	-13100
arn	-13101
boj	-13102
bwy	-13103
ear	-13104
eav	-13105
ece	-13106
erv	-13107
gau	-13108
hle	-13109
loo	-13110
mad	-13111
med	-13112
nir	-13113
ofd	-13114
ove	-13115
ret	-13116
ttp	-13117
ure	-13118
ury	-13119
viy	-13120
wel	-13121
wst	-13122
www	-13123
áil	-13124
▁"2	-13125
▁(1	-13126
▁7,	-13127
▁Bi	-13128
▁By	-13129
▁Bă	-13130
▁CF	-13131
▁CT	-13132
▁Dc	-13133
▁GR	-13134
▁Ia	-13135
▁Iv	-13136
▁Mk	-13137
▁PA	-13138
▁PR	-13139
▁Pa	-13140
▁Pp	-13141
▁VW	-13142
▁WI	-13143
▁Yl	-13144
▁ft	-13145
▁hi	-13146
▁nu	-13147
▁ur	-13148
-03.	-13149
/199	-13150
/33.	-13151
11.0	-13152
226.	-13153
332.	-13154
833,	-13155
867.	-13156
873.	-13157
Bewr	-13158
Fort	-13159
Page	-13160
Wash	-13161
adrh	-13162
aged	-13163
akal	-13164
anch	-13165
ange	-13166
ansa	-13167
ario	-13168
asca	-13169
bler	-13170
bloi	-13171
coff	-13172
diad	-13173
ealy	-13174
eder	-13175
eini	-13176
ener	-13177
enko	-13178
enor	-13179
ever	-13180
fawr	-13181
forn	-13182
gham	-13183
giad	-13184
iadu	-13185
ican	-13186
inae	-13187
ique	-13188
luch	-13189
mini	-13190
nith	-13191
nwyd	-13192
odon	-13193
redo	-13194
repa	-13195
rica	-13196
rity	-13197
rwyr	-13198
ryfa	-13199
ryri	-13200
serv	-13201
sila	-13202
soli	-13203
tuti	-13204
uban	-13205
utal	-13206
with	-13207
xury	-13208
ygyg	-13209
ymau	-13210
yrdd	-13211
▁"0-	-13212
▁"03	-13213
▁"05	-13214
▁"15	-13215
▁-8.	-13216
▁1.0	-13217
▁11-	-13218
▁14,	-13219
▁179	-13220
▁181	-13221
▁2/2	-13222
▁214	-13223
▁22-	-13224
▁304	-13225
▁334	-13226
▁46.	-13227
▁497	-13228
▁5.5	-13229
▁5.6	-13230
▁505	-13231
▁618	-13232
▁744	-13233
▁763	-13234
▁9.8	-13235
▁Bys	-13236
▁Cos	-13237
▁Ddi	-13238
▁Dos	-13239
▁Eff	-13240
▁FSV	-13241
▁Hil	-13242
▁Jes	-13243
▁LEG	-13244
▁Las	-13245
▁Nue	-13246
▁RAM	-13247
▁Run	-13248
▁Von	-13249
▁abe	-13250
▁cef	-13251
▁dal	-13252
▁gwl	-13253
▁han	-13254
▁hyg	-13255
▁idd	-13256
▁inf	-13257
▁isd	-13258
▁kad	-13259
▁leg	-13260
▁nôl	-13261
▁orf	-13262
▁pum	-13263
▁rho	-13264
▁rwr	-13265
▁tan	-13266
▁tom	-13267
▁was	-13268
▁ôlb	-13269
-04-1	-13270
-07-1	-13271
-09-2	-13272
2014.	-13273
5.33.	-13274
5294.	-13275
7.76.	-13276
Calif	-13277
Cyfes	-13278
Diyos	-13279
Jaish	-13280
North	-13281
ached	-13282
agoas	-13283
alion	-13284
anddo	-13285
arhus	-13286
astri	-13287
aulif	-13288
betti	-13289
chwyd	-13290
dilyn	-13291
eddol	-13292
eeney	-13293
eiddi	-13294
eirir	-13295
ersea	-13296
ervat	-13297
golol	-13298
idiau	-13299
igion	-13300
illas	-13301
inder	-13302
iness	-13303
iogel	-13304
iplin	-13305
iriau	-13306
karia	-13307
lennu	-13308
lwybr	-13309
ocell	-13310
prydd	-13311
raith	-13312
rania	-13313
thwyr	-13314
udies	-13315
urity	-13316
ustry	-13317
weith	-13318
wydau	-13319
wyleg	-13320
yddog	-13321
ylgyr	-13322
ynnir	-13323
ysawd	-13324
ysydd	-13325
▁0112	-13326
▁11/0	-13327
▁1411	-13328
▁168"	-13329
▁168)	-13330
▁1793	-13331
▁1853	-13332
▁1873	-13333
▁1875	-13334
▁1960	-13335
▁1964	-13336
▁1972	-13337
▁2002	-13338
▁2215	-13339
▁24.4	-13340
▁2953	-13341
▁2989	-13342
▁330.	-13343
▁3301	-13344
▁3678	-13345
▁458.	-13346
▁7202	-13347
▁737,	-13348
▁8.0.	-13349
▁8002	-13350
▁82.8	-13351
▁96.1	-13352
▁Asyn	-13353
▁Atty	-13354
▁Bawl	-13355
▁CDTE	-13356
▁Capé	-13357
▁Coat	-13358
▁Cynh	-13359
▁Disb	-13360
▁Dáil	-13361
▁Ecol	-13362
▁Erie	-13363
▁Exch	-13364
▁Eyed	-13365
▁Falk	-13366
▁Fath	-13367
▁Fire	-13368
▁Fold	-13369
▁Folk	-13370
▁Glud	-13371
▁Gwas	-13372
▁Iron	-13373
▁July	-13374
▁KACY	-13375
▁Kins	-13376
▁Lawr	-13377
▁Llyn	-13378
▁Loch	-13379
▁MacD	-13380
▁Oedd	-13381
▁Othm	-13382
▁Peas	-13383
▁Peña	-13384
▁Pork	-13385
▁Pref	-13386
▁Rajw	-13387
▁Ramu	-13388
▁Reth	-13389
▁SEAT	-13390
▁Smil	-13391
▁Tory	-13392
▁Traw	-13393
▁Tyst	-13394
▁Weav	-13395
▁Whig	-13396
▁Wrth	-13397
▁Yngh	-13398
▁aith	-13399
▁amla	-13400
▁arno	-13401
▁bant	-13402
▁beth	-13403
▁calf	-13404
▁chân	-13405
▁cmsr	-13406
▁cwng	-13407
▁cyng	-13408
▁ddyr	-13409
▁drum	-13410
▁enir	-13411
▁enur	-13412
▁grer	-13413
▁gysg	-13414
▁hewn	-13415
▁inch	-13416
▁kmir	-13417
▁llai	-13418
▁lwyd	-13419
▁matr	-13420
▁mwys	-13421
▁neis	-13422
▁regg	-13423
▁rwyd	-13424
▁rydd	-13425
▁saes	-13426
▁seff	-13427
▁seri	-13428
▁sero	-13429
▁sied	-13430
▁smed	-13431
▁syng	-13432
▁talu	-13433
▁tard	-13434
▁unen	-13435
▁ylau	-13436
▁ymde	-13437
▁ystr	-13438
▁Éire	-13439
/1987.	-13440
/1989.	-13441
Poland	-13442
abansa	-13443
akalik	-13444
anchen	-13445
aroeth	-13446
asurol	-13447
barnas	-13448
deliel	-13449
ecture	-13450
eiriau	-13451
erigas	-13452
gipane	-13453
griant	-13454
hammad	-13455
izeith	-13456
lwydol	-13457
metrau	-13458
neuddi	-13459
oddiol	-13460
osodol	-13461
raifft	-13462
rywiad	-13463
seilio	-13464
soliwt	-13465
webron	-13466
wickau	-13467
willig	-13468
wrthod	-13469
wyboda	-13470
wyledd	-13471
wylwyr	-13472
wythol	-13473
ysgrif	-13474
▁04/22	-13475
▁07/23	-13476
▁1,533	-13477
▁108.6	-13478
▁1080.	-13479
▁16/34	-13480
▁1634,	-13481
▁168".	-13482
▁1776.	-13483
▁184.0	-13484
▁1857,	-13485
▁1872.	-13486
▁1873.	-13487
▁1878.	-13488
▁1907,	-13489
▁1910,	-13490
▁1925.	-13491
▁1932)	-13492
▁1933,	-13493
▁1968.	-13494
▁1971,	-13495
▁1976,	-13496
▁1979,	-13497
▁1990,	-13498
▁214.0	-13499
▁306.0	-13500
▁346.0	-13501
▁47055	-13502
▁66391	-13503
▁733.0	-13504
▁746.0	-13505
▁8.33.	-13506
▁9000,	-13507
▁911.0	-13508
▁94531	-13509
▁Apium	-13510
▁Arall	-13511
▁Arepa	-13512
▁Artyr	-13513
▁Asiad	-13514
▁Baged	-13515
▁Bakou	-13516
▁Balan	-13517
▁Banjo	-13518
▁Bible	-13519
▁Bălan	-13520
▁Corff	-13521
▁Cytta	-13522
▁Dance	-13523
▁Ddant	-13524
▁Forth	-13525
▁Heced	-13526
▁Iselr	-13527
▁Ivkov	-13528
▁Lemon	-13529
▁Lluch	-13530
▁Lwyol	-13531
▁Malik	-13532
▁Memof	-13533
▁Perch	-13534
▁Pound	-13535
▁Prior	-13536
▁Quinn	-13537
▁Rican	-13538
▁Sosod	-13539
▁Water	-13540
▁Wever	-13541
▁barni	-13542
▁basil	-13543
▁bloue	-13544
▁bwydd	-13545
▁bwysb	-13546
▁byrdo	-13547
▁bywll	-13548
▁cefyd	-13549
▁ceith	-13550
▁cuban	-13551
▁cwedi	-13552
▁cywir	-13553
▁dalen	-13554
▁ddech	-13555
▁dwyll	-13556
▁dyfôn	-13557
▁dylid	-13558
▁ewyau	-13559
▁ffrid	-13560
▁ffuno	-13561
▁fwynt	-13562
▁gilfa	-13563
▁gradi	-13564
▁grwyd	-13565
▁gydol	-13566
▁gynfa	-13567
▁gyrni	-13568
▁ligau	-13569
▁ligeg	-13570
▁medel	-13571
▁mynyn	-13572
▁oesel	-13573
▁peres	-13574
▁pwybr	-13575
▁pwynt	-13576
▁regio	-13577
▁teofn	-13578
▁trane	-13579
▁unigl	-13580
▁ychaf	-13581
▁ynddo	-13582
-17685-	-13583
Lambien	-13584
Livorno	-13585
Merrikh	-13586
angrydd	-13587
anspace	-13588
brydeig	-13589
ddogwyd	-13590
derbaan	-13591
ediadau	-13592
eiririr	-13593
eithiol	-13594
ellenig	-13595
ibynedd	-13596
iladwyd	-13597
orddiad	-13598
oriaeth	-13599
ostbaan	-13600
utalist	-13601
viyenko	-13602
wblwydd	-13603
wsiaidd	-13604
wyddwyr	-13605
yrchydd	-13606
▁"0-439	-13607
▁"0236-	-13608
▁$380,7	-13609
▁0.0999	-13610
▁1.873.	-13611
▁15/33.	-13612
▁2194.0	-13613
▁2744.0	-13614
▁3.990.	-13615
▁374976	-13616
▁39332.	-13617
▁9.833,	-13618
▁Acarya	-13619
▁Addysg	-13620
▁Africa	-13621
▁Amateg	-13622
▁Amrydd	-13623
▁Awstod	-13624
▁Blanco	-13625
▁Bronze	-13626
▁Chwith	-13627
▁Cânydd	-13628
▁Dablin	-13629
▁Ddeith	-13630
▁Ddifol	-13631
▁Ddledd	-13632
▁Ddwyaf	-13633
▁Dechyg	-13634
▁Disgol	-13635
▁Gafodd	-13636
▁Golffl	-13637
▁Grwydd	-13638
▁Gwyrdd	-13639
▁Gysgyn	-13640
▁Hunter	-13641
▁Iseleg	-13642
▁Iyrreg	-13643
▁Lladon	-13644
▁Lleiol	-13645
▁Luxury	-13646
▁Magist	-13647
▁Nodles	-13648
▁Observ	-13649
▁Pached	-13650
▁Persea	-13651
▁Picard	-13652
▁Pryngr	-13653
▁Romani	-13654
▁Romero	-13655
▁Runway	-13656
▁Seilad	-13657
▁Senedr	-13658
▁Sgolol	-13659
▁Sgwydd	-13660
▁Talaba	-13661
▁Tories	-13662
▁Twrcec	-13663
▁Unesol	-13664
▁Ymgymg	-13665
▁adnodd	-13666
▁archit	-13667
▁argymg	-13668
▁arthyn	-13669
▁bresin	-13670
▁brifan	-13671
▁broses	-13672
▁cadwfa	-13673
▁caulif	-13674
▁chwych	-13675
▁cwblio	-13676
▁cyfaru	-13677
▁cyfern	-13678
▁cyflun	-13679
▁cysbys	-13680
▁ddelin	-13681
▁ddemon	-13682
▁ddiasg	-13683
▁dilyni	-13684
▁echeol	-13685
▁efapsi	-13686
▁enurio	-13687
▁farwau	-13688
▁farwyl	-13689
▁ffatri	-13690
▁ffocws	-13691
▁fnewdi	-13692
▁fwydno	-13693
▁fyddfa	-13694
▁fyddir	-13695
▁fyddro	-13696
▁gluden	-13697
▁gwelwr	-13698
▁hydrau	-13699
▁ibrill	-13700
▁lligon	-13701
▁llyman	-13702
▁lyddir	-13703
▁orffen	-13704
▁partoy	-13705
▁pastri	-13706
▁pennig	-13707
▁peynes	-13708
▁pwyleg	-13709
▁reolol	-13710
▁rhannu	-13711
▁romane	-13712
▁sefodd	-13713
▁syddau	-13714
▁syddes	-13715
▁tefydd	-13716
▁ymegyn	-13717
▁ysoedd	-13718
brydeith	-13719
cyfynnir	-13720
eiriadur	-13721
ghampara	-13722
gryddwyd	-13723
iadlaeth	-13724
iogelwch	-13725
orchymyn	-13726
rhyrchau	-13727
rifennol	-13728
wyddiwyd	-13729
ysgysgol	-13730
▁03/04/1	-13731
▁1533.0.	-13732
▁165.33.	-13733
▁2004-12	-13734
▁2744.0.	-13735
▁2777.0.	-13736
▁3078.48	-13737
▁336265,	-13738
▁3400.0.	-13739
▁4100.0.	-13740
▁4387.00	-13741
▁96.1632	-13742
▁Aelodol	-13743
▁Alagoas	-13744
▁Andreas	-13745
▁Awdiant	-13746
▁Awkaria	-13747
▁Awstrin	-13748
▁Awyrman	-13749
▁Belgium	-13750
▁Blentyn	-13751
▁Brennas	-13752
▁Cadegol	-13753
▁Canfuir	-13754
▁Craftau	-13755
▁Cymannu	-13756
▁Ddablin	-13757
▁Dulblin	-13758
▁Dyddydd	-13759
▁Eidalia	-13760
▁Ffongol	-13761
▁Ffuniad	-13762
▁Firtuti	-13763
▁Gwrthos	-13764
▁Gwyboda	-13765
▁Hilario	-13766
▁Hwngari	-13767
▁Ilauill	-13768
▁Jacetau	-13769
▁Jahistö	-13770
▁Lasalle	-13771
▁Locheed	-13772
▁Merrikh	-13773
▁Palaeth	-13774
▁Priodol	-13775
▁Prisiad	-13776
▁Provinc	-13777
▁Provins	-13778
▁Rafique	-13779
▁Rajwana	-13780
▁Rambler	-13781
▁Ribcoff	-13782
▁Sediant	-13783
▁Senator	-13784
▁Studies	-13785
▁Sweeney	-13786
▁Sylvano	-13787
▁Sythpop	-13788
▁Tecsach	-13789
▁Tecsans	-13790
▁Tseineg	-13791
▁Unoliau	-13792
▁Uruwgau	-13793
▁Weaving	-13794
▁Ymysgod	-13795
▁Zwickau	-13796
▁adeilio	-13797
▁allgyrh	-13798
▁amlgryd	-13799
▁amlwydd	-13800
▁blwyddi	-13801
▁bwysiad	-13802
▁cerddod	-13803
▁chaniad	-13804
▁chlosau	-13805
▁comedig	-13806
▁creuwyd	-13807
▁cyfleth	-13808
▁cylchfa	-13809
▁cynorth	-13810
▁ddebloi	-13811
▁ddelain	-13812
▁ddeledd	-13813
▁deinydd	-13814
▁deweiwn	-13815
▁dewiswr	-13816
▁disodol	-13817
▁drefnog	-13818
▁drwyddi	-13819
▁elfenol	-13820
▁ennillu	-13821
▁estynnu	-13822
▁ffathau	-13823
▁ffinion	-13824
▁ffojboj	-13825
▁ffurfnu	-13826
▁fizegol	-13827
▁flaenio	-13828
▁genrydd	-13829
▁gludder	-13830
▁golaeth	-13831
▁golygyn	-13832
▁gwelant	-13833
▁gwladau	-13834
▁gwnaidd	-13835
▁gwraith	-13836
▁gynrydd	-13837
▁hoffter	-13838
▁hwnnwyr	-13839
▁hygynnu	-13840
▁lanswyd	-13841
▁lligion	-13842
▁llyflen	-13843
▁masbori	-13844
▁mawrwyr	-13845
▁nghylch	-13846
▁nghywng	-13847
▁oefynol	-13848
▁parthen	-13849
▁peysydd	-13850
▁plentyn	-13851
▁prisiad	-13852
▁rheolad	-13853
▁rwmania	-13854
▁strwywr	-13855
▁syddeth	-13856
▁teithio	-13857
▁teitlau	-13858
▁uniglen	-13859
▁unigrym	-13860
▁unysgol	-13861
▁yngryng	-13862
▁yrwneud	-13863
▁ystreid	-13864
▁ystryst	-13865
▁Éireann	-13866
amatorion	-13867
blaenorol	-13868
dilyniwyd	-13869
gyfeidiol	-13870
oretrovir	-13871
▁$556.300	-13872
▁11473.9.	-13873
▁2013-11-	-13874
▁32024459	-13875
▁3360.12.	-13876
▁39447000	-13877
▁45644811	-13878
▁7637.76.	-13879
▁7877110.	-13880
▁88002539	-13881
▁Addision	-13882
▁Amerigas	-13883
▁Anfonydd	-13884
▁Artistau	-13885
▁Awgwgiad	-13886
▁Barbetti	-13887
▁Blwchiad	-13888
▁Brithryn	-13889
▁Casillas	-13890
▁Cyfanses	-13891
▁Cyfreded	-13892
▁Ddeliwyr	-13893
▁Electron	-13894
▁Elochlau	-13895
▁Exchange	-13896
▁Ffrengir	-13897
▁Ffrwydri	-13898
▁Gwrthdwr	-13899
▁Hellenig	-13900
▁Industry	-13901
▁Kinsealy	-13902
▁Muhammad	-13903
▁Narddiol	-13904
▁Polisiwr	-13905
▁Rhydddal	-13906
▁Rhyddwyd	-13907
▁Romaniad	-13908
▁Security	-13909
▁Smilodon	-13910
▁Uniddiol	-13911
▁Valencia	-13912
▁Wartsila	-13913
▁Waterloo	-13914
▁Ymgyfans	-13915
▁absoliwt	-13916
▁adiladol	-13917
▁ailadwyd	-13918
▁amlennig	-13919
▁arthnasu	-13920
▁boblennu	-13921
▁brenarch	-13922
▁canadwyr	-13923
▁cerddori	-13924
▁chwrthdd	-13925
▁colombia	-13926
▁cwmniant	-13927
▁cyddiant	-13928
▁cyfeirio	-13929
▁cyffredd	-13930
▁cymysiad	-13931
▁cynnodau	-13932
▁cyrchiad	-13933
▁darparwr	-13934
▁ddargwyd	-13935
▁ddiasydd	-13936
▁ddisgryd	-13937
▁ddybodau	-13938
▁ddylannu	-13939
▁ddyrchwr	-13940
▁diwrnodd	-13941
▁dreinwyr	-13942
▁fersiwyd	-13943
▁fetautau	-13944
▁ffatrydd	-13945
▁ffrwydig	-13946
▁guanchen	-13947
▁gwneuddi	-13948
▁gwreiddo	-13949
▁gyfarfod	-13950
▁gyrchiad	-13951
▁gyrchydd	-13952
▁hynthwyr	-13953
▁iddiadol	-13954
▁mylwyrdd	-13955
▁opsiwnol	-13956
▁recordio	-13957
▁sengrydd	-13958
▁shiitake	-13959
▁sieinëeg	-13960
▁striladu	-13961
▁torriydd	-13962
▁ymddwydd	-13963
▁ymgyfrif	-13964
▁ymwblwyd	-13965
▁ysgolwyd	-13966
▁ôlbraddi	-13967
Cyfesidiad	-13968
Washington	-13969
akalikasan	-13970
ddarganfod	-13971
kilometrau	-13972
ocotyledon	-13973
yrchyddion	-13974
▁0001-8392	-13975
▁07/23/192	-13976
▁1046-8188	-13977
▁142603000	-13978
▁16244700,	-13979
▁1732-2421	-13980
▁1856-09-2	-13981
▁1875-03-0	-13982
▁198803.0.	-13983
▁32024459,	-13984
▁60040714,	-13985
▁Awdurdydd	-13986
▁Brutalist	-13987
▁Califforn	-13988
▁Cofnodiad	-13989
▁Conservat	-13990
▁Cyfaroedd	-13991
▁Cyferwydd	-13992
▁Cyfesurwr	-13993
▁Cyfesuryn	-13994
▁Cyffredin	-13995
▁Cyfizeith	-13996
▁Cyfwychwr	-13997
▁Cyfyddiad	-13998
▁Cyhoeddwr	-13999
▁Daleithol	-14000
▁Dangoswyd	-14001
▁Derbynodd	-14002
▁Desteapta	-14003
▁Eredivisi	-14004
▁Ffugbwrdd	-14005
▁Ffuglwyll	-14006
▁Gravesend	-14007
▁Gwylchydd	-14008
▁Ieithoedd	-14009
▁MacDonald	-14010
▁Makabansa	-14011
▁Mosgosgau	-14012
▁Rhedegodd	-14013
▁Rhyngesol	-14014
▁Rhywirodd	-14015
▁Rwydderau	-14016
▁Sbaenegau	-14017
▁Unigladol	-14018
▁Valentina	-14019
▁Ymddangos	-14020
▁adeiladol	-14021
▁amgryptio	-14022
▁angenadrh	-14023
▁ardalwedd	-14024
▁brithrydd	-14025
▁chwaraeth	-14026
▁cofnodwyd	-14027
▁cubanelle	-14028
▁cyfrediad	-14029
▁darfraddi	-14030
▁ddisgylfa	-14031
▁ddisgylin	-14032
▁ddyddodau	-14033
▁fethroedd	-14034
▁ffongedol	-14035
▁ganganfod	-14036
▁ganseliad	-14037
▁geiriadir	-14038
▁giriantau	-14039
▁gorffennu	-14040
▁graddradd	-14041
▁gweithiau	-14042
▁gwesteiwr	-14043
▁gynhwysau	-14044
▁gyrchniad	-14045
▁hysbyswyd	-14046
▁mylgylwyr	-14047
▁mynegiant	-14048
▁poblannol	-14049
▁strwythwr	-14050
▁supermini	-14051
▁troelliad	-14052
▁trosbarth	-14053
▁weinyddwr	-14054
▁wneiririr	-14055
▁ymlaenwyd	-14056
▁ymysbarth	-14057
▁ymysgwydd	-14058
gyffredinol	-14059
wyddiaethol	-14060
▁"0002-9327	-14061
▁"0236-5294	-14062
▁0025-5858.	-14063
▁0236-5294.	-14064
▁0567-7920.	-14065
▁0965-2140.	-14066
▁1896-02-01	-14067
▁1920-08-16	-14068
▁1923-11-18	-14069
▁2005-11-26	-14070
▁2158-3226.	-14071
▁380700000,	-14072
▁439-17685-	-14073
▁605718000.	-14074
▁611961000.	-14075
▁Adeiladion	-14076
▁Adraniaeth	-14077
▁Americanau	-14078
▁Americoedd	-14079
▁Amerikaneg	-14080
▁Arianspace	-14081
▁Coatbridge	-14082
▁Connection	-14083
▁Cychwynwyd	-14084
▁Cyfansodol	-14085
▁Cyflwrthod	-14086
▁Cyflwrwydd	-14087
▁Cyhoeddiad	-14088
▁Darbyshire	-14089
▁Darfyddodd	-14090
▁Electropop	-14091
▁Ffwythiant	-14092
▁Frangipane	-14093
▁Gwrthdwyth	-14094
▁Llofnododd	-14095
▁Matviyenko	-14096
▁Observator	-14097
▁Parcoeddol	-14098
▁Perchennog	-14099
▁Polderbaan	-14100
▁Prefecture	-14101
▁Presiddiad	-14102
▁Seiloddwyd	-14103
▁Seithiauol	-14104
▁Sosodiaidd	-14105
▁Spangledig	-14106
▁Urugwgiana	-14107
▁archifonol	-14108
▁archifrydd	-14109
▁bresiddiwr	-14110
▁chwrthdydd	-14111
▁cyfresennu	-14112
▁cyhoeddodd	-14113
▁dargraddio	-14114
▁ddyllunwyd	-14115
▁elfennaeth	-14116
▁enghraifft	-14117
▁flwyddoedd	-14118
▁gynorthwyr	-14119
▁hyfforddir	-14120
▁hyffordydd	-14121
▁lluchderol	-14122
▁llyfysgwch	-14123
▁llyfysgwyd	-14124
▁llygodaeth	-14125
▁mawrtiadau	-14126
▁mylgylwydd	-14127
▁rhwyddoedd	-14128
▁ymddogwydd	-14129
▁ymysgwyrdd	-14130
▁01-01-1913.	-14131
▁01-01-1959,	-14132
▁01/01/2000,	-14133
▁01/01/2000.	-14134
▁10264000000	-14135
▁1857-03-03.	-14136
▁1959-01-01.	-14137
▁1974-08-01.	-14138
▁1998-07-21.	-14139
▁2001-01-01.	-14140
▁39447000.0.	-14141
▁556,300.000	-14142
▁Cofnodiadau	-14143
▁Cyfarfodiad	-14144
▁Cyfeirnodol	-14145
▁Cyflwyfaedd	-14146
▁Cyfwymiadau	-14147
▁Dargryddwyd	-14148
▁Defnyddiwyd	-14149
▁Drosglwyddi	-14150
▁Gwarchalion	-14151
▁Gweiryddydd	-14152
▁Gweithraeth	-14153
▁Gweithyniad	-14154
▁Gwyseiddiad	-14155
▁Kashubiaidd	-14156
▁Lloegrgrydd	-14157
▁Llofnodiwyd	-14158
▁Porthricain	-14159
▁Urugianaidd	-14160
▁cyferniadau	-14161
▁cyfluniadol	-14162
▁cyfrifennig	-14163
▁cymorthapsi	-14164
▁ddyrhyrchdi	-14165
▁diweddarwyd	-14166
▁dysgyllinol	-14167
▁ffongliadol	-14168
▁gwrthwyniad	-14169
▁gyfresennol	-14170
▁gysylltiwyd	-14171
▁llythrennau	-14172
▁rheololadil	-14173
▁ymarchiadau	-14174
oretrovirinae	-14175
▁$108,600000.	-14176
▁$108.600000.	-14177
▁$875.400000.	-14178
▁1-4165-2060-	-14179
▁183309000.0.	-14180
▁279142000000	-14181
▁349206000000	-14182
▁9.833,516.63	-14183
▁Andalwsiaidd	-14184
▁Arwyddwyddol	-14185
▁Gwreiddiadau	-14186
▁Gwrthdaroedd	-14187
▁amgylgylchol	-14188
▁bresiddiadol	-14189
▁cyngonwladol	-14190
▁ddarganfuodd	-14191
▁ddisgwyddwyd	-14192
▁ddiweddarwyd	-14193
▁ddyrhyrchdir	-14194
▁golygyffredu	-14195
▁gweffredinol	-14196
▁gweithredodd	-14197
▁gweithredwyd	-14198
▁gyfansoddwyd	-14199
▁gyfresiddiad	-14200
▁rhagosodedig	-14201
▁0-439-17685-9	-14202
▁0-439-92550-9	-14203
▁288749000000.	-14204
▁7729430000.0.	-14205
▁Americaiddidd	-14206
▁Americanasidd	-14207
▁Californianig	-14208
▁Disgwyddiaeth	-14209
▁Gweithredolwr	-14210
▁Makakalikasan	-14211
▁Socialistaidd	-14212
▁cynllunyddion	-14213
▁ysgolyddiaeth	-14214
▁"0-439-17684-0	-14215
▁124950000000.0	-14216
▁Dynrychiolioli	-14217
▁Regionalalliga	-14218
▁cynrychiolioli	-14219
▁gweithredolydd	-14220
▁gynrychiolioli	-14221
▁gynrychioliwyd	-14222
▁hengoniadlaeth	-14223
▁15,100.000.000.	-14224
▁445895000000.0.	-14225
▁Californianaidd	-14226
▁Cyfesuryddiaeth	-14227
▁Llyfrcryddiaeth	-14228
▁gweithredyddion	-14229
);	-14230
/4	-14231
36	-14232
Ad	-14233
Ak	-14234
CQ	-14235
GT	-14236
Is	-14237
Sc	-14238
Sw	-14239
UD	-14240
lk	-14241
ml	-14242
to	-14243
tı	-14244
vá	-14245
wi	-14246
yt	-14247
îp	-14248
ïo	-14249
▁<	-14250
▁~	-14251
,74	-14252
.")	-14253
.).	-14254
/09	-14255
/17	-14256
11,	-14257
123	-14258
160	-14259
226	-14260
310	-14261
4",	-14262
467	-14263
635	-14264
776	-14265
8.3	-14266
892	-14267
9".	-14268
APN	-14269
Abh	-14270
Dan	-14271
OUP	-14272
Off	-14273
SNR	-14274
Sph	-14275
Uab	-14276
ape	-14277
aus	-14278
blo	-14279
bon	-14280
chd	-14281
eik	-14282
ets	-14283
fer	-14284
for	-14285
fyl	-14286
gov	-14287
hen	-14288
ias	-14289
ied	-14290
kow	-14291
lud	-14292
lue	-14293
lug	-14294
mae	-14295
mod	-14296
nad	-14297
noi	-14298
non	-14299
hi	-14300
yp	-14301
ova	-14302
riv	-14303
sga	-14304
wau	-14305
wpi	-14306
ymu	-14307
yne	-14308
ynu	-14309
ßku	-14310
ála	-14311
ıtı	-14312
▁06	-14313
▁69	-14314
▁Em	-14315
▁Fc	-14316
▁Fr	-14317
▁Gt	-14318
▁JV	-14319
▁So	-14320
▁ag	-14321
▁ci	-14322
▁ep	-14323
▁ex	-14324
▁fC	-14325
▁gf	-14326
▁gê	-14327
▁yd	-14328
-04,	-14329
-189	-14330
-2".	-14331
-2).	-14332
-4-2	-14333
/30.	-14334
0.0,	-14335
0.74	-14336
100.	-14337
20.0	-14338
439.	-14339
524.	-14340
533.	-14341
892.	-14342
AZAL	-14343
Arem	-14344
Demb	-14345
Gryn	-14346
Into	-14347
Maka	-14348
Nord	-14349
Turk	-14350
Wasp	-14351
abeg	-14352
afaf	-14353
affa	-14354
ahes	-14355
aker	-14356
anao	-14357
andú	-14358
assp	-14359
awyr	-14360
bbie	-14361
bong	-14362
bron	-14363
bryn	-14364
chym	-14365
chyn	-14366
cyfr	-14367
ddog	-14368
dert	-14369
eigh	-14370
eikk	-14371
eion	-14372
elyd	-14373
enni	-14374
enol	-14375
eria	-14376
esqu	-14377
eter	-14378
etso	-14379
evin	-14380
ewch	-14381
falt	-14382
fath	-14383
ffod	-14384
fion	-14385
fton	-14386
grif	-14387
gwin	-14388
http	-14389
idol	-14390
iepl	-14391
ifir	-14392
ilas	-14393
ileu	-14394
inch	-14395
irus	-14396
iten	-14397
iter	-14398
itig	-14399
85	-14400
cky	-14401
5800	-14402
CQAG	-14403
Wedi	-14404
haol	-14405
hlyg	-14406
ieti	-14407
iydd	-14408
lube	-14409
medr	-14410
mpai	-14411
ners	-14412
nill	-14413
nodi	-14414
odeg	-14415
odwr	-14416
ofyn	-14417
ogwr	-14418
osil	-14419
pach	-14420
pobl	-14421
prwy	-14422
riau	-14423
rifo	-14424
rini	-14425
roac	-14426
ronz	-14427
rygl	-14428
rymu	-14429
rywi	-14430
ture	-14431
ulov	-14432
ultz	-14433
vall	-14434
vice	-14435
wlas	-14436
wrce	-14437
wrwr	-14438
xton	-14439
ygyn	-14440
ylai	-14441
yled	-14442
ylfa	-14443
ynig	-14444
ynys	-14445
yrth	-14446
íona	-14447
ñoly	-14448
▁"18	-14449
▁-7.	-14450
▁.88	-14451
▁03,	-14452
▁07,	-14453
▁09-	-14454
▁1.4	-14455
▁121	-14456
▁130	-14457
▁165	-14458
▁213	-14459
▁23.	-14460
▁306	-14461
▁352	-14462
▁362	-14463
▁39.	-14464
▁395	-14465
▁45,	-14466
▁597	-14467
▁686	-14468
▁733	-14469
▁734	-14470
▁765	-14471
▁8.0	-14472
▁AIT	-14473
▁APN	-14474
▁Ain	-14475
▁Arw	-14476
▁Ave	-14477
▁Bry	-14478
▁Cul	-14479
▁Dod	-14480
▁Dyf	-14481
▁Exc	-14482
▁Faw	-14483
▁Hyn	-14484
▁Iâd	-14485
▁Jun	-14486
▁Law	-14487
▁Low	-14488
▁Mck	-14489
▁Mov	-14490
▁Oak	-14491
▁Owl	-14492
▁ScD	-14493
▁Sir	-14494
▁Sub	-14495
▁Sze	-14496
▁Tap	-14497
▁Tar	-14498
▁Was	-14499
▁Wyd	-14500
▁Yam	-14501
▁Yng	-14502
▁abh	-14503
▁adr	-14504
▁anf	-14505
▁aod	-14506
▁atf	-14507
▁awd	-14508
▁cac	-14509
▁cas	-14510
▁chi	-14511
▁cli	-14512
▁cyc	-14513
▁dec	-14514
▁deg	-14515
▁dyd	-14516
▁ego	-14517
▁fóf	-14518
▁hem	-14519
▁hwy	-14520
▁imp	-14521
▁lar	-14522
▁loc	-14523
▁nag	-14524
▁oâl	-14525
▁roi	-14526
▁sed	-14527
▁ser	-14528
▁sir	-14529
▁siw	-14530
▁sôs	-14531
▁tag	-14532
▁tar	-14533
▁von	-14534
▁ymb	-14535
▁ymf	-14536
▁yms	-14537
▁ynd	-14538
-5858	-14539
/1901	-14540
0,000	-14541
13/31	-14542
1930.	-14543
5,000	-14544
732-2	-14545
770.0	-14546
9-27.	-14547
90.0.	-14548
Admin	-14549
Akron	-14550
Aluna	-14551
Artin	-14552
Dodge	-14553
Dwlad	-14554
South	-14555
Urnas	-14556
acios	-14557
adydd	-14558
alsam	-14559
alsme	-14560
answm	-14561
antas	-14562
ardal	-14563
artig	-14564
arydd	-14565
astig	-14566
astin	-14567
atran	-14568
ausli	-14569
ceton	-14570
chlau	-14571
chwei	-14572
derol	-14573
dwell	-14574
eanut	-14575
eared	-14576
eball	-14577
eirol	-14578
ermic	-14579
estun	-14580
ethol	-14581
gwlad	-14582
gylch	-14583
iabri	-14584
ilwyd	-14585
inced	-14586
ionis	-14587
irnod	-14588
ister	-14589
itrch	-14590
iwydd	-14591
lwyod	-14592
munud	-14593
ociaf	-14594
oddol	-14595
ododd	-14596
ofnig	-14597
olwyd	-14598
omana	-14599
rchau	-14600
risod	-14601
rydau	-14602
város	-14603
waneg	-14604
wblin	-14605
wilki	-14606
wrwyr	-14607
wybyn	-14608
ydodd	-14609
ygell	-14610
ylchu	-14611
ymynt	-14612
ynnas	-14613
ysgri	-14614
ysiwr	-14615
▁1/19	-14616
▁12.0	-14617
▁1200	-14618
▁14.2	-14619
▁156.	-14620
▁1635	-14621
▁1773	-14622
▁179.	-14623
▁1818	-14624
▁1929	-14625
▁1937	-14626
▁1958	-14627
▁2194	-14628
▁2195	-14629
▁23.0	-14630
▁233.	-14631
▁2744	-14632
▁2777	-14633
▁2939	-14634
▁2988	-14635
▁4/22	-14636
▁4165	-14637
▁512.	-14638
▁523,	-14639
▁58.3	-14640
▁609.	-14641
▁63.8	-14642
▁6573	-14643
▁678,	-14644
▁678.	-14645
▁925.	-14646
▁Anne	-14647
▁Auck	-14648
▁Bawd	-14649
▁Birr	-14650
▁Blue	-14651
▁Blyf	-14652
▁Bysg	-14653
▁Cael	-14654
▁Coch	-14655
▁Cymh	-14656
▁Darw	-14657
▁Ddol	-14658
▁Ddyl	-14659
▁Drew	-14660
▁Engl	-14661
▁Erin	-14662
▁Ffut	-14663
▁Fryd	-14664
▁Golf	-14665
▁Goup	-14666
▁Gres	-14667
▁Haen	-14668
▁Hazz	-14669
▁Hewn	-14670
▁Iona	-14671
▁Leni	-14672
▁Lesh	-14673
▁Llam	-14674
▁Llef	-14675
▁Llus	-14676
▁Llyg	-14677
▁Mahé	-14678
▁Mind	-14679
▁Mwyn	-14680
▁Nith	-14681
▁Oren	-14682
▁Perf	-14683
▁Plas	-14684
▁Popl	-14685
▁Ppra	-14686
▁Pryn	-14687
▁Ring	-14688
▁Scot	-14689
▁Seff	-14690
▁Seib	-14691
▁Seit	-14692
▁Sony	-14693
▁USNR	-14694
▁UTAA	-14695
▁Unio	-14696
▁Vitt	-14697
▁Yngr	-14698
▁acur	-14699
▁apap	-14700
▁bobr	-14701
▁byrn	-14702
▁cell	-14703
▁chyg	-14704
▁city	-14705
▁danc	-14706
▁ddem	-14707
▁ddew	-14708
▁ddig	-14709
▁dduo	-14710
▁ddyw	-14711
▁dech	-14712
▁faru	-14713
▁flyf	-14714
▁fórf	-14715
▁gerg	-14716
▁ghen	-14717
▁grîm	-14718
▁gwyr	-14719
▁gwys	-14720
▁gyff	-14721
▁gynl	-14722
▁isaf	-14723
▁john	-14724
▁lydd	-14725
▁masb	-14726
▁medf	-14727
▁oell	-14728
▁olwg	-14729
▁orol	-14730
▁orth	-14731
▁peda	-14732
▁resi	-14733
▁sael	-14734
▁smeg	-14735
▁syml	-14736
▁teni	-14737
▁tonn	-14738
▁trwy	-14739
▁ymbr	-14740
▁yrir	-14741
-01-19	-14742
/1986.	-14743
/2013.	-14744
0.744.	-14745
AAIDBI	-14746
ATISET	-14747
Almaen	-14748
Basket	-14749
Centre	-14750
Oregon	-14751
Sphinx	-14752
Uchder	-14753
ahesir	-14754
anegol	-14755
annodd	-14756
ations	-14757
bostig	-14758
chdroi	-14759
classe	-14760
eediwr	-14761
eilwyd	-14762
einiol	-14763
erbaan	-14764
esquin	-14765
faniad	-14766
gellir	-14767
gwneud	-14768
gyfeir	-14769
hlygad	-14770
iamedr	-14771
iddiog	-14772
ieplay	-14773
illwyd	-14774
indiau	-14775
iocloc	-14776
ionawr	-14777
isiwyr	-14778
ladwyd	-14779
lwyneb	-14780
metall	-14781
modern	-14782
ogaidd	-14783
ordwyd	-14784
orniad	-14785
oustig	-14786
piacos	-14787
redodd	-14788
rhywyr	-14789
riadwy	-14790
rinair	-14791
ritiye	-14792
rychwr	-14793
ryfrif	-14794
serman	-14795
sgaard	-14796
sweiwn	-14797
vallis	-14798
wefror	-14799
wydwyd	-14800
ydlwyd	-14801
ylchau	-14802
ysgysg	-14803
ßkuhle	-14804
álaigh	-14805
▁"0025	-14806
▁1.982	-14807
▁1099.	-14808
▁11.35	-14809
▁11/08	-14810
▁1121.	-14811
▁120.0	-14812
▁12467	-14813
▁13123	-14814
▁1510.	-14815
▁16.54	-14816
▁168",	-14817
▁170.0	-14818
▁1793,	-14819
▁18.44	-14820
▁1856,	-14821
▁1901,	-14822
▁1931,	-14823
▁1939.	-14824
▁1950.	-14825
▁1953,	-14826
▁1958,	-14827
▁1961,	-14828
▁1964,	-14829
▁1982,	-14830
▁1994.	-14831
▁1999.	-14832
▁2.032	-14833
▁2000;	-14834
▁2195.	-14835
▁27/09	-14836
▁3.990	-14837
▁30/05	-14838
▁3684.	-14839
▁3990.	-14840
▁45000	-14841
▁7/25.	-14842
▁900.0	-14843
▁ADICE	-14844
▁Above	-14845
▁Alley	-14846
▁Anıtı	-14847
▁April	-14848
▁Argyl	-14849
▁Avant	-14850
▁Awdyr	-14851
▁Awyrm	-14852
▁Baird	-14853
▁Bajji	-14854
▁Beach	-14855
▁Bones	-14856
▁Clube	-14857
▁Cyfan	-14858
▁Ddron	-14859
▁Doshi	-14860
▁Dychw	-14861
▁Dylch	-14862
▁Enter	-14863
▁Field	-14864
▁Finch	-14865
▁GROUP	-14866
▁Glass	-14867
▁Gludd	-14868
▁Golol	-14869
▁Hoofd	-14870
▁Iwerd	-14871
▁Jaish	-14872
▁Jesus	-14873
▁Kevin	-14874
▁Lucky	-14875
▁Metel	-14876
▁Myneg	-14877
▁Nifer	-14878
▁Pando	-14879
▁Payne	-14880
▁Pecyn	-14881
▁Pwyll	-14882
▁Ralph	-14883
▁Rhanl	-14884
▁Rhyll	-14885
▁Rhynt	-14886
▁Sbape	-14887
▁Scriv	-14888
▁Sgoth	-14889
▁Ssalm	-14890
▁Swamp	-14891
▁Texan	-14892
▁Tywyr	-14893
▁Unedd	-14894
▁Unesg	-14895
▁Unydd	-14896
▁Uruwg	-14897
▁Veikk	-14898
▁Vilas	-14899
▁Wassp	-14900
▁Weder	-14901
▁Ystad	-14902
▁abeid	-14903
▁anwel	-14904
▁arlun	-14905
▁arsyl	-14906
▁arwyr	-14907
▁aslyn	-14908
▁bodol	-14909
▁brifl	-14910
▁bronz	-14911
▁bwall	-14912
▁bwedi	-14913
▁bylch	-14914
▁byrru	-14915
▁bywio	-14916
▁bywyr	-14917
▁chros	-14918
▁chwyl	-14919
▁colli	-14920
▁comic	-14921
▁croes	-14922
▁cwmpé	-14923
▁cyfaf	-14924
▁ddaru	-14925
▁ddedi	-14926
▁ddinn	-14927
▁doddi	-14928
▁drwyd	-14929
▁egysg	-14930
▁feses	-14931
▁foedd	-14932
▁frodd	-14933
▁gelyn	-14934
▁gener	-14935
▁gilad	-14936
▁gogan	-14937
▁golwg	-14938
▁guanc	-14939
▁gwall	-14940
▁gwled	-14941
▁gygyg	-14942
▁heroi	-14943
▁honni	-14944
▁isbwn	-14945
▁kmser	-14946
▁ligod	-14947
▁llara	-14948
▁llygu	-14949
▁lwybr	-14950
▁lyled	-14951
▁marwd	-14952
▁mawrn	-14953
▁metro	-14954
▁milia	-14955
▁mulai	-14956
▁ogyda	-14957
▁paner	-14958
▁patri	-14959
▁penid	-14960
▁petso	-14961
▁plafn	-14962
▁porch	-14963
▁posam	-14964
▁pwyso	-14965
[...]
