<unk>	0
<s>	0
</s>	0
▁a	-0
▁A	-1
ai	-2
in	-3
▁an	-4
on	-5
ch	-6
ar	-7
an	-8
th	-9
▁ag	-10
ir	-11
na	-12
bh	-13
is	-14
▁T	-15
▁S	-16
il	-17
us	-18
▁s	-19
▁agus	-20
▁I	-21
▁B	-22
ea	-23
▁d	-24
▁i	-25
ta	-26
er	-27
▁bh	-28
mh	-29
▁C	-30
▁l	-31
▁c	-32
▁M	-33
the	-34
tá	-35
aithe	-36
▁na	-37
it	-38
▁Tá	-39
dh	-40
▁in	-41
al	-42
▁é	-43
ío	-44
▁Is	-45
▁1	-46
▁de	-47
la	-48
air	-49
ic	-50
or	-51
▁g	-52
ad	-53
id	-54
ean	-55
▁t	-56
▁R	-57
▁Al	-58
ont	-59
iú	-60
▁P	-61
▁F	-62
▁f	-63
▁D	-64
ig	-65
▁bhf	-66
re	-67
uil	-68
onn	-69
▁bhfuil	-70
as	-71
▁m	-72
▁sa	-73
▁Aont	-74
▁G	-75
▁Aontaithe	-76
▁le	-77
▁r	-78
▁Bh	-79
▁Stá	-80
each	-81
am	-82
te	-83
ain	-84
en	-85
▁b	-86
▁Stáit	-87
ol	-88
▁ch	-89
ra	-90
▁L	-91
im	-92
inn	-93
▁ina	-94
eann	-95
00	-96
oir	-97
▁N	-98
omh	-99
le	-100
ach	-101
▁2	-102
eá	-103
▁W	-104
▁ar	-105
▁Bhí	-106
▁Ch	-107
es	-108
▁is	-109
▁J	-110
os	-111
ia	-112
eir	-113
oi	-114
nd	-115
▁ó	-116
▁H	-117
íodh	-118
▁19	-119
▁p	-120
gh	-121
ion	-122
el	-123
▁h	-124
▁O	-125
íoch	-126
onnaithe	-127
▁lonnaithe	-128
om	-129
▁th	-130
▁E	-131
uid	-132
eo	-133
nach	-134
án	-135
áir	-136
ur	-137
▁K	-138
éad	-139
rú	-140
st	-141
▁atá	-142
▁n	-143
▁tá	-144
▁sé	-145
▁gc	-146
he	-147
tar	-148
iún	-149
and	-150
pa	-151
▁V	-152
áis	-153
sc	-154
aidh	-155
▁bhí	-156
at	-157
ín	-158
un	-159
se	-160
erf	-161
ip	-162
óir	-163
▁ceann	-164
iceá	-165
io	-166
▁Ab	-167
ga	-168
ill	-169
ith	-170
▁(	-171
▁Se	-172
alta	-173
rúpa	-174
ear	-175
eiriceá	-176
▁comh	-177
íomh	-178
▁mar	-179
ge	-180
íonn	-181
ais	-182
áin	-183
▁cuid	-184
ac	-185
ex	-186
neach	-187
ist	-188
ton	-189
ing	-190
éar	-191
▁Ad	-192
et	-193
tear	-194
▁Meiriceá	-195
ne	-196
▁Sp	-197
ann	-198
ers	-199
▁Mar	-200
eadh	-201
imh	-202
ian	-203
rai	-204
▁e	-205
▁3	-206
oib	-207
▁Ph	-208
aile	-209
0.	-210
▁An	-211
bhar	-212
▁aerf	-213
eal	-214
ionsc	-215
lach	-216
ak	-217
iúnta	-218
▁And	-219
oil	-220
áil	-221
▁Ar	-222
ru	-223
oc	-224
ay	-225
éig	-226
ew	-227
oll	-228
ort	-229
ab	-230
áisiúnta	-231
ims	-232
tin	-233
▁eit	-234
▁eitneach	-235
íocht	-236
▁ceannair	-237
aigh	-238
oirt	-239
tí	-240
ag	-241
ige	-242
ath	-243
▁Seinn	-244
od	-245
naíodh	-246
▁Aar	-247
▁200	-248
lu	-249
ul	-250
igh	-251
éan	-252
▁U	-253
eas	-254
lan	-255
▁leis	-256
▁grúpa	-257
01	-258
ce	-259
achtar	-260
▁Alb	-261
ríomh	-262
agh	-263
tha	-264
▁aerfoirt	-265
uir	-266
ib	-267
▁Th	-268
▁hagh	-269
▁haghaidh	-270
éid	-271
▁New	-272
▁dh	-273
ed	-274
▁gh	-275
▁Ind	-276
eirbh	-277
ob	-278
▁Ak	-279
ua	-280
▁Spá	-281
ine	-282
ail	-283
reis	-284
▁oib	-285
iméad	-286
▁u	-287
ár	-288
▁Tex	-289
ré	-290
úir	-291
ís	-292
▁FC	-293
▁As	-294
▁Texas	-295
ran	-296
ov	-297
em	-298
ard	-299
▁Am	-300
ash	-301
ington	-302
ibh	-303
if	-304
▁bhain	-305
íochta	-306
ábhar	-307
▁St	-308
iméadar	-309
eola	-310
▁comhalta	-311
ah	-312
dir	-313
ie	-314
▁In	-315
ot	-316
ert	-317
ítear	-318
ell	-319
63	-320
lin	-321
▁Alan	-322
um	-323
ara	-324
ao	-325
▁réig	-326
ire	-327
ord	-328
eic	-329
▁5	-330
▁rinn	-331
▁Nua	-332
▁sc	-333
▁Spáinn	-334
▁príomh	-335
iv	-336
éal	-337
▁tean	-338
reisin	-339
▁freisin	-340
úil	-341
▁Cal	-342
náisiúnta	-343
▁Alf	-344
▁10	-345
tach	-346
dirnáisiúnta	-347
▁oibr	-348
ow	-349
ór	-350
bur	-351
▁Bu	-352
óin	-353
aon	-354
ionscna	-355
ph	-356
▁4	-357
▁st	-358
▁gC	-359
iste	-360
op	-361
eag	-362
ich	-363
all	-364
hn	-365
▁chomh	-366
end	-367
aith	-368
▁iom	-369
ise	-370
eirbhís	-371
▁fad	-372
oth	-373
▁Alex	-374
▁bhaile	-375
qu	-376
▁Anders	-377
▁Aaron	-378
▁ph	-379
▁Wash	-380
▁teanga	-381
▁At	-382
▁méad	-383
eachta	-384
iúnach	-385
ud	-386
av	-387
las	-388
ro	-389
▁foir	-390
▁Mh	-391
▁Idirnáisiúnta	-392
eán	-393
achtarán	-394
aoi	-395
éin	-396
áit	-397
tic	-398
▁Washington	-399
ec	-400
isc	-401
▁im	-402
▁11	-403
▁Jo	-404
▁faoi	-405
000	-406
▁den	-407
sh	-408
▁aims	-409
▁cear	-410
láir	-411
iana	-412
▁ú	-413
onta	-414
ore	-415
▁sh	-416
ou	-417
▁do	-418
▁Ac	-419
ríoch	-420
▁Sc	-421
▁Mad	-422
éarla	-423
▁Adam	-424
ír	-425
idh	-426
uíomh	-427
mhair	-428
son	-429
▁fh	-430
ond	-431
▁bain	-432
▁chuid	-433
ionscnamh	-434
tóir	-435
red	-436
imhir	-437
odáil	-438
aip	-439
6.	-440
gal	-441
ialta	-442
ock	-443
▁bia	-444
athair	-445
ik	-446
ons	-447
8.	-448
ter	-449
imist	-450
ong	-451
iliméadar	-452
▁Calif	-453
▁leibh	-454
▁Meiriceánach	-455
▁di	-456
▁uimhir	-457
▁lea	-458
▁Bak	-459
ma	-460
▁De	-461
ithe	-462
▁leibhéal	-463
ka	-464
▁tré	-465
ainn	-466
▁Rom	-467
▁limist	-468
▁tréimh	-469
▁Ríocht	-470
▁réigiún	-471
ala	-472
▁cean	-473
de	-474
zz	-475
▁201	-476
▁iad	-477
áta	-478
enn	-479
-1	-480
óg	-481
▁Martin	-482
éil	-483
eacht	-484
inm	-485
▁Ag	-486
▁limistéar	-487
▁amh	-488
rew	-489
▁comhábhar	-490
ineá	-491
ston	-492
arth	-493
▁Ap	-494
▁suíomh	-495
▁foirne	-496
thair	-497
lán	-498
ham	-499
▁aige	-500
▁Tur	-501
▁ainm	-502
ub	-503
▁bun	-504
▁san	-505
▁AI	-506
aipit	-507
reith	-508
ek	-509
▁k	-510
raithe	-511
óta	-512
▁rinne	-513
laí	-514
▁Y	-515
ri	-516
ama	-517
arrai	-518
ois	-519
▁"	-520
▁II	-521
4.	-522
▁Gh	-523
ner	-524
▁hI	-525
▁Dan	-526
osa	-527
aipiteal	-528
áid	-529
éantar	-530
▁John	-531
arraige	-532
▁farraige	-533
ork	-534
unaíodh	-535
osc	-536
adh	-537
▁aimsiú	-538
▁méadair	-539
org	-540
erfort	-541
ja	-542
eicn	-543
tain	-544
ut	-545
000.	-546
▁Comh	-547
iam	-548
▁Alfred	-549
of	-550
sey	-551
▁6	-552
▁Alexand	-553
▁0	-554
eil	-555
▁có	-556
oimh	-557
▁gcomh	-558
íne	-559
2.	-560
3.	-561
▁Albert	-562
▁stiú	-563
río	-564
▁Par	-565
▁Atlan	-566
éir	-567
ison	-568
▁195	-569
ineál	-570
ustin	-571
hus	-572
▁ghrúpa	-573
stit	-574
▁Will	-575
▁William	-576
▁198	-577
▁rith	-578
stitiú	-579
stitiúid	-580
▁iomlán	-581
5.	-582
▁Béarla	-583
▁thar	-584
▁inn	-585
▁grúpaí	-586
▁Le	-587
áirtí	-588
ola	-589
sa	-590
sil	-591
▁Er	-592
▁áit	-593
ontair	-594
lú	-595
▁El	-596
▁bunaithe	-597
dul	-598
ris	-599
eolaíochta	-600
▁18	-601
▁nd	-602
▁Abdul	-603
isteoir	-604
▁Califéin	-605
▁tréimhse	-606
▁Ro	-607
▁199	-608
DA	-609
▁Mend	-610
▁Aarhus	-611
eem	-612
▁dáta	-613
▁Akeem	-614
ura	-615
oils	-616
▁Man	-617
▁lá	-618
iúil	-619
▁eitneacha	-620
uair	-621
▁Bar	-622
▁Indiana	-623
ás	-624
▁tír	-625
▁agh	-626
▁aghaidh	-627
iot	-628
erm	-629
eith	-630
aig	-631
▁ro	-632
▁roimh	-633
▁Andrew	-634
▁Aerfort	-635
▁Aims	-636
▁Aston	-637
▁ion	-638
▁Fh	-639
ata	-640
ún	-641
▁mh	-642
▁ciliméadar	-643
1.	-644
burg	-645
▁16	-646
arr	-647
oif	-648
rid	-649
ya	-650
van	-651
▁Br	-652
9.	-653
▁Af	-654
▁cearnach	-655
7.	-656
eamh	-657
▁Ald	-658
▁AIDA	-659
▁Teicn	-660
▁Sa	-661
▁ac	-662
▁Air	-663
).	-664
▁seo	-665
úirte	-666
▁Austin	-667
far	-668
▁rai	-669
ealaí	-670
▁choth	-671
óis	-672
▁Iodáil	-673
▁Jon	-674
▁sin	-675
▁raibh	-676
▁25	-677
int	-678
ita	-679
ite	-680
fa	-681
▁Su	-682
heic	-683
▁8	-684
ena	-685
ords	-686
634	-687
rain	-688
▁chomhalta	-689
▁Co	-690
▁Rec	-691
ent	-692
éim	-693
ug	-694
▁ta	-695
▁thionscnamh	-696
char	-697
gadh	-698
land	-699
scoil	-700
▁17	-701
▁Alek	-702
▁Noll	-703
▁Nollaig	-704
▁192	-705
▁Jer	-706
▁seirbhís	-707
AS	-708
lacht	-709
ett	-710
aol	-711
rin	-712
lues	-713
▁bhaineann	-714
aid	-715
máin	-716
▁193	-717
▁don	-718
▁tháir	-719
ez	-720
man	-721
aonra	-722
▁innill	-723
ack	-724
irg	-725
▁Jersey	-726
ene	-727
amp	-728
ontas	-729
▁tA	-730
any	-731
shire	-732
▁Records	-733
aí	-734
osaigh	-735
▁Uachtarán	-736
ap	-737
▁7	-738
tel	-739
▁12	-740
aithn	-741
lí	-742
raic	-743
charya	-744
▁tháirg	-745
▁Acharya	-746
▁gcomhair	-747
▁Wh	-748
▁Z	-749
▁as	-750
▁Rinn	-751
▁náis	-752
▁Madrid	-753
▁baile	-754
arachtar	-755
aic	-756
▁Ah	-757
▁IS	-758
ollo	-759
▁Lu	-760
ant	-761
éas	-762
ilip	-763
▁Danmhair	-764
ys	-765
▁oif	-766
00.	-767
ála	-768
▁York	-769
ondain	-770
▁gaol	-771
oy	-772
▁chláir	-773
▁eag	-774
istiú	-775
ead	-776
▁Gu	-777
000.0	-778
▁Chó	-779
▁hA	-780
▁tóg	-781
▁cheann	-782
▁1634	-783
▁Apollo	-784
eanna	-785
▁aerfort	-786
▁Londain	-787
óid	-788
íneach	-789
ASA	-790
ille	-791
▁oll	-792
▁NASA	-793
Uachtarán	-794
▁ollscoil	-795
▁bainisteoir	-796
aire	-797
▁Teicneolaíochta	-798
▁9	-799
▁km	-800
bama	-801
que	-802
▁15	-803
▁Á	-804
ville	-805
ánach	-806
▁lu	-807
▁go	-808
mhach	-809
ey	-810
▁Mich	-811
áirt	-812
▁Aontas	-813
lac	-814
▁Wil	-815
off	-816
ales	-817
▁191	-818
▁deir	-819
ontóir	-820
▁Jones	-821
éidir	-822
▁caipiteal	-823
▁Ró	-824
▁mó	-825
sáid	-826
▁tionsc	-827
bor	-828
▁Anderson	-829
ron	-830
rach	-831
▁She	-832
▁AC	-833
▁Ala	-834
▁féidir	-835
own	-836
íol	-837
iseach	-838
▁tS	-839
árta	-840
▁Márta	-841
ainm	-842
▁Iúil	-843
▁Institiúid	-844
▁aon	-845
aj	-846
▁Ahm	-847
olf	-848
▁14	-849
▁Ay	-850
),	-851
ealach	-852
▁La	-853
sand	-854
▁Rib	-855
▁Tran	-856
▁oibriú	-857
thrú	-858
▁Ban	-859
▁White	-860
-0	-861
▁cuideachta	-862
iad	-863
oidh	-864
icoff	-865
▁AF	-866
▁Cit	-867
▁Pháirtí	-868
ealaíontóir	-869
orn	-870
▁úin	-871
iaidh	-872
▁bhrúpa	-873
▁Ribicoff	-874
rem	-875
▁Oil	-876
▁Oib	-877
▁ann	-878
▁Mendris	-879
▁bhF	-880
▁rinneadh	-881
róir	-882
▁Cru	-883
-2	-884
oin	-885
▁Aleksand	-886
▁Mendrisio	-887
ríonn	-888
hio	-889
▁Thu	-890
▁chothraithe	-891
▁Ohio	-892
▁ceangal	-893
▁bhainistiú	-894
onnell	-895
▁thig	-896
▁31	-897
co	-898
pard	-899
▁rock	-900
Donnell	-901
▁Shepard	-902
iss	-903
ait	-904
ona	-905
▁Gre	-906
▁Lár	-907
▁Sh	-908
onsin	-909
▁roimhe	-910
isconsin	-911
▁amhróir	-912
▁Ser	-913
éise	-914
▁Sin	-915
▁Wisconsin	-916
iom	-917
▁103	-918
▁náisiúnach	-919
▁Ho	-920
reoir	-921
▁tháirgeadh	-922
arl	-923
▁Mary	-924
▁Fó	-925
▁nó	-926
réig	-927
▁Spáinnis	-928
lamh	-929
tála	-930
▁Bean	-931
▁príomhth	-932
so	-933
dar	-934
▁Ram	-935
▁tai	-936
▁Aer	-937
▁Fran	-938
▁27	-939
▁Aldrin	-940
nó	-941
ada	-942
▁Chu	-943
▁Ghe	-944
▁stí	-945
▁Afraic	-946
▁AL	-947
▁Au	-948
▁talamh	-949
▁leath	-950
▁Her	-951
eis	-952
ick	-953
▁Fo	-954
▁Conta	-955
▁Seirbhís	-956
len	-957
taine	-958
eall	-959
▁the	-960
nit	-961
var	-962
▁Abra	-963
92	-964
idhm	-965
ikov	-966
▁Ell	-967
▁Adams	-968
▁stiúir	-969
▁Abraham	-970
og	-971
▁stíl	-972
-3	-973
are	-974
▁náisiúnta	-975
ess	-976
ira	-977
rac	-978
▁Ant	-979
▁Fi	-980
▁réigiúnach	-981
▁Ol	-982
▁láthair	-983
▁príomhch	-984
▁ndéantar	-985
▁carachtar	-986
za	-987
res	-988
uan	-989
ater	-990
▁City	-991
▁chéad	-992
aya	-993
ríofa	-994
▁bunaíodh	-995
naí	-996
▁Akita	-997
▁Akron	-998
▁blues	-999
áirítear	-1000
▁Ean	-1001
▁Lan	-1002
▁Eanáir	-1003
MA	-1004
min	-1005
ple	-1006
dis	-1007
ilene	-1008
26	-1009
eac	-1010
0000	-1011
▁Turner	-1012
óisialta	-1013
▁The	-1014
▁air	-1015
▁luas	-1016
▁Abilene	-1017
ibhialta	-1018
adem	-1019
lúir	-1020
▁daonra	-1021
▁Col	-1022
Mheic	-1023
▁leabhar	-1024
07	-1025
▁tr	-1026
únta	-1027
ógadh	-1028
▁Ang	-1029
▁Mah	-1030
▁ord	-1031
▁Madison	-1032
via	-1033
reach	-1034
▁Elliot	-1035
▁aonair	-1036
▁23	-1037
▁Abel	-1038
▁See	-1039
dor	-1040
íní	-1041
▁bhíodh	-1042
ica	-1043
▁Ana	-1044
▁Aeir	-1045
der	-1046
Ísil	-1047
▁Cle	-1048
▁Mion	-1049
Ísiltí	-1050
▁Arian	-1051
▁úsáid	-1052
▁Alison	-1053
ang	-1054
▁GMA	-1055
onnec	-1056
▁1634:	-1057
▁Cathair	-1058
55	-1059
▁Ú	-1060
íolóta	-1061
▁Connec	-1062
▁fhaithn	-1063
pi	-1064
aib	-1065
▁Ber	-1066
rainc	-1067
eoladh	-1068
iz	-1069
oiblí	-1070
▁Amer	-1071
eáin	-1072
aoine	-1073
ticut	-1074
▁Aimsíodh	-1075
▁Danmhairg	-1076
ein	-1077
▁Ge	-1078
▁Sibhialta	-1079
▁Connecticut	-1080
aim	-1081
▁Foils	-1082
ost	-1083
igan	-1084
▁tUachtarán	-1085
▁DC	-1086
▁Buzz	-1087
ber	-1088
arc	-1089
▁196	-1090
▁Indi	-1091
▁meán	-1092
▁she	-1093
▁Breith	-1094
▁Mc	-1095
burn	-1096
lack	-1097
ionad	-1098
ríochnaíodh	-1099
▁AFC	-1100
▁lip	-1101
cam	-1102
úirt	-1103
▁Alv	-1104
ago	-1105
aisa	-1106
▁Pol	-1107
▁ng	-1108
ruth	-1109
▁taif	-1110
▁NR	-1111
▁Foun	-1112
▁Náisiúnta	-1113
orgia	-1114
▁Atlanta	-1115
▁Hy	-1116
▁Dav	-1117
▁airde	-1118
abh	-1119
▁bp	-1120
▁1963	-1121
▁Fountain	-1122
aist	-1123
▁Albany	-1124
▁Ash	-1125
▁lena	-1126
osaíodh	-1127
▁Auburn	-1128
▁imreoir	-1129
▁Atlantic	-1130
gap	-1131
ile	-1132
les	-1133
och	-1134
▁saor	-1135
▁Singap	-1136
inc	-1137
▁Der	-1138
lainn	-1139
▁cearnacha	-1140
▁Fiontair	-1141
iar	-1142
▁oifige	-1143
atch	-1144
▁mea	-1145
▁chuir	-1146
▁sp	-1147
ande	-1148
▁Kar	-1149
éanta	-1150
▁Tionsc	-1151
Qu	-1152
eap	-1153
▁Mata	-1154
▁Fhrainc	-1155
ry	-1156
iga	-1157
ón	-1158
cio	-1159
gon	-1160
▁Calcio	-1161
po	-1162
▁Town	-1163
▁arna	-1164
eart	-1165
aoin	-1166
▁acu	-1167
▁Alc	-1168
insil	-1169
odáile	-1170
▁lipéad	-1171
▁Har	-1172
lár	-1173
airle	-1174
▁mill	-1175
▁ngair	-1176
▁Acc	-1177
▁Ass	-1178
▁Arch	-1179
▁iomp	-1180
ademia	-1181
▁Dal	-1182
▁daoine	-1183
jax	-1184
▁Jam	-1185
▁Ajax	-1186
▁Cuir	-1187
▁Rinneadh	-1188
yl	-1189
ins	-1190
quer	-1191
▁Bur	-1192
▁hInd	-1193
querque	-1194
▁Ahmet	-1195
uquerque	-1196
▁Aleksandr	-1197
88	-1198
eae	-1199
▁Michigan	-1200
▁Albuquerque	-1201
bach	-1202
stair	-1203
▁Trane	-1204
▁theic	-1205
▁Tosaigh	-1206
▁tionscnamh	-1207
itett	-1208
itettura	-1209
▁Contair	-1210
▁Architettura	-1211
idge	-1212
▁Ridge	-1213
▁Bhunaíodh	-1214
▁oibríocht	-1215
tt	-1216
úr	-1217
▁21	-1218
eabh	-1219
raon	-1220
▁Ben	-1221
▁Hall	-1222
▁X	-1223
▁SC	-1224
▁cu	-1225
▁riths	-1226
▁Fómhair	-1227
▁ceantóir	-1228
▁bán	-1229
▁sna	-1230
▁Ghréig	-1231
▁Sóisialta	-1232
ress	-1233
▁amháin	-1234
jas	-1235
vel	-1236
heim	-1237
more	-1238
áine	-1239
▁seil	-1240
▁Anaheim	-1241
iy	-1242
atra	-1243
insilvia	-1244
úl	-1245
sta	-1246
▁Cr	-1247
anna	-1248
▁Adolf	-1249
".	-1250
ns	-1251
ero	-1252
orp	-1253
▁20	-1254
osta	-1255
ship	-1256
▁ach	-1257
▁Réig	-1258
▁Romeo	-1259
▁Township	-1260
▁ngairtear	-1261
▁Ray	-1262
▁Sri	-1263
▁Black	-1264
▁gaolmhach	-1265
▁oibríochtúil	-1266
ings	-1267
▁bhl	-1268
▁dtí	-1269
▁Spás	-1270
▁Tenn	-1271
galore	-1272
▁Garth	-1273
▁Rayel	-1274
Mheiceo	-1275
agn	-1276
▁Os	-1277
00.0	-1278
odge	-1279
easaic	-1280
▁iompair	-1281
ny	-1282
iet	-1283
oilse	-1284
andeja	-1285
ca	-1286
unk	-1287
▁Bo	-1288
▁dt	-1289
▁Ion	-1290
ailiú	-1291
ionic	-1292
▁Chomh	-1293
▁dhiaidh	-1294
▁meiriceá	-1295
▁Bangalore	-1296
▁É	-1297
ank	-1298
ele	-1299
ella	-1300
▁Mahm	-1301
pleton	-1302
▁Obama	-1303
▁Abarth	-1304
.,	-1305
ras	-1306
▁Il	-1307
iain	-1308
▁rann	-1309
▁Dodge	-1310
▁Appleton	-1311
▁hIodáile	-1312
est	-1313
▁Dh	-1314
▁mb	-1315
ight	-1316
▁197	-1317
olann	-1318
▁seilbh	-1319
▁Tionscn	-1320
▁Seirbhísíonn	-1321
60	-1322
▁1.	-1323
rena	-1324
▁Chr	-1325
▁Fel	-1326
mhain	-1327
▁Taib	-1328
▁Barack	-1329
▁Chúnta	-1330
BN	-1331
by	-1332
nes	-1333
▁0.	-1334
▁pl	-1335
iceo	-1336
raim	-1337
eidhm	-1338
ideal	-1339
▁paisa	-1340
unt	-1341
ouis	-1342
▁Louis	-1343
▁Sport	-1344
ampshire	-1345
riú	-1346
óth	-1347
▁so	-1348
osca	-1349
ríobh	-1350
▁ISBN	-1351
veland	-1352
ina	-1353
pol	-1354
acha	-1355
▁Jav	-1356
▁Kov	-1357
eofar	-1358
ivers	-1359
▁acad	-1360
▁imríonn	-1361
▁bhFéarla	-1362
aba	-1363
▁Sol	-1364
arajas	-1365
▁anois	-1366
▁cearn	-1367
▁Philip	-1368
97	-1369
inig	-1370
▁Med	-1371
aistigh	-1372
▁Mahmud	-1373
BQ	-1374
SN	-1375
ít	-1376
▁SV	-1377
▁mu	-1378
▁Alfa	-1379
artach	-1380
neacht	-1381
▁Media	-1382
lachais	-1383
▁ioncam	-1384
aitheoir	-1385
▁laistigh	-1386
15	-1387
ley	-1388
▁Kh	-1389
▁du	-1390
▁For	-1391
▁Inc	-1392
▁Mosc	-1393
▁NRBQ	-1394
▁James	-1395
thaíodh	-1396
▁Bí	-1397
▁Mon	-1398
▁teic	-1399
▁acadúil	-1400
▁Cleveland	-1401
▁Réigiúnach	-1402
ok	-1403
ue	-1404
luna	-1405
nata	-1406
rtha	-1407
nataka	-1408
▁Adolfo	-1409
atr	-1410
rad	-1411
▁San	-1412
▁Ste	-1413
▁ISSN	-1414
▁Osbor	-1415
inignit	-1416
▁Tosaíodh	-1417
▁Karnataka	-1418
dn	-1419
icm	-1420
isco	-1421
rudn	-1422
tlan	-1423
▁1000	-1424
▁Chic	-1425
▁Prudn	-1426
▁Serie	-1427
alartach	-1428
▁Osborne	-1429
▁Samhain	-1430
▁Thuaidh	-1431
▁AIDAluna	-1432
▁Prudnikov	-1433
az	-1434
bo	-1435
▁Agnes	-1436
▁Chicago	-1437
▁tI	-1438
▁éag	-1439
ewell	-1440
urtha	-1441
▁Brea	-1442
▁Hous	-1443
▁Áir	-1444
▁2014	-1445
▁siad	-1446
eathrú	-1447
▁Atlas	-1448
▁sheinn	-1449
▁leathan	-1450
▁malartach	-1451
ind	-1452
raí	-1453
lint	-1454
éire	-1455
▁Can	-1456
▁Filip	-1457
▁Flint	-1458
▁gceann	-1459
íos	-1460
▁AM	-1461
▁AZ	-1462
aisc	-1463
pena	-1464
▁Amar	-1465
▁Eric	-1466
▁thug	-1467
ionico	-1468
▁Alpena	-1469
aceae	-1470
stála	-1471
▁Baku	-1472
▁Ababa	-1473
▁Tógadh	-1474
ves	-1475
anta	-1476
▁Gear	-1477
▁milliméadar	-1478
obh	-1479
▁scor	-1480
byshire	-1481
amh	-1482
ram	-1483
udi	-1484
▁hO	-1485
thóir	-1486
▁Juan	-1487
naíonn	-1488
Barajas	-1489
▁Bionico	-1490
80	-1491
dach	-1492
perm	-1493
▁2006	-1494
▁Aith	-1495
▁í	-1496
ict	-1497
áite	-1498
tares	-1499
▁Hong	-1500
▁Jenn	-1501
aileáis	-1502
▁Antares	-1503
▁Jennings	-1504
33	-1505
91	-1506
acht	-1507
▁Bakewell	-1508
bal	-1509
iva	-1510
▁Rob	-1511
arcas	-1512
otter	-1513
raíocht	-1514
tlantach	-1515
▁Bandeja	-1516
ast	-1517
gun	-1518
▁Cam	-1519
linois	-1520
▁Ariane	-1521
▁Dallas	-1522
▁taifid	-1523
▁tástála	-1524
▁Gheorgia	-1525
▁Derbyshire	-1526
4,	-1527
▁000	-1528
▁AMC	-1529
▁Ara	-1530
lanco	-1531
▁2000	-1532
▁Turc	-1533
▁long	-1534
▁Hyperm	-1535
▁Illinois	-1536
▁Accademia	-1537
▁Hypermarcas	-1538
eny	-1539
ladh	-1540
enyet	-1541
polis	-1542
▁Holl	-1543
▁Hampshire	-1544
úna	-1545
ilom	-1546
▁Gor	-1547
ainne	-1548
luich	-1549
eacóin	-1550
ilomar	-1551
ott	-1552
▁13	-1553
alli	-1554
▁Airt	-1555
▁Sara	-1556
▁Asilomar	-1557
▁Breataine	-1558
iG	-1559
iGas	-1560
illo	-1561
▁Ard	-1562
▁ghe	-1563
darás	-1564
▁Rinne	-1565
▁AmeriGas	-1566
ney	-1567
ítim	-1568
▁Ayers	-1569
▁rítim	-1570
▁bhaith	-1571
▁ón	-1572
lath	-1573
▁Lanka	-1574
▁scéil	-1575
95	-1576
▁Go	-1577
▁250	-1578
▁Inf	-1579
▁aer	-1580
▁institiúid	-1581
ky	-1582
unc	-1583
íon	-1584
úis	-1585
heel	-1586
ionn	-1587
▁trí	-1588
▁Teis	-1589
▁Verm	-1590
▁sois	-1591
▁Wheel	-1592
▁Airteag	-1593
▁príomhchathair	-1594
/2	-1595
lá	-1596
ippi	-1597
rion	-1598
▁Gnó	-1599
▁Pet	-1600
agnol	-1601
▁Acura	-1602
▁Addis	-1603
▁Aithin	-1604
▁Romagnol	-1605
▁fhaithnítear	-1606
eth	-1607
ial	-1608
▁Me	-1609
pool	-1610
eadra	-1611
▁Asad	-1612
▁Roma	-1613
▁Johnson	-1614
▁bhliain	-1615
▁Mhaileáis	-1616
▁Romagnoli	-1617
▁úsáidtear	-1618
wak	-1619
éine	-1620
▁Sar	-1621
▁dlú	-1622
▁ghn	-1623
essio	-1624
illar	-1625
▁1955	-1626
▁Ayam	-1627
▁Kong	-1628
▁Meith	-1629
aonlath	-1630
▁Sarawak	-1631
▁Sportiva	-1632
▁Teisaire	-1633
▁Meitheamh	-1634
70	-1635
-01	-1636
ipe	-1637
▁Mo	-1638
link	-1639
▁Klink	-1640
oireann	-1641
▁Christ	-1642
▁Robert	-1643
▁Alessio	-1644
gu	-1645
rest	-1646
óras	-1647
alainn	-1648
▁Alfons	-1649
▁úinéir	-1650
▁Alberto	-1651
▁Forrest	-1652
▁chineál	-1653
▁Alexandr	-1654
art	-1655
▁Po	-1656
▁Park	-1657
varaya	-1658
▁curtha	-1659
▁Andrews	-1660
▁Vermont	-1661
▁Blackpool	-1662
▁os	-1663
izab	-1664
▁Bun	-1665
▁Dub	-1666
éarch	-1667
izabeth	-1668
▁Dublin	-1669
▁dhéantar	-1670
▁Elizabeth	-1671
gham	-1672
táin	-1673
laska	-1674
▁Acta	-1675
▁Chin	-1676
eireadh	-1677
▁Alaska	-1678
illa	-1679
▁Mas	-1680
éanann	-1681
▁Allen	-1682
▁Georg	-1683
▁Alabama	-1684
▁Christian	-1685
ionscnaíonn	-1686
▁rithsealach	-1687
64	-1688
LC	-1689
esh	-1690
ren	-1691
ven	-1692
▁Sch	-1693
▁hop	-1694
▁Java	-1695
issippi	-1696
▁gCúirte	-1697
vesvaraya	-1698
▁aimsíodh	-1699
▁príomhph	-1700
▁Airteagal	-1701
52	-1702
ajj	-1703
att	-1704
▁26	-1705
▁Bac	-1706
▁Felipe	-1707
Ísiltíre	-1708
Atlantach	-1709
ade	-1710
▁of	-1711
ajji	-1712
▁Zit	-1713
▁fhe	-1714
órais	-1715
▁roic	-1716
arrosa	-1717
neachta	-1718
oblanco	-1719
▁Alfredo	-1720
▁Wheeler	-1721
▁Deireadh	-1722
▁Zitarrosa	-1723
ahra	-1724
mach	-1725
▁Cop	-1726
atraz	-1727
máine	-1728
▁Agra	-1729
adaithe	-1730
▁Fl	-1731
▁rá	-1732
▁Cab	-1733
racha	-1734
▁Alaa	-1735
pháirt	-1736
41	-1737
ve	-1738
íl	-1739
York	-1740
▁Ore	-1741
▁Pal	-1742
aterp	-1743
tella	-1744
▁Audi	-1745
▁soic	-1746
allero	-1747
▁Caterp	-1748
▁Matador	-1749
▁Caballero	-1750
yr	-1751
bat	-1752
wer	-1753
▁Un	-1754
aine	-1755
▁Press	-1756
óinéise	-1757
▁Seirbh	-1758
▁Caterpillar	-1759
ix	-1760
▁RS	-1761
akar	-1762
icil	-1763
rant	-1764
tegun	-1765
▁Deer	-1766
▁Ertegun	-1767
94	-1768
aul	-1769
one	-1770
way	-1771
anda	-1772
raig	-1773
táil	-1774
▁Ham	-1775
▁Kol	-1776
▁Chie	-1777
▁Abner	-1778
▁Charl	-1779
▁cionn	-1780
▁Oregon	-1781
joblanco	-1782
olaíochta	-1783
▁5.	-1784
▁Iq	-1785
erney	-1786
erona	-1787
raince	-1788
▁Baked	-1789
▁Iqbal	-1790
▁araon	-1791
▁foils	-1792
▁Alcatraz	-1793
▁Ba	-1794
alle	-1795
itra	-1796
onda	-1797
▁Stád	-1798
▁athrú	-1799
▁táirg	-1800
▁Comhdh	-1801
▁Alderney	-1802
73	-1803
go	-1804
up	-1805
ose	-1806
nadh	-1807
uaigh	-1808
▁Honda	-1809
▁Fraince	-1810
▁úinéire	-1811
▁chomhrac	-1812
▁Meiriceáigh	-1813
erft	-1814
▁Bhe	-1815
▁Wat	-1816
▁gao	-1817
▁Antio	-1818
▁Werft	-1819
lington	-1820
▁Watson	-1821
▁penyet	-1822
▁rithbh	-1823
▁tréimhs	-1824
▁chu	-1825
▁hÍsiltíre	-1826
fh	-1827
CLC	-1828
esse	-1829
oway	-1830
abank	-1831
▁Aire	-1832
▁gcuid	-1833
▁soicind	-1834
▁Holloway	-1835
▁Alexandra	-1836
▁chuireann	-1837
CO	-1838
ff	-1839
▁cód	-1840
▁2009	-1841
▁Baile	-1842
▁Bella	-1843
▁Craig	-1844
▁oifig	-1845
▁seirbh	-1846
▁gaoladh	-1847
▁Amarillo	-1848
▁Chinabank	-1849
▁dlúneacht	-1850
▁eagraíocht	-1851
gen	-1852
edas	-1853
▁sín	-1854
▁Adare	-1855
▁India	-1856
▁Gorbach	-1857
▁teasaic	-1858
▁Daonlath	-1859
▁Maryland	-1860
▁Luna	-1861
▁Phob	-1862
rthóir	-1863
▁Lárionad	-1864
▁GT	-1865
abin	-1866
gabat	-1867
▁Ange	-1868
▁Liga	-1869
▁OCLC	-1870
atchoy	-1871
▁Sabin	-1872
▁Theas	-1873
▁Batchoy	-1874
▁Seolann	-1875
▁Ashgabat	-1876
▁Filipíne	-1877
eam	-1878
ens	-1879
▁Dag	-1880
erick	-1881
eabhar	-1882
eangal	-1883
ireann	-1884
▁Blues	-1885
▁Oileán	-1886
éarchéim	-1887
▁bhreith	-1888
▁&	-1889
▁Ly	-1890
▁Wal	-1891
▁Mark	-1892
▁Scéil	-1893
▁pedas	-1894
▁Angola	-1895
▁thosaigh	-1896
ississippi	-1897
▁Phinsilvia	-1898
LX	-1899
cht	-1900
els	-1901
óga	-1902
▁Mil	-1903
▁TLX	-1904
lasraí	-1905
luiche	-1906
▁Alvah	-1907
▁Bacon	-1908
▁Franc	-1909
líneach	-1910
▁Foilse	-1911
▁beacóin	-1912
▁phíolóta	-1913
68	-1914
per	-1915
óiv	-1916
▁cúl	-1917
ennie	-1918
istan	-1919
▁Mont	-1920
ialtas	-1921
stella	-1922
▁déanta	-1923
▁Scríofa	-1924
▁Albennie	-1925
▁chaipiteal	-1926
▁oiblíneach	-1927
▁Mississippi	-1928
Is	-1929
mat	-1930
rup	-1931
▁fu	-1932
atric	-1933
▁Bath	-1934
▁Fort	-1935
▁Kant	-1936
straim	-1937
▁Philipp	-1938
▁scríofa	-1939
▁AIDAstella	-1940
be	-1941
ana	-1942
bio	-1943
oga	-1944
tán	-1945
▁Du	-1946
Aire	-1947
lann	-1948
▁Car	-1949
▁Mag	-1950
▁gcó	-1951
ersus	-1952
foirt	-1953
▁Pena	-1954
▁Tuir	-1955
▁Versus	-1956
▁Charlie	-1957
atriciana	-1958
▁Foilseoidh	-1959
acs	-1960
aill	-1961
▁ALV	-1962
▁Sam	-1963
▁Sta	-1964
illín	-1965
siceo	-1966
▁Glen	-1967
▁aicm	-1968
▁breith	-1969
dw	-1970
col	-1971
ust	-1972
acas	-1973
éacs	-1974
▁Eala	-1975
▁Verona	-1976
▁feidhm	-1977
▁Angeles	-1978
▁Chúirte	-1979
▁Comhlachais	-1980
CC	-1981
ev	-1982
íse	-1983
bhair	-1984
iadis	-1985
▁Arap	-1986
óinéas	-1987
▁feith	-1988
▁Houston	-1989
▁Ajoblanco	-1990
▁Georgiadis	-1991
CCN	-1992
rez	-1993
onis	-1994
▁mór	-1995
▁Paul	-1996
naithe	-1997
▁Adonis	-1998
▁Foilsíodh	-1999
▁Ionadaithe	-2000
Bh	-2001
dan	-2002
▁En	-2003
▁Day	-2004
▁LCCN	-2005
▁fáil	-2006
▁roth	-2007
▁Frank	-2008
▁Ostair	-2009
▁glasraí	-2010
ná	-2011
600	-2012
sia	-2013
Rosa	-2014
ense	-2015
eont	-2016
▁Dou	-2017
▁Mór	-2018
▁Amst	-2019
▁Lúna	-2020
antóir	-2021
▁Róimh	-2022
▁príomhthábhar	-2023
12	-2024
▁Bl	-2025
nand	-2026
áile	-2027
▁Ves	-2028
eontol	-2029
▁Breis	-2030
▁Lúnasa	-2031
▁Phacas	-2032
▁foireann	-2033
▁Alexandre	-2034
aw	-2035
asm	-2036
orge	-2037
▁Arr	-2038
▁Fer	-2039
ailte	-2040
▁Scales	-2041
▁ndiaidh	-2042
▁ceannairí	-2043
vo	-2044
obal	-2045
werp	-2046
▁Fal	-2047
essee	-2048
▁cuir	-2049
▁2006.	-2050
▁Chóta	-2051
▁Moore	-2052
▁saorán	-2053
▁Antwerp	-2054
▁Cuirtear	-2055
▁Singapúr	-2056
▁Breiseadh	-2057
irí	-2058
tak	-2059
airt	-2060
▁Aib	-2061
▁Liv	-2062
asmus	-2063
roinn	-2064
▁Meta	-2065
▁Mill	-2066
▁tInd	-2067
▁Andra	-2068
▁Chievo	-2069
▁cumhach	-2070
▁Tennessee	-2071
▁fhoireann	-2072
▁Danmhairge	-2073
▁seirbhísíodh	-2074
uli	-2075
▁34	-2076
▁ja	-2077
atag	-2078
eoil	-2079
gett	-2080
▁Lee	-2081
▁van	-2082
ettys	-2083
▁jazz	-2084
▁linn	-2085
▁deirí	-2086
▁Daggett	-2087
▁deiridh	-2088
▁dhaonra	-2089
▁gcríoch	-2090
ettysburg	-2091
43	-2092
ão	-2093
▁bP	-2094
bury	-2095
árez	-2096
▁Lum	-2097
iraqu	-2098
oirne	-2099
remia	-2100
▁Cúirte	-2101
▁Rómáin	-2102
▁Suárez	-2103
▁Ardmore	-2104
iraquense	-2105
▁Arapiraquense	-2106
rd	-2107
enh	-2108
▁Dr	-2109
▁Ex	-2110
▁600	-2111
▁Gro	-2112
eacha	-2113
reoidh	-2114
▁leith	-2115
Islainn	-2116
▁Miller	-2117
▁gcláir	-2118
▁ghearr	-2119
▁Califéine	-2120
90	-2121
ane	-2122
bus	-2123
ids	-2124
ien	-2125
law	-2126
wil	-2127
▁VI	-2128
▁al	-2129
berg	-2130
réas	-2131
▁300	-2132
▁Adis	-2133
▁Jway	-2134
▁Twil	-2135
▁Bheil	-2136
▁bháis	-2137
▁pland	-2138
ainiste	-2139
eantóir	-2140
▁tógáil	-2141
▁Jwaydan	-2142
▁Leabhar	-2143
▁Bhathair	-2144
▁Twilight	-2145
▁Gettysburg	-2146
▁Vesvesvaraya	-2147
▁8.	-2148
xein	-2149
▁185	-2150
▁Bay	-2151
▁Beal	-2152
laware	-2153
xeinou	-2154
▁Phill	-2155
▁seoladh	-2156
▁Delaware	-2157
pháirteach	-2158
arch	-2159
▁hip	-2160
▁Rock	-2161
▁Oileann	-2162
▁píolóta	-2163
▁ealaíontóir	-2164
íip	-2165
▁Ef	-2166
pace	-2167
port	-2168
▁101	-2169
▁Inn	-2170
▁ALCO	-2171
▁Pala	-2172
▁tríú	-2173
acháin	-2174
▁Thoir	-2175
▁gcóta	-2176
▁Poiblí	-2177
iaracháin	-2178
▁Palaeontol	-2179
14	-2180
▁Q	-2181
dam	-2182
ino	-2183
▁52	-2184
▁Cu	-2185
kins	-2186
▁Dim	-2187
▁Sum	-2188
ietro	-2189
▁airg	-2190
▁Pietro	-2191
▁cineál	-2192
▁Bealtaine	-2193
LA	-2194
ier	-2195
ila	-2196
ini	-2197
▁22	-2198
▁30	-2199
▁lé	-2200
▁Ata	-2201
▁ELA	-2202
▁Gub	-2203
▁Rams	-2204
▁Rich	-2205
▁Wolf	-2206
aimint	-2207
▁Burns	-2208
▁Chuige	-2209
▁Gubbio	-2210
alafoirt	-2211
▁bhailiú	-2212
▁Daonlathach	-2213
8,	-2214
eed	-2215
ipí	-2216
▁Jr	-2217
áide	-2218
órsa	-2219
▁100	-2220
▁190	-2221
▁Bor	-2222
▁Per	-2223
▁Abub	-2224
▁Camp	-2225
▁Contae	-2226
▁diosca	-2227
▁Áirítear	-2228
▁Alexander	-2229
▁ollscoile	-2230
▁Amatriciana	-2231
ly	-2232
▁'	-2233
ano	-2234
ink	-2235
lama	-2236
luas	-2237
tair	-2238
éide	-2239
▁LaS	-2240
▁lon	-2241
▁Alph	-2242
▁Spar	-2243
▁clár	-2244
▁Allama	-2245
▁Aimsigh	-2246
▁LaSalle	-2247
▁stiúrthóir	-2248
▁idirnáisiúnta	-2249
me	-2250
va	-2251
▁-	-2252
▁0-	-2253
▁se	-2254
easa	-2255
▁AIP	-2256
▁Sky	-2257
▁Eorp	-2258
▁Sand	-2259
▁glan	-2260
▁Chuir	-2261
▁Dales	-2262
▁Milan	-2263
▁Moscó	-2264
▁léinn	-2265
▁Abubakar	-2266
▁cuideacht	-2267
98	-2268
acc	-2269
med	-2270
▁Ne	-2271
▁bó	-2272
iott	-2273
thaí	-2274
tion	-2275
ylde	-2276
▁Cla	-2277
▁Los	-2278
▁Mal	-2279
▁pop	-2280
▁Hunt	-2281
▁Meán	-2282
▁méada	-2283
leachta	-2284
▁Stádán	-2285
▁Eorpach	-2286
▁rannpháirteach	-2287
ans	-2288
orno	-2289
▁and	-2290
cháin	-2291
enhag	-2292
▁Gany	-2293
▁thír	-2294
oirsia	-2295
▁Baade	-2296
▁Tuirc	-2297
▁Ganymed	-2298
▁scríobh	-2299
▁sheirbhís	-2300
tas	-2301
▁(6	-2302
eave	-2303
▁Gur	-2304
Arena	-2305
riott	-2306
▁Dent	-2307
iúnais	-2308
áthair	-2309
▁Airey	-2310
▁Manor	-2311
▁Neave	-2312
▁Chláir	-2313
▁cónaíonn	-2314
▁Cú	-2315
▁Ma	-2316
alam	-2317
aret	-2318
igre	-2319
▁cru	-2320
Quaid	-2321
aretta	-2322
▁2009.	-2323
▁Ceann	-2324
▁Ghear	-2325
▁gCoin	-2326
▁nigre	-2327
▁roinn	-2328
▁Guruli	-2329
▁gCúirt	-2330
▁McQuaid	-2331
▁Poaceae	-2332
▁Mheiriceá	-2333
▁airgeadra	-2334
▁Alpharetta	-2335
▁Cruthaíodh	-2336
/3	-2337
pt	-2338
▁Wer	-2339
▁blú	-2340
▁roc	-2341
ardam	-2342
▁1910	-2343
▁Hess	-2344
▁dtír	-2345
▁dubh	-2346
raíonn	-2347
▁Bakso	-2348
▁Stair	-2349
▁staid	-2350
▁Walter	-2351
▁Werder	-2352
riontáil	-2353
▁Adisham	-2354
▁Marriott	-2355
▁chothraitheoir	-2356
da	-2357
vy	-2358
▁Qu	-2359
eagh	-2360
reán	-2361
ulia	-2362
▁Bir	-2363
▁Bob	-2364
▁Loc	-2365
▁rís	-2366
onica	-2367
uding	-2368
▁Bonn	-2369
▁Leas	-2370
▁Levy	-2371
▁cabh	-2372
▁trai	-2373
▁údar	-2374
▁Fylde	-2375
▁Monoc	-2376
▁Bhajji	-2377
▁gaolmh	-2378
disiúnta	-2379
▁Livorno	-2380
▁Arlington	-2381
▁bhainisteoir	-2382
▁traidisiúnta	-2383
/1	-2384
99	-2385
ark	-2386
enc	-2387
zny	-2388
ette	-2389
onso	-2390
para	-2391
▁164	-2392
▁Pri	-2393
▁soc	-2394
▁teo	-2395
▁Fred	-2396
▁Meic	-2397
estley	-2398
íortha	-2399
▁Afonso	-2400
▁Grozny	-2401
▁Agremia	-2402
▁Aibreán	-2403
▁Phillip	-2404
▁Frederick	-2405
▁Priestley	-2406
46	-2407
65	-2408
93	-2409
bra	-2410
ive	-2411
aimh	-2412
▁lár	-2413
istic	-2414
remen	-2415
▁Frew	-2416
▁Grey	-2417
▁Asunc	-2418
▁Mheic	-2419
Ísiltír	-2420
▁Bremen	-2421
▁Príomh	-2422
aisceart	-2423
▁sheoladh	-2424
▁tionscal	-2425
▁Amstardam	-2426
eau	-2427
▁hÉ	-2428
▁Koc	-2429
gacha	-2430
venue	-2431
▁2014.	-2432
▁Inter	-2433
▁Roinn	-2434
teideal	-2435
▁Avenue	-2436
▁tógála	-2437
▁Dimitra	-2438
▁Turcach	-2439
▁Efxeinou	-2440
▁Efxeinoupolis	-2441
ezz	-2442
nóir	-2443
▁Ace	-2444
▁Gla	-2445
▁Hal	-2446
▁Tug	-2447
▁Asam	-2448
▁Bras	-2449
ezzane	-2450
▁Cruis	-2451
▁Locom	-2452
ionlainn	-2453
stonbury	-2454
▁Lumezzane	-2455
▁Glastonbury	-2456
AL	-2457
An	-2458
▁.	-2459
68.	-2460
odr	-2461
range	-2462
▁Corn	-2463
▁ioma	-2464
▁maoin	-2465
▁Ampara	-2466
▁Wilder	-2467
▁Cruises	-2468
▁Ríochta	-2469
▁gcoirne	-2470
BC	-2471
BS	-2472
ól	-2473
bia	-2474
boza	-2475
orid	-2476
úise	-2477
▁DBS	-2478
▁Del	-2479
▁Uru	-2480
▁Atat	-2481
▁alma	-2482
▁Coige	-2483
▁Costa	-2484
▁Kovac	-2485
mingham	-2486
▁Bunadh	-2487
▁Barboza	-2488
▁Richard	-2489
▁Gearmáine	-2490
▁Ghearmáin	-2491
▁Birmingham	-2492
▁leathanach	-2493
ance	-2494
iyat	-2495
▁Ter	-2496
arait	-2497
▁bear	-2498
▁bian	-2499
▁Green	-2500
▁Kharait	-2501
▁Greenville	-2502
▁Kharaitiyat	-2503
▁hIndóinéise	-2504
iel	-2505
yth	-2506
▁3.	-2507
▁ni	-2508
▁Amd	-2509
▁Ann	-2510
▁Dia	-2511
áinig	-2512
▁Chir	-2513
hambra	-2514
▁Spáis	-2515
▁Gobhar	-2516
▁ghineál	-2517
▁Copenhag	-2518
29	-2519
74	-2520
pl	-2521
gar	-2522
ice	-2523
kma	-2524
▁AW	-2525
▁Mi	-2526
avad	-2527
▁Hum	-2528
▁tSu	-2529
alami	-2530
kmaar	-2531
▁Gufa	-2532
▁dear	-2533
salami	-2534
ábhair	-2535
▁Alvis	-2536
▁chruth	-2537
▁Amdavad	-2538
▁Spartak	-2539
▁máthair	-2540
▁Chirikov	-2541
6,	-2542
89	-2543
oit	-2544
sis	-2545
▁Dy	-2546
▁So	-2547
▁cos	-2548
naimh	-2549
otive	-2550
▁Phol	-2551
▁Asser	-2552
▁Metap	-2553
▁seinn	-2554
▁Orange	-2555
▁Aleksey	-2556
▁Alkmaar	-2557
▁Rialtas	-2558
▁inneall	-2559
▁Ísiltír	-2560
▁Abdulsalami	-2561
▁chríochnaíodh	-2562
ces	-2563
oto	-2564
▁1036	-2565
vances	-2566
▁Parker	-2567
▁Advances	-2568
▁Williams	-2569
▁binignit	-2570
ibb	-2571
uel	-2572
▁AS	-2573
▁Es	-2574
láin	-2575
▁dhá	-2576
▁óga	-2577
éimse	-2578
▁rial	-2579
▁rogh	-2580
▁teicn	-2581
▁Bobina	-2582
▁gcósta	-2583
raitheoir	-2584
▁Carachtar	-2585
▁gaolmhara	-2586
▁tSualainn	-2587
▁teangacha	-2588
AI	-2589
▁29	-2590
▁UT	-2591
ocia	-2592
raith	-2593
▁1918	-2594
▁Carl	-2595
▁Chum	-2596
▁Dear	-2597
▁Delta	-2598
itheach	-2599
▁críoch	-2600
▁Comhdhála	-2601
▁Singapore	-2602
▁Alexandria	-2603
▁príomhphríoch	-2604
km	-2605
mir	-2606
ách	-2607
fidh	-2608
outh	-2609
rich	-2610
tone	-2611
íosp	-2612
▁Bhr	-2613
▁dar	-2614
uaine	-2615
▁2005	-2616
gentin	-2617
iotail	-2618
láinte	-2619
nation	-2620
▁Angóga	-2621
▁Údarás	-2622
national	-2623
▁Bertone	-2624
▁lonnaíodh	-2625
▁International	-2626
Ail	-2627
ster	-2628
▁BBC	-2629
athan	-2630
▁gcás	-2631
▁Claud	-2632
▁Argentin	-2633
▁foilsíodh	-2634
▁Gobharnóir	-2635
75	-2636
ač	-2637
ke	-2638
hol	-2639
uch	-2640
▁Rh	-2641
Soto	-2642
ythm	-2643
▁All	-2644
▁Ces	-2645
▁Hop	-2646
ionól	-2647
irond	-2648
radab	-2649
▁aist	-2650
eartar	-2651
ogaard	-2652
▁Kovač	-2653
▁Cesena	-2654
▁DeSoto	-2655
▁Potter	-2656
▁Rhythm	-2657
irondack	-2658
▁Abradab	-2659
▁Boogaard	-2660
▁comhlacht	-2661
▁Adirondack	-2662
▁Fhionlainn	-2663
▁seirbhísíonn	-2664
▁AE	-2665
ibal	-2666
uart	-2667
▁Jack	-2668
▁fair	-2669
▁Zahra	-2670
▁Stuart	-2671
▁Riaracháin	-2672
▁Tionscnaíonn	-2673
1,	-2674
▁$	-2675
uro	-2676
uta	-2677
éis	-2678
abad	-2679
airg	-2680
plos	-2681
uren	-2682
▁AWH	-2683
▁Tar	-2684
▁rea	-2685
▁tar	-2686
▁éir	-2687
▁Armin	-2688
▁mater	-2689
Bhuaine	-2690
plosion	-2691
▁Buuren	-2692
▁Tionól	-2693
▁bhuair	-2694
▁reatha	-2695
▁Aeráite	-2696
▁Bhráile	-2697
▁Chomhdh	-2698
▁Romance	-2699
▁oibríonn	-2700
▁Explosion	-2701
▁Copenhagen	-2702
▁Phacastáin	-2703
▁tionscnaíodh	-2704
788	-2705
90.	-2706
max	-2707
00.0.	-2708
▁Bund	-2709
▁Chan	-2710
▁Parl	-2711
▁Asher	-2712
▁chair	-2713
▁Baymax	-2714
▁thionsc	-2715
▁Seinnann	-2716
▁hÉireann	-2717
▁Francisco	-2718
▁stílistic	-2719
ér	-2720
▁Gr	-2721
▁Ut	-2722
akov	-2723
anam	-2724
▁Bhá	-2725
▁Jar	-2726
erala	-2727
inear	-2728
▁AZAL	-2729
▁Prad	-2730
▁Allan	-2731
▁Uttar	-2732
▁maith	-2733
▁ionada	-2734
▁Pradesh	-2735
rantville	-2736
▁Alhambra	-2737
▁Chumakov	-2738
AC	-2739
ús	-2740
asc	-2741
▁gn	-2742
▁kg	-2743
evid	-2744
▁Ful	-2745
▁ban	-2746
▁áir	-2747
agadh	-2748
matis	-2749
▁thóg	-2750
eannas	-2751
▁Arena	-2752
▁Bheilg	-2753
▁Fulton	-2754
▁Kerala	-2755
▁aistriú	-2756
▁Binignit	-2757
▁Montevid	-2758
▁seirbhísí	-2759
▁Leabharlann	-2760
72	-2761
pe	-2762
▁Ó	-2763
ars	-2764
ção	-2765
▁ob	-2766
argh	-2767
▁Sao	-2768
▁Tom	-2769
▁2015	-2770
▁Plac	-2771
▁measc	-2772
▁obair	-2773
▁páirt	-2774
▁Indéin	-2775
▁réimse	-2776
▁Colmore	-2777
▁Síneach	-2778
▁scéileadh	-2779
▁shainiste	-2780
▁Montevideo	-2781
▁chomhábhar	-2782
24	-2783
IT	-2784
af	-2785
acy	-2786
atta	-2787
hnan	-2788
tica	-2789
▁Gal	-2790
▁ola	-2791
devan	-2792
éanna	-2793
▁1923	-2794
▁5600	-2795
▁Cast	-2796
▁Sarv	-2797
▁Seap	-2798
ahalli	-2799
arthar	-2800
eideal	-2801
éadfar	-2802
▁Andal	-2803
▁Hotel	-2804
▁Mhuir	-2805
arthóir	-2806
rishnan	-2807
▁Attica	-2808
▁Suíomh	-2809
▁cearta	-2810
▁puding	-2811
arghatta	-2812
oibríonn	-2813
▁Camilla	-2814
▁Cheathrú	-2815
devanahalli	-2816
▁Hessarghatta	-2817
jab	-2818
▁28	-2819
▁um	-2820
itir	-2821
▁Bol	-2822
▁Old	-2823
▁Pow	-2824
▁stá	-2825
adhak	-2826
anden	-2827
antry	-2828
space	-2829
teoir	-2830
unjab	-2831
▁Bill	-2832
▁Doug	-2833
▁Road	-2834
▁Aerbh	-2835
▁clúir	-2836
iúnaigh	-2837
▁Radhak	-2838
▁teicic	-2839
▁Scríobh	-2840
▁Infantry	-2841
▁Arianspace	-2842
▁Grantville	-2843
▁Mionstraim	-2844
▁Radhakrishnan	-2845
Mar	-2846
oza	-2847
▁Im	-2848
acob	-2849
arez	-2850
elso	-2851
▁Gaz	-2852
▁Row	-2853
▁Sid	-2854
lacha	-2855
▁cath	-2856
▁shín	-2857
elsohn	-2858
▁Coiste	-2859
▁Suarez	-2860
▁Vanden	-2861
▁aicmiú	-2862
▁Gazette	-2863
▁Iodáile	-2864
▁Mendoza	-2865
aitheoirí	-2866
▁Jonathan	-2867
▁Mendelsohn	-2868
▁Parlaimint	-2869
▁Vandenberg	-2870
▁fhaithníodh	-2871
▁Soldevanahalli	-2872
kr	-2873
ger	-2874
aoch	-2875
ione	-2876
▁107	-2877
▁mon	-2878
chuid	-2879
▁Chru	-2880
▁Olim	-2881
▁muic	-2882
éanamh	-2883
▁Turkm	-2884
▁cruth	-2885
▁deara	-2886
▁Punjab	-2887
▁Cornell	-2888
▁Moscóva	-2889
▁Spáinne	-2890
▁pháirtí	-2891
▁Bheillín	-2892
▁seirbhíodh	-2893
31	-2894
0.0	-2895
seo	-2896
ator	-2897
eeds	-2898
icia	-2899
iden	-2900
▁170	-2901
▁Moy	-2902
▁Tab	-2903
▁dhí	-2904
▁uas	-2905
▁1932	-2906
▁Rodr	-2907
▁imir	-2908
▁meas	-2909
▁Marsa	-2910
▁litir	-2911
▁Moyine	-2912
▁Théacs	-2913
▁gineál	-2914
▁Aeirneachta	-2915
▁oibritheach	-2916
-17	-2917
500	-2918
inh	-2919
ora	-2920
▁Ot	-2921
▁Tu	-2922
atal	-2923
chur	-2924
zmir	-2925
▁Pop	-2926
▁thu	-2927
Marce	-2928
aitic	-2929
aróir	-2930
▁Spór	-2931
▁hIon	-2932
dweeds	-2933
▁Catal	-2934
▁Sibal	-2935
▁Rotter	-2936
▁DeMarce	-2937
▁Rotterdam	-2938
jo	-2939
ten	-2940
áth	-2941
▁01	-2942
aite	-2943
itas	-2944
óige	-2945
▁Daw	-2946
▁Phr	-2947
▁Val	-2948
mouth	-2949
▁Long	-2950
▁Oibr	-2951
ileáin	-2952
▁duine	-2953
▁Dawson	-2954
▁Mheabh	-2955
▁Univers	-2956
eolaíocht	-2957
istíochta	-2958
▁Chalafoirt	-2959
▁phriontáil	-2960
▁críochnaíodh	-2961
▁rithbhealach	-2962
LT	-2963
azz	-2964
rab	-2965
rom	-2966
yus	-2967
enir	-2968
quia	-2969
▁BLT	-2970
▁Big	-2971
biata	-2972
ceoir	-2973
sburg	-2974
▁Alba	-2975
▁Tyus	-2976
▁chun	-2977
accone	-2978
▁ionann	-2979
rabbiata	-2980
▁Áiseach	-2981
▁beartach	-2982
▁Bathracha	-2983
▁Wildweeds	-2984
48	-2985
är	-2986
ayl	-2987
▁Hip	-2988
▁Hor	-2989
▁Mat	-2990
▁Sal	-2991
▁Sín	-2992
▁clú	-2993
▁los	-2994
aylor	-2995
gonal	-2996
obend	-2997
▁Tama	-2998
▁Vinc	-2999
▁lean	-3000
▁níos	-3001
▁spás	-3002
▁uibh	-3003
chláir	-3004
▁Count	-3005
▁Ealaí	-3006
▁Phíip	-3007
▁fheith	-3008
▁Agustin	-3009
▁Vincent	-3010
iomaccone	-3011
▁Alcobend	-3012
▁Diagonal	-3013
▁dteideal	-3014
▁oifigiúil	-3015
47	-3016
eb	-3017
▁Cl	-3018
atto	-3019
inki	-3020
álaí	-3021
raigh	-3022
táine	-3023
▁1927	-3024
▁1989	-3025
▁Char	-3026
ideach	-3027
▁Arbor	-3028
▁Peter	-3029
iúcháin	-3030
íospóid	-3031
▁Carlos	-3032
▁anaithn	-3033
▁Seoirsia	-3034
▁oibrithe	-3035
▁Afraicach	-3036
▁Antioquia	-3037
▁Phoblacht	-3038
▁Alcobendas	-3039
▁príomhthéanta	-3040
58	-3041
cup	-3042
ood	-3043
▁Gl	-3044
anac	-3045
irst	-3046
▁Gra	-3047
▁Jal	-3048
nited	-3049
▁Jazz	-3050
▁Main	-3051
▁1963.	-3052
▁Terek	-3053
▁United	-3054
▁roinnt	-3055
▁táirgí	-3056
▁Erasmus	-3057
▁Iarthar	-3058
▁chríoch	-3059
▁roicéad	-3060
▁stiúirt	-3061
▁Bunaíodh	-3062
▁monaróir	-3063
077	-3064
iri	-3065
oom	-3066
▁"1	-3067
guay	-3068
hann	-3069
▁Way	-3070
▁osc	-3071
ociaz	-3072
thens	-3073
▁Miri	-3074
▁roch	-3075
eánach	-3076
▁Aenir	-3077
▁Dhomh	-3078
▁Indie	-3079
▁Mhoin	-3080
▁blúis	-3081
▁cúlra	-3082
▁nuair	-3083
▁Athens	-3084
▁Oibriú	-3085
▁Sidcup	-3086
▁Saranac	-3087
ociazione	-3088
▁Monocacy	-3089
▁Teicniúil	-3090
▁imirceoir	-3091
▁Scríofaíodh	-3092
▁Tionscnaigh	-3093
71	-3094
ij	-3095
ós	-3096
acu	-3097
eidh	-3098
ófar	-3099
▁12.	-3100
▁Vik	-3101
ellos	-3102
▁Stan	-3103
▁hAbh	-3104
▁ordú	-3105
church	-3106
deburg	-3107
▁Davut	-3108
▁scéim	-3109
enistan	-3110
▁Jarama	-3111
▁Paracu	-3112
▁Trance	-3113
▁Bhuaigh	-3114
▁Uruguay	-3115
▁Phillips	-3116
▁meánluas	-3117
▁Magdeburg	-3118
▁feithicil	-3119
▁iomaíocht	-3120
▁Paracuellos	-3121
▁gciliméadar	-3122
omp	-3123
▁Tr	-3124
ifig	-3125
▁bac	-3126
▁fud	-3127
áiste	-3128
▁Bert	-3129
▁Cont	-3130
▁Jose	-3131
▁seas	-3132
▁Thiar	-3133
éiseach	-3134
▁County	-3135
▁eartar	-3136
ictreach	-3137
▁Bertram	-3138
▁Douglas	-3139
▁Oideach	-3140
▁roicéid	-3141
▁Argentinín	-3142
▁leathanaigh	-3143
WC	-3144
oma	-3145
str	-3146
ula	-3147
0777	-3148
eyer	-3149
ican	-3150
oyal	-3151
reet	-3152
uner	-3153
▁Bad	-3154
▁Guj	-3155
▁Joe	-3156
▁NWC	-3157
▁Sil	-3158
▁Tiú	-3159
▁óna	-3160
luais	-3161
naigh	-3162
▁Jens	-3163
▁Rost	-3164
▁2000.	-3165
▁Anton	-3166
▁Loyal	-3167
▁Meyer	-3168
itheoir	-3169
▁Daniel	-3170
▁Harbor	-3171
▁Street	-3172
▁córais	-3173
▁hIndia	-3174
▁teocht	-3175
▁theicn	-3176
▁Ghairle	-3177
▁Rostock	-3178
▁chruthú	-3179
▁Pholainn	-3180
▁Polainne	-3181
▁géarchéim	-3182
▁Foilseofar	-3183
▁Mheicsiceo	-3184
▁tionscnaimh	-3185
05	-3186
Un	-3187
mm	-3188
▁Sy	-3189
▁ol	-3190
arat	-3191
ixma	-3192
iúin	-3193
léas	-3194
ptun	-3195
ruis	-3196
▁110	-3197
▁Fen	-3198
▁Rut	-3199
ation	-3200
▁Math	-3201
▁cian	-3202
▁crua	-3203
▁eile	-3204
▁idir	-3205
▁tair	-3206
▁óige	-3207
▁Gréig	-3208
▁Sixma	-3209
▁ainmn	-3210
▁Manila	-3211
▁Neptun	-3212
▁gclúir	-3213
▁phobal	-3214
▁Gujarat	-3215
▁Shivers	-3216
▁thugtar	-3217
▁Agremiação	-3218
▁Eolaíochta	-3219
▁Locomotive	-3220
25	-3221
RE	-3222
phr	-3223
pop	-3224
▁ré	-3225
▁AEK	-3226
chean	-3227
imhne	-3228
iphol	-3229
irage	-3230
▁Hera	-3231
▁Hero	-3232
igator	-3233
mhéide	-3234
nandez	-3235
▁Laoch	-3236
▁fosta	-3237
▁staic	-3238
▁Úsáid	-3239
▁imíonn	-3240
▁Moscóin	-3241
▁Schiphol	-3242
▁Hernandez	-3243
gg	-3244
NAI	-3245
led	-3246
rán	-3247
▁61	-3248
▁Pu	-3249
▁ná	-3250
aise	-3251
aver	-3252
ches	-3253
inín	-3254
▁Egg	-3255
▁Fig	-3256
▁ais	-3257
NAIRE	-3258
adhim	-3259
eague	-3260
neria	-3261
▁1913	-3262
▁Pinh	-3263
▁Veil	-3264
▁euro	-3265
▁ghré	-3266
éirigh	-3267
óivéid	-3268
▁1986.	-3269
▁Assad	-3270
▁Tirst	-3271
chester	-3272
▁Bhuair	-3273
▁ENAIRE	-3274
▁Kadhim	-3275
▁Virage	-3276
▁bainne	-3277
▁staidh	-3278
▁Bananam	-3279
▁Pinhais	-3280
▁fheidhm	-3281
▁Clematis	-3282
▁Figneria	-3283
▁Tirstrup	-3284
▁cumhacht	-3285
▁Chomhdháil	-3286
▁Manchester	-3287
▁Thuaisceart	-3288
▁Claudiomaccone	-3289
CA	-3290
dú	-3291
ms	-3292
utt	-3293
yan	-3294
▁2.	-3295
▁tU	-3296
alls	-3297
enos	-3298
réid	-3299
óire	-3300
▁Lah	-3301
▁dos	-3302
▁dré	-3303
aitle	-3304
▁foch	-3305
maitic	-3306
▁ceith	-3307
▁mhuir	-3308
▁scoil	-3309
ersburg	-3310
ruiséil	-3311
▁Lahore	-3312
▁Tugtar	-3313
▁bpáirt	-3314
▁olóige	-3315
▁tairne	-3316
▁thugann	-3317
▁Pinsilvia	-3318
▁sheinntear	-3319
▁tháirgeann	-3320
0,	-3321
ho	-3322
ál	-3323
iba	-3324
ipp	-3325
áip	-3326
▁FD	-3327
idro	-3328
inne	-3329
▁Cap	-3330
▁ath	-3331
oifig	-3332
ridge	-3333
▁1950	-3334
▁Carr	-3335
▁Jaya	-3336
▁Lanc	-3337
▁Soho	-3338
▁méid	-3339
atagor	-3340
imsíonn	-3341
▁Isidro	-3342
▁tIndia	-3343
▁Dearadh	-3344
▁Contaobh	-3345
ealaíontóirí	-3346
20	-3347
21	-3348
gi	-3349
kh	-3350
rk	-3351
kin	-3352
ony	-3353
sen	-3354
▁41	-3355
▁Pe	-3356
68.8	-3357
fear	-3358
giea	-3359
iúla	-3360
▁Pro	-3361
ilton	-3362
itiba	-3363
mhail	-3364
▁Gras	-3365
▁Virg	-3366
bridge	-3367
eabhra	-3368
onnais	-3369
▁Acoil	-3370
▁Arros	-3371
▁Biden	-3372
▁Mathe	-3373
▁2014-1	-3374
▁Hygiea	-3375
▁Antioch	-3376
▁Chórais	-3377
▁Feabhra	-3378
▁plandaí	-3379
▁rothair	-3380
▁sínithe	-3381
▁Aerbhonn	-3382
▁Lyonnais	-3383
09	-3384
eg	-3385
kes	-3386
odi	-3387
viv	-3388
▁br	-3389
colo	-3390
heed	-3391
ilte	-3392
isce	-3393
▁Nar	-3394
oiliú	-3395
▁Lock	-3396
▁mease	-3397
▁teagh	-3398
▁Grasso	-3399
▁bheith	-3400
▁17068.8	-3401
▁Bunaithe	-3402
▁Lockheed	-3403
▁tréimhsí	-3404
Eolaíochta	-3405
▁cheannais	-3406
▁fheithicil	-3407
▁meiriceánach	-3408
",	-3409
264	-3410
ikk	-3411
iye	-3412
krt	-3413
ors	-3414
▁po	-3415
arol	-3416
▁18.	-3417
▁Bro	-3418
▁Cow	-3419
▁Fle	-3420
▁Kal	-3421
▁clu	-3422
leach	-3423
▁1089	-3424
▁Kutt	-3425
▁Lipp	-3426
attoor	-3427
colini	-3428
incott	-3429
krtiye	-3430
▁Ahmad	-3431
▁Cúirt	-3432
▁Powys	-3433
▁feoil	-3434
▁uasta	-3435
▁Cowper	-3436
▁cosúil	-3437
▁Batagor	-3438
▁Kuttikk	-3439
▁Michele	-3440
▁Wilkins	-3441
▁aeráite	-3442
▁taifead	-3443
▁tíortha	-3444
óireachta	-3445
▁Marcolini	-3446
▁Lippincott	-3447
▁Indianapolis	-3448
▁Turkmenistan	-3449
▁Kuttikkattoor	-3450
RA	-3451
Nua	-3452
ban	-3453
oln	-3454
pia	-3455
▁4.	-3456
▁Te	-3457
bast	-3458
cuid	-3459
eata	-3460
eiro	-3461
elle	-3462
etst	-3463
eyes	-3464
inia	-3465
▁Fri	-3466
▁Ice	-3467
▁Nik	-3468
▁Tóg	-3469
elena	-3470
organ	-3471
ruppo	-3472
▁Brom	-3473
▁Cand	-3474
▁Falc	-3475
▁Funk	-3476
▁Kuch	-3477
▁Linc	-3478
▁bonn	-3479
3000.0	-3480
ileiro	-3481
rietst	-3482
▁Bengo	-3483
▁David	-3484
▁Dykes	-3485
▁Reyes	-3486
▁Samar	-3487
▁dearg	-3488
▁pléas	-3489
▁Feidhm	-3490
▁Florid	-3491
▁Gruppo	-3492
▁Guiana	-3493
▁Helena	-3494
▁Morgan	-3495
▁Sebast	-3496
▁céanna	-3497
▁Kuching	-3498
▁Lincoln	-3499
▁Tennant	-3500
rietstown	-3501
▁American	-3502
▁Asuncion	-3503
▁Otkrtiye	-3504
▁dhéanamh	-3505
▁Alligator	-3506
▁Brasileiro	-3507
▁Oibriúíonn	-3508
▁Tionscníonn	-3509
▁Palaeontolog	-3510
56	-3511
▁–	-3512
ies	-3513
ando	-3514
▁151	-3515
▁700	-3516
▁Bán	-3517
▁Cas	-3518
▁Hus	-3519
▁tor	-3520
▁1928	-3521
▁1993	-3522
▁Cain	-3523
▁Khor	-3524
▁líne	-3525
▁2005.	-3526
▁Davis	-3527
▁Jorge	-3528
▁Julia	-3529
▁Parag	-3530
istíonn	-3531
▁Bhávar	-3532
▁Staten	-3533
▁ghnéal	-3534
▁Jackson	-3535
▁stiúint	-3536
▁teideal	-3537
▁Virginia	-3538
▁bhaipiteal	-3539
83	-3540
AM	-3541
alb	-3542
gio	-3543
imo	-3544
kov	-3545
osi	-3546
▁45	-3547
▁Je	-3548
▁SB	-3549
6063	-3550
hatt	-3551
idil	-3552
▁ACM	-3553
▁Hap	-3554
▁Mik	-3555
▁Mis	-3556
▁Nig	-3557
▁Pak	-3558
phrys	-3559
pique	-3560
▁Hels	-3561
▁chlá	-3562
edrich	-3563
hattan	-3564
óthóid	-3565
▁Cruth	-3566
▁Grena	-3567
▁Táirg	-3568
▁baint	-3569
▁George	-3570
▁Sergio	-3571
aitheach	-3572
oilseoir	-3573
▁Hamburg	-3574
▁ceasaic	-3575
▁cluiche	-3576
▁Helsinki	-3577
▁gceannas	-3578
▁Breitheamh	-3579
▁gcomhlacht	-3580
▁Harrietstown	-3581
▁thionscnaíodh	-3582
▁Palaeontologica	-3583
ato	-3584
eon	-3585
nam	-3586
voc	-3587
▁Ga	-3588
▁MB	-3589
▁Or	-3590
▁cr	-3591
▁nu	-3592
earn	-3593
osse	-3594
óine	-3595
▁Dol	-3596
▁Fhe	-3597
▁Spa	-3598
▁nua	-3599
Zahra	-3600
ingen	-3601
▁1998	-3602
▁Clár	-3603
▁Fada	-3604
▁Rogh	-3605
▁Ward	-3606
▁gear	-3607
▁Deram	-3608
▁Solan	-3609
ainnach	-3610
▁Chótair	-3611
▁Mhoinmh	-3612
▁Humphrys	-3613
▁Polonica	-3614
▁staicinn	-3615
▁dearaíodh	-3616
▁dhíospóid	-3617
▁Arrabbiata	-3618
▁Feidhmíonn	-3619
▁chiliméadar	-3620
61	-3621
our	-3622
▁73	-3623
6391	-3624
afen	-3625
lend	-3626
▁Vín	-3627
▁Éir	-3628
▁Heil	-3629
▁Plan	-3630
▁Stel	-3631
▁líon	-3632
▁uair	-3633
aidhme	-3634
averal	-3635
eonato	-3636
lendam	-3637
shafen	-3638
íleata	-3639
▁Aires	-3640
▁Halim	-3641
▁Oibre	-3642
▁gcuir	-3643
réasáin	-3644
▁Paragu	-3645
▁Samaras	-3646
▁Tarrant	-3647
▁eaglach	-3648
▁scagadh	-3649
▁Sualainn	-3650
▁Friedrich	-3651
▁Manhattan	-3652
eolaíochtaí	-3653
▁Stellendam	-3654
▁bainistíochta	-3655
23	-3656
St	-3657
vin	-3658
▁Wor	-3659
▁muc	-3660
erson	-3661
▁1999	-3662
▁Cape	-3663
▁Mike	-3664
▁Stát	-3665
▁caip	-3666
ersham	-3667
▁1932.	-3668
▁2015.	-3669
▁Casey	-3670
▁Madin	-3671
▁faoin	-3672
▁meáin	-3673
▁ráidh	-3674
▁Crosse	-3675
▁amhail	-3676
iceánach	-3677
▁Chomhph	-3678
▁Metapan	-3679
▁phríomh	-3680
▁thógáil	-3681
▁Fortress	-3682
▁Pakistan	-3683
▁gceangal	-3684
▁sheolann	-3685
▁Aimsítear	-3686
▁Canaveral	-3687
▁Fhraincis	-3688
▁Seirbhíse	-3689
▁chothroinn	-3690
51	-3691
sú	-3692
ald	-3693
iat	-3694
▁RO	-3695
bank	-3696
lára	-3697
taca	-3698
▁Rah	-3699
▁gnó	-3700
eanga	-3701
umber	-3702
▁1996	-3703
▁Fiat	-3704
▁Lira	-3705
▁Real	-3706
▁Ryan	-3707
▁bhar	-3708
innimh	-3709
▁Bháis	-3710
▁Peron	-3711
▁Vicia	-3712
▁bhonn	-3713
▁cónaí	-3714
▁feola	-3715
Aerfort	-3716
achtach	-3717
mannach	-3718
▁Buenos	-3719
▁Bánach	-3720
▁Chóras	-3721
▁Antonis	-3722
▁Bhávarais	-3723
▁Oibreoidh	-3724
▁ghearrtha	-3725
▁rannchuid	-3726
▁Campeonato	-3727
▁Friedrichshafen	-3728
aq	-3729
amb	-3730
ide	-3731
sca	-3732
▁am	-3733
▁cú	-3734
▁hE	-3735
▁rú	-3736
9255	-3737
Kalb	-3738
irte	-3739
wood	-3740
éile	-3741
ótac	-3742
▁Clu	-3743
▁Hil	-3744
▁Mot	-3745
▁Pla	-3746
▁Rol	-3747
▁Tos	-3748
▁Sean	-3749
edabad	-3750
▁Disco	-3751
▁Oifig	-3752
▁aithe	-3753
Bóthóid	-3754
▁DeKalb	-3755
▁Ferenc	-3756
aversham	-3757
▁nóiméad	-3758
▁roicéada	-3759
kiliméadar	-3760
▁Ahmedabad	-3761
▁Bhruiséil	-3762
▁Fenchurch	-3763
▁náisiúnaigh	-3764
▁príomhphríomh	-3765
DE	-3766
FK	-3767
adz	-3768
ajl	-3769
▁43	-3770
▁88	-3771
▁TC	-3772
▁re	-3773
hajl	-3774
uile	-3775
úrsa	-3776
▁Des	-3777
▁Lok	-3778
▁Mak	-3779
▁PFK	-3780
▁Pen	-3781
6391)	-3782
anach	-3783
taobh	-3784
utale	-3785
▁Chón	-3786
▁Jeff	-3787
▁clúb	-3788
000.0.	-3789
archer	-3790
hajlov	-3791
▁11264	-3792
▁Iraic	-3793
▁saill	-3794
▁uisce	-3795
aibidil	-3796
▁Cumber	-3797
▁Éirinn	-3798
▁(66391)	-3799
▁Larcher	-3800
▁Phrótac	-3801
▁Haputale	-3802
▁Mihajlov	-3803
▁cheangal	-3804
▁hOileáin	-3805
▁Faversham	-3806
▁Aleksandra	-3807
▁Cumberland	-3808
▁Philippíne	-3809
mi	-3810
DEN	-3811
ipz	-3812
orf	-3813
rot	-3814
▁CO	-3815
gail	-3816
▁Com	-3817
▁Fóm	-3818
▁Ger	-3819
▁Luf	-3820
▁Pac	-3821
▁Roy	-3822
agann	-3823
endra	-3824
ipzig	-3825
rúise	-3826
▁Bolt	-3827
▁Modi	-3828
endorf	-3829
rotrin	-3830
▁1955.	-3831
▁Boris	-3832
▁CODEN	-3833
▁Choth	-3834
▁Popov	-3835
▁Theic	-3836
▁Valls	-3837
▁Manuel	-3838
▁Leipzig	-3839
▁Sumatra	-3840
▁dréacht	-3841
▁Narendra	-3842
▁dhéanann	-3843
▁Oldendorf	-3844
▁Petrotrin	-3845
▁anaithnid	-3846
▁foilseoir	-3847
▁stílisticiúil	-3848
▁theicneolaíocht	-3849
407	-3850
ler	-3851
ove	-3852
zon	-3853
▁co	-3854
▁dá	-3855
iclí	-3856
inco	-3857
▁Mol	-3858
lanta	-3859
nando	-3860
ocier	-3861
olait	-3862
▁1099	-3863
▁Jano	-3864
▁Vein	-3865
▁funk	-3866
▁hAis	-3867
▁punk	-3868
000000	-3869
varosi	-3870
▁Duine	-3871
▁éagsú	-3872
ticinco	-3873
▁éagair	-3874
▁Crocier	-3875
▁Phoiblí	-3876
▁gCoinbh	-3877
▁torthaí	-3878
▁Ealaíona	-3879
▁Fernando	-3880
Mheicsiceo	-3881
▁Meiriceáin	-3882
▁Veinticinco	-3883
▁Associazione	-3884
▁Tionscnaithe	-3885
04	-3886
uc	-3887
326	-3888
VAC	-3889
ayo	-3890
ius	-3891
nal	-3892
syl	-3893
▁Dó	-3894
▁Ju	-3895
▁nI	-3896
ific	-3897
oglu	-3898
álta	-3899
óise	-3900
▁MBA	-3901
▁Pan	-3902
▁eap	-3903
▁lán	-3904
6063)	-3905
angra	-3906
vania	-3907
▁Gott	-3908
▁HVAC	-3909
▁King	-3910
▁Penn	-3911
▁Saab	-3912
▁liom	-3913
leacht	-3914
▁Grove	-3915
▁House	-3916
▁ghabh	-3917
▁rialú	-3918
tarella	-3919
éileadh	-3920
ónaíonn	-3921
sylvania	-3922
▁Déantar	-3923
▁Falcons	-3924
▁Newport	-3925
inearálta	-3926
▁Chóstair	-3927
▁Crociere	-3928
▁imantóir	-3929
▁Comhairle	-3930
▁Cruthaigh	-3931
▁Gottingen	-3932
▁Universit	-3933
▁cumhachta	-3934
▁Matamaitic	-3935
▁Mattarella	-3936
▁gcuideachta	-3937
▁Pennsylvania	-3938
8-1	-3939
ern	-3940
ión	-3941
kar	-3942
pat	-3943
tal	-3944
urk	-3945
ürk	-3946
▁KW	-3947
aisp	-3948
akur	-3949
chan	-3950
ermo	-3951
mond	-3952
otta	-3953
uben	-3954
yrol	-3955
▁Don	-3956
▁Dra	-3957
▁Syl	-3958
▁Yin	-3959
0777)	-3960
gheau	-3961
thpop	-3962
▁Mars	-3963
▁Patr	-3964
▁Rose	-3965
▁roca	-3966
reithe	-3967
▁25326	-3968
▁Badoi	-3969
▁Rutte	-3970
▁Tosun	-3971
ínítear	-3972
íomhach	-3973
▁Borman	-3974
▁Nation	-3975
▁Sylvia	-3976
▁Theicn	-3977
▁(66063)	-3978
▁Bunófar	-3979
▁Pacific	-3980
▁Palermo	-3981
▁Steuben	-3982
▁Bergheau	-3983
▁Davutoglu	-3984
▁Wolfsburg	-3985
▁stiúireacht	-3986
▁Ferencvarosi	-3987
add	-3988
dal	-3989
enz	-3990
hig	-3991
odo	-3992
ome	-3993
▁ce	-3994
Jers	-3995
berh	-3996
onny	-3997
tina	-3998
uill	-3999
▁186	-4000
▁ARA	-4001
▁Dem	-4002
▁Här	-4003
▁III	-4004
▁Nix	-4005
▁meá	-4006
addum	-4007
higbe	-4008
isipí	-4009
▁Isab	-4010
▁Mayo	-4011
▁gram	-4012
óthais	-4013
▁Izmir	-4014
▁Jonny	-4015
▁Paulo	-4016
▁Stáis	-4017
▁Subur	-4018
▁Tyrol	-4019
▁bainc	-4020
aqaddum	-4021
▁Härtel	-4022
▁Thakur	-4023
ruthaigh	-4024
▁Akhigbe	-4025
▁Burbank	-4026
▁Paraguá	-4027
▁ghrúpaí	-4028
▁Isabelle	-4029
▁gceannta	-4030
▁imreoidh	-4031
▁Áireofar	-4032
▁McDonnell	-4033
▁bhunaíodh	-4034
▁Richardson	-4035
▁Parkersburg	-4036
▁saoránaithe	-4037
7,	-4038
TU	-4039
-3.	-4040
ags	-4041
zhn	-4042
▁Vf	-4043
▁ea	-4044
▁or	-4045
gáir	-4046
▁(41	-4047
▁295	-4048
▁Hun	-4049
uleau	-4050
uncan	-4051
▁Iris	-4052
▁asam	-4053
apalli	-4054
▁1996.	-4055
▁Hilmi	-4056
▁Johns	-4057
▁bunús	-4058
▁chumh	-4059
▁oiliú	-4060
atagóir	-4061
rington	-4062
▁Duncan	-4063
▁Plante	-4064
▁Steven	-4065
▁Viking	-4066
mhiotail	-4067
▁Ataturk	-4068
▁Hopkins	-4069
▁Rouleau	-4070
▁ceithre	-4071
▁(410777)	-4072
▁Hamilton	-4073
▁Suburban	-4074
▁fuinnimh	-4075
▁Aerneachta	-4076
▁Chruthaigh	-4077
▁Chéarchéim	-4078
▁Flemannach	-4079
▁Sarvapalli	-4080
rí	-4081
uf	-4082
ád	-4083
bul	-4084
ubl	-4085
▁pú	-4086
airí	-4087
arem	-4088
usuf	-4089
well	-4090
▁252	-4091
▁Cou	-4092
▁Ros	-4093
▁kil	-4094
iomay	-4095
orped	-4096
usana	-4097
▁164,	-4098
▁Copé	-4099
▁Publ	-4100
▁Wien	-4101
▁chru	-4102
▁eola	-4103
▁trom	-4104
gartha	-4105
lachas	-4106
▁Jusuf	-4107
▁Kalla	-4108
▁Kolom	-4109
▁Wiley	-4110
▁mbain	-4111
▁Torped	-4112
▁banana	-4113
▁Atatürk	-4114
▁Inneall	-4115
▁Seapáin	-4116
▁Tháinig	-4117
▁comhrac	-4118
▁cúltaca	-4119
▁cabhrach	-4120
▁tagartha	-4121
▁Bananaman	-4122
▁sóisialta	-4123
▁cruthaitheoir	-4124
84	-4125
ko	-4126
439	-4127
ere	-4128
lop	-4129
rúd	-4130
tan	-4131
▁(1	-4132
▁63	-4133
▁Pr	-4134
▁VK	-4135
788)	-4136
ford	-4137
▁(15	-4138
▁Eag	-4139
▁MTU	-4140
doria	-4141
ogson	-4142
oláth	-4143
▁1101	-4144
▁1930	-4145
▁Hein	-4146
▁Imst	-4147
▁Samp	-4148
▁bhia	-4149
▁léir	-4150
▁tAig	-4151
▁Éags	-4152
buster	-4153
icitas	-4154
▁Block	-4155
▁Brook	-4156
▁Olimp	-4157
▁gComh	-4158
erfoirt	-4159
áchtála	-4160
▁Benoit	-4161
▁Contra	-4162
▁Johann	-4163
▁Siomay	-4164
▁Susana	-4165
▁bhreis	-4166
▁fhoils	-4167
▁(15788)	-4168
▁Torpedo	-4169
▁bhraith	-4170
▁tháinig	-4171
airgeadra	-4172
▁Catalóine	-4173
▁Fiontairí	-4174
▁Sampdoria	-4175
▁bainistiú	-4176
▁staidheán	-4177
▁Accrington	-4178
▁eagarthóir	-4179
▁Blockbuster	-4180
2,	-4181
67	-4182
▁Í	-4183
▁á	-4184
-3,	-4185
aka	-4186
ipu	-4187
vad	-4188
▁Rú	-4189
▁ts	-4190
lein	-4191
tera	-4192
▁Bum	-4193
▁Mer	-4194
▁Mhe	-4195
▁Pra	-4196
▁Tan	-4197
▁Domh	-4198
▁Luas	-4199
▁fost	-4200
▁Coupe	-4201
▁Maran	-4202
▁Roimh	-4203
▁Scott	-4204
▁eolas	-4205
▁thair	-4206
iputera	-4207
machine	-4208
▁Pogson	-4209
▁dteann	-4210
▁ordúir	-4211
▁Cluiche	-4212
▁Rolando	-4213
▁staidéar	-4214
▁táirgeadh	-4215
▁Bumiputera	-4216
▁Suíomhanna	-4217
▁leictreach	-4218
▁Greymachine	-4219
3,	-4220
AG	-4221
1.6	-4222
Amm	-4223
aan	-4224
era	-4225
jah	-4226
▁38	-4227
▁83	-4228
▁AT	-4229
atar	-4230
eapa	-4231
elkh	-4232
erto	-4233
ider	-4234
imse	-4235
real	-4236
tert	-4237
▁Cul	-4238
▁Cur	-4239
▁Edw	-4240
▁Red	-4241
▁aig	-4242
▁gco	-4243
phoch	-4244
▁1907	-4245
▁AFIT	-4246
▁Alma	-4247
▁Arem	-4248
▁Bain	-4249
▁Gard	-4250
▁Kent	-4251
▁Perm	-4252
▁hAig	-4253
Ammann	-4254
eapadh	-4255
neider	-4256
▁131.6	-4257
▁Amkar	-4258
▁Super	-4259
▁amach	-4260
▁taist	-4261
ainment	-4262
elkhand	-4263
▁Canada	-4264
▁Chótha	-4265
▁Entert	-4266
▁Hungar	-4267
▁Salvad	-4268
▁Tionad	-4269
▁bhaint	-4270
▁chuair	-4271
▁scéile	-4272
000000.0	-4273
▁Florida	-4274
cheangail	-4275
▁Fheillín	-4276
▁Heinlein	-4277
▁Montreal	-4278
▁Phoblach	-4279
▁Atlantach	-4280
▁Schneider	-4281
▁saoránach	-4282
▁Roghnaíodh	-4283
▁Bundelkhand	-4284
▁bhreithreach	-4285
▁Entertainment	-4286
▁Meiriceáiseach	-4287
76	-4288
-04	-4289
100	-4290
300	-4291
oris	-4292
▁Cor	-4293
▁cóc	-4294
ghlin	-4295
▁páir	-4296
▁1962.	-4297
▁Bhain	-4298
▁Bures	-4299
▁Doris	-4300
▁Drago	-4301
▁Gozon	-4302
▁Paisa	-4303
▁Aeirne	-4304
▁Rasmus	-4305
▁Valenc	-4306
▁560090.	-4307
▁rithóid	-4308
▁thagann	-4309
▁Academia	-4310
▁Aerfoirt	-4311
▁Cuireadh	-4312
▁Gréigise	-4313
▁cuirtear	-4314
▁Comhlacht	-4315
▁Rasmussen	-4316
▁Solanales	-4317
▁Chruthaíodh	-4318
▁feidhmchláir	-4319
/28	-4320
3.9	-4321
bai	-4322
out	-4323
thú	-4324
uma	-4325
óip	-4326
▁03	-4327
▁fo	-4328
adzh	-4329
aoir	-4330
otus	-4331
érie	-4332
▁Cir	-4333
▁Eat	-4334
▁Luc	-4335
▁Pes	-4336
▁Ran	-4337
▁Wid	-4338
▁dif	-4339
ierce	-4340
lujah	-4341
othan	-4342
untas	-4343
▁Cham	-4344
▁Joko	-4345
▁píol	-4346
▁púid	-4347
staire	-4348
▁Gadzh	-4349
▁Lotus	-4350
▁Qatar	-4351
▁Série	-4352
▁cúnta	-4353
▁luach	-4354
Sóivéid	-4355
eannair	-4356
▁Academ	-4357
▁Dothan	-4358
▁Eaters	-4359
▁Pierce	-4360
▁Prúise	-4361
▁Taylor	-4362
▁Widodo	-4363
aireacht	-4364
▁Déanann	-4365
▁samhail	-4366
bhachtach	-4367
▁Canonica	-4368
▁comhlach	-4369
▁gCóthais	-4370
▁théantar	-4371
▁Oideachas	-4372
▁Táirgeann	-4373
▁Chónaidhme	-4374
▁Jacksonville	-4375
--	-4376
-07	-4377
HAM	-4378
ghe	-4379
gor	-4380
umh	-4381
óim	-4382
aisn	-4383
bour	-4384
esin	-4385
etts	-4386
kara	-4387
ndez	-4388
otte	-4389
▁320	-4390
▁Tre	-4391
-1768	-4392
achus	-4393
aiste	-4394
elman	-4395
ompar	-4396
▁1097	-4397
▁Graz	-4398
▁Koln	-4399
▁Lars	-4400
▁RHAM	-4401
▁Rand	-4402
▁Seco	-4403
▁Vout	-4404
▁Wick	-4405
▁meam	-4406
▁phís	-4407
▁teag	-4408
entina	-4409
nández	-4410
íreach	-4411
▁Móire	-4412
▁Nikos	-4413
▁Oberh	-4414
▁Ranil	-4415
▁Stern	-4416
▁Yacob	-4417
▁dhíth	-4418
▁thoir	-4419
esinghe	-4420
▁Ankara	-4421
▁Barkov	-4422
▁Fhórsa	-4423
▁Placid	-4424
▁planda	-4425
▁poiblí	-4426
▁Halimah	-4427
▁Wickrem	-4428
▁tAontas	-4429
achusetts	-4430
ineálacha	-4431
▁Mathemat	-4432
▁cuireadh	-4433
▁taisteal	-4434
▁Hernández	-4435
▁thosaíodh	-4436
▁uibheacha	-4437
▁Oberhelman	-4438
▁Seirbhíodh	-4439
▁Mheiriceánach	-4440
▁Wickremesinghe	-4441
524	-4442
hor	-4443
ics	-4444
▁39	-4445
▁6.	-4446
▁Fu	-4447
▁Vi	-4448
iazz	-4449
liga	-4450
rata	-4451
vent	-4452
▁Aug	-4453
▁Lim	-4454
▁Ord	-4455
▁Tor	-4456
▁Rash	-4457
▁Tony	-4458
▁bren	-4459
▁dean	-4460
▁stád	-4461
athoib	-4462
daíonn	-4463
iazzia	-4464
lúdach	-4465
tanbul	-4466
áinigh	-4467
▁0-439	-4468
▁Botta	-4469
▁Iulia	-4470
▁Mario	-4471
▁Mason	-4472
▁bhaic	-4473
▁hAbhs	-4474
▁saoth	-4475
▁sheas	-4476
92000.0	-4477
▁August	-4478
▁Chlúir	-4479
▁Malais	-4480
▁Mionta	-4481
▁Motors	-4482
▁Rodrig	-4483
▁difear	-4484
▁Patrick	-4485
▁Piazzia	-4486
▁Sláinte	-4487
▁Tiúirte	-4488
▁Voutsis	-4489
▁ceathrú	-4490
▁déanann	-4491
▁eaphoch	-4492
▁gcomhar	-4493
▁milliún	-4494
olaitiúil	-4495
▁253260.0	-4496
▁Californ	-4497
▁Istanbul	-4498
▁Dhomhanda	-4499
▁Felicitas	-4500
▁Phrótacal	-4501
▁mbaineann	-4502
athoibríoch	-4503
▁cabhrachas	-4504
▁hIonóinéise	-4505
▁tionscnaithe	-4506
▁sheirbhísíonn	-4507
uk	-4508
-0.	-4509
-2)	-4510
bar	-4511
erty	-4512
oria	-4513
paty	-4514
▁11.	-4515
▁Amh	-4516
▁Gio	-4517
▁Mum	-4518
▁éis	-4519
antin	-4520
ertig	-4521
ibbet	-4522
oinge	-4523
ottin	-4524
umbus	-4525
▁2001	-4526
▁Fior	-4527
▁Líon	-4528
▁Mass	-4529
▁Palo	-4530
▁Rann	-4531
▁Thom	-4532
gherty	-4533
ventus	-4534
▁Clúir	-4535
▁Flibb	-4536
▁Icolo	-4537
▁Stock	-4538
▁anseo	-4539
▁ceasa	-4540
▁Mumbai	-4541
▁Public	-4542
▁Scéile	-4543
▁Aiseach	-4544
▁Karpaty	-4545
▁bóthair	-4546
▁thógadh	-4547
▁Éireann	-4548
ottingham	-4549
▁Ceannair	-4550
▁Fallujah	-4551
▁Juventus	-4552
▁gCoinéal	-4553
▁oscailte	-4554
ertigibbet	-4555
▁Dougherty	-4556
▁Indéinéas	-4557
▁Tráchtála	-4558
▁Meiriceáise	-4559
▁healaíontóirí	-4560
▁Flibbertigibbet	-4561
SA	-4562
dy	-4563
ní	-4564
7.0	-4565
IDA	-4566
Oil	-4567
aca	-4568
arm	-4569
izo	-4570
osl	-4571
osú	-4572
oye	-4573
tur	-4574
óra	-4575
▁33	-4576
▁Yu	-4577
asan	-4578
isch	-4579
reek	-4580
▁210	-4581
▁ACF	-4582
▁Kub	-4583
▁bás	-4584
▁Úru	-4585
▁Lviv	-4586
▁leor	-4587
ineall	-4588
zhnoye	-4589
▁2006,	-4590
▁Gloom	-4591
▁Víneo	-4592
▁beann	-4593
▁ábhar	-4594
isceart	-4595
oughlin	-4596
umhdach	-4597
▁Chósta	-4598
▁Errata	-4599
▁Líonra	-4600
▁Preach	-4601
▁Thomas	-4602
▁bianóin	-4603
▁meáchan	-4604
000000.0.	-4605
▁Franklin	-4606
▁Yuzhnoye	-4607
▁úsáideann	-4608
▁príomhábhar	-4609
▁Breithiúnais	-4610
sk	-4611
426	-4612
5.0	-4613
60.	-4614
CAO	-4615
odh	-4616
uez	-4617
uit	-4618
▁51	-4619
▁91	-4620
▁Aw	-4621
▁Od	-4622
eoir	-4623
tech	-4624
umai	-4625
▁475	-4626
▁5.3	-4627
▁638	-4628
▁Bal	-4629
▁McL	-4630
▁Ska	-4631
▁ghi	-4632
arach	-4633
inéin	-4634
tacht	-4635
éadar	-4636
▁Aeis	-4637
▁Club	-4638
▁ICAO	-4639
▁Náis	-4640
▁dath	-4641
▁sean	-4642
▁tUas	-4643
▁uile	-4644
dalene	-4645
iction	-4646
teanga	-4647
teanna	-4648
▁Awadh	-4649
▁Barny	-4650
▁bacún	-4651
▁475426	-4652
▁Castle	-4653
▁Luanda	-4654
▁Meiceo	-4655
▁Rahman	-4656
▁fhaigh	-4657
▁gcóras	-4658
▁thuair	-4659
▁Carroll	-4660
▁Sumitra	-4661
▁phíseán	-4662
▁síníodh	-4663
▁Éagsúil	-4664
▁Asunción	-4665
▁chairirí	-4666
▁cónaíodh	-4667
▁Cambridge	-4668
▁Hamburger	-4669
▁Jefferson	-4670
▁Magdalene	-4671
▁Rodriguez	-4672
▁chatagóir	-4673
▁cheannair	-4674
▁feithiclí	-4675
▁fostaithe	-4676
▁taifeadta	-4677
▁Fiorentina	-4678
▁McLoughlin	-4679
▁Mhoinmhaon	-4680
▁Tionscnamh	-4681
▁University	-4682
ci	-4683
-20	-4684
/36	-4685
asp	-4686
atu	-4687
con	-4688
ese	-4689
gaí	-4690
naw	-4691
orm	-4692
sex	-4693
sip	-4694
sky	-4695
▁bl	-4696
Khor	-4697
ffin	-4698
ghas	-4699
oles	-4700
ráin	-4701
vano	-4702
▁Ast	-4703
▁Tel	-4704
▁Tit	-4705
▁Tíl	-4706
▁gCú	-4707
ctech	-4708
eagle	-4709
lines	-4710
onejo	-4711
tenaw	-4712
óthar	-4713
▁1001	-4714
▁1933	-4715
▁2004	-4716
▁2013	-4717
▁Aicm	-4718
▁Aure	-4719
▁Bers	-4720
▁Chal	-4721
▁Pagn	-4722
▁Sual	-4723
▁Tsip	-4724
esliga	-4725
▁17000	-4726
▁Chute	-4727
▁Clian	-4728
▁Essex	-4729
▁Marys	-4730
▁Sands	-4731
▁aicme	-4732
eymouth	-4733
lymouth	-4734
íneacha	-4735
▁Alexis	-4736
▁Conejo	-4737
▁Inneal	-4738
▁Seagle	-4739
▁Texans	-4740
▁Titans	-4741
▁bheidh	-4742
▁leithl	-4743
▁muffin	-4744
▁púidín	-4745
▁shíniú	-4746
▁éirigh	-4747
▁Arabach	-4748
▁Bersatu	-4749
▁Bánacha	-4750
▁Pagnell	-4751
▁Tsipras	-4752
▁bPáirtí	-4753
▁gCaitle	-4754
▁sláinte	-4755
▁Airlines	-4756
▁Aureoles	-4757
▁Meiciceo	-4758
▁gréasáin	-4759
▁roimhean	-4760
▁Comhdháil	-4761
▁Washtenaw	-4762
▁gcumhdach	-4763
▁ionstraim	-4764
▁California	-4765
▁Marysville	-4766
aonraitheoir	-4767
▁comhlachais	-4768
▁Phoblachtach	-4769
ić	-4770
ts	-4771
3.0	-4772
6.0	-4773
8.0	-4774
akh	-4775
gey	-4776
nda	-4777
orc	-4778
tio	-4779
▁97	-4780
▁FK	-4781
▁Ra	-4782
▁Ru	-4783
chup	-4784
eath	-4785
imov	-4786
lins	-4787
oger	-4788
ontú	-4789
orpa	-4790
uron	-4791
yria	-4792
▁159	-4793
▁Cyr	-4794
rúite	-4795
▁000.	-4796
▁Bhav	-4797
▁Déan	-4798
▁Gran	-4799
▁Rakh	-4800
▁fhad	-4801
▁éisc	-4802
eareas	-4803
raghas	-4804
áipéar	-4805
▁01-01	-4806
▁1930.	-4807
▁Auron	-4808
▁Chanc	-4809
▁Jacob	-4810
▁Mheid	-4811
▁ceang	-4812
▁Grenad	-4813
▁Pesaka	-4814
▁Rashid	-4815
▁Ruaigh	-4816
▁Sergey	-4817
▁Shumai	-4818
▁Stoger	-4819
▁Wilson	-4820
▁hAiseá	-4821
▁hEorpa	-4822
▁liomán	-4823
▁planta	-4824
Ailscoil	-4825
olaíocht	-4826
▁Aontais	-4827
▁Arctech	-4828
▁Cullins	-4829
▁Jalisco	-4830
▁Silvano	-4831
▁aeráide	-4832
onteareas	-4833
▁Columbus	-4834
▁Curitiba	-4835
▁Oibríonn	-4836
▁Plymouth	-4837
▁Rakhimov	-4838
▁Cheathrúd	-4839
▁Cuimsíonn	-4840
▁bhféadfar	-4841
▁leithligh	-4842
▁Bundesliga	-4843
▁ainmnítear	-4844
▁polaitiúil	-4845
▁saoránaigh	-4846
.)	-4847
-41	-4848
80.	-4849
ado	-4850
nie	-4851
oul	-4852
tor	-4853
ígu	-4854
▁78	-4855
▁bB	-4856
asiz	-4857
bell	-4858
ucci	-4859
▁277	-4860
▁Pav	-4861
▁Van	-4862
-4165	-4863
aiser	-4864
andon	-4865
orizo	-4866
oulos	-4867
phins	-4868
seach	-4869
áchas	-4870
íguez	-4871
▁1850	-4872
▁Cáir	-4873
▁Dave	-4874
▁Dona	-4875
▁Mold	-4876
▁Pain	-4877
▁Thóg	-4878
▁avoc	-4879
▁tAil	-4880
etchup	-4881
▁1995.	-4882
▁2004.	-4883
▁Baths	-4884
▁Javan	-4885
▁Rasiz	-4886
▁chuig	-4887
▁phian	-4888
▁560090	-4889
▁Gerard	-4890
▁Kaiser	-4891
▁Mhuirí	-4892
▁Pavlop	-4893
▁Treora	-4894
▁méadar	-4895
ashville	-4896
▁Brandon	-4897
▁Chanaid	-4898
▁Metapán	-4899
▁Panucci	-4900
▁Penarol	-4901
▁Campbell	-4902
▁Rasizade	-4903
▁bhathair	-4904
▁hOstaire	-4905
▁Rodríguez	-4906
▁Sualainne	-4907
▁Ponteareas	-4908
▁roghnaíodh	-4909
▁Chomhphobal	-4910
▁Pavlopoulos	-4911
▁comhcheangail	-4912
dí	-4913
kg	-4914
alt	-4915
dia	-4916
eab	-4917
kop	-4918
lad	-4919
yss	-4920
zio	-4921
▁sm	-4922
alaí	-4923
ardc	-4924
bhai	-4925
ends	-4926
iver	-4927
omra	-4928
sean	-4929
umar	-4930
▁10,	-4931
▁Hec	-4932
▁Leg	-4933
▁MIT	-4934
Black	-4935
eleon	-4936
kopis	-4937
raero	-4938
raidh	-4939
▁9000	-4940
▁Bako	-4941
▁Dhar	-4942
▁Fall	-4943
▁Wyss	-4944
▁ceas	-4945
-01-01	-4946
iomlán	-4947
mpique	-4948
▁Arrós	-4949
▁Demak	-4950
▁Jalan	-4951
▁Lydia	-4952
▁Mhaon	-4953
▁ionad	-4954
▁Berlin	-4955
▁Mionch	-4956
▁Oliver	-4957
▁Superl	-4958
▁theagh	-4959
▁údarás	-4960
onóinéas	-4961
▁fairirí	-4962
▁leithdh	-4963
▁theicir	-4964
▁Asherton	-4965
▁Gearrtha	-4966
▁Infraero	-4967
▁Prokopis	-4968
▁cónaithe	-4969
▁gearrtha	-4970
▁Chameleon	-4971
▁gníomhach	-4972
oláthraíonn	-4973
▁Burlington	-4974
▁Comhlachas	-4975
▁gComhairle	-4976
▁hAbhstáine	-4977
▁chuideachta	-4978
▁náisiúntacht	-4979
▁príomhchlára	-4980
▁Stáiticeánach	-4981
▁príomhthábhair	-4982
03	-4983
30	-4984
Al	-4985
339	-4986
cew	-4987
mar	-4988
oty	-4989
yah	-4990
▁55	-4991
▁70	-4992
▁93	-4993
▁da	-4994
ceae	-4995
eron	-4996
eyin	-4997
lyde	-4998
oibr	-4999
ordú	-5000
uana	-5001
éann	-5002
óirí	-5003
▁120	-5004
▁441	-5005
▁546	-5006
▁But	-5007
▁Gar	-5008
▁Mam	-5009
▁Vís	-5010
▁gás	-5011
▁éig	-5012
9255)	-5013
ledon	-5014
▁1500	-5015
▁3180	-5016
▁Lean	-5017
▁Port	-5018
▁cóid	-5019
▁gran	-5020
▁Áise	-5021
Ungáir	-5022
orgáin	-5023
oridis	-5024
yahoga	-5025
▁1957.	-5026
▁2011.	-5027
▁2016.	-5028
▁Artur	-5029
▁Bhras	-5030
▁Carol	-5031
▁Clyde	-5032
▁Creek	-5033
▁Croma	-5034
▁Cúige	-5035
▁Dóigh	-5036
▁Guner	-5037
▁neamh	-5038
▁reach	-5039
cewatch	-5040
aisnéise	-5041
ontaithe	-5042
otyledon	-5043
▁(19255)	-5044
▁Butuner	-5045
▁Cameron	-5046
▁Huseyin	-5047
▁Monarch	-5048
▁Stanley	-5049
▁Voridis	-5050
▁áireamh	-5051
▁Cuyahoga	-5052
▁bhreithe	-5053
▁Nashville	-5054
▁Spacewatch	-5055
▁Phacastáine	-5056
▁Superleague	-5057
iš	-5058
ód	-5059
-11	-5060
-15	-5061
253	-5062
4.0	-5063
ael	-5064
alo	-5065
ask	-5066
cao	-5067
iša	-5068
uso	-5069
íor	-5070
▁Be	-5071
▁Sw	-5072
▁bC	-5073
▁hÍ	-5074
bhuk	-5075
eacs	-5076
ical	-5077
teán	-5078
▁109	-5079
▁610	-5080
▁Bos	-5081
▁Log	-5082
▁Pre	-5083
▁São	-5084
▁Tic	-5085
▁ciú	-5086
▁mms	-5087
▁rap	-5088
anada	-5089
endic	-5090
igiún	-5091
rugaí	-5092
▁Iuso	-5093
▁Puig	-5094
▁coil	-5095
▁féin	-5096
▁lorg	-5097
▁sula	-5098
ealain	-5099
laithe	-5100
léasán	-5101
▁Billy	-5102
▁Rúise	-5103
▁Rúnaí	-5104
▁Steve	-5105
▁gcéad	-5106
▁leabh	-5107
▁Kolóim	-5108
▁Phrion	-5109
▁Sendic	-5110
▁Siniša	-5111
▁Ticino	-5112
▁Tuaite	-5113
▁aigéid	-5114
▁bailiú	-5115
bhukumar	-5116
▁63800.0	-5117
▁Sandesh	-5118
▁poaceae	-5119
▁Dolphins	-5120
▁Eolaíocht	-5121
▁Hungarica	-5122
Eolaíochtaí	-5123
▁Mheabhrach	-5124
▁Mihajlović	-5125
▁Mathematica	-5126
▁Prabhukumar	-5127
▁Preachtacht	-5128
▁thionscnaíonn	-5129
075	-5130
400	-5131
900	-5132
adi	-5133
die	-5134
ije	-5135
kap	-5136
▁04	-5137
▁MA	-5138
▁ST	-5139
▁ri	-5140
0002	-5141
Liga	-5142
coil	-5143
elin	-5144
park	-5145
ties	-5146
udor	-5147
▁Mac	-5148
▁Oly	-5149
▁Sim	-5150
▁War	-5151
alach	-5152
artar	-5153
berto	-5154
elije	-5155
ering	-5156
ffalo	-5157
iscip	-5158
teann	-5159
▁1959	-5160
▁1995	-5161
▁3500	-5162
▁Cara	-5163
▁Korn	-5164
▁plia	-5165
▁seis	-5166
▁táir	-5167
elskap	-5168
iceach	-5169
osanta	-5170
ostóin	-5171
▁1969.	-5172
▁2000,	-5173
▁2001.	-5174
▁Chuig	-5175
▁Edwin	-5176
▁Laura	-5177
▁Roger	-5178
▁Semin	-5179
▁Spórt	-5180
▁bhail	-5181
▁chláb	-5182
▁gcoit	-5183
aireach	-5184
eannach	-5185
elinids	-5186
▁Akties	-5187
▁Boston	-5188
▁Ghuana	-5189
▁chéile	-5190
▁dtaobh	-5191
▁eapach	-5192
▁Buffalo	-5193
▁Déanfar	-5194
▁Spásála	-5195
▁Carolina	-5196
▁Humberto	-5197
▁dteannta	-5198
▁gceapadh	-5199
▁Kornelije	-5200
▁Meiriceán	-5201
▁Agremiacao	-5202
▁Aktieselskap	-5203
▁Meiriceáiceá	-5204
02	-5205
vn	-5206
▁v	-5207
bol	-5208
ián	-5209
lia	-5210
oek	-5211
onz	-5212
▁09	-5213
▁Io	-5214
634:	-5215
mill	-5216
ombe	-5217
omst	-5218
town	-5219
áití	-5220
öger	-5221
▁8.3	-5222
▁Abh	-5223
▁Rov	-5224
▁Tim	-5225
antas	-5226
linor	-5227
thavn	-5228
▁1962	-5229
▁5594	-5230
▁Cust	-5231
▁Misc	-5232
▁Parc	-5233
▁Toek	-5234
▁Wich	-5235
▁teow	-5236
angled	-5237
luaist	-5238
neacha	-5239
▁1989,	-5240
▁Aithe	-5241
▁Anbar	-5242
▁Dynam	-5243
▁Ernie	-5244
▁Lokke	-5245
▁Teacs	-5246
▁mhéid	-5247
eoirsia	-5248
▁Brooke	-5249
▁Lancia	-5250
▁Styria	-5251
▁Tugann	-5252
▁cócóis	-5253
▁drugaí	-5254
▁loinge	-5255
▁shóise	-5256
▁Bhangra	-5257
▁Legends	-5258
▁Lárnach	-5259
▁Mionsis	-5260
▁Seineál	-5261
▁Wichita	-5262
▁gaolann	-5263
▁ghréims	-5264
▁ketchup	-5265
▁rialtas	-5266
Blackwell	-5267
▁Andalúis	-5268
▁Lufthavn	-5269
▁Olimpach	-5270
▁Phíipíne	-5271
▁Spangled	-5272
▁Toekomst	-5273
▁Weymouth	-5274
▁Challinor	-5275
▁Sebastián	-5276
▁chónaíonn	-5277
▁gCeannair	-5278
▁Academical	-5279
▁Ginearálta	-5280
▁ceangailte	-5281
▁ionadaíodh	-5282
▁uathoibríoch	-5283
▁príomhphríomhch	-5284
Ge	-5285
2.2	-5286
80-	-5287
9.0	-5288
abi	-5289
cha	-5290
che	-5291
gre	-5292
▁87	-5293
▁Ya	-5294
▁tO	-5295
arry	-5296
cuit	-5297
eens	-5298
ileo	-5299
kles	-5300
quez	-5301
▁280	-5302
▁737	-5303
▁Ath	-5304
▁Bus	-5305
▁Mit	-5306
▁Sci	-5307
agine	-5308
beach	-5309
ineas	-5310
nálaí	-5311
tacha	-5312
▁1994	-5313
▁Kids	-5314
▁Lega	-5315
▁Macc	-5316
▁Ruth	-5317
▁mban	-5318
▁tSín	-5319
▁éard	-5320
Taylor	-5321
▁1927.	-5322
▁1979.	-5323
▁Gréas	-5324
▁Mhais	-5325
▁taith	-5326
urakles	-5327
óivéide	-5328
▁600407	-5329
▁Brasaí	-5330
▁Custom	-5331
▁Queens	-5332
▁Roimhe	-5333
▁Stöger	-5334
▁cheart	-5335
Taqaddum	-5336
▁Caravan	-5337
▁Charles	-5338
▁Circuit	-5339
▁Imagine	-5340
▁Maccabi	-5341
▁Malaise	-5342
▁Michael	-5343
▁cathair	-5344
▁lárnach	-5345
▁Aimsíonn	-5346
▁Aireacht	-5347
▁Candombe	-5348
▁Castilla	-5349
▁Gazettes	-5350
▁ghabhann	-5351
▁Cliantóir	-5352
▁Dharnálaí	-5353
▁Ridgewood	-5354
▁páirteach	-5355
▁rothlaithe	-5356
▁sraitheoir	-5357
42	-5358
As	-5359
-9.	-5360
-93	-5361
252	-5362
5.3	-5363
7.1	-5364
722	-5365
fhe	-5366
kub	-5367
oba	-5368
tec	-5369
íre	-5370
▁3,	-5371
▁bu	-5372
eist	-5373
iano	-5374
ieto	-5375
imeá	-5376
vara	-5377
▁Ghu	-5378
▁Lam	-5379
▁Peñ	-5380
▁ard	-5381
▁eac	-5382
▁hAf	-5383
3.722	-5384
aiden	-5385
aighd	-5386
amaph	-5387
ellow	-5388
imint	-5389
itoba	-5390
rique	-5391
thais	-5392
▁1901	-5393
▁Etio	-5394
▁Teic	-5395
▁bhré	-5396
▁dará	-5397
▁gach	-5398
▁leag	-5399
▁teas	-5400
▁1923.	-5401
▁Alama	-5402
▁Maine	-5403
▁Nieto	-5404
▁Rabad	-5405
▁Space	-5406
▁Thund	-5407
▁Trans	-5408
▁tromb	-5409
anachie	-5410
▁Balder	-5411
▁Candle	-5412
▁Chuair	-5413
▁Mellow	-5414
▁Ramaph	-5415
▁comhch	-5416
▁leanas	-5417
▁tógadh	-5418
▁Cúthair	-5419
▁Enrique	-5420
▁Etiopia	-5421
▁Harbour	-5422
▁Phríomh	-5423
▁seisiún	-5424
Ailscoile	-5425
arlaimint	-5426
▁Dhomhain	-5427
▁Limerick	-5428
▁Manitoba	-5429
▁Phrionsa	-5430
▁Rabadash	-5431
▁deireadh	-5432
▁Ramaphosa	-5433
▁Shanachie	-5434
▁fheidhmiú	-5435
▁gCaibidil	-5436
▁rialaithe	-5437
▁Úsáidtear	-5438
▁Mionsisipí	-5439
▁éagsúlacht	-5440
▁rithsealain	-5441
352	-5442
cos	-5443
ghl	-5444
irt	-5445
ish	-5446
uda	-5447
usa	-5448
uss	-5449
vaz	-5450
▁AP	-5451
▁Kn	-5452
▁SK	-5453
000,	-5454
aint	-5455
alaj	-5456
ball	-5457
enep	-5458
iamh	-5459
intí	-5460
tars	-5461
thur	-5462
ward	-5463
üner	-5464
▁Dig	-5465
▁Eal	-5466
▁Ghn	-5467
▁Gus	-5468
▁Klu	-5469
▁VfL	-5470
▁lig	-5471
▁éif	-5472
ensis	-5473
ghlal	-5474
ádála	-5475
▁1986	-5476
▁Dubh	-5477
▁Gonz	-5478
▁Guad	-5479
▁Isis	-5480
▁View	-5481
▁chic	-5482
▁daon	-5483
▁post	-5484
Oileán	-5485
eaptha	-5486
easfar	-5487
lainne	-5488
▁10000	-5489
▁1862.	-5490
▁1963,	-5491
▁Ahvaz	-5492
▁Bíonn	-5493
▁Lazio	-5494
▁Monro	-5495
▁Plaza	-5496
▁Reddy	-5497
▁Salem	-5498
▁Turin	-5499
▁diamh	-5500
▁teasa	-5501
alajara	-5502
enepura	-5503
oblacht	-5504
orcilla	-5505
▁Arthur	-5506
▁Knight	-5507
▁Mionsa	-5508
▁Poales	-5509
▁Samuda	-5510
▁Swords	-5511
ireachta	-5512
▁2014-15	-5513
▁Ghréige	-5514
▁Thunder	-5515
▁foirera	-5516
▁theicil	-5517
▁1513.722	-5518
▁2014-15.	-5519
▁Aurakles	-5520
▁Jayaward	-5521
▁Salvador	-5522
▁Tháinigh	-5523
▁oiliúint	-5524
▁Faisnéise	-5525
▁Sebastian	-5526
▁caipeanna	-5527
▁teicniúil	-5528
▁Chomhairle	-5529
▁Cainleachta	-5530
▁Guadalajara	-5531
▁gceannteann	-5532
▁Inneallaithe	-5533
▁Masachusetts	-5534
▁Monocotyledon	-5535
▁feidhmiúcháin	-5536
▁Jayawardenepura	-5537
ld	-5538
-03	-5539
2.8	-5540
ahn	-5541
und	-5542
use	-5543
▁Ti	-5544
▁fá	-5545
ailt	-5546
aita	-5547
aple	-5548
cáin	-5549
ewan	-5550
imhe	-5551
laus	-5552
pata	-5553
▁194	-5554
▁Eng	-5555
▁Mao	-5556
▁Por	-5557
▁mil	-5558
▁son	-5559
aster	-5560
oinbh	-5561
▁Báis	-5562
▁Cant	-5563
▁Dian	-5564
▁Fion	-5565
▁Teid	-5566
▁Tham	-5567
▁Thar	-5568
▁Thug	-5569
▁Wasp	-5570
▁indí	-5571
000270	-5572
angsta	-5573
antais	-5574
ianáin	-5575
mánach	-5576
otball	-5577
tecorp	-5578
▁1955,	-5579
▁Gairt	-5580
▁Górsa	-5581
▁Klaus	-5582
▁Kotte	-5583
▁Maple	-5584
▁Union	-5585
▁Urich	-5586
▁World	-5587
▁Worth	-5588
▁bhfor	-5589
▁coige	-5590
Georgia	-5591
askatch	-5592
bhrúite	-5593
▁Benton	-5594
▁Coimeá	-5595
▁Ghaoin	-5596
▁Ghuáin	-5597
▁Monroe	-5598
▁Peoria	-5599
▁Solent	-5600
▁páirce	-5601
ainneach	-5602
morcilla	-5603
▁560090,	-5604
▁8000270	-5605
▁Chruinn	-5606
▁chorizo	-5607
▁granola	-5608
▁tógálaí	-5609
Aontaithe	-5610
▁Cuirfear	-5611
▁Seapáine	-5612
▁Sportpark	-5613
askatchewan	-5614
▁Williamson	-5615
▁comhbhrúite	-5616
▁thuaisceart	-5617
-7	-5618
FC	-5619
dt	-5620
nú	-5621
-1.	-5622
715	-5623
922	-5624
The	-5625
aná	-5626
ass	-5627
rum	-5628
tem	-5629
tti	-5630
▁7.	-5631
▁Dë	-5632
▁Em	-5633
▁Ob	-5634
▁nS	-5635
075)	-5636
báin	-5637
enan	-5638
fadh	-5639
ijme	-5640
ntar	-5641
ocht	-5642
oirí	-5643
raib	-5644
rogh	-5645
usia	-5646
áise	-5647
▁(29	-5648
▁179	-5649
▁Dar	-5650
▁reo	-5651
▁Áit	-5652
aontú	-5653
chomh	-5654
irthe	-5655
itman	-5656
▁1983	-5657
▁2160	-5658
▁Cait	-5659
▁Dane	-5660
▁Drum	-5661
▁Fíip	-5662
▁Irac	-5663
▁Uile	-5664
▁Walt	-5665
▁ceil	-5666
▁dara	-5667
dorman	-5668
eamann	-5669
▁1928.	-5670
▁29000	-5671
▁Cyril	-5672
▁Grand	-5673
▁Nijme	-5674
▁Satem	-5675
▁Tuair	-5676
▁bhuir	-5677
▁eagch	-5678
▁fuaim	-5679
▁gcóir	-5680
▁shain	-5681
alletti	-5682
▁Adenan	-5683
▁Fómain	-5684
▁Maiden	-5685
▁Thames	-5686
▁briste	-5687
▁chicar	-5688
▁discip	-5689
chathair	-5690
▁(29075)	-5691
▁01-01-1	-5692
▁Luciano	-5693
▁Massimo	-5694
▁Rómhair	-5695
▁Whitman	-5696
▁Wolfman	-5697
▁sheasún	-5698
▁sonrach	-5699
éireachta	-5700
▁Catalóin	-5701
▁Hollande	-5702
▁Misisipí	-5703
▁Nijmegen	-5704
▁plantaín	-5705
▁tSantais	-5706
▁thairisc	-5707
intiméadar	-5708
▁Andalusia	-5709
▁Ealdorman	-5710
▁Mantecorp	-5711
▁Olympique	-5712
▁Spalletti	-5713
▁athraithe	-5714
▁chiméadar	-5715
▁fostaíonn	-5716
▁ghearrthú	-5717
▁tSeoirsia	-5718
▁Coimeádach	-5719
▁Comelinids	-5720
▁Nottingham	-5721
▁cineálacha	-5722
▁eartartóir	-5723
▁meánmhéide	-5724
▁tIndóinéas	-5725
íomhaireacht	-5726
▁fostaíochta	-5727
▁Saskatchewan	-5728
▁Indéinéiseach	-5729
57	-5730
hu	-5731
lw	-5732
tu	-5733
1.2	-5734
6-0	-5735
919	-5736
don	-5737
▁AK	-5738
▁Ku	-5739
▁Re	-5740
▁gS	-5741
3528	-5742
bita	-5743
eing	-5744
elos	-5745
ions	-5746
jang	-5747
ling	-5748
mark	-5749
oibh	-5750
vard	-5751
ydor	-5752
óidh	-5753
úlra	-5754
▁24.	-5755
▁373	-5756
▁Aon	-5757
▁Bru	-5758
▁Cov	-5759
▁Pur	-5760
▁Tob	-5761
▁asf	-5762
▁tom	-5763
achta	-5764
anadh	-5765
ennai	-5766
lwald	-5767
níodh	-5768
oslar	-5769
ourou	-5770
áilte	-5771
▁1957	-5772
▁Book	-5773
▁inst	-5774
▁tiom	-5775
akarta	-5776
camore	-5777
market	-5778
ntario	-5779
oibriú	-5780
oiléil	-5781
▁1933.	-5782
▁1956.	-5783
▁1981.	-5784
▁1983.	-5785
▁2013.	-5786
▁Eagle	-5787
▁Marry	-5788
▁Perón	-5789
▁Tuaig	-5790
▁beidh	-5791
▁bharc	-5792
▁bhath	-5793
▁phobh	-5794
▁poist	-5795
▁Ábhar	-5796
▁Aeiris	-5797
▁Caitle	-5798
▁Kourou	-5799
▁Orbita	-5800
▁Purple	-5801
▁Tobago	-5802
▁seasún	-5803
▁sheach	-5804
oibríodh	-5805
thelwald	-5806
éiméadar	-5807
▁Chennai	-5808
▁Dëanadh	-5809
▁Harvard	-5810
▁Heiléin	-5811
▁Jakarta	-5812
▁Ontario	-5813
▁Seirbhí	-5814
▁gcartar	-5815
▁leabhré	-5816
▁mhuiric	-5817
▁éaglach	-5818
▁Bainiste	-5819
▁Miontair	-5820
▁Sycamore	-5821
▁Thosaigh	-5822
▁cheannán	-5823
▁rinneann	-5824
eagraíocht	-5825
▁Indóinéas	-5826
▁Javanéise	-5827
▁Newmarket	-5828
▁Oileánach	-5829
▁scéimeadh	-5830
reithiúnais	-5831
▁0-439-1768	-5832
▁Cheathrúdú	-5833
▁gcóirteanna	-5834
▁rannchuidiú	-5835
▁ceintiméadar	-5836
-8	-5837
22	-5838
ku	-5839
vd	-5840
-06	-5841
70.	-5842
Jor	-5843
etr	-5844
fer	-5845
pel	-5846
yam	-5847
▁00	-5848
▁1,	-5849
▁89	-5850
▁gr	-5851
/198	-5852
091.	-5853
264,	-5854
eala	-5855
emer	-5856
esel	-5857
idad	-5858
ield	-5859
sinc	-5860
▁AFB	-5861
▁ATK	-5862
▁RCA	-5863
▁Reb	-5864
▁UTC	-5865
▁arr	-5866
▁col	-5867
▁sam	-5868
elvin	-5869
iffer	-5870
ointe	-5871
▁4410	-5872
▁Bart	-5873
▁Blvd	-5874
▁Cear	-5875
▁Karl	-5876
▁Marv	-5877
▁Opel	-5878
▁SIDA	-5879
▁Trin	-5880
▁Zamb	-5881
▁bhos	-5882
▁chur	-5883
ellion	-5884
oibigh	-5885
▁1966.	-5886
▁1998.	-5887
▁37351	-5888
▁Bloom	-5889
▁Colon	-5890
▁Fómán	-5891
▁Kesel	-5892
▁Oddie	-5893
▁Studi	-5894
▁Titán	-5895
▁Tiúis	-5896
▁ealaí	-5897
▁nuála	-5898
nalillo	-5899
oslarer	-5900
áideach	-5901
▁Almond	-5902
▁Portal	-5903
▁gceist	-5904
▁théann	-5905
▁tógtha	-5906
▁éagáta	-5907
▁Bostóin	-5908
▁Ealaíon	-5909
▁Georgia	-5910
▁Indiúil	-5911
▁Orbital	-5912
▁Peñarol	-5913
▁Randall	-5914
▁Síníodh	-5915
▁avocada	-5916
▁cearnch	-5917
▁oscailt	-5918
▁Mamiffer	-5919
▁Oibrithe	-5920
▁Sóivéide	-5921
▁Trinidad	-5922
▁Víneoine	-5923
▁bhforáil	-5924
▁brentach	-5925
▁Rebellion	-5926
aighdeánach	-5927
▁Aleksandre	-5928
▁Bernalillo	-5929
▁Grenadaire	-5930
▁Oideachais	-5931
▁theaghlach	-5932
▁Pharlaimint	-5933
▁disciplacht	-5934
▁ionadaíocht	-5935
▁tábhachtach	-5936
▁Críochnaíodh	-5937
-4	-5938
45	-5939
597	-5940
749	-5941
Ass	-5942
asa	-5943
iya	-5944
olt	-5945
ull	-5946
umi	-5947
▁07	-5948
▁08	-5949
▁49	-5950
▁DA	-5951
▁Sk	-5952
▁cy	-5953
▁li	-5954
2164	-5955
aath	-5956
aoth	-5957
cour	-5958
ding	-5959
ilow	-5960
líon	-5961
obem	-5962
onse	-5963
onst	-5964
raid	-5965
éara	-5966
▁-3.	-5967
▁108	-5968
▁16.	-5969
▁288	-5970
▁Bat	-5971
▁Buc	-5972
▁Clú	-5973
▁FAS	-5974
▁Rad	-5975
▁eis	-5976
64597	-5977
illin	-5978
irley	-5979
lands	-5980
riceá	-5981
scrúd	-5982
varaí	-5983
álach	-5984
▁1258	-5985
▁32.2	-5986
▁Astr	-5987
▁Rial	-5988
▁Rúis	-5989
▁Stiú	-5990
▁Zuma	-5991
▁beac	-5992
▁bhua	-5993
▁gorm	-5994
▁hAin	-5995
▁tona	-5996
aonair	-5997
eanach	-5998
lánach	-5999
romach	-6000
▁1.524	-6001
▁18.29	-6002
▁1958.	-6003
▁70634	-6004
▁Canad	-6005
▁Crosc	-6006
▁Metal	-6007
▁Paris	-6008
▁Ríomh	-6009
▁Sousa	-6010
▁Uacht	-6011
▁cylin	-6012
▁fháil	-6013
▁hOstr	-6014
264,000	-6015
omotive	-6016
▁162164	-6017
▁Batumi	-6018
▁Globem	-6019
▁Penyet	-6020
▁Record	-6021
▁asfalt	-6022
▁bhaath	-6023
▁sambal	-6024
Jerseach	-6025
ineálach	-6026
pleáchas	-6027
▁9364597	-6028
▁Banilow	-6029
▁Bheomra	-6030
▁Desmond	-6031
▁Francis	-6032
▁Galileo	-6033
▁Georges	-6034
▁Polydor	-6035
▁dhaoine	-6036
▁hAigint	-6037
aoirleach	-6038
▁Brasaíle	-6039
▁Goslarer	-6040
▁Mhuiríní	-6041
▁Teiceasa	-6042
▁Spaceport	-6043
▁teaghréid	-6044
eachtaíocht	-6045
▁162164091.	-6046
▁Breitheadh	-6047
▁Mheabhraon	-6048
▁riaracháin	-6049
▁Globemaster	-6050
▁príomhthéid	-6051
▁Bainisteoidh	-6052
▁cathaoirleach	-6053
▁Fredericksburg	-6054
AT	-6055
DS	-6056
fs	-6057
158	-6058
603	-6059
911	-6060
961	-6061
ays	-6062
ebi	-6063
keh	-6064
ova	-6065
rob	-6066
▁5,	-6067
▁6,	-6068
▁Kr	-6069
▁UC	-6070
▁sí	-6071
▁tT	-6072
-27.	-6073
5589	-6074
7.43	-6075
boud	-6076
ionc	-6077
king	-6078
nais	-6079
oinn	-6080
reas	-6081
▁$55	-6082
▁211	-6083
▁573	-6084
▁Agh	-6085
▁Chú	-6086
▁Gab	-6087
▁Ira	-6088
▁Seo	-6089
▁Vis	-6090
▁der	-6091
▁dhu	-6092
▁eil	-6093
▁gné	-6094
8,600	-6095
bairt	-6096
faidh	-6097
ieter	-6098
mhais	-6099
sotak	-6100
thaca	-6101
únach	-6102
▁1980	-6103
▁Chap	-6104
▁Este	-6105
▁Foth	-6106
▁Nova	-6107
▁Vila	-6108
▁Virt	-6109
▁Whig	-6110
▁Wolt	-6111
▁dtug	-6112
▁raon	-6113
000.0,	-6114
faíodh	-6115
grethe	-6116
ioncam	-6117
istina	-6118
mhainn	-6119
teocht	-6120
udding	-6121
▁1959.	-6122
▁1987.	-6123
▁Citta	-6124
▁Colan	-6125
▁Konst	-6126
▁Mhair	-6127
▁Paras	-6128
▁Valer	-6129
▁bhaol	-6130
▁córas	-6131
▁seala	-6132
antinos	-6133
sotakis	-6134
íochtaí	-6135
▁107.43	-6136
▁135589	-6137
▁288749	-6138
▁Dieter	-6139
▁Kluwer	-6140
▁Pháirt	-6141
▁Rivers	-6142
▁chuims	-6143
▁páirtí	-6144
▁teicne	-6145
imistéar	-6146
▁-3.3528	-6147
▁Aghaidh	-6148
▁Hecking	-6149
▁Radboud	-6150
▁Shirley	-6151
▁Wolters	-6152
▁féadfar	-6153
▁phoiblí	-6154
▁stiúire	-6155
Hampshire	-6156
▁Chómhair	-6157
▁Kristina	-6158
▁cuideach	-6159
▁dhíthair	-6160
▁dtíortha	-6161
▁mhiotail	-6162
▁réigiúin	-6163
▁Aicmeofar	-6164
▁Esteghlal	-6165
▁Gréasanna	-6166
▁Margrethe	-6167
▁Riverside	-6168
▁gCoinbhle	-6169
▁sealadach	-6170
▁Mitsotakis	-6171
▁Philippine	-6172
▁Stiúrthóir	-6173
▁ionadaíonn	-6174
amhaitheoirí	-6175
▁475426000.0	-6176
▁aitheantóir	-6177
▁Konstantinos	-6178
▁Visvesvaraya	-6179
18	-6180
9,	-6181
ef	-6182
iu	-6183
tà	-6184
2-2	-6185
700	-6186
aik	-6187
ikh	-6188
ito	-6189
lín	-6190
nod	-6191
ous	-6192
rah	-6193
ñol	-6194
▁60	-6195
▁AG	-6196
▁cm	-6197
-130	-6198
6468	-6199
Jseo	-6200
aleg	-6201
alop	-6202
etro	-6203
ezon	-6204
ioca	-6205
lass	-6206
mund	-6207
oigh	-6208
omer	-6209
race	-6210
táit	-6211
uirí	-6212
▁331	-6213
▁Amb	-6214
▁Din	-6215
▁Vit	-6216
-2060	-6217
2.339	-6218
akrah	-6219
nodar	-6220
rance	-6221
tebol	-6222
▁1971	-6223
▁3997	-6224
▁Aviv	-6225
▁Hays	-6226
▁Kras	-6227
▁Okeh	-6228
▁Punk	-6229
▁Stad	-6230
▁Tamp	-6231
▁Taro	-6232
▁deas	-6233
▁labh	-6234
▁nAil	-6235
▁reil	-6236
646863	-6237
aideam	-6238
asanjo	-6239
hannis	-6240
mariam	-6241
mheola	-6242
stinín	-6243
usegun	-6244
▁1989.	-6245
▁Afara	-6246
▁Arion	-6247
▁Berry	-6248
▁Chéad	-6249
▁Città	-6250
▁Galac	-6251
▁Haile	-6252
▁Horch	-6253
▁Kuban	-6254
▁Makis	-6255
▁Niger	-6256
▁Stádó	-6257
▁Tomsk	-6258
▁fuara	-6259
▁réims	-6260
2.33968	-6261
achtadh	-6262
aispeán	-6263
inneall	-6264
ireacht	-6265
patacon	-6266
▁Airbus	-6267
▁Astron	-6268
▁Boeing	-6269
▁Bruins	-6270
▁Chiefs	-6271
▁Cluich	-6272
▁Cruise	-6273
▁Ithaca	-6274
▁Parana	-6275
▁Thuair	-6276
▁bhajji	-6277
▁bhfoir	-6278
▁bóthar	-6279
▁cabhas	-6280
▁eagair	-6281
▁leagan	-6282
▁stádas	-6283
▁trance	-6284
▁táirge	-6285
aiméadar	-6286
▁2015-06	-6287
▁Astráil	-6288
▁Bhaváir	-6289
▁Desaleg	-6290
▁Futebol	-6291
▁Tampere	-6292
▁Terrace	-6293
▁chairim	-6294
▁chomhar	-6295
▁ghiosca	-6296
▁instéar	-6297
▁ionadaí	-6298
▁áitiúil	-6299
▁89646863	-6300
▁Dynamics	-6301
▁Iohannis	-6302
▁Obasanjo	-6303
▁Olusegun	-6304
▁gGeorgia	-6305
▁leabhair	-6306
▁mhíleata	-6307
▁oibreoir	-6308
▁shíníodh	-6309
▁Ionóinéas	-6310
▁Krasnodar	-6311
▁comhailiú	-6312
▁faireacht	-6313
▁limistéir	-6314
▁lánmhéide	-6315
▁Aeirneacht	-6316
▁Malaiséise	-6317
▁Oileánacha	-6318
▁ceannaithe	-6319
▁scríobhadh	-6320
▁tIonóinéas	-6321
▁441092000.0	-6322
▁Aitheantóir	-6323
▁Bainistíonn	-6324
▁Hailemariam	-6325
▁rithbhealaí	-6326
▁úinéireacht	-6327
▁comhracaithe	-6328
▁soláthraíonn	-6329
TE	-6330
UR	-6331
ep	-6332
zi	-6333
090	-6334
14.	-6335
3.8	-6336
395	-6337
705	-6338
942	-6339
aif	-6340
aji	-6341
cre	-6342
ili	-6343
nyk	-6344
ogh	-6345
ryp	-6346
éag	-6347
úrs	-6348
▁CD	-6349
▁Lo	-6350
0906	-6351
8388	-6352
90.9	-6353
aims	-6354
amin	-6355
ania	-6356
apol	-6357
ayas	-6358
cema	-6359
egre	-6360
enny	-6361
iaol	-6362
inna	-6363
iyev	-6364
oyet	-6365
ríbh	-6366
ríof	-6367
unch	-6368
vann	-6369
▁129	-6370
▁94.	-6371
▁973	-6372
▁Cen	-6373
▁Dín	-6374
▁EUR	-6375
▁Iar	-6376
▁Qiu	-6377
▁USA	-6378
▁dhr	-6379
-4253	-6380
60363	-6381
arsan	-6382
icéid	-6383
ipéir	-6384
olone	-6385
ulatu	-6386
ustín	-6387
ysler	-6388
éanaí	-6389
▁1981	-6390
▁1987	-6391
▁5705	-6392
▁Ainm	-6393
▁AlCO	-6394
▁Avoc	-6395
▁Bebi	-6396
▁Cath	-6397
▁Crom	-6398
▁Enda	-6399
▁Gene	-6400
▁Naik	-6401
▁Post	-6402
▁Tesh	-6403
▁Tink	-6404
▁barm	-6405
▁cain	-6406
▁fada	-6407
▁lúis	-6408
▁roll	-6409
▁saos	-6410
▁tArd	-6411
395158	-6412
ailéis	-6413
apolis	-6414
cheann	-6415
iseáin	-6416
phalop	-6417
rypnyk	-6418
tánach	-6419
▁490.9	-6420
▁Afrob	-6421
▁Ghair	-6422
▁Ghrai	-6423
▁Halla	-6424
▁Kenny	-6425
▁Logan	-6426
▁Mater	-6427
▁Poyet	-6428
▁Staid	-6429
▁Xiaol	-6430
▁críne	-6431
▁milte	-6432
▁negre	-6433
▁roisc	-6434
▁smach	-6435
▁spóga	-6436
▁thosú	-6437
inneadh	-6438
▁179942	-6439
▁520906	-6440
▁660363	-6441
▁Bheill	-6442
▁Bhuill	-6443
▁Center	-6444
▁Claude	-6445
▁Guinín	-6446
▁Michel	-6447
▁Mulatu	-6448
▁Quezon	-6449
▁Uimhir	-6450
▁Viktor	-6451
▁bhaoin	-6452
▁chlábe	-6453
▁eacáta	-6454
▁eagáta	-6455
▁gluais	-6456
▁kileag	-6457
8-1-4165	-6458
óireacht	-6459
▁Aeráide	-6460
▁Agustín	-6461
▁Avocado	-6462
▁Buscema	-6463
▁Chreith	-6464
▁Cuimhne	-6465
▁Galicia	-6466
▁Giovann	-6467
▁Grenada	-6468
▁Mheidán	-6469
▁Náisiún	-6470
▁Oileáin	-6471
▁Seoladh	-6472
▁Teshome	-6473
▁Tinkham	-6474
▁bhaicín	-6475
ascraíonn	-6476
pataconaí	-6477
▁52395158	-6478
▁Chrysler	-6479
▁Filipíní	-6480
▁Football	-6481
▁Galactic	-6482
▁Iodáilis	-6483
▁Mhairíní	-6484
▁Skrypnyk	-6485
▁Xiaolong	-6486
▁dhíreach	-6487
▁iomaíoch	-6488
irthearach	-6489
▁Andalúise	-6490
▁Bartolone	-6491
▁Gadzhiyev	-6492
▁Miscisipí	-6493
▁Olimpique	-6494
▁reiligiún	-6495
▁rithbhóid	-6496
▁staireach	-6497
▁Lokomotive	-6498
▁deireanach	-6499
▁eiseantóir	-6500
▁hAinstinín	-6501
▁tréimhsíse	-6502
▁373513000.0	-6503
▁Indiaapolis	-6504
8-1-4165-4253	-6505
▁hAiseáiseach	-6506
▁Chríochnaíodh	-6507
▁seirbhínítear	-6508
▁Chreithiúnaigh	-6509
▁523951582.33968	-6510
5,	-6511
II	-6512
ha	-6513
/32	-6514
2.4	-6515
670	-6516
920	-6517
III	-6518
fay	-6519
hit	-6520
iti	-6521
sit	-6522
éri	-6523
▁1-	-6524
▁53	-6525
▁AD	-6526
▁Az	-6527
▁nA	-6528
,100	-6529
----	-6530
0008	-6531
7055	-6532
7670	-6533
8024	-6534
ajan	-6535
alez	-6536
cret	-6537
elli	-6538
enza	-6539
eppe	-6540
lege	-6541
leri	-6542
oilí	-6543
poli	-6544
sing	-6545
tadt	-6546
taur	-6547
ásca	-6548
éach	-6549
▁14.	-6550
▁3.8	-6551
▁Bib	-6552
▁Fox	-6553
▁Grú	-6554
▁STV	-6555
▁Sea	-6556
▁mbu	-6557
843.8	-6558
acter	-6559
eiceo	-6560
ibear	-6561
obail	-6562
odóip	-6563
rigan	-6564
rúnaí	-6565
▁"192	-6566
▁0.01	-6567
▁1904	-6568
▁2597	-6569
▁5115	-6570
▁Cuid	-6571
▁Dale	-6572
▁Gius	-6573
▁Iach	-6574
▁Leag	-6575
▁Líne	-6576
▁Mino	-6577
▁Moga	-6578
▁Neus	-6579
▁Roll	-6580
▁Syst	-6581
▁VIAG	-6582
▁XIII	-6583
▁bóna	-6584
▁nIon	-6585
▁phón	-6586
▁rash	-6587
▁tAin	-6588
▁toma	-6589
Wakrah	-6590
cailte	-6591
icelli	-6592
ilainn	-6593
▁0-670	-6594
▁1931.	-6595
▁2008.	-6596
▁523.9	-6597
▁Adsit	-6598
▁Aniti	-6599
▁Dhord	-6600
▁Lafay	-6601
▁Malaí	-6602
▁Price	-6603
▁bharr	-6604
▁eagar	-6605
▁oibri	-6606
▁tiomá	-6607
▁uibhe	-6608
▁Ícolo	-6609
2.47055	-6610
hitleri	-6611
sbridge	-6612
áileadh	-6613
▁Gadzhi	-6614
▁Lufkin	-6615
▁Marius	-6616
▁Secret	-6617
▁Sionad	-6618
▁Torino	-6619
▁Wiener	-6620
▁bheadh	-6621
▁bánóin	-6622
▁chúlra	-6623
▁cianna	-6624
▁hIraic	-6625
▁pláine	-6626
▁shaoth	-6627
▁teicní	-6628
▁30843.8	-6629
▁94.8024	-6630
▁Alfonso	-6631
▁College	-6632
▁Gardner	-6633
▁Iachini	-6634
▁Lansing	-6635
▁Mahajan	-6636
▁Rómáine	-6637
▁Spásach	-6638
▁ciúbach	-6639
réachtadh	-6640
▁252000.0	-6641
▁25977670	-6642
▁Coritiba	-6643
▁Gearmáin	-6644
▁Giovanni	-6645
▁Giuseppe	-6646
▁Gonzalez	-6647
▁Hessisch	-6648
▁Horrigan	-6649
▁Neustadt	-6650
▁Phraghas	-6651
▁Stanford	-6652
▁cheathrú	-6653
▁dhíthach	-6654
▁hAfriceá	-6655
Jseoiseach	-6656
▁80002709.	-6657
▁Character	-6658
▁Dhordálaí	-6659
▁Lafayette	-6660
▁Rannchuid	-6661
▁cuimsíonn	-6662
▁10,264,000	-6663
▁1913-01-01	-6664
▁Eascraíonn	-6665
▁Inneallach	-6666
▁aitheantas	-6667
▁Caitleachta	-6668
▁cearncailte	-6669
▁fheidhmíonn	-6670
▁ghréimseach	-6671
▁thairiscint	-6672
▁6603633000.0	-6673
▁Mheabhrachán	-6674
▁Mhoinmhaonad	-6675
▁fochainneach	-6676
▁príomhteanga	-6677
▁Bhreithiúnais	-6678
▁Knightsbridge	-6679
▁162164091.8388	-6680
▁259776702.47055	-6681
▁cearnchaiméadar	-6682
'.	-6683
."	-6684
Mh	-6685
SD	-6686
oğ	-6687
uy	-6688
2.0	-6689
4.9	-6690
5.4	-6691
622	-6692
Man	-6693
Ord	-6694
ati	-6695
chi	-6696
isa	-6697
lay	-6698
reo	-6699
sha	-6700
taí	-6701
▁BC	-6702
▁Ir	-6703
▁Ps	-6704
▁lú	-6705
▁pe	-6706
▁rí	-6707
▁su	-6708
2447	-6709
9447	-6710
cept	-6711
holm	-6712
mpia	-6713
oğlu	-6714
▁1.2	-6715
▁31.	-6716
▁698	-6717
▁Bhl	-6718
▁Syn	-6719
▁Vic	-6720
▁feo	-6721
▁ost	-6722
-9255	-6723
40756	-6724
60.29	-6725
Stars	-6726
ansas	-6727
entry	-6728
ianta	-6729
namán	-6730
pañol	-6731
▁1966	-6732
▁Aids	-6733
▁Dick	-6734
▁Fhis	-6735
▁Linn	-6736
▁Wall	-6737
▁ardú	-6738
▁feab	-6739
▁soia	-6740
▁tart	-6741
▁éagh	-6742
-92550	-6743
eaptar	-6744
iánach	-6745
nítear	-6746
onseca	-6747
íníodh	-6748
íoladh	-6749
▁15788	-6750
▁1905.	-6751
▁19238	-6752
▁1974.	-6753
▁344.9	-6754
▁39447	-6755
▁39971	-6756
▁Emile	-6757
▁Match	-6758
▁Téacs	-6759
▁mbonn	-6760
▁ríomh	-6761
▁tomat	-6762
oiléilí	-6763
íleacht	-6764
▁"1634:	-6765
▁162447	-6766
▁360.29	-6767
▁440756	-6768
▁698622	-6769
▁Anglia	-6770
▁Darien	-6771
▁Dillin	-6772
▁Domhad	-6773
▁Engine	-6774
▁Except	-6775
▁Kansas	-6776
▁Launch	-6777
▁Roemer	-6778
▁Rovers	-6779
▁Scríof	-6780
▁coinbh	-6781
▁cylind	-6782
▁muicic	-6783
▁ostair	-6784
▁píolío	-6785
▁rasher	-6786
▁sraith	-6787
▁tSanta	-6788
laíochta	-6789
úirteach	-6790
▁Español	-6791
▁Fonseca	-6792
▁Vicenza	-6793
▁Zambang	-6794
▁bhuntas	-6795
▁heamann	-6796
▁saothrú	-6797
▁thugadh	-6798
▁Minotaur	-6799
▁Mionsabh	-6800
▁Spórtach	-6801
▁Stairach	-6802
aithnítear	-6803
▁Davutoğlu	-6804
▁Ellington	-6805
▁Sehitleri	-6806
▁Stockholm	-6807
▁bhainiste	-6808
▁oibritach	-6809
▁phoiléilí	-6810
milliméadar	-6811
▁Cluicheann	-6812
▁Mihajlovic	-6813
▁Recordings	-6814
▁ainmneacha	-6815
▁bhaitheamh	-6816
▁comhábhair	-6817
▁Engineering	-6818
▁Matamaitice	-6819
▁breithreach	-6820
▁Chomhphobail	-6821
▁Scríofaítear	-6822
▁bhainistíonn	-6823
▁tionscnaíonn	-6824
54	-6825
BI	-6826
XN	-6827
fo	-6828
ió	-6829
yn	-6830
zo	-6831
-12	-6832
-83	-6833
/1.	-6834
015	-6835
15.	-6836
2.3	-6837
793	-6838
Zaw	-6839
amo	-6840
arb	-6841
ipi	-6842
rag	-6843
teo	-6844
una	-6845
wan	-6846
▁KV	-6847
▁Vo	-6848
▁hl	-6849
6463	-6850
6798	-6851
aber	-6852
aobh	-6853
chel	-6854
chum	-6855
edel	-6856
enzi	-6857
etti	-6858
ival	-6859
oise	-6860
olai	-6861
onet	-6862
orta	-6863
orth	-6864
phen	-6865
roch	-6866
▁292	-6867
▁439	-6868
▁Adv	-6869
▁Arp	-6870
▁Dun	-6871
▁Kir	-6872
▁Vel	-6873
▁Vfl	-6874
▁Wet	-6875
▁gná	-6876
▁oir	-6877
▁tri	-6878
01-83	-6879
Scoil	-6880
Zawra	-6881
adóir	-6882
anner	-6883
erdam	-6884
ineal	-6885
inger	-6886
iseum	-6887
miúil	-6888
úsáid	-6889
▁1174	-6890
▁5.75	-6891
▁5233	-6892
▁Azin	-6893
▁Ball	-6894
▁Bari	-6895
▁Diaz	-6896
▁Euro	-6897
▁Lein	-6898
▁Line	-6899
▁Mahe	-6900
▁Meam	-6901
▁Mhis	-6902
▁Sach	-6903
▁ayam	-6904
▁bith	-6905
▁céim	-6906
▁dios	-6907
▁ghnó	-6908
▁leat	-6909
▁nuid	-6910
▁talú	-6911
679831	-6912
aispeá	-6913
altach	-6914
chelen	-6915
edelia	-6916
neoidh	-6917
odrome	-6918
sterix	-6919
Údarás	-6920
▁1913.	-6921
▁2005,	-6922
▁23900	-6923
▁Bhonn	-6924
▁Faber	-6925
▁Lions	-6926
▁Renzi	-6927
▁Simon	-6928
▁bronn	-6929
▁dháta	-6930
▁nuach	-6931
eartach	-6932
raincis	-6933
▁836463	-6934
▁Banner	-6935
▁Comhph	-6936
▁Dinamo	-6937
▁Hartel	-6938
▁Matteo	-6939
▁Newark	-6940
▁Tuirce	-6941
▁déanaí	-6942
▁lipéid	-6943
▁méarch	-6944
▁múnach	-6945
▁scoile	-6946
▁seasam	-6947
▁suntas	-6948
-2060-0.	-6949
lachtóir	-6950
phalopod	-6951
▁7679831	-6952
▁Asterix	-6953
▁Measfar	-6954
▁Sachsen	-6955
▁Scagadh	-6956
▁Stephen	-6957
▁bpáiste	-6958
▁dtugtar	-6959
▁gcompar	-6960
▁gcúirte	-6961
▁gineall	-6962
▁saillte	-6963
▁áirithe	-6964
iomlánach	-6965
▁Berliner	-6966
▁Bhléasán	-6967
▁Ceannais	-6968
▁Coliseum	-6969
▁Leinster	-6970
▁Mechelen	-6971
▁Wetlands	-6972
▁hlodáile	-6973
▁lárionad	-6974
▁Amsterdam	-6975
▁Kolomáine	-6976
▁Meiceiceo	-6977
▁Velodrome	-6978
▁eartartán	-6979
▁réimsithe	-6980
▁Chothroinn	-6981
▁Daonlathas	-6982
▁Scríofaigh	-6983
▁Seinnteoir	-6984
▁cheathrúch	-6985
▁fhaightear	-6986
▁méarchláir	-6987
▁rithsealaí	-6988
▁Chruinnithe	-6989
▁scríofaíodh	-6990
▁Tionscnaíodh	-6991
▁críochnaithe	-6992
▁sheirbhísíodh	-6993
▁Fiontaireachta	-6994
GP	-6995
OK	-6996
SV	-6997
uß	-6998
150	-6999
3.1	-7000
771	-7001
ate	-7002
dem	-7003
osé	-7004
raf	-7005
ste	-7006
áim	-7007
▁8,	-7008
▁Nu	-7009
▁to	-7010
4.33	-7011
GPAC	-7012
cear	-7013
erit	-7014
erny	-7015
inau	-7016
jano	-7017
oilo	-7018
orks	-7019
ouri	-7020
tásc	-7021
ugin	-7022
▁168	-7023
▁36.	-7024
▁434	-7025
▁448	-7026
▁Arn	-7027
▁Bab	-7028
▁Beo	-7029
▁Cak	-7030
▁Gen	-7031
▁Hel	-7032
▁Kad	-7033
▁Pat	-7034
▁Paz	-7035
▁Web	-7036
▁rit	-7037
▁éil	-7038
3380-	-7039
79343	-7040
acker	-7041
acóin	-7042
earta	-7043
nitis	-7044
theas	-7045
uairí	-7046
urnal	-7047
únóir	-7048
▁1974	-7049
▁4150	-7050
▁8.33	-7051
▁Arms	-7052
▁Bach	-7053
▁Blán	-7054
▁Chis	-7055
▁Cook	-7056
▁Flea	-7057
▁José	-7058
▁Lyle	-7059
▁Saor	-7060
▁Vlad	-7061
▁asch	-7062
▁cluí	-7063
▁coth	-7064
▁cóca	-7065
▁doch	-7066
▁hola	-7067
adaigh	-7068
demont	-7069
ellors	-7070
ernykh	-7071
ghrúpa	-7072
ußisch	-7073
éalach	-7074
▁74.33	-7075
▁78771	-7076
▁Baduy	-7077
▁Bhaji	-7078
▁Gaúis	-7079
▁Guard	-7080
▁Indiú	-7081
▁Larry	-7082
▁Maher	-7083
▁Nouri	-7084
▁Popul	-7085
▁Pugin	-7086
▁Works	-7087
▁bCath	-7088
▁bajji	-7089
▁bhaná	-7090
▁ghear	-7091
▁leict	-7092
▁perit	-7093
▁riala	-7094
▁rocha	-7095
▁toisc	-7096
airgead	-7097
elsberg	-7098
erfield	-7099
▁2014-2	-7100
▁410777	-7101
▁479343	-7102
▁523329	-7103
▁Carles	-7104
▁Dhairt	-7105
▁Kaduna	-7106
▁Looilí	-7107
▁Sinisa	-7108
▁Tejano	-7109
▁bionic	-7110
▁cánach	-7111
▁nuidil	-7112
▁stádán	-7113
▁Afrobat	-7114
▁Aireann	-7115
▁Contais	-7116
▁Fíipíne	-7117
▁Giocáin	-7118
▁Moldóiv	-7119
▁Nikolai	-7120
▁Roberts	-7121
▁bandeja	-7122
▁ceilvin	-7123
▁chairir	-7124
▁oiliúna	-7125
▁tStaobh	-7126
▁thuaidh	-7127
taitheach	-7128
▁125800.0	-7129
▁Ardrúnaí	-7130
▁Augustus	-7131
▁Bhávaraí	-7132
▁Chernykh	-7133
▁Chisinau	-7134
▁Cónaíonn	-7135
▁Francois	-7136
▁Rosaceae	-7137
▁Spórtála	-7138
▁Taqaddum	-7139
▁Théacsas	-7140
▁marmhair	-7141
▁mbuimhne	-7142
▁tIndiana	-7143
▁Comhaontú	-7144
▁Oibreanna	-7145
▁Preußisch	-7146
▁Stockport	-7147
▁dhréantar	-7148
▁staidíodh	-7149
ellorsville	-7150
▁Babelsberg	-7151
▁Chancúnóir	-7152
▁Fionlainne	-7153
▁Philippíní	-7154
▁Puigdemont	-7155
▁dhéiméadar	-7156
▁tAtlantach	-7157
▁440756000.0	-7158
▁479343000.0	-7159
▁511592000.0	-7160
▁520906000.0	-7161
▁Bhaváireach	-7162
▁Reachtaíocht	-7163
AA	-7164
517	-7165
92.	-7166
AGE	-7167
Ang	-7168
gip	-7169
hem	-7170
its	-7171
jan	-7172
nan	-7173
oim	-7174
orw	-7175
pur	-7176
raj	-7177
ria	-7178
sor	-7179
tra	-7180
uis	-7181
▁44	-7182
▁Fr	-7183
▁Pl	-7184
▁mm	-7185
▁tú	-7186
,400	-7187
9-01	-7188
9371	-7189
aird	-7190
amat	-7191
ivis	-7192
lúth	-7193
mira	-7194
ndaí	-7195
over	-7196
rewe	-7197
seal	-7198
stik	-7199
thar	-7200
urol	-7201
wich	-7202
yang	-7203
únas	-7204
▁1.8	-7205
▁2.7	-7206
▁464	-7207
▁5.7	-7208
▁512	-7209
▁7.5	-7210
▁Gér	-7211
▁HOK	-7212
▁Put	-7213
▁hÍd	-7214
▁tap	-7215
2.846	-7216
ailis	-7217
andaí	-7218
arese	-7219
eldon	-7220
fhéan	-7221
inniú	-7222
rafts	-7223
reabh	-7224
ruits	-7225
théid	-7226
óráid	-7227
▁125.	-7228
▁2008	-7229
▁5300	-7230
▁Chín	-7231
▁Clay	-7232
▁Cohn	-7233
▁Eman	-7234
▁Gary	-7235
▁Igor	-7236
▁Oros	-7237
▁Pará	-7238
▁Raul	-7239
▁SAGE	-7240
▁Slay	-7241
▁Tait	-7242
▁USAF	-7243
▁Uimh	-7244
▁Vorw	-7245
▁Wind	-7246
▁bhun	-7247
▁shos	-7248
▁spór	-7249
▁tomh	-7250
abháil	-7251
allach	-7252
ambien	-7253
cearná	-7254
igheas	-7255
rajaya	-7256
reacha	-7257
ónitis	-7258
▁16000	-7259
▁347.1	-7260
▁39371	-7261
▁783.1	-7262
▁Adnan	-7263
▁Cakes	-7264
▁Chest	-7265
▁Chóip	-7266
▁Crewe	-7267
▁Eurol	-7268
▁Ghóid	-7269
▁Hamad	-7270
▁Hardc	-7271
▁Kirby	-7272
▁Kuala	-7273
▁Luach	-7274
▁Mheán	-7275
▁Perth	-7276
▁Reith	-7277
▁Steyr	-7278
▁Voice	-7279
▁braon	-7280
▁faire	-7281
▁hardc	-7282
▁prion	-7283
▁rúipí	-7284
▁rúnaí	-7285
fheidhm	-7286
illithe	-7287
oibíodh	-7288
shábhar	-7289
▁2777.0	-7290
▁464517	-7291
▁870008	-7292
▁Admira	-7293
▁Anyang	-7294
▁Arnhem	-7295
▁Chlára	-7296
▁Dínigh	-7297
▁Garden	-7298
▁Gérard	-7299
▁Halton	-7300
▁Iloilo	-7301
▁Indian	-7302
▁Kanada	-7303
▁Lumpur	-7304
▁Mahjan	-7305
▁Shorta	-7306
▁Wacker	-7307
▁ceasaí	-7308
▁crimhe	-7309
▁eapáta	-7310
▁feabán	-7311
▁imíodh	-7312
▁kiloim	-7313
▁mhuirí	-7314
▁nSáití	-7315
▁thaobh	-7316
bunaíodh	-7317
eachtach	-7318
▁Cosanta	-7319
▁Emanuel	-7320
▁Journal	-7321
▁Mailéis	-7322
▁Mainóid	-7323
▁Meamram	-7324
▁Mionchl	-7325
▁Moldoff	-7326
▁Rutland	-7327
▁Sheldon	-7328
▁Teideal	-7329
▁Windsor	-7330
▁bhainne	-7331
▁bhangra	-7332
▁bhfoirm	-7333
▁bhraigh	-7334
▁ceannaí	-7335
▁gCúndaí	-7336
▁gangsta	-7337
▁ghineas	-7338
▁leathán	-7339
▁stáiste	-7340
▁tapioca	-7341
▁éagsúla	-7342
spleáchas	-7343
▁Coventry	-7344
▁Mhaiséis	-7345
▁Populous	-7346
▁Sandwich	-7347
▁tarmhail	-7348
▁tomatáin	-7349
▁93645978.	-7350
▁Foilseann	-7351
▁Hardcover	-7352
▁Putrajaya	-7353
▁cylindéir	-7354
aimsitheoir	-7355
eiriceánach	-7356
▁Euroleague	-7357
▁ainmneoidh	-7358
▁hOstralach	-7359
▁Ealaíontóir	-7360
▁amatriciana	-7361
▁tréimhseach	-7362
▁Chesterfield	-7363
▁Inneallachta	-7364
▁stílisticiúla	-7365
10	-7366
ng	-7367
/01	-7368
/21	-7369
1.0	-7370
4.7	-7371
573	-7372
6-3	-7373
648	-7374
718	-7375
80,	-7376
ATA	-7377
TEC	-7378
aju	-7379
ico	-7380
ioc	-7381
lun	-7382
rav	-7383
sda	-7384
zii	-7385
▁42	-7386
▁BS	-7387
▁KC	-7388
▁ya	-7389
-932	-7390
0700	-7391
6.67	-7392
9618	-7393
abab	-7394
arif	-7395
aris	-7396
baan	-7397
chen	-7398
deon	-7399
drin	-7400
guin	-7401
iath	-7402
illi	-7403
istí	-7404
krop	-7405
mine	-7406
plex	-7407
ttle	-7408
uane	-7409
ótha	-7410
▁187	-7411
▁399	-7412
▁605	-7413
▁911	-7414
▁Arm	-7415
▁Flo	-7416
▁Mun	-7417
▁Más	-7418
▁Tír	-7419
▁Vec	-7420
▁aus	-7421
▁dem	-7422
▁lim	-7423
▁siú	-7424
▁sol	-7425
6,300	-7426
Izmir	-7427
Ordon	-7428
aille	-7429
ajaya	-7430
alain	-7431
aíodh	-7432
eilge	-7433
enzie	-7434
eobio	-7435
iadán	-7436
ianna	-7437
insin	-7438
isipi	-7439
mhéid	-7440
orden	-7441
osúla	-7442
racle	-7443
ravis	-7444
tarán	-7445
ussel	-7446
▁1426	-7447
▁164.	-7448
▁167.	-7449
▁1920	-7450
▁2011	-7451
▁8500	-7452
▁8788	-7453
▁Apul	-7454
▁Aust	-7455
▁Banc	-7456
▁Boer	-7457
▁Cour	-7458
▁Cóir	-7459
▁Faoi	-7460
▁Gorm	-7461
▁IATA	-7462
▁Lach	-7463
▁Rahm	-7464
▁Seim	-7465
▁Tasc	-7466
▁buan	-7467
▁thos	-7468
▁Údar	-7469
▁éirí	-7470
6-3648	-7471
75,400	-7472
80,700	-7473
andlun	-7474
antino	-7475
ashire	-7476
enburg	-7477
ialann	-7478
imintí	-7479
mhacht	-7480
stróid	-7481
thesda	-7482
érbáin	-7483
úrsair	-7484
▁0-715	-7485
▁125.8	-7486
▁144.7	-7487
▁1971.	-7488
▁69618	-7489
▁Chuas	-7490
▁Diane	-7491
▁Dlíon	-7492
▁Duane	-7493
▁Fuair	-7494
▁Odeon	-7495
▁Saoth	-7496
▁Silva	-7497
▁Spata	-7498
▁Thema	-7499
▁Ukrop	-7500
▁arros	-7501
▁bhíth	-7502
▁chili	-7503
▁grann	-7504
▁láith	-7505
▁lúise	-7506
▁meabh	-7507
▁milse	-7508
▁stiúr	-7509
▁thiar	-7510
0000003	-7511
Silainn	-7512
aerfort	-7513
leabhar	-7514
luaiste	-7515
▁605718	-7516
▁Cruach	-7517
▁Dayton	-7518
▁Fruits	-7519
▁Igorot	-7520
▁Joseph	-7521
▁Masimo	-7522
▁Random	-7523
▁Russel	-7524
▁Shabab	-7525
▁Sharif	-7526
▁Travis	-7527
▁Turzii	-7528
▁Vectra	-7529
▁Worden	-7530
▁bhféad	-7531
▁bhíonn	-7532
▁dhuach	-7533
▁fhaith	-7534
▁gheall	-7535
▁smacht	-7536
▁thairg	-7537
▁tomató	-7538
cheannas	-7539
cheantán	-7540
íochtach	-7541
▁1516.67	-7542
▁Asajaya	-7543
▁Austria	-7544
▁Carmine	-7545
▁Complex	-7546
▁Fiction	-7547
▁Lárnais	-7548
▁Mhiadán	-7549
▁Penguin	-7550
▁Seattle	-7551
▁Seminar	-7552
▁Tascann	-7553
▁chothro	-7554
▁ealaíon	-7555
▁peipéir	-7556
▁seirbhí	-7557
▁sheirbh	-7558
andlungen	-7559
matischen	-7560
▁1202.846	-7561
▁Bethesda	-7562
▁Cearnach	-7563
▁Gréasáin	-7564
▁Synthpop	-7565
▁sinthpop	-7566
oighíneach	-7567
▁01-01-191	-7568
▁Apulensis	-7569
▁Bunnaíodh	-7570
▁Ionadaigh	-7571
▁Lauraceae	-7572
▁Stáiticeá	-7573
▁comhairle	-7574
▁gcuirfidh	-7575
▁reachtach	-7576
▁Úsáideann	-7577
▁Aleksander	-7578
▁Lancashire	-7579
▁arrabbiata	-7580
▁chomhailiú	-7581
▁fhoilsíodh	-7582
▁teicníocht	-7583
▁0-7156-3648	-7584
▁Bloomington	-7585
▁Innealaithe	-7586
▁bainistíonn	-7587
▁comhchosúla	-7588
▁hardclúdach	-7589
▁nIonadaithe	-7590
▁príomhchúir	-7591
▁Mionsabhrach	-7592
▁Valenciánach	-7593
▁Philippíneach	-7594
▁Mathematischen	-7595
kp	-7596
mb	-7597
tr	-7598
áz	-7599
/23	-7600
/27	-7601
5-2	-7602
521	-7603
905	-7604
955	-7605
Roy	-7606
aac	-7607
adá	-7608
cra	-7609
ihu	-7610
mut	-7611
oro	-7612
rie	-7613
ulf	-7614
▁"0	-7615
▁Ow	-7616
-261	-7617
-374	-7618
6521	-7619
80.7	-7620
9705	-7621
atow	-7622
eang	-7623
gory	-7624
hkin	-7625
isin	-7626
kpot	-7627
onna	-7628
rett	-7629
ulai	-7630
urse	-7631
usic	-7632
íoca	-7633
úint	-7634
▁114	-7635
▁142	-7636
▁17.	-7637
▁25.	-7638
▁374	-7639
▁388	-7640
▁Are	-7641
▁Cat	-7642
▁Fir	-7643
▁Jan	-7644
▁Len	-7645
▁Oth	-7646
▁Reg	-7647
▁Rod	-7648
▁VAM	-7649
▁Váz	-7650
▁ast	-7651
▁fío	-7652
▁min	-7653
▁sár	-7654
7080.	-7655
Jorca	-7656
Royce	-7657
Stáit	-7658
ainní	-7659
angan	-7660
aonad	-7661
drini	-7662
eadán	-7663
etrop	-7664
riela	-7665
óintí	-7666
▁0.21	-7667
▁1114	-7668
▁3.04	-7669
▁4.14	-7670
▁AIDS	-7671
▁Aist	-7672
▁Ales	-7673
▁Bola	-7674
▁Comp	-7675
▁Doll	-7676
▁Gulf	-7677
▁Hard	-7678
▁Head	-7679
▁Jahn	-7680
▁Jong	-7681
▁Kway	-7682
▁Mart	-7683
▁Moro	-7684
▁Phil	-7685
▁Raúl	-7686
▁Sons	-7687
▁Univ	-7688
▁Vaju	-7689
▁Vala	-7690
▁ardh	-7691
▁bass	-7692
▁cail	-7693
▁díol	-7694
▁hOtt	-7695
▁taró	-7696
-26131	-7697
icharr	-7698
leston	-7699
odhran	-7700
sandro	-7701
tinsky	-7702
▁1.905	-7703
▁1.955	-7704
▁1996,	-7705
▁233.9	-7706
▁87888	-7707
▁9000.	-7708
▁Aonta	-7709
▁Canto	-7710
▁Elihu	-7711
▁Ghraí	-7712
▁Homer	-7713
▁Isaac	-7714
▁Katow	-7715
▁Lúise	-7716
▁Neamh	-7717
▁Night	-7718
▁North	-7719
▁Rojas	-7720
▁Rolls	-7721
▁Royce	-7722
▁Spell	-7723
▁beart	-7724
▁bhall	-7725
▁brent	-7726
▁chlár	-7727
▁chéim	-7728
▁dhuir	-7729
▁ghnra	-7730
▁gluas	-7731
▁hIndi	-7732
▁ndear	-7733
▁síniú	-7734
-03380-	-7735
Univers	-7736
▁139705	-7737
▁15,100	-7738
▁1580.7	-7739
▁296521	-7740
▁380700	-7741
▁Airman	-7742
▁Beilge	-7743
▁Chúirt	-7744
▁Duurse	-7745
▁Helmut	-7746
▁Inkpot	-7747
▁Sheikh	-7748
▁bacóin	-7749
▁blanco	-7750
▁gearrú	-7751
▁páirte	-7752
▁scéime	-7753
▁siúcra	-7754
00000000	-7755
amatóirí	-7756
gaíochta	-7757
▁1907-07	-7758
▁837080.	-7759
▁Astrona	-7760
▁Catania	-7761
▁Chríoch	-7762
▁Ealaíne	-7763
▁Garrett	-7764
▁Gregory	-7765
▁Mishkin	-7766
▁Uachtar	-7767
▁Vitesse	-7768
▁Vázquez	-7769
▁Vísayas	-7770
▁blianta	-7771
▁ghearrú	-7772
▁muicile	-7773
▁orthóir	-7774
▁príomhá	-7775
▁seinnte	-7776
▁tAigéar	-7777
▁tosaigh	-7778
▁trádála	-7779
Ethelwald	-7780
▁Boldrini	-7781
▁Chicharr	-7782
▁Courcour	-7783
▁Gabriela	-7784
▁Katowice	-7785
▁Michetti	-7786
▁Phíipíní	-7787
▁Rialóidh	-7788
▁Teacsasa	-7789
▁Vajubhai	-7790
▁baincach	-7791
▁bhuiridh	-7792
▁chicaron	-7793
▁gcóstair	-7794
-374-26131	-7795
6000000.0.	-7796
▁Infantino	-7797
▁Limistéar	-7798
▁Oibríocht	-7799
▁Roimheimh	-7800
▁Salvadóra	-7801
▁Sanderson	-7802
▁Stáisiúin	-7803
▁aimseofar	-7804
▁aschurtha	-7805
▁bPoblacht	-7806
▁ceanntásc	-7807
▁chruinniú	-7808
▁hAigintín	-7809
▁priontála	-7810
▁reachtóir	-7811
▁rialaíonn	-7812
▁saillithe	-7813
▁tionscail	-7814
▁Alessandro	-7815
▁Bolatinsky	-7816
▁Charleston	-7817
▁Petersburg	-7818
▁comhlachta	-7819
▁fhaigheann	-7820
▁2015-06-27.	-7821
▁Mionchlaidh	-7822
▁chumhdaíonn	-7823
▁dhréachtadh	-7824
▁príomhchomh	-7825
▁0-670-03380-	-7826
▁Caincheantán	-7827
▁Cathairbeach	-7828
▁Leabharlacha	-7829
▁ealaíontóirí	-7830
▁thionscnaimh	-7831
▁tábhachtacha	-7832
▁rannchuidiúil	-7833
▁teicníochtach	-7834
▁Neamhspleáchas	-7835
▁978-1-4165-4253	-7836
CE	-7837
PS	-7838
bg	-7839
ln	-7840
áí	-7841
üt	-7842
-10	-7843
Uru	-7844
bre	-7845
eol	-7846
gro	-7847
ime	-7848
lus	-7849
lyn	-7850
uld	-7851
ult	-7852
vio	-7853
zze	-7854
óil	-7855
▁Gn	-7856
▁HA	-7857
▁Hü	-7858
▁SN	-7859
▁dí	-7860
3309	-7861
5-9.	-7862
Mich	-7863
comh	-7864
coni	-7865
dhov	-7866
east	-7867
edah	-7868
eáil	-7869
iomh	-7870
ique	-7871
lanc	-7872
oile	-7873
owle	-7874
psey	-7875
sche	-7876
weed	-7877
▁274	-7878
▁44.	-7879
▁5.4	-7880
▁507	-7881
▁800	-7882
▁Adh	-7883
▁Bav	-7884
▁Büt	-7885
▁Cón	-7886
▁ESA	-7887
▁Ein	-7888
▁Kup	-7889
▁PSV	-7890
▁Pap	-7891
▁Scó	-7892
▁Vaz	-7893
▁Vig	-7894
▁cúp	-7895
▁dír	-7896
▁fós	-7897
▁gar	-7898
▁pen	-7899
9226.	-7900
Ceall	-7901
anyan	-7902
ating	-7903
inéir	-7904
isher	-7905
oirse	-7906
rince	-7907
seyin	-7908
teach	-7909
thony	-7910
áirge	-7911
úrsaí	-7912
▁1400	-7913
▁1856	-7914
▁1988	-7915
▁5.57	-7916
▁Cele	-7917
▁Coth	-7918
▁East	-7919
▁Kiss	-7920
▁Live	-7921
▁Mols	-7922
▁Rith	-7923
▁Tren	-7924
▁Ximo	-7925
▁bhFu	-7926
▁bóis	-7927
▁eart	-7928
▁ghio	-7929
▁grán	-7930
▁géin	-7931
▁lámh	-7932
▁tAir	-7933
▁taca	-7934
▁tion	-7935
▁tíre	-7936
Verona	-7937
adwood	-7938
alairt	-7939
brezze	-7940
dhoven	-7941
inegro	-7942
níocht	-7943
osaint	-7944
álacha	-7945
▁1976.	-7946
▁8.334	-7947
▁Amhar	-7948
▁Bheán	-7949
▁Carpi	-7950
▁Class	-7951
▁Donal	-7952
▁Dótha	-7953
▁Faigh	-7954
▁Fowle	-7955
▁Frith	-7956
▁Gould	-7957
▁Hambg	-7958
▁Kedah	-7959
▁Laird	-7960
▁Otiom	-7961
▁Sumac	-7962
▁Sínis	-7963
▁bánbh	-7964
▁colom	-7965
▁cruas	-7966
▁cuims	-7967
▁feabh	-7968
▁liath	-7969
▁luand	-7970
▁láimh	-7971
▁mhais	-7972
▁mheán	-7973
▁ndáil	-7974
▁oibre	-7975
▁stáit	-7976
▁thart	-7977
lusconi	-7978
perberg	-7979
utaceae	-7980
▁1.9558	-7981
▁111484	-7982
▁1142.3	-7983
▁167.94	-7984
▁183309	-7985
▁Benito	-7986
▁Bhléim	-7987
▁Buaigh	-7988
▁Fisher	-7989
▁Gailis	-7990
▁Prince	-7991
▁Silvio	-7992
▁Stalin	-7993
▁Tennis	-7994
▁Tharla	-7995
▁gConta	-7996
▁kelvin	-7997
▁metrop	-7998
▁méadán	-7999
▁phoils	-8000
▁pláite	-8001
▁teacht	-8002
▁tharla	-8003
Caibidil	-8004
iotánach	-8005
óiseanna	-8006
▁Anthony	-8007
▁Barajas	-8008
▁Bütüner	-8009
▁Chilton	-8010
▁Coronet	-8011
▁Digweed	-8012
▁Féadfar	-8013
▁Hüseyin	-8014
▁Kissing	-8015
▁Mhaonmh	-8016
▁Trenton	-8017
▁Vazquez	-8018
▁bhuaigh	-8019
▁bpáirtí	-8020
▁chéanna	-8021
▁comhair	-8022
▁críocha	-8023
▁diosile	-8024
▁gcianna	-8025
▁hÍdáine	-8026
▁leictre	-8027
▁miotail	-8028
▁míleata	-8029
▁ordúirí	-8030
▁pudding	-8031
-92550-9.	-8032
Ceallaigh	-8033
caipiteal	-8034
▁140000.0	-8035
▁60040714	-8036
▁87888500	-8037
▁Acoileán	-8038
▁Brooklyn	-8039
▁Coireann	-8040
▁Floating	-8041
▁Guardian	-8042
▁Simonson	-8043
▁Sínítear	-8044
▁Telangan	-8045
▁díospóid	-8046
▁joblanco	-8047
▁leantóir	-8048
▁tionchar	-8049
leictreach	-8050
▁57059226.	-8051
▁Eindhoven	-8052
▁gceantóir	-8053
▁hAiseáise	-8054
▁thairgann	-8055
▁théileadh	-8056
Universitas	-8057
aispeántóir	-8058
▁Berlusconi	-8059
▁Bhuillteán	-8060
▁Celebrezze	-8061
▁Déireachta	-8062
▁Gearmáinis	-8063
▁Inneallála	-8064
▁Kupperberg	-8065
▁Phríomhara	-8066
▁aerainnach	-8067
▁chothracha	-8068
▁fuaimeanna	-8069
▁fágaíochta	-8070
▁ghníomhach	-8071
Associazione	-8072
▁Oirthearach	-8073
▁Scríobhtear	-8074
▁meiriceáigh	-8075
▁ChievoVerona	-8076
▁Williamsburg	-8077
▁Meiriceáiseáin	-8078
▁cruthaitheoirí	-8079
Am	-8080
Dh	-8081
IS	-8082
Km	-8083
fu	-8084
mo	-8085
zs	-8086
/03	-8087
195	-8088
498	-8089
567	-8090
608	-8091
744	-8092
881	-8093
947	-8094
agó	-8095
ctr	-8096
fhu	-8097
ify	-8098
imm	-8099
mit	-8100
ogy	-8101
rdh	-8102
saí	-8103
uib	-8104
urs	-8105
öln	-8106
▁24	-8107
▁35	-8108
▁36	-8109
▁Bá	-8110
▁Cé	-8111
▁Ep	-8112
▁cé	-8113
▁mé	-8114
3.0.	-8115
8-16	-8116
9142	-8117
Amin	-8118
SIDA	-8119
ahar	-8120
asim	-8121
ayat	-8122
gash	-8123
iach	-8124
iber	-8125
iles	-8126
inny	-8127
itzs	-8128
líne	-8129
onra	-8130
oraí	-8131
ríom	-8132
thas	-8133
tred	-8134
áisc	-8135
▁535	-8136
▁746	-8137
▁880	-8138
▁945	-8139
▁AGR	-8140
▁Abu	-8141
▁Dil	-8142
▁Ele	-8143
▁Hol	-8144
▁McK	-8145
▁Rap	-8146
▁SVE	-8147
▁USD	-8148
▁bph	-8149
▁chl	-8150
▁hOt	-8151
▁spr	-8152
-04-2	-8153
49895	-8154
5.324	-8155
52497	-8156
567-7	-8157
achos	-8158
alamh	-8159
gunda	-8160
ietta	-8161
innah	-8162
munde	-8163
onnes	-8164
sinki	-8165
taigh	-8166
ussia	-8167
únadh	-8168
▁0.02	-8169
▁1700	-8170
▁3000	-8171
▁4881	-8172
▁Bury	-8173
▁Coar	-8174
▁Cong	-8175
▁Dept	-8176
▁Ghnó	-8177
▁Gosc	-8178
▁Guin	-8179
▁Jati	-8180
▁Koch	-8181
▁Köln	-8182
▁Mena	-8183
▁Much	-8184
▁Quay	-8185
▁Sago	-8186
▁Wein	-8187
▁West	-8188
▁aith	-8189
▁cumh	-8190
▁mbun	-8191
▁meir	-8192
▁nach	-8193
▁rite	-8194
▁seam	-8195
70.608	-8196
950000	-8197
earáin	-8198
fheoil	-8199
immons	-8200
raíodh	-8201
talach	-8202
tredia	-8203
▁"1928	-8204
▁10252	-8205
▁1986,	-8206
▁2001,	-8207
▁Cearn	-8208
▁Cloch	-8209
▁Fitzs	-8210
▁Giles	-8211
▁Güner	-8212
▁Maita	-8213
▁Muirí	-8214
▁MórBh	-8215
▁Speed	-8216
▁Ujang	-8217
▁Zahar	-8218
▁bhais	-8219
▁bróis	-8220
▁díosp	-8221
▁gclár	-8222
▁ghall	-8223
▁hAise	-8224
▁holao	-8225
▁liara	-8226
▁marmh	-8227
▁minic	-8228
▁réamh	-8229
▁shóis	-8230
▁talún	-8231
alaithe	-8232
araithe	-8233
ineacht	-8234
minster	-8235
▁0567-7	-8236
▁1-4165	-8237
▁279142	-8238
▁352497	-8239
▁75.324	-8240
▁880573	-8241
▁Chapin	-8242
▁Digify	-8243
▁Electr	-8244
▁Gréige	-8245
▁Jinnah	-8246
▁Leiden	-8247
▁Regina	-8248
▁Rosids	-8249
▁Sparta	-8250
▁Tabare	-8251
▁Treoir	-8252
▁Tógann	-8253
▁Ungáir	-8254
▁Virtus	-8255
▁bhóras	-8256
▁cainte	-8257
▁ginear	-8258
▁hOttom	-8259
▁lúisic	-8260
▁sanger	-8261
▁teicse	-8262
▁thaisc	-8263
isteoidh	-8264
iúnaithe	-8265
ottetown	-8266
remiação	-8267
▁0001-83	-8268
▁2549895	-8269
▁Amharic	-8270
▁Bhrasaí	-8271
▁Classic	-8272
▁Daggash	-8273
▁Dempsey	-8274
▁Entella	-8275
▁Gaussia	-8276
▁Ghaille	-8277
▁Guinéin	-8278
▁Iarmach	-8279
▁Kaliber	-8280
▁Lambien	-8281
▁Menasha	-8282
▁Munster	-8283
▁Plastik	-8284
▁Rosales	-8285
▁Segunda	-8286
▁Seinnte	-8287
▁Stanyan	-8288
▁Víneáin	-8289
▁astróid	-8290
▁breithe	-8291
▁cianáin	-8292
▁cosanta	-8293
▁dtionsc	-8294
▁fianáin	-8295
▁hAibear	-8296
▁líonadh	-8297
▁theicic	-8298
▁tomhais	-8299
aipiteach	-8300
oghluaist	-8301
▁$556,300	-8302
▁439-1768	-8303
▁Athnaigh	-8304
▁Deptford	-8305
▁Domhanda	-8306
▁Epxeinou	-8307
▁Goscinny	-8308
▁Marietta	-8309
▁McKenzie	-8310
▁bhaileán	-8311
▁cruasála	-8312
▁fhoilsiú	-8313
▁garáiste	-8314
▁gceathrú	-8315
▁gcluiche	-8316
▁gclúdach	-8317
▁hAiseach	-8318
▁ranníoca	-8319
▁staidigh	-8320
▁tromlach	-8321
luaiseacht	-8322
sincromach	-8323
▁Bheilgaim	-8324
▁Broadwood	-8325
▁Cónaidhme	-8326
▁Muchachos	-8327
▁Samtredia	-8328
▁chumhacht	-8329
▁comhaltaí	-8330
▁eilimintí	-8331
▁gContaobh	-8332
▁gcoitinne	-8333
▁phríomhch	-8334
▁róiseanna	-8335
▁tacaíocht	-8336
aitheantóir	-8337
▁837080.744	-8338
▁Fhisiceach	-8339
▁Phillipíne	-8340
▁Scríobhadh	-8341
▁fhaithtear	-8342
▁ginearálta	-8343
▁phoilsiúil	-8344
▁stiúraíonn	-8345
▁taifeadadh	-8346
▁296521000.0	-8347
▁Fitzsimmons	-8348
▁Meiriceáine	-8349
▁Westminster	-8350
▁scríobhtear	-8351
▁Caighdeánach	-8352
▁Epxeinoupoli	-8353
▁bainisteoidh	-8354
▁chríochnaigh	-8355
▁254989570.608	-8356
▁Charlottetown	-8357
▁Courcouronnes	-8358
▁cumhachtaithe	-8359
▁Gníomhaireacht	-8360
▁leithdhínítear	-8361
▁ranníocaíochta	-8362
▁Mhoinmhaonraigh	-8363
96	-8364
Ag	-8365
-16	-8366
-28	-8367
-55	-8368
/35	-8369
269	-8370
305	-8371
jor	-8372
miú	-8373
por	-8374
rku	-8375
win	-8376
wyn	-8377
ych	-8378
▁75	-8379
▁RQ	-8380
▁WB	-8381
▁hP	-8382
-214	-8383
-263	-8384
-301	-8385
1951	-8386
2343	-8387
7.41	-8388
aide	-8389
elez	-8390
eniz	-8391
gaum	-8392
iant	-8393
ifia	-8394
kies	-8395
kuas	-8396
laka	-8397
léil	-8398
sain	-8399
tems	-8400
utch	-8401
vang	-8402
▁12,	-8403
▁124	-8404
▁173	-8405
▁3.9	-8406
▁5.6	-8407
▁Did	-8408
▁Dis	-8409
▁Kek	-8410
▁Mel	-8411
▁Oif	-8412
▁Pic	-8413
▁Qar	-8414
▁Sys	-8415
▁fág	-8416
▁mhó	-8417
▁tAl	-8418
-11-2	-8419
00.0,	-8420
56947	-8421
73-55	-8422
anama	-8423
anges	-8424
anyum	-8425
armer	-8426
cearn	-8427
elsea	-8428
enzil	-8429
erman	-8430
hórsa	-8431
ience	-8432
ituta	-8433
jorie	-8434
liain	-8435
uinne	-8436
ussis	-8437
ógais	-8438
ótáil	-8439
▁0473	-8440
▁0965	-8441
▁1147	-8442
▁1301	-8443
▁1931	-8444
▁2003	-8445
▁21.2	-8446
▁4000	-8447
▁5000	-8448
▁Adel	-8449
▁Bhar	-8450
▁Iwan	-8451
▁Mair	-8452
▁Mond	-8453
▁Pick	-8454
▁Sadi	-8455
▁Sain	-8456
▁Sant	-8457
▁Seab	-8458
▁baná	-8459
▁bhrí	-8460
▁bron	-8461
▁gula	-8462
▁hUru	-8463
▁iasc	-8464
▁inbh	-8465
234300	-8466
269-93	-8467
88-263	-8468
919600	-8469
arrtha	-8470
bhacht	-8471
etroit	-8472
eáilte	-8473
innann	-8474
▁01/01	-8475
▁18.52	-8476
▁1907.	-8477
▁1941.	-8478
▁2009,	-8479
▁31.48	-8480
▁Bavar	-8481
▁Chóir	-8482
▁Dunne	-8483
▁Dutch	-8484
▁Evang	-8485
▁Fórsa	-8486
▁Inneo	-8487
▁Jarmo	-8488
▁Kochi	-8489
▁Maláí	-8490
▁Masum	-8491
▁Miont	-8492
▁Music	-8493
▁Panam	-8494
▁Psych	-8495
▁Veniz	-8496
▁Warne	-8497
▁beall	-8498
▁freas	-8499
▁gCair	-8500
▁gaire	-8501
▁imreo	-8502
▁lonna	-8503
▁saine	-8504
▁spéan	-8505
achtóir	-8506
alainen	-8507
archéim	-8508
aíochta	-8509
diction	-8510
seinear	-8511
▁APGPAC	-8512
▁APollo	-8513
▁Bacóin	-8514
▁Bliain	-8515
▁Chuinn	-8516
▁Chúige	-8517
▁Colwyn	-8518
▁Crafts	-8519
▁Denzil	-8520
▁Disney	-8521
▁Farmer	-8522
▁Fenves	-8523
▁Ganges	-8524
▁Herrku	-8525
▁Marcos	-8526
▁Melaka	-8527
▁Meride	-8528
▁Stadió	-8529
▁gcaith	-8530
▁gcoige	-8531
▁gcúirt	-8532
▁hAraib	-8533
▁idirbh	-8534
▁mbíonn	-8535
▁ndlúth	-8536
ceantóir	-8537
itheoirí	-8538
uilleadh	-8539
éireacht	-8540
▁1473-55	-8541
▁Antonio	-8542
▁Chelsea	-8543
▁Detroit	-8544
▁Didburg	-8545
▁Huskies	-8546
▁Indiach	-8547
▁Lancach	-8548
▁Philips	-8549
▁Pickard	-8550
▁Réigiún	-8551
▁Science	-8552
▁Studios	-8553
▁Státhaí	-8554
▁Systems	-8555
▁Trádála	-8556
▁Tuairte	-8557
▁ciannaí	-8558
▁lorgtha	-8559
▁lánainm	-8560
▁ríníodh	-8561
▁uasluas	-8562
56947-301	-8563
Dhaonlath	-8564
aireachta	-8565
aithníodh	-8566
tóireacht	-8567
▁0965-214	-8568
▁29919600	-8569
▁83646315	-8570
▁88234300	-8571
▁Adelaide	-8572
▁Aeirithe	-8573
▁Atalanta	-8574
▁Bhléimre	-8575
▁Dlíonach	-8576
▁Maoiméad	-8577
▁Marjorie	-8578
▁Mondelez	-8579
▁Preussis	-8580
▁Richland	-8581
▁bhFhórsa	-8582
▁cuirfear	-8583
▁diamhear	-8584
▁píolaire	-8585
▁píolíolí	-8586
Agremiação	-8587
▁124950000	-8588
▁475426000	-8589
▁Adhaideam	-8590
▁Ballistic	-8591
▁Bheilgaum	-8592
▁Deisceart	-8593
▁Evangelos	-8594
▁Fleamáine	-8595
▁Foilsíonn	-8596
▁Guinéinín	-8597
▁Venizelos	-8598
▁cruthaigh	-8599
▁spéannach	-8600
▁teaghráin	-8601
▁táirgeoir	-8602
luaisteacha	-8603
▁Astronaíní	-8604
▁Chomhdhéal	-8605
▁Eagarthóir	-8606
▁Gearmánach	-8607
▁Kekalainen	-8608
▁Mhaileáise	-8609
▁Mheiriceán	-8610
▁Náisiúnach	-8611
▁Seirbhíigh	-8612
▁fhoilseann	-8613
▁thaisceadh	-8614
▁0-439-17684	-8615
▁39971000000	-8616
▁Psychedelia	-8617
▁bhaathraidh	-8618
▁bhreitheamh	-8619
▁chruthaíodh	-8620
▁Valenciúnais	-8621
▁comhairleoir	-8622
▁ghréireachta	-8623
▁neamhfheidhm	-8624
▁Massachusetts	-8625
▁coinbhleachta	-8626
▁288749000000.0	-8627
▁Meiriceáiceáin	-8628
▁254989570.60815	-8629
▁Ghníomhaireacht	-8630
Ac	-8631
nu	-8632
rc	-8633
wa	-8634
ze	-8635
ät	-8636
▁y	-8637
▁“	-8638
-7.	-8639
0.8	-8640
481	-8641
613	-8642
8-0	-8643
Abh	-8644
Jaw	-8645
ari	-8646
den	-8647
dol	-8648
ely	-8649
etw	-8650
gus	-8651
ipo	-8652
kaz	-8653
mhú	-8654
pan	-8655
tes	-8656
ürc	-8657
▁'1	-8658
▁50	-8659
▁68	-8660
▁By	-8661
▁Fí	-8662
▁Ha	-8663
▁MD	-8664
▁NZ	-8665
▁Sq	-8666
▁tu	-8667
0.0.	-8668
4770	-8669
9.0.	-8670
Quwa	-8671
abag	-8672
dolu	-8673
eirí	-8674
enry	-8675
erts	-8676
icme	-8677
ikav	-8678
ilín	-8679
mere	-8680
ones	-8681
osco	-8682
ound	-8683
érix	-8684
▁$10	-8685
▁127	-8686
▁476	-8687
▁500	-8688
▁99.	-8689
▁Ail	-8690
▁Eug	-8691
▁Jap	-8692
▁Max	-8693
▁Mig	-8694
▁Rún	-8695
▁Spr	-8696
▁bón	-8697
▁cod	-8698
▁dtá	-8699
▁gur	-8700
▁hPh	-8701
▁iar	-8702
▁mhí	-8703
▁pal	-8704
▁pho	-8705
▁tur	-8706
▁uir	-8707
▁yak	-8708
2-932	-8709
58-28	-8710
64481	-8711
92246	-8712
aidir	-8713
anest	-8714
arage	-8715
arest	-8716
attro	-8717
avsky	-8718
baill	-8719
guson	-8720
inson	-8721
lasca	-8722
línse	-8723
ordon	-8724
seoir	-8725
áráis	-8726
éadaí	-8727
óinse	-8728
óráis	-8729
▁0455	-8730
▁1299	-8731
▁1862	-8732
▁2016	-8733
▁Ahri	-8734
▁Beef	-8735
▁Bely	-8736
▁Cean	-8737
▁Diya	-8738
▁Efes	-8739
▁Fuad	-8740
▁Gair	-8741
▁Huib	-8742
▁Hull	-8743
▁Iraq	-8744
▁Kash	-8745
▁Luis	-8746
▁Netw	-8747
▁Olad	-8748
▁Puya	-8749
▁Rosa	-8750
▁Türc	-8751
▁Vict	-8752
▁bail	-8753
▁ispa	-8754
▁ligi	-8755
▁mhór	-8756
▁modh	-8757
▁méta	-8758
▁rúpa	-8759
▁scag	-8760
8-0-15	-8761
Jawiya	-8762
aifead	-8763
ajalli	-8764
bourne	-8765
eapáin	-8766
iensis	-8767
ionada	-8768
puding	-8769
reacht	-8770
roghnú	-8771
ullmhú	-8772
▁140.8	-8773
▁17023	-8774
▁1962,	-8775
▁2003.	-8776
▁2014–	-8777
▁33168	-8778
▁41613	-8779
▁Aerár	-8780
▁Arese	-8781
▁Barry	-8782
▁Bheir	-8783
▁Bible	-8784
▁Breaz	-8785
▁Carlo	-8786
▁Dance	-8787
▁Fosta	-8788
▁Grúpa	-8789
▁Henry	-8790
▁Irwin	-8791
▁Leach	-8792
▁Pleas	-8793
▁Ramis	-8794
▁Round	-8795
▁ceoil	-8796
▁seach	-8797
▁spáis	-8798
▁theas	-8799
▁thomh	-8800
▁triom	-8801
2-9327.	-8802
aiteach	-8803
anestro	-8804
damsche	-8805
ikavkaz	-8806
iontair	-8807
isteach	-8808
kingham	-8809
ríbhadh	-8810
sealach	-8811
▁10,252	-8812
▁100305	-8813
▁1421.2	-8814
▁Achomh	-8815
▁Airhus	-8816
▁Alania	-8817
▁Bujang	-8818
▁Chóite	-8819
▁Donald	-8820
▁Edward	-8821
▁Eugene	-8822
▁Foirne	-8823
▁Franco	-8824
▁Garage	-8825
▁Gordon	-8826
▁Greene	-8827
▁Herald	-8828
▁Iompar	-8829
▁Miguel	-8830
▁Miontí	-8831
▁Othman	-8832
▁Pallac	-8833
▁Puerto	-8834
▁Singer	-8835
▁Static	-8836
▁Suairí	-8837
▁Teidán	-8838
▁beacún	-8839
▁bliana	-8840
▁chearn	-8841
▁measta	-8842
▁pláisc	-8843
▁roghnú	-8844
▁tOifig	-8845
cheathrú	-8846
▁108,600	-8847
▁1558-28	-8848
▁4564481	-8849
▁Anadolu	-8850
▁Hussain	-8851
▁Indiáin	-8852
▁Marsden	-8853
▁Network	-8854
▁Nigéire	-8855
▁Odinson	-8856
▁Oladipo	-8857
▁Quattro	-8858
▁Studies	-8859
▁Stáistí	-8860
▁Sóivéid	-8861
▁bhléine	-8862
▁chomhch	-8863
▁chúirte	-8864
▁fhliain	-8865
▁gCanada	-8866
▁hiomlán	-8867
▁meamram	-8868
▁shínigh	-8869
▁tháirge	-8870
▁tiomána	-8871
anyumasan	-8872
carachtar	-8873
fhuíleata	-8874
▁57392246	-8875
▁Bucarest	-8876
▁Ferguson	-8877
▁Ghaoinbh	-8878
▁Guinéine	-8879
▁Huiberts	-8880
▁Kolombia	-8881
▁Olimpico	-8882
▁Paleobio	-8883
▁Sinthpop	-8884
▁Tranmere	-8885
▁Victoria	-8886
▁ardhléil	-8887
▁bhFreabh	-8888
▁hAiseáin	-8889
▁lúisicis	-8890
▁phraghas	-8891
fhéantaigh	-8892
▁1980-04-2	-8893
▁2005-11-2	-8894
▁2014-2015	-8895
▁Achomharc	-8896
▁Belyavsky	-8897
▁Bhaváráis	-8898
▁Fostaíonn	-8899
▁Melbourne	-8900
▁Philipíne	-8901
▁Philipíní	-8902
▁Spáinnise	-8903
▁bhaileach	-8904
▁bhiaítear	-8905
▁cathraidh	-8906
▁roghnaigh	-8907
▁Bhiotánach	-8908
▁Buckingham	-8909
▁Preussisch	-8910
▁Sarvajalli	-8911
▁Warnemunde	-8912
▁chineálach	-8913
▁comhpháirt	-8914
▁hAbhérbáin	-8915
▁nIonóinéas	-8916
▁tháirgtear	-8917
▁triomaithe	-8918
▁1-56947-301	-8919
▁331683000.0	-8920
▁Chothraithe	-8921
▁Filipíneach	-8922
▁Universitas	-8923
▁Universität	-8924
▁Vladikavkaz	-8925
▁fochainnach	-8926
▁idirbhearta	-8927
Mheiriceánach	-8928
▁Aarhusiensis	-8929
▁Abhandlungen	-8930
▁Mhaonmhaonad	-8931
▁bhreisealach	-8932
▁phríomhábhar	-8933
oghluaisteacht	-8934
▁Pallacanestro	-8935
▁leabhréiseach	-8936
▁sholáthraíonn	-8937
▁Locomóireachta	-8938
▁Parlaiminteach	-8939
▁comhracleachta	-8940
▁Buckinghamshire	-8941
▁príomhthábhairí	-8942
HE	-8943
Ho	-8944
IV	-8945
gí	-8946
▁@	-8947
-1,	-8948
25-	-8949
312	-8950
9-0	-8951
Aar	-8952
afs	-8953
aré	-8954
bán	-8955
cer	-8956
dio	-8957
hne	-8958
ios	-8959
rov	-8960
uzz	-8961
áic	-8962
ásc	-8963
úpa	-8964
▁05	-8965
▁32	-8966
▁GA	-8967
▁HE	-8968
▁KY	-8969
▁NJ	-8970
▁RB	-8971
▁Té	-8972
▁We	-8973
▁ca	-8974
▁dó	-8975
▁gá	-8976
▁he	-8977
-04.	-8978
4.55	-8979
46-8	-8980
5591	-8981
6.65	-8982
7290	-8983
Alfa	-8984
Duch	-8985
MAHE	-8986
atov	-8987
awaz	-8988
chap	-8989
easp	-8990
ecor	-8991
ello	-8992
empe	-8993
ench	-8994
enre	-8995
fort	-8996
iche	-8997
ictu	-8998
iele	-8999
itín	-9000
kman	-9001
léal	-9002
neas	-9003
ogna	-9004
olfo	-9005
orua	-9006
owda	-9007
spor	-9008
tóid	-9009
uzzi	-9010
velt	-9011
váin	-9012
éada	-9013
éidí	-9014
éims	-9015
ónaí	-9016
▁0.0	-9017
▁4.8	-9018
▁657	-9019
▁Chl	-9020
▁Coc	-9021
▁Far	-9022
▁Jah	-9023
▁Sip	-9024
▁Zor	-9025
▁cil	-9026
▁pak	-9027
▁rom	-9028
-12-3	-9029
00253	-9030
atown	-9031
bhuir	-9032
eisin	-9033
mford	-9034
nithe	-9035
ocano	-9036
onach	-9037
oraes	-9038
orpor	-9039
rakov	-9040
risis	-9041
romch	-9042
stein	-9043
éacht	-9044
▁1820	-9045
▁1952	-9046
▁250.	-9047
▁55.4	-9048
▁Amir	-9049
▁Boat	-9050
▁Chun	-9051
▁Cúig	-9052
▁Dino	-9053
▁Fein	-9054
▁Hear	-9055
▁Irak	-9056
▁Jean	-9057
▁Lyon	-9058
▁Numa	-9059
▁Roch	-9060
▁Seas	-9061
▁SqKm	-9062
▁carb	-9063
▁chin	-9064
▁ciúb	-9065
▁coir	-9066
▁cóna	-9067
▁hAir	-9068
▁info	-9069
▁phob	-9070
▁sogh	-9071
▁súis	-9072
911339	-9073
Michel	-9074
andage	-9075
arthas	-9076
gipane	-9077
illari	-9078
kmanov	-9079
ordúir	-9080
rachán	-9081
teacht	-9082
áideal	-9083
íníonn	-9084
óthair	-9085
▁19255	-9086
▁1990.	-9087
▁47290	-9088
▁77.41	-9089
▁Annie	-9090
▁Aulas	-9091
▁Caith	-9092
▁Colin	-9093
▁Gowda	-9094
▁Hohne	-9095
▁Iorua	-9096
▁Kempe	-9097
▁Magik	-9098
▁Nawaz	-9099
▁Pictu	-9100
▁Place	-9101
▁Point	-9102
▁Reids	-9103
▁Roose	-9104
▁Rover	-9105
▁Sauli	-9106
▁Tudor	-9107
▁bosca	-9108
▁deamh	-9109
▁deimh	-9110
▁gClár	-9111
▁gnéar	-9112
▁leisc	-9113
▁meast	-9114
▁pheir	-9115
▁saagó	-9116
▁tArdh	-9117
▁tonna	-9118
▁turas	-9119
4.55312	-9120
adánach	-9121
afschap	-9122
aithnid	-9123
chumadh	-9124
dialann	-9125
ecorino	-9126
portiva	-9127
▁0.0112	-9128
▁1046-8	-9129
▁142603	-9130
▁1732-2	-9131
▁1920-0	-9132
▁615591	-9133
▁Crisis	-9134
▁Dianne	-9135
▁Fortin	-9136
▁Hector	-9137
▁Jahist	-9138
▁Moench	-9139
▁Moraes	-9140
▁Motion	-9141
▁Nigéir	-9142
▁Picchi	-9143
▁Soláth	-9144
▁Sraith	-9145
▁Sínigh	-9146
▁Tabaré	-9147
▁Thudor	-9148
▁Valery	-9149
▁bPréig	-9150
▁bhléas	-9151
▁bunóir	-9152
▁diosco	-9153
▁dtéacs	-9154
▁ghnáth	-9155
▁ghnéid	-9156
▁iompar	-9157
▁maidir	-9158
▁mhisin	-9159
▁pakora	-9160
▁peniet	-9161
▁pointe	-9162
▁rífadh	-9163
▁sínigh	-9164
▁teicil	-9165
▁teisin	-9166
▁ullmhú	-9167
▁Úinéir	-9168
achtacht	-9169
cheaptha	-9170
éadfaidh	-9171
▁1296.65	-9172
▁488160.	-9173
▁8800253	-9174
▁Armando	-9175
▁Beacóin	-9176
▁Bheilge	-9177
▁Bologna	-9178
▁Castrov	-9179
▁Chuimse	-9180
▁Company	-9181
▁Daniele	-9182
▁Domhain	-9183
▁Floride	-9184
▁Ghraise	-9185
▁Kubatov	-9186
▁Manuzzi	-9187
▁Mheiceo	-9188
▁Sandage	-9189
▁Saoirse	-9190
▁Zoratto	-9191
▁bpóinse	-9192
▁cluíodh	-9193
▁dialamh	-9194
▁Úruéara	-9195
▁éiríodh	-9196
aispeáint	-9197
lachtóirí	-9198
▁$108,600	-9199
▁41911339	-9200
▁Bananama	-9201
▁Chuairte	-9202
▁Duursema	-9203
▁Electric	-9204
▁Foireann	-9205
▁Martinez	-9206
▁Petrakov	-9207
▁Phléasán	-9208
▁Pictures	-9209
▁Pleasant	-9210
▁Stamford	-9211
▁Tukmanov	-9212
▁Téacsáin	-9213
▁bronnach	-9214
▁ceantach	-9215
▁chineall	-9216
▁chothrom	-9217
▁gcomhrac	-9218
▁pháipéar	-9219
▁roiscíní	-9220
▁saineoir	-9221
▁salaithe	-9222
▁shaothra	-9223
▁staidéid	-9224
orporation	-9225
▁2006-12-3	-9226
▁89646863.	-9227
▁Chinatown	-9228
▁Clúdaíonn	-9229
▁Deportiva	-9230
▁Feinstein	-9231
▁Grenadier	-9232
▁Heilsinki	-9233
▁Indiánach	-9234
▁MórBhinín	-9235
▁Papenburg	-9236
▁Roosevelt	-9237
▁Tógfaíodh	-9238
▁bhréalach	-9239
▁bhéileadh	-9240
▁chéileadh	-9241
▁daonracha	-9242
▁deisceart	-9243
▁eolaíocht	-9244
▁foilsíonn	-9245
▁meiriceán	-9246
▁ndearnadh	-9247
▁roimheoir	-9248
▁tSeirbhís	-9249
▁teaghlach	-9250
▁úsáidfidh	-9251
▁0002-9327.	-9252
▁6155910000	-9253
▁Banyumasan	-9254
▁Comhphléas	-9255
▁Ealaíonais	-9256
▁Graafschap	-9257
▁Otiománach	-9258
▁Reidsville	-9259
▁Shibhialta	-9260
▁bhFraincis	-9261
▁cephalopod	-9262
▁chomhaltaí	-9263
▁cuimsítear	-9264
▁foilsítear	-9265
▁gCoinbhéal	-9266
▁gcaitheamh	-9267
▁imceantóir	-9268
▁ionstraimí	-9269
▁kileagraim	-9270
▁staidheoir	-9271
▁suntasacha	-9272
▁179942000.0	-9273
▁Phíipíneach	-9274
▁anaithnanta	-9275
▁hAibearáine	-9276
▁peritónitis	-9277
▁caighdeánach	-9278
▁phónaitheach	-9279
▁Castrovillari	-9280
▁stílisticeach	-9281
▁1-4165-2060-0.	-9282
▁Ríomhaireachta	-9283
▁príomhchúrsair	-9284
▁419113394.55312	-9285
Ab	-9286
Ad	-9287
hi	-9288
my	-9289
yk	-9290
úb	-9291
-13	-9292
/04	-9293
01.	-9294
250	-9295
4.1	-9296
4.8	-9297
6.2	-9298
626	-9299
ece	-9300
eda	-9301
ias	-9302
lam	-9303
mos	-9304
ofu	-9305
teg	-9306
urc	-9307
ärf	-9308
▁2,	-9309
▁48	-9310
▁62	-9311
▁65	-9312
▁84	-9313
▁94	-9314
▁CA	-9315
▁Dú	-9316
▁OB	-9317
▁PC	-9318
▁Pa	-9319
▁Sr	-9320
1.54	-9321
1498	-9322
7294	-9323
920.	-9324
Eala	-9325
Nair	-9326
adze	-9327
ahle	-9328
aing	-9329
apit	-9330
chez	-9331
chód	-9332
dale	-9333
eamp	-9334
erle	-9335
etal	-9336
gent	-9337
iena	-9338
ipip	-9339
jgal	-9340
luch	-9341
nama	-9342
nsio	-9343
ráid	-9344
staí	-9345
tóra	-9346
udyk	-9347
wick	-9348
▁03.	-9349
▁11,	-9350
▁141	-9351
▁25,	-9352
▁560	-9353
▁Eis	-9354
▁Eva	-9355
▁Fad	-9356
▁GCE	-9357
▁HIV	-9358
▁Key	-9359
▁Lib	-9360
▁Mes	-9361
▁Min	-9362
▁Phí	-9363
▁Rev	-9364
▁Rub	-9365
▁Uab	-9366
▁ché	-9367
▁dío	-9368
▁éas	-9369
25-58	-9370
68.65	-9371
Angla	-9372
fhéad	-9373
ianza	-9374
ijano	-9375
iosca	-9376
lopis	-9377
mosys	-9378
ociac	-9379
oirte	-9380
oiste	-9381
olini	-9382
onair	-9383
ostas	-9384
panol	-9385
phalt	-9386
réise	-9387
sincí	-9388
stone	-9389
Ízmir	-9390
éaraí	-9391
íonna	-9392
▁4349	-9393
▁4458	-9394
▁Arsc	-9395
▁Chre	-9396
▁Ciro	-9397
▁Feis	-9398
▁Hill	-9399
▁Ioma	-9400
▁Jill	-9401
▁Juha	-9402
▁Muss	-9403
▁bPré	-9404
▁bris	-9405
▁deon	-9406
▁gCan	-9407
▁gair	-9408
▁inch	-9409
▁meic	-9410
▁mhic	-9411
▁ráde	-9412
▁tofu	-9413
6-05-2	-9414
8-16-1	-9415
Amster	-9416
Unique	-9417
aminer	-9418
antage	-9419
apitan	-9420
ateurs	-9421
gentín	-9422
illing	-9423
mhairm	-9424
tasóir	-9425
tensio	-9426
ánaigh	-9427
éadach	-9428
éidéid	-9429
íolann	-9430
údarás	-9431
▁10030	-9432
▁178.0	-9433
▁1857.	-9434
▁1920,	-9435
▁1982.	-9436
▁27250	-9437
▁33626	-9438
▁3500.	-9439
▁41498	-9440
▁486.2	-9441
▁497.0	-9442
▁77294	-9443
▁914.8	-9444
▁Ambas	-9445
▁Araib	-9446
▁Athch	-9447
▁Barón	-9448
▁Bhath	-9449
▁Brian	-9450
▁Drogh	-9451
▁Harry	-9452
▁Horse	-9453
▁Macis	-9454
▁Pléas	-9455
▁Robur	-9456
▁Roque	-9457
▁Sahle	-9458
▁Sammy	-9459
▁Sanat	-9460
▁Siena	-9461
▁Tudyk	-9462
▁Turcm	-9463
▁braid	-9464
▁cláir	-9465
▁gcoir	-9466
▁táisc	-9467
▁Íseal	-9468
-204770	-9469
Ealaíon	-9470
aantach	-9471
eallach	-9472
erlecht	-9473
romchla	-9474
áileach	-9475
▁'1634:	-9476
▁1104.1	-9477
▁1299.0	-9478
▁161.54	-9479
▁368.65	-9480
▁Bright	-9481
▁Comhlá	-9482
▁Dancer	-9483
▁Greece	-9484
▁Hearst	-9485
▁Johnny	-9486
▁Kerman	-9487
▁Llopis	-9488
▁McNair	-9489
▁Phobal	-9490
▁Sarvok	-9491
▁Schärf	-9492
▁Warton	-9493
▁bhfoch	-9494
▁chicme	-9495
▁chlúir	-9496
▁chothú	-9497
▁chóras	-9498
▁comhdh	-9499
▁costas	-9500
▁riteam	-9501
▁sprioc	-9502
▁straim	-9503
▁toirte	-9504
▁ábhair	-9505
--------	-9506
Jersoise	-9507
Oileanna	-9508
jgaladze	-9509
▁0269-93	-9510
▁08-16-1	-9511
▁Academy	-9512
▁Alianza	-9513
▁America	-9514
▁Gangsta	-9515
▁Kapitan	-9516
▁Mheicní	-9517
▁Osmosys	-9518
▁Qarabag	-9519
▁Quijano	-9520
▁Revival	-9521
▁Rodolfo	-9522
▁Stevens	-9523
▁Stástaí	-9524
▁Thugadh	-9525
▁Vantage	-9526
▁amhráin	-9527
▁avocado	-9528
▁bhfaigh	-9529
▁bhfoils	-9530
▁bpríomh	-9531
▁bánbhar	-9532
▁ceaptar	-9533
▁ceaptha	-9534
▁cothrom	-9535
▁cuideas	-9536
▁cuimhne	-9537
▁gcoinne	-9538
▁liathra	-9539
▁liomáin	-9540
▁nuachan	-9541
▁oibíodh	-9542
▁oireamh	-9543
▁riteoir	-9544
▁soisáin	-9545
▁thomhas	-9546
▁tóganna	-9547
▁éigeach	-9548
▁éilíonn	-9549
arsanacha	-9550
▁1588-263	-9551
▁41498400	-9552
▁76798317	-9553
▁87000823	-9554
▁Amateurs	-9555
▁Argentín	-9556
▁Bavarian	-9557
▁Cathaile	-9558
▁Drogheda	-9559
▁Hardwick	-9560
▁Keystone	-9561
▁Philippe	-9562
▁Rochdale	-9563
▁Shilling	-9564
▁bhodhran	-9565
▁ceannais	-9566
▁cheannta	-9567
▁chearnán	-9568
▁daonanta	-9569
▁dromchla	-9570
▁feidhmiú	-9571
▁gCoinéid	-9572
▁ghabháil	-9573
▁ghréimse	-9574
▁gnáthair	-9575
▁ndéanamh	-9576
▁spéalach	-9577
▁tionscna	-9578
▁uibheach	-9579
▁éineacht	-9580
réireachta	-9581
▁01-01-195	-9582
▁16244700.	-9583
▁1936-05-2	-9584
▁46451790.	-9585
▁Bhrasaile	-9586
▁Cúirteach	-9587
▁Dearaíodh	-9588
▁Hortensio	-9589
▁Mussolini	-9590
▁Robertson	-9591
▁Shearrtha	-9592
▁Stairacha	-9593
▁chuirtear	-9594
▁dearaithe	-9595
▁dháileadh	-9596
▁fuaraithe	-9597
▁hIndiáine	-9598
▁inchompar	-9599
▁ionadaigh	-9600
▁kileagram	-9601
▁smachtach	-9602
▁teagmhais	-9603
▁tógálacha	-9604
▁uachtarán	-9605
▁Anderlecht	-9606
▁Cottingham	-9607
▁Locomóintí	-9608
▁Polainnach	-9609
▁Valenciúil	-9610
▁Zambangáin	-9611
▁bhanánamán	-9612
▁bharraithe	-9613
▁bpriontáil	-9614
▁fheithiclí	-9615
▁gcartartán	-9616
▁gcomparáid	-9617
▁lonnaítear	-9618
▁sheinnfidh	-9619
▁tréimhsias	-9620
Dhaonlathais	-9621
▁0-374-26131	-9622
▁523329000.0	-9623
▁Maitamaitic	-9624
▁Manjgaladze	-9625
▁Mhisissippi	-9626
8-0-15-204770	-9627
Amsterdamsche	-9628
▁Seirbhísíodh	-9629
▁Soláthraíonn	-9630
▁bPréachtacht	-9631
▁phobhaantach	-9632
▁Seirbhísítear	-9633
▁príomhshábhar	-9634
▁0-439-92550-9.	-9635
▁1516.670000003	-9636
▁bhaithchathair	-9637
▁institiúideach	-9638
▁turasóireachta	-9639
3-	-9640
66	-9641
78	-9642
EP	-9643
Pa	-9644
rs	-9645
-8.	-9646
/22	-9647
200	-9648
3-0	-9649
39.	-9650
637	-9651
765	-9652
8.2	-9653
894	-9654
904	-9655
AID	-9656
EPT	-9657
ave	-9658
din	-9659
eso	-9660
hek	-9661
igé	-9662
kel	-9663
lue	-9664
mán	-9665
olk	-9666
ows	-9667
ski	-9668
thu	-9669
uti	-9670
ysh	-9671
▁$8	-9672
▁40	-9673
▁9.	-9674
▁ED	-9675
▁IV	-9676
▁VA	-9677
▁VD	-9678
▁nG	-9679
▁ío	-9680
,000	-9681
0068	-9682
1.92	-9683
1200	-9684
246.	-9685
3.95	-9686
6-02	-9687
6.66	-9688
633-	-9689
7.14	-9690
8055	-9691
92.6	-9692
Acta	-9693
Lige	-9694
Port	-9695
ashi	-9696
azan	-9697
bras	-9698
cach	-9699
eill	-9700
fach	-9701
iang	-9702
igiú	-9703
igua	-9704
leon	-9705
mell	-9706
olet	-9707
olph	-9708
ower	-9709
pind	-9710
rail	-9711
reag	-9712
róip	-9713
sone	-9714
tint	-9715
ärts	-9716
éime	-9717
ínez	-9718
óirt	-9719
▁"97	-9720
▁08.	-9721
▁178	-9722
▁189	-9723
▁3.5	-9724
▁Bod	-9725
▁Gré	-9726
▁Ina	-9727
▁Kai	-9728
▁Kim	-9729
▁Lal	-9730
▁Mod	-9731
▁Rud	-9732
▁Sob	-9733
▁Srl	-9734
▁Tze	-9735
▁VIH	-9736
▁Zar	-9737
▁ama	-9738
-07-2	-9739
/04/1	-9740
60-04	-9741
Anton	-9742
agoza	-9743
aisce	-9744
aisir	-9745
bashi	-9746
berly	-9747
borgh	-9748
báine	-9749
derzo	-9750
efine	-9751
etrov	-9752
ibale	-9753
ibbow	-9754
idéid	-9755
istar	-9756
lancy	-9757
lesen	-9758
málaí	-9759
oilte	-9760
otsky	-9761
rewer	-9762
thers	-9763
yanin	-9764
áirce	-9765
óthas	-9766
óthaí	-9767
▁1418	-9768
▁1914	-9769
▁1953	-9770
▁1961	-9771
▁1990	-9772
▁524.	-9773
▁737.	-9774
▁7715	-9775
▁Agus	-9776
▁Blue	-9777
▁CEPT	-9778
▁Chlá	-9779
▁Céim	-9780
▁Ered	-9781
▁Gale	-9782
▁Gasp	-9783
▁Hook	-9784
▁Idir	-9785
▁Leon	-9786
▁Lige	-9787
▁Marc	-9788
▁Maya	-9789
▁Polo	-9790
▁Rick	-9791
▁RoPS	-9792
▁Star	-9793
▁Udin	-9794
▁Well	-9795
▁Wood	-9796
▁Yong	-9797
▁acus	-9798
▁bhfh	-9799
▁bhre	-9800
▁lang	-9801
▁nóid	-9802
▁orga	-9803
▁roin	-9804
▁réas	-9805
▁shár	-9806
▁sóis	-9807
▁Óige	-9808
7653-0	-9809
80-637	-9810
92246.	-9811
Ríocht	-9812
aillín	-9813
annach	-9814
braska	-9815
eithre	-9816
enosha	-9817
galows	-9818
imsiún	-9819
isiúin	-9820
ivisie	-9821
roinnt	-9822
tegodi	-9823
yshkin	-9824
óstair	-9825
▁16.55	-9826
▁1908.	-9827
▁1914.	-9828
▁1972.	-9829
▁1985.	-9830
▁258.2	-9831
▁34920	-9832
▁610.0	-9833
▁99.83	-9834
▁992.6	-9835
▁Arrow	-9836
▁Brown	-9837
▁Buair	-9838
▁Chala	-9839
▁Chung	-9840
▁Cyrus	-9841
▁Dilts	-9842
▁Ghais	-9843
▁Jamie	-9844
▁Jerry	-9845
▁Kazan	-9846
▁Libia	-9847
▁Rapid	-9848
▁Rithm	-9849
▁Rubin	-9850
▁Seanr	-9851
▁Téama	-9852
▁Vance	-9853
▁Washp	-9854
▁Youth	-9855
▁baill	-9856
▁banán	-9857
▁bhunú	-9858
▁cluir	-9859
▁clúbí	-9860
▁deigh	-9861
▁foirm	-9862
▁leach	-9863
▁shamp	-9864
▁smear	-9865
▁tarmh	-9866
Antonio	-9867
Londain	-9868
aiseach	-9869
openhag	-9870
patbhai	-9871
rachais	-9872
ónaíodh	-9873
▁0.0155	-9874
▁121.92	-9875
▁211200	-9876
▁445895	-9877
▁498055	-9878
▁703.95	-9879
▁Bibbow	-9880
▁Bodley	-9881
▁Brewer	-9882
▁Calero	-9883
▁Carrie	-9884
▁Chapel	-9885
▁Chiang	-9886
▁Clancy	-9887
▁Coléil	-9888
▁Comhth	-9889
▁Dimmit	-9890
▁Falcon	-9891
▁Graves	-9892
▁Kelvin	-9893
▁Lanark	-9894
▁Ordway	-9895
▁Powell	-9896
▁Uderzo	-9897
▁Varese	-9898
▁Violet	-9899
▁bhFeir	-9900
▁cluinn	-9901
▁diamhe	-9902
▁dlínse	-9903
▁fairir	-9904
▁gcónaí	-9905
▁gcúrsa	-9906
▁ghiosc	-9907
▁múnadh	-9908
▁tUasal	-9909
borghini	-9910
pindales	-9911
▁03/04/1	-9912
▁1360-04	-9913
▁3746.66	-9914
▁7715100	-9915
▁Aerársa	-9916
▁Antigua	-9917
▁Bránach	-9918
▁Cammell	-9919
▁Chuight	-9920
▁Cinnann	-9921
▁Coaracy	-9922
▁Fóthair	-9923
▁Kenosha	-9924
▁Lalbhai	-9925
▁Maláise	-9926
▁Matchst	-9927
▁Modling	-9928
▁Moscóic	-9929
▁Másanna	-9930
▁Orosman	-9931
▁Rudolph	-9932
▁Sansone	-9933
▁Thógadh	-9934
▁Trotsky	-9935
▁Udinese	-9936
▁Virtuti	-9937
▁Webster	-9938
▁cathras	-9939
▁ceapadh	-9940
▁dírithe	-9941
▁gCairse	-9942
▁gabháil	-9943
▁heimint	-9944
▁labhann	-9945
▁roghadh	-9946
▁seasamh	-9947
▁tAiléil	-9948
▁áiríonn	-9949
▁éigheas	-9950
cheannais	-9951
níochtóir	-9952
úsáidtear	-9953
▁0-7653-0	-9954
▁100305.0	-9955
▁1080-637	-9956
▁1732-242	-9957
▁78771100	-9958
▁Airfoirt	-9959
▁Annibale	-9960
▁Bhaltach	-9961
▁Chosanta	-9962
▁Forbairt	-9963
▁Gasparis	-9964
▁Kimberly	-9965
▁Martínez	-9966
▁Nebraska	-9967
▁Pallesen	-9968
▁Panamáin	-9969
▁Panthers	-9970
▁Phrótáil	-9971
▁Redefine	-9972
▁Rómánach	-9973
▁Singapór	-9974
▁Sionadaí	-9975
▁Sobyanin	-9976
▁Staidéar	-9977
▁Vorwärts	-9978
▁Zaragoza	-9979
▁bCathair	-9980
▁beartóir	-9981
▁bhaithch	-9982
▁bheacóin	-9983
▁ciúbiúil	-9984
▁críochna	-9985
▁gCathair	-9986
▁gceaptar	-9987
▁gcianáin	-9988
▁langkuas	-9989
▁limistar	-9990
▁meastáin	-9991
▁meiciceo	-9992
▁mheasfar	-9993
▁phoblach	-9994
▁rochtain	-9995
▁saothair	-9996
▁staidéir	-9997
▁tomatóna	-9998
▁uirbeach	-9999
▁áirítear	-10000
▁éaghréid	-10001
ioncromach	-10002
▁57392246.	-10003
▁60040714.	-10004
▁Aibearáin	-10005
▁Alvinegro	-10006
▁Bananamán	-10007
▁Bentegodi	-10008
▁Bibbowski	-10009
▁Bungalows	-10010
▁Chalafort	-10011
▁Fionlainn	-10012
▁Fothroinn	-10013
▁Heilsincí	-10014
▁Mheabhrán	-10015
▁Múirteach	-10016
▁Naryshkin	-10017
▁Phrótacán	-10018
▁Ríomhaire	-10019
▁SuperLiga	-10020
▁bainteach	-10021
▁ceantóirí	-10022
▁cineálach	-10023
▁díolaithe	-10024
▁gciméadar	-10025
▁gcuirtear	-10026
▁nOileanna	-10027
▁oifigiúla	-10028
▁tseantóir	-10029
▁Úsáidfidh	-10030
cheannasach	-10031
▁Chicharrón	-10032
▁Dalpatbhai	-10033
▁Eredivisie	-10034
▁Ghaoinbhle	-10035
▁Zambangais	-10036
▁bhaathrach	-10037
▁bpalafoirt	-10038
▁briseáilte	-10039
▁cheanntair	-10040
▁chúirteach	-10041
▁cumhdaíonn	-10042
▁leabhréise	-10043
▁náisiúnais	-10044
▁plantaínín	-10045
▁taithreach	-10046
▁tógáiltear	-10047
Ealaíontacha	-10048
ordaitheoirí	-10049
▁605718000.0	-10050
▁Aimsitheoir	-10051
▁Corporation	-10052
▁Lamborghini	-10053
▁Lanarkshire	-10054
▁Mhaonmhairm	-10055
▁Phíipíneíní	-10056
▁bailiúcháin	-10057
▁chaipiteach	-10058
▁gComhlachas	-10059
▁gcartartóra	-10060
▁ghineálacha	-10061
▁ghréimseann	-10062
▁imníochtóir	-10063
▁scríobhaire	-10064
▁smachtalach	-10065
▁thaispeáint	-10066
▁0-7653-0633-	-10067
▁Ealaíontacha	-10068
▁Saincheaptha	-10069
▁Uathoibríoch	-10070
▁comhcheangal	-10071
▁ealaíontacha	-10072
▁thairisceart	-10073
▁Meiriceánacha	-10074
▁bhfoighíneach	-10075
▁tionscnaítear	-10076
▁0-670-03380-4.	-10077
▁0-7156-3648-0.	-10078
▁1-56947-301-3.	-10079
▁352497000000.0	-10080
▁Matamaiticiúil	-10081
▁meiriceáiseach	-10082
▁288749000000.0.	-10083
-9	-10084
ET	-10085
bi	-10086
ck	-10087
ki	-10088
oa	-10089
/30	-10090
20.	-10091
213	-10092
22.	-10093
76.	-10094
833	-10095
925	-10096
930	-10097
94.	-10098
999	-10099
AAJ	-10100
LCN	-10101
Naf	-10102
ajo	-10103
dap	-10104
day	-10105
eif	-10106
eme	-10107
erk	-10108
ets	-10109
hot	-10110
ika	-10111
imí	-10112
inx	-10113
itt	-10114
ití	-10115
taf	-10116
áda	-10117
ína	-10118
øke	-10119
úin	-10120
▁$3	-10121
▁37	-10122
▁Câ	-10123
▁Ed	-10124
▁LA	-10125
▁ró	-10126
078.	-10127
2445	-10128
3.9.	-10129
3326	-10130
39.3	-10131
516.	-10132
7.0.	-10133
920,	-10134
9691	-10135
HAAJ	-10136
ISET	-10137
Naft	-10138
acio	-10139
ador	-10140
airh	-10141
aisí	-10142
alki	-10143
arde	-10144
arre	-10145
biza	-10146
chán	-10147
chúl	-10148
dáit	-10149
eral	-10150
ewis	-10151
iann	-10152
iben	-10153
iego	-10154
ifin	-10155
lank	-10156
ment	-10157
ocha	-10158
ofar	-10159
oibí	-10160
shek	-10161
tíre	-10162
zhny	-10163
çois	-10164
óidr	-10165
▁"00	-10166
▁360	-10167
▁4.6	-10168
▁6.7	-10169
▁Aid	-10170
▁Ais	-10171
▁Baí	-10172
▁Cád	-10173
▁Eor	-10174
▁GFC	-10175
▁Rox	-10176
▁Squ	-10177
▁Teo	-10178
▁Vás	-10179
▁Vít	-10180
▁dta	-10181
▁ear	-10182
▁for	-10183
▁iúl	-10184
▁lai	-10185
▁lor	-10186
▁phe	-10187
▁plc	-10188
▁tús	-10189
145.3	-10190
9-01.	-10191
AIDBI	-10192
Abadi	-10193
Hotel	-10194
adija	-10195
aider	-10196
airir	-10197
anáin	-10198
court	-10199
earní	-10200
garde	-10201
ghabh	-10202
ienku	-10203
illip	-10204
ionta	-10205
ittle	-10206
nival	-10207
níonn	-10208
ormal	-10209
ruinn	-10210
sbury	-10211
seinn	-10212
áithe	-10213
únamh	-10214
▁$556	-10215
▁11/2	-10216
▁168,	-10217
▁1985	-10218
▁3800	-10219
▁4165	-10220
▁AFAS	-10221
▁Acad	-10222
▁Arib	-10223
▁Bass	-10224
▁Clúb	-10225
▁Dath	-10226
▁Esta	-10227
▁Fáil	-10228
▁Físe	-10229
▁Gine	-10230
▁Guar	-10231
▁Kuet	-10232
▁LLCN	-10233
▁Løke	-10234
▁Nock	-10235
▁Orth	-10236
▁Prag	-10237
▁Reil	-10238
▁Rona	-10239
▁Wide	-10240
▁bean	-10241
▁cáil	-10242
▁fran	-10243
▁gclú	-10244
▁hOrd	-10245
▁mhon	-10246
▁ráig	-10247
▁saol	-10248
▁ster	-10249
▁tSri	-10250
▁tort	-10251
-10-17	-10252
22.213	-10253
516.63	-10254
Aarhus	-10255
Jorach	-10256
arreta	-10257
dapest	-10258
ellner	-10259
ershot	-10260
ionann	-10261
méadar	-10262
suíomh	-10263
urales	-10264
ériach	-10265
íleach	-10266
óinéin	-10267
▁"1930	-10268
▁10/03	-10269
▁1856.	-10270
▁1868.	-10271
▁1911.	-10272
▁1913,	-10273
▁1920.	-10274
▁1923,	-10275
▁1930,	-10276
▁1981,	-10277
▁1987,	-10278
▁2015,	-10279
▁24.0.	-10280
▁24.4.	-10281
▁265.0	-10282
▁3078.	-10283
▁53502	-10284
▁Anand	-10285
▁Beann	-10286
▁Bheif	-10287
▁Blank	-10288
▁Braid	-10289
▁Byron	-10290
▁Chris	-10291
▁Cháda	-10292
▁Clerk	-10293
▁Deigh	-10294
▁Diego	-10295
▁Fairh	-10296
▁Gates	-10297
▁Genoa	-10298
▁Grúis	-10299
▁Haver	-10300
▁Ibiza	-10301
▁Leath	-10302
▁Lewis	-10303
▁Metro	-10304
▁Patel	-10305
▁Perez	-10306
▁Power	-10307
▁Stars	-10308
▁Sulai	-10309
▁aerfo	-10310
▁aontú	-10311
▁arrós	-10312
▁bónaí	-10313
▁chabh	-10314
▁chust	-10315
▁cháis	-10316
▁ghrán	-10317
▁géine	-10318
▁ionta	-10319
▁mheas	-10320
▁oiblí	-10321
▁ranna	-10322
▁riail	-10323
▁scile	-10324
▁soise	-10325
▁spear	-10326
▁téacs	-10327
▁áfach	-10328
6-02-01	-10329
Uachtar	-10330
aitagor	-10331
enbashi	-10332
iomharc	-10333
isisipi	-10334
mpiacos	-10335
onaíodh	-10336
throinn	-10337
ábhairí	-10338
▁0.0925	-10339
▁1239.3	-10340
▁1969-0	-10341
▁2776.0	-10342
▁283326	-10343
▁519691	-10344
▁Bheith	-10345
▁Campus	-10346
▁Câmpia	-10347
▁Dienku	-10348
▁Dynamo	-10349
▁Edmund	-10350
▁Eoraip	-10351
▁Ghraif	-10352
▁Ghraon	-10353
▁Graeme	-10354
▁Haider	-10355
▁Little	-10356
▁Loinge	-10357
▁Luzhny	-10358
▁Manley	-10359
▁Milean	-10360
▁Normal	-10361
▁Patten	-10362
▁Pinsin	-10363
▁Ramsey	-10364
▁Roland	-10365
▁Róthar	-10366
▁Spásch	-10367
▁bpásca	-10368
▁brúite	-10369
▁buaise	-10370
▁clúirí	-10371
▁ngairm	-10372
▁tAtlan	-10373
athraidh	-10374
idealach	-10375
▁01/01/2	-10376
▁1930-01	-10377
▁1939-01	-10378
▁2009-04	-10379
▁3202445	-10380
▁62145.3	-10381
▁875,400	-10382
▁Baltach	-10383
▁Bealach	-10384
▁Chothro	-10385
▁Chóráis	-10386
▁Estadio	-10387
▁Faighte	-10388
▁Faroise	-10389
▁General	-10390
▁Horacio	-10391
▁Jackets	-10392
▁Jahisto	-10393
▁Khadija	-10394
▁Larreta	-10395
▁Olimpia	-10396
▁Opelika	-10397
▁Paráigé	-10398
▁Roxbury	-10399
▁aeráirt	-10400
▁bhacóin	-10401
▁bhaithe	-10402
▁bhíthin	-10403
▁ceasail	-10404
▁cúbaill	-10405
▁dteanga	-10406
▁dtreoir	-10407
▁díreach	-10408
▁foilsiú	-10409
▁leantas	-10410
▁lorgadh	-10411
▁measfar	-10412
▁mhótóid	-10413
▁méadaar	-10414
▁nIodóip	-10415
▁príomha	-10416
▁páipéar	-10417
▁réamhch	-10418
▁saoráin	-10419
▁scagann	-10420
▁seasáim	-10421
▁shampla	-10422
▁smearní	-10423
▁tAlasca	-10424
▁tIinéin	-10425
▁Úruéire	-10426
eabhréise	-10427
raíochtaí	-10428
▁$380,700	-10429
▁1473-557	-10430
▁1622.213	-10431
▁77294300	-10432
▁Adiction	-10433
▁Bhathais	-10434
▁Budapest	-10435
▁Carnival	-10436
▁Céimeann	-10437
▁Danmálaí	-10438
▁Desalegn	-10439
▁Fairhead	-10440
▁François	-10441
▁Ghallach	-10442
▁Harcourt	-10443
▁Havering	-10444
▁Kopenhag	-10445
▁Maoimint	-10446
▁Nockalls	-10447
▁Poblacht	-10448
▁Santilli	-10449
▁Sulaiman	-10450
▁aeráiste	-10451
▁bBandeja	-10452
▁baincála	-10453
▁bhraíodh	-10454
▁cabhraim	-10455
▁chuimsiú	-10456
▁comhairí	-10457
▁dathanna	-10458
▁dhroinnt	-10459
▁dhíoladh	-10460
▁dochtála	-10461
▁fuarthas	-10462
▁gcoitinn	-10463
▁hIndiana	-10464
▁iascaigh	-10465
▁lorgfidh	-10466
▁oibríoch	-10467
▁sheinnte	-10468
▁sterling	-10469
▁tUachtar	-10470
▁tháinigh	-10471
▁tiománaí	-10472
▁tionscad	-10473
▁10/03/198	-10474
▁380700000	-10475
▁Anandiben	-10476
▁Covington	-10477
▁Nigériach	-10478
▁Paleontol	-10479
▁Reachtach	-10480
▁Tionadail	-10481
▁Táirgeadh	-10482
▁dhéileadh	-10483
▁gcomhalta	-10484
▁lármhéide	-10485
▁meabhraon	-10486
▁meánmhais	-10487
▁oibreoidh	-10488
▁príomhaid	-10489
▁rithreach	-10490
▁seirbhíse	-10491
▁táirgeann	-10492
▁0269-9370.	-10493
▁1896-02-01	-10494
▁2001-01-01	-10495
▁Airteagail	-10496
▁Bananamáin	-10497
▁Bloomsbury	-10498
▁Braideanna	-10499
▁Grúiseanna	-10500
▁Mhaonlacht	-10501
▁Sarvokalli	-10502
▁Solanaceae	-10503
▁Thoirtheas	-10504
▁chomhracle	-10505
▁chruthaigh	-10506
▁cruthaíodh	-10507
▁dhuirbhuir	-10508
▁fostaíocht	-10509
▁gceanntair	-10510
▁oibríochta	-10511
▁páirteanna	-10512
▁tArdÚdarás	-10513
▁thosnaíodh	-10514
▁tréimhseas	-10515
ealaitheoirí	-10516
▁135589000.0	-10517
▁1913-01-01.	-10518
▁1969-09-01.	-10519
▁Ceanadánach	-10520
▁Chrearchéim	-10521
▁Mathematics	-10522
▁Mhisisisipi	-10523
▁Philíneacha	-10524
▁Saothraithe	-10525
▁chuimsítear	-10526
▁dtionscnamh	-10527
▁gcomparáide	-10528
▁roimheanach	-10529
▁straimseach	-10530
▁Phíipíneacha	-10531
▁Turkmenbashi	-10532
▁Vísvesvaraya	-10533
▁rochtainnach	-10534
▁eartlachtóirí	-10535
▁gceannteideal	-10536
▁ghluaisteacha	-10537
▁inchomparáide	-10538
▁0-374-26131-8.	-10539
▁0-439-17685-9.	-10540
▁0-7653-0633-6.	-10541
▁chomharsanacha	-10542
▁416136000000.0.	-10543
▁eartartaitheach	-10544
")	-10545
6-	-10546
HP	-10547
du	-10548
öd	-10549
-2.	-10550
008	-10551
064	-10552
084	-10553
125	-10554
14,	-10555
73.	-10556
BCT	-10557
RAA	-10558
ale	-10559
dod	-10560
guá	-10561
idr	-10562
iku	-10563
inz	-10564
kgs	-10565
leh	-10566
lez	-10567
olo	-10568
oni	-10569
osp	-10570
phl	-10571
san	-10572
tis	-10573
une	-10574
val	-10575
zhi	-10576
áib	-10577
▁Ce	-10578
▁Id	-10579
▁Mu	-10580
▁Ri	-10581
▁SJ	-10582
▁TS	-10583
▁nD	-10584
▁sl	-10585
-03.	-10586
2.0.	-10587
236-	-10588
65-8	-10589
7-03	-10590
7531	-10591
AIDS	-10592
Math	-10593
Page	-10594
Sóiv	-10595
acab	-10596
acún	-10597
aish	-10598
alid	-10599
arts	-10600
atas	-10601
earr	-10602
easc	-10603
elor	-10604
ezia	-10605
ffey	-10606
idia	-10607
ioch	-10608
ited	-10609
itis	-10610
nóid	-10611
reea	-10612
ries	-10613
rúil	-10614
soic	-10615
tais	-10616
túir	-10617
ucky	-10618
ález	-10619
ínín	-10620
▁230	-10621
▁265	-10622
▁270	-10623
▁298	-10624
▁45.	-10625
▁814	-10626
▁ADO	-10627
▁AWD	-10628
▁AlV	-10629
▁Ayr	-10630
▁Buz	-10631
▁Den	-10632
▁Fut	-10633
▁HAL	-10634
▁Ism	-10635
▁Lic	-10636
▁Mho	-10637
▁Möd	-10638
▁Owl	-10639
▁Tap	-10640
▁Zes	-10641
▁beo	-10642
▁bhr	-10643
▁cab	-10644
▁chú	-10645
▁hIn	-10646
▁pár	-10647
▁ról	-10648
1,200	-10649
Mater	-10650
aicim	-10651
asáin	-10652
charf	-10653
edome	-10654
fhear	-10655
iceán	-10656
imsiú	-10657
intín	-10658
ionne	-10659
iraca	-10660
irapa	-10661
itake	-10662
ollin	-10663
photh	-10664
raine	-10665
umann	-10666
valan	-10667
úbais	-10668
▁1872	-10669
▁1905	-10670
▁1909	-10671
▁1956	-10672
▁1982	-10673
▁9064	-10674
▁Airg	-10675
▁Bail	-10676
▁Both	-10677
▁Cent	-10678
▁Chlú	-10679
▁Cúip	-10680
▁Déar	-10681
▁Eros	-10682
▁Fóth	-10683
▁Haag	-10684
▁Muir	-10685
▁Muis	-10686
▁ORAA	-10687
▁Oile	-10688
▁Oleh	-10689
▁Owen	-10690
▁Pall	-10691
▁Reid	-10692
▁Runc	-10693
▁SBCT	-10694
▁Teow	-10695
▁Vica	-10696
▁Vásp	-10697
▁Víne	-10698
▁coig	-10699
▁doll	-10700
▁inar	-10701
▁mara	-10702
▁pear	-10703
▁sago	-10704
▁shon	-10705
▁tAch	-10706
▁tAng	-10707
▁tais	-10708
▁Úrué	-10709
236-52	-10710
837.14	-10711
887531	-10712
Scoile	-10713
aantán	-10714
adalli	-10715
akaria	-10716
eachán	-10717
eagadh	-10718
eaglaí	-10719
ealamh	-10720
eanáir	-10721
enabat	-10722
ianach	-10723
mhaire	-10724
raight	-10725
ríoidh	-10726
tafoni	-10727
thairt	-10728
órtáil	-10729
▁173.0	-10730
▁1855.	-10731
▁1862,	-10732
▁1901.	-10733
▁1918.	-10734
▁1957,	-10735
▁1974,	-10736
▁1978.	-10737
▁1994.	-10738
▁1999.	-10739
▁2004,	-10740
▁2014,	-10741
▁346.0	-10742
▁50000	-10743
▁524.5	-10744
▁66063	-10745
▁Airde	-10746
▁Aiste	-10747
▁Aonad	-10748
▁Bibbo	-10749
▁Coile	-10750
▁Cuims	-10751
▁Divis	-10752
▁Gabor	-10753
▁Glend	-10754
▁March	-10755
▁Mheas	-10756
▁Minna	-10757
▁Rúnas	-10758
▁Sedan	-10759
▁Teach	-10760
▁Vigor	-10761
▁Woods	-10762
▁agnes	-10763
▁bacón	-10764
▁bhaip	-10765
▁bhair	-10766
▁chóir	-10767
▁comhl	-10768
▁dtaca	-10769
▁fhoir	-10770
▁gaolú	-10771
▁mhaic	-10772
▁mhiom	-10773
▁príom	-10774
▁stílí	-10775
▁tTurc	-10776
▁taobh	-10777
▁tsean	-10778
Associa	-10779
acabian	-10780
akewell	-10781
oiblíon	-10782
éadaigh	-10783
ínatown	-10784
íorthaí	-10785
▁1865-8	-10786
▁336265	-10787
▁3800.0	-10788
▁44.125	-10789
▁AMHAAJ	-10790
▁Aeráis	-10791
▁Arifin	-10792
▁Ashdod	-10793
▁Bóthar	-10794
▁Campia	-10795
▁Ceanna	-10796
▁Comhch	-10797
▁Curtis	-10798
▁Dhainn	-10799
▁DuPage	-10800
▁Eisner	-10801
▁Futbol	-10802
▁Ghótha	-10803
▁Grúise	-10804
▁Holdon	-10805
▁Ionada	-10806
▁Khalid	-10807
▁Licata	-10808
▁Mamday	-10809
▁Paraná	-10810
▁Pinsil	-10811
▁Próise	-10812
▁Samuel	-10813
▁Scharf	-10814
▁Stairí	-10815
▁airapa	-10816
▁bhairt	-10817
▁bharra	-10818
▁bianna	-10819
▁bóitín	-10820
▁caipis	-10821
▁cheang	-10822
▁chilli	-10823
▁chúirt	-10824
▁dtáirg	-10825
▁fairim	-10826
▁fhaisn	-10827
▁gcoibh	-10828
▁hPhíip	-10829
▁lathan	-10830
▁mhuile	-10831
▁nóidil	-10832
▁orlach	-10833
▁pheirn	-10834
▁seomra	-10835
▁éifige	-10836
▁úinéar	-10837
▁úinéid	-10838
Sóivéise	-10839
ealaithe	-10840
eicniúil	-10841
▁01-01-2	-10842
▁1857-03	-10843
▁380,700	-10844
▁9064084	-10845
▁Astérix	-10846
▁Chanada	-10847
▁Chorizo	-10848
▁Chuaite	-10849
▁Chóráid	-10850
▁Ealaíní	-10851
▁England	-10852
▁Granola	-10853
▁Gréigis	-10854
▁Ilocano	-10855
▁Lamezia	-10856
▁Leanann	-10857
▁Limited	-10858
▁Mahmood	-10859
▁Misippi	-10860
▁Mödling	-10861
▁Orosmán	-10862
▁Paráguá	-10863
▁Runcorn	-10864
▁Seiméar	-10865
▁Taifead	-10866
▁Thuaisc	-10867
▁Zakaria	-10868
▁Zellner	-10869
▁bharnaí	-10870
▁bhrúpaí	-10871
▁bónaisc	-10872
▁chláirb	-10873
▁cónaimh	-10874
▁deighil	-10875
▁eartart	-10876
▁fairair	-10877
▁fíorúil	-10878
▁hIodáil	-10879
▁kileamh	-10880
▁mhaithe	-10881
▁saosach	-10882
▁seiléir	-10883
▁sholáth	-10884
▁tAigéan	-10885
▁tIodáil	-10886
6000000.0	-10887
aisceanna	-10888
aitheanta	-10889
athraithe	-10890
limistéar	-10891
othraithe	-10892
▁$875,400	-10893
▁11473.9.	-10894
▁192000.0	-10895
▁Bachelor	-10896
▁Canadach	-10897
▁Cuirfidh	-10898
▁Firedome	-10899
▁González	-10900
▁Mheidail	-10901
▁Pallotta	-10902
▁Pecorino	-10903
▁Shláinte	-10904
▁Vorwarts	-10905
▁bhléacht	-10906
▁chumhann	-10907
▁dearaigh	-10908
▁náisiúin	-10909
▁rutaceae	-10910
▁sheasúin	-10911
▁theaglaí	-10912
▁Ísiltíre	-10913
▁éifeacht	-10914
aispeánadh	-10915
seinnteoir	-10916
▁0965-2140	-10917
▁1907-07-1	-10918
▁49805501.	-10919
▁76798317.	-10920
▁Addiction	-10921
▁Aldershot	-10922
▁Arapiraca	-10923
▁Beannaigh	-10924
▁Blackburn	-10925
▁Carrarese	-10926
▁Contaocha	-10927
▁Glendower	-10928
▁Indéinéin	-10929
▁Mhaiséise	-10930
▁Oibrítear	-10931
▁Pholainne	-10932
▁Riarthóir	-10933
▁Zestafoni	-10934
▁ainmnithe	-10935
▁banánamán	-10936
▁colombach	-10937
▁foilseann	-10938
▁foirmiúil	-10939
▁gairmiúil	-10940
▁ghioscair	-10941
▁mhicteoir	-10942
▁monaróirí	-10943
▁priontáil	-10944
▁saorracle	-10945
▁tAlhambra	-10946
▁teicseach	-10947
▁Éagsaithe	-10948
Association	-10949
Gluaiseacht	-10950
aisceantóir	-10951
▁0001-8392.	-10952
▁01-01-1913	-10953
▁10/03/1983	-10954
▁1588-2632.	-10955
▁1732-2421.	-10956
▁1907-07-11	-10957
▁1933-10-17	-10958
▁Canadánach	-10959
▁Cephalopod	-10960
▁Cruthaithe	-10961
▁Frangipane	-10962
▁Georgetown	-10963
▁Iartharach	-10964
▁Kopenhagán	-10965
▁Leabhréise	-10966
▁Marchionne	-10967
▁Pléasánach	-10968
▁Saoránaigh	-10969
▁Sarvadalli	-10970
▁Teachtarán	-10971
▁cheannairí	-10972
▁instéartán	-10973
▁lathannach	-10974
▁seirbhíann	-10975
▁sheachaint	-10976
▁shóisialta	-10977
▁theaghléal	-10978
▁2005-11-26.	-10979
▁Seirbhísigh	-10980
▁Turkmenabat	-10981
▁athlachtóir	-10982
▁bhFreabhais	-10983
▁bhFuíleacht	-10984
▁bhreitheoir	-10985
▁comhábhairí	-10986
▁fheidhmeann	-10987
▁láithreacha	-10988
▁4165-2060-0.	-10989
▁Istanbulspor	-10990
▁Paleontology	-10991
▁Turcmenistan	-10992
▁bPréigteacht	-10993
▁ceannteideal	-10994
▁Seirbhínítear	-10995
▁scríochnaíodh	-10996
▁seirbhísítear	-10997
▁Teicneolaíocht	-10998
▁bhainistíochta	-10999
▁comhailiúcháin	-11000
▁124950000000.0.	-11001
▁Maitamaiticiúil	-11002
▁Tionadóireachta	-11003
-6	-11004
AP	-11005
RB	-11006
TH	-11007
cl	-11008
dá	-11009
pó	-11010
sm	-11011
17,	-11012
23.	-11013
48.	-11014
9.9	-11015
ASK	-11016
Ard	-11017
Obh	-11018
Sem	-11019
aer	-11020
chn	-11021
ené	-11022
gnu	-11023
hok	-11024
iki	-11025
tav	-11026
tit	-11027
usp	-11028
yaz	-11029
áse	-11030
úst	-11031
▁$.	-11032
▁0,	-11033
▁46	-11034
▁59	-11035
▁74	-11036
▁85	-11037
▁Li	-11038
▁Pé	-11039
▁ba	-11040
▁dr	-11041
▁hS	-11042
▁il	-11043
▁la	-11044
▁nO	-11045
/200	-11046
1961	-11047
6.0.	-11048
9226	-11049
Cune	-11050
achk	-11051
adaí	-11052
aika	-11053
ajib	-11054
amie	-11055
amil	-11056
azak	-11057
daon	-11058
ecta	-11059
fair	-11060
fred	-11061
iarr	-11062
icio	-11063
iito	-11064
illí	-11065
inha	-11066
isan	-11067
iyah	-11068
nigh	-11069
ofia	-11070
ogne	-11071
oill	-11072
onga	-11073
raís	-11074
rikh	-11075
rích	-11076
róil	-11077
sach	-11078
sons	-11079
tlas	-11080
uila	-11081
ísil	-11082
▁$21	-11083
▁112	-11084
▁155	-11085
▁166	-11086
▁233	-11087
▁248	-11088
▁324	-11089
▁4.0	-11090
▁404	-11091
▁438	-11092
▁9.8	-11093
▁AGC	-11094
▁ATA	-11095
▁Aig	-11096
▁Aik	-11097
▁AmC	-11098
▁Hab	-11099
▁Kan	-11100
▁Liú	-11101
▁Maj	-11102
▁abh	-11103
▁bPr	-11104
▁bhc	-11105
▁cur	-11106
▁cíl	-11107
▁dhe	-11108
▁gcú	-11109
▁mir	-11110
▁plá	-11111
▁Éil	-11112
-130.	-11113
68.05	-11114
Baris	-11115
Manus	-11116
Semin	-11117
acchi	-11118
aimin	-11119
ardar	-11120
artha	-11121
ators	-11122
chell	-11123
edict	-11124
fhonn	-11125
field	-11126
fuair	-11127
hachk	-11128
inera	-11129
itari	-11130
iteán	-11131
oinne	-11132
olais	-11133
ompoc	-11134
orneo	-11135
raile	-11136
raing	-11137
rocha	-11138
rúdaí	-11139
sanra	-11140
scile	-11141
tenza	-11142
thear	-11143
titut	-11144
usins	-11145
woody	-11146
áirgí	-11147
óilte	-11148
ótóir	-11149
▁13/3	-11150
▁18.0	-11151
▁1908	-11152
▁1947	-11153
▁1967	-11154
▁2012	-11155
▁324,	-11156
▁4.56	-11157
▁657.	-11158
▁9312	-11159
▁Aerm	-11160
▁Ayaz	-11161
▁Bhai	-11162
▁Bhin	-11163
▁Bhun	-11164
▁Bord	-11165
▁Boul	-11166
▁Cair	-11167
▁Chor	-11168
▁Cona	-11169
▁Cáip	-11170
▁Dila	-11171
▁Fire	-11172
▁Glan	-11173
▁Gori	-11174
▁Kend	-11175
▁Kill	-11176
▁LASK	-11177
▁Laan	-11178
▁Link	-11179
▁Linz	-11180
▁Ordú	-11181
▁Rene	-11182
▁René	-11183
▁Stra	-11184
▁Syth	-11185
▁Vigo	-11186
▁Wave	-11187
▁Wild	-11188
▁Wosp	-11189
▁agra	-11190
▁bath	-11191
▁bunú	-11192
▁coit	-11193
▁cúip	-11194
▁easp	-11195
▁hÉir	-11196
▁ionc	-11197
▁liga	-11198
▁mais	-11199
▁mhar	-11200
▁muir	-11201
▁reis	-11202
▁samh	-11203
▁sinr	-11204
▁smir	-11205
▁spár	-11206
▁Éire	-11207
Ailíne	-11208
aitint	-11209
bhosca	-11210
daonra	-11211
ectady	-11212
eirmiú	-11213
fuaite	-11214
gnuolo	-11215
igante	-11216
ishers	-11217
millan	-11218
namach	-11219
oinnte	-11220
onitis	-11221
onradh	-11222
scríbh	-11223
sville	-11224
tavson	-11225
thaoir	-11226
thóirí	-11227
uanais	-11228
uimhir	-11229
ultúir	-11230
▁"1923	-11231
▁10264	-11232
▁13017	-11233
▁1856,	-11234
▁1909.	-11235
▁1929.	-11236
▁1933,	-11237
▁1936.	-11238
▁1964.	-11239
▁1972,	-11240
▁1988.	-11241
▁2215.	-11242
▁268.0	-11243
▁3360.	-11244
▁429.9	-11245
▁875.4	-11246
▁94509	-11247
▁Aarus	-11248
▁Alter	-11249
▁Anseo	-11250
▁Anzhi	-11251
▁Atiku	-11252
▁Basim	-11253
▁Books	-11254
▁Cantu	-11255
▁Chumh	-11256
▁Cluir	-11257
▁Cúnta	-11258
▁Duhok	-11259
▁Eberh	-11260
▁Gineó	-11261
▁Irlam	-11262
▁Levan	-11263
▁Lidia	-11264
▁Macri	-11265
▁Mhoib	-11266
▁Najib	-11267
▁Pérez	-11268
▁Qasim	-11269
▁Razak	-11270
▁Royal	-11271
▁Sadiq	-11272
▁Schen	-11273
▁Sofia	-11274
▁Stáir	-11275
▁Tamil	-11276
▁Tries	-11277
▁aerbh	-11278
▁bhaon	-11279
▁cello	-11280
▁chosc	-11281
▁coimh	-11282
▁cosmh	-11283
▁céile	-11284
▁dtíre	-11285
▁feadh	-11286
▁fhomh	-11287
▁fuair	-11288
▁ghran	-11289
▁gréas	-11290
▁hísil	-11291
▁indie	-11292
▁ionas	-11293
▁mulai	-11294
▁ndéan	-11295
▁solan	-11296
▁spórt	-11297
▁taisc	-11298
▁tuair	-11299
▁Úinha	-11300
▁íosta	-11301
000000.	-11302
Barisan	-11303
Cathair	-11304
arbóidr	-11305
arraigh	-11306
baniyah	-11307
eannais	-11308
luaisce	-11309
oiliúna	-11310
omeriki	-11311
racháin	-11312
uktitut	-11313
unaithe	-11314
éalainn	-11315
éileach	-11316
ógaiste	-11317
▁44114.	-11318
▁611961	-11319
▁787711	-11320
▁Aguila	-11321
▁Aicmiú	-11322
▁Aikita	-11323
▁Akiito	-11324
▁Angela	-11325
▁Bhatas	-11326
▁Bhraís	-11327
▁Chuigh	-11328
▁Conair	-11329
▁Empoli	-11330
▁Gators	-11331
▁Groton	-11332
▁Grúdaí	-11333
▁Kanadá	-11334
▁Lompoc	-11335
▁McCune	-11336
▁Merkel	-11337
▁Muisle	-11338
▁Romano	-11339
▁Sardar	-11340
▁Seanra	-11341
▁Sidais	-11342
▁Sipila	-11343
▁Square	-11344
▁Sábhar	-11345
▁Teanga	-11346
▁Tories	-11347
▁Unione	-11348
▁bhfíor	-11349
▁bhíadh	-11350
▁caosca	-11351
▁cílvin	-11352
▁easpór	-11353
▁gcrích	-11354
▁oibrit	-11355
▁phobha	-11356
▁réalta	-11357
▁spórtí	-11358
▁Áirigh	-11359
hachkala	-11360
rochtain	-11361
▁0025-58	-11362
▁1932-03	-11363
▁2013-11	-11364
▁2014–15	-11365
▁2368.05	-11366
▁253260.	-11367
▁4349.0.	-11368
▁Adamsaí	-11369
▁Aerbhun	-11370
▁Andreea	-11371
▁Barisan	-11372
▁Carráse	-11373
▁Chónais	-11374
▁Cousins	-11375
▁Falsons	-11376
▁Fíipíní	-11377
▁Geering	-11378
▁Gigante	-11379
▁Jamaika	-11380
▁Kendall	-11381
▁McManus	-11382
▁Mheadán	-11383
▁Milonga	-11384
▁Nigeria	-11385
▁Potenza	-11386
▁Realtán	-11387
▁Staitic	-11388
▁Sythpop	-11389
▁Tháirge	-11390
▁Tástála	-11391
▁Wilfred	-11392
▁airgead	-11393
▁amheoir	-11394
▁bPríomh	-11395
▁bhainní	-11396
▁bhfoirt	-11397
▁bpointe	-11398
▁ceasaid	-11399
▁chórais	-11400
▁dlúneas	-11401
▁doineas	-11402
▁feithic	-11403
▁freasta	-11404
▁horgáin	-11405
▁inbhuan	-11406
▁roiscín	-11407
▁ráthais	-11408
▁scagtha	-11409
▁soicéad	-11410
▁sóivéid	-11411
▁tAngóga	-11412
▁thuaisc	-11413
▁tuaithe	-11414
▁áitiúla	-11415
▁éardach	-11416
▁éiríonn	-11417
Mheiciceo	-11418
Palafoirt	-11419
ionadaigh	-11420
raitheach	-11421
throinnne	-11422
▁$211,200	-11423
▁31887531	-11424
▁39447000	-11425
▁46451790	-11426
▁57059226	-11427
▁80002709	-11428
▁93645978	-11429
▁Baitagor	-11430
▁Benedict	-11431
▁Bheilgam	-11432
▁Bheirlín	-11433
▁Bhostóin	-11434
▁Bhrasail	-11435
▁Bhunaigh	-11436
▁Boulogne	-11437
▁Bruiséil	-11438
▁Caithead	-11439
▁División	-11440
▁Eberhard	-11441
▁Jacabian	-11442
▁Jacobean	-11443
▁Kentucky	-11444
▁Leaganda	-11445
▁Maileáis	-11446
▁Misisipi	-11447
▁Mitchell	-11448
▁Olmpique	-11449
▁Paraguay	-11450
▁Portland	-11451
▁Rutaceae	-11452
▁Saothair	-11453
▁Springer	-11454
▁Teidéidí	-11455
▁acustach	-11456
▁baileadh	-11457
▁bhailiún	-11458
▁bhainéin	-11459
▁catagóir	-11460
▁cheannas	-11461
▁chluiche	-11462
▁chláirce	-11463
▁chustaim	-11464
▁eilimint	-11465
▁fachtóir	-11466
▁gConradh	-11467
▁hÍsiltír	-11468
▁leithead	-11469
▁modhanna	-11470
▁nglasraí	-11471
▁stiúrthú	-11472
▁straight	-11473
▁tAináine	-11474
▁teiciste	-11475
▁tomatóit	-11476
ceidealach	-11477
eagarthóir	-11478
▁1920-08-1	-11479
▁1930-01-2	-11480
▁439-17684	-11481
▁51969173.	-11482
▁87000823.	-11483
▁Aermacchi	-11484
▁Féadfaidh	-11485
▁Gustavson	-11486
▁Kashúbais	-11487
▁Khomeriki	-11488
▁Macmillan	-11489
▁Mheiciceo	-11490
▁Olmpiacos	-11491
▁Ríochtach	-11492
▁Scríbhadh	-11493
▁Seinntear	-11494
▁Spagnuolo	-11495
▁Théacsach	-11496
▁Tionadóin	-11497
▁Triestina	-11498
▁Universal	-11499
▁bhiomharc	-11500
▁bunúsanna	-11501
▁cailéaraí	-11502
▁chuairint	-11503
▁chumhdach	-11504
▁dtionscal	-11505
▁gceannach	-11506
▁gcuireann	-11507
▁ghiothair	-11508
▁hísiltíre	-11509
▁mhiomáile	-11510
▁miricelli	-11511
▁oibreoirí	-11512
▁oibrítear	-11513
▁palaitint	-11514
▁pearsanra	-11515
▁píolíolíí	-11516
▁scillithe	-11517
▁shaothraí	-11518
▁spleáchas	-11519
▁1980-04-23	-11520
▁Aitheantas	-11521
▁Ambasadóir	-11522
▁Habbaniyah	-11523
▁Mairsville	-11524
▁Maisceanna	-11525
▁Meiriceáit	-11526
▁Mionsabhar	-11527
▁Nigéireach	-11528
▁Publishers	-11529
▁athracháin	-11530
▁bhFíleacht	-11531
▁dteanntair	-11532
▁gCéarchéim	-11533
▁gaolmhainn	-11534
▁hIonóinéas	-11535
▁láithreach	-11536
▁mhaicteoir	-11537
▁mheánmhéid	-11538
▁thógfaíodh	-11539
▁139705000.0	-11540
▁1936-05-21.	-11541
▁69862200.0.	-11542
▁Argentiníne	-11543
▁Ghairleacht	-11544
▁Leabharlach	-11545
▁Makhachkala	-11546
▁Pholainnach	-11547
▁Schenectady	-11548
▁cheannteoir	-11549
▁hÉireannach	-11550
▁leabharlann	-11551
▁leithdhíodh	-11552
▁metropóilte	-11553
▁peritonitis	-11554
▁thógáiltear	-11555
▁éifeachtach	-11556
▁279142000000	-11557
▁8788850000.0	-11558
▁Chomhlachais	-11559
▁athraíochtaí	-11560
▁coinbhleacht	-11561
▁ngairmnítear	-11562
▁príomhtháide	-11563
▁príomháideal	-11564
▁taithsealach	-11565
ochríochnaíodh	-11566
▁3997100000000	-11567
▁Mhoinmhaantán	-11568
▁chomhchleacht	-11569
▁diamheiméadar	-11570
▁dréachtghrúpa	-11571
▁phríomhchláir	-11572
▁0-439-17684-0.	-11573
▁Matamaiticiúla	-11574
▁Tionadóireacht	-11575
▁gCoinbhleachta	-11576
▁meiriceáiceach	-11577
▁phríomhshábhar	-11578
▁978-0-15-204770	-11579
▁príomhphríomhph	-11580
39	-11581
85	-11582
DL	-11583
In	-11584
cu	-11585
lo	-11586
sw	-11587
”.	-11588
▁×	-11589
.),	-11590
/05	-11591
/26	-11592
/33	-11593
0,7	-11594
00,	-11595
12.	-11596
52.	-11597
6.5	-11598
907	-11599
937	-11600
ABI	-11601
AIP	-11602
Air	-11603
Alv	-11604
Eat	-11605
RBL	-11606
Tex	-11607
bín	-11608
chú	-11609
des	-11610
dán	-11611
eat	-11612
elv	-11613
eno	-11614
esa	-11615
faí	-11616
ged	-11617
icí	-11618
nat	-11619
ral	-11620
row	-11621
rus	-11622
sus	-11623
uds	-11624
ère	-11625
éit	-11626
ímh	-11627
óit	-11628
ött	-11629
▁4,	-11630
▁80	-11631
▁Gi	-11632
▁MS	-11633
▁NY	-11634
▁XC	-11635
▁et	-11636
▁te	-11637
-03,	-11638
-04,	-11639
-339	-11640
015.	-11641
15.0	-11642
188.	-11643
2.88	-11644
264.	-11645
60.0	-11646
8015	-11647
9304	-11648
Ayam	-11649
Bhin	-11650
Hamb	-11651
Jorc	-11652
Sham	-11653
Univ	-11654
Vern	-11655
agen	-11656
aias	-11657
cara	-11658
cati	-11659
dais	-11660
fael	-11661
fino	-11662
hinx	-11663
ient	-11664
imir	-11665
istr	-11666
line	-11667
lúis	-11668
mata	-11669
nóna	-11670
odox	-11671
rait	-11672
rose	-11673
róid	-11674
róis	-11675
sein	-11676
tron	-11677
uaim	-11678
uigh	-11679
uire	-11680
vice	-11681
wall	-11682
áinn	-11683
éimh	-11684
éirí	-11685
▁07.	-11686
▁3,9	-11687
▁32.	-11688
▁368	-11689
▁63.	-11690
▁900	-11691
▁AKA	-11692
▁Ars	-11693
▁Aso	-11694
▁BSc	-11695
▁Iam	-11696
▁Mul	-11697
▁Nak	-11698
▁OAA	-11699
▁PDL	-11700
▁SSD	-11701
▁Scr	-11702
▁Shi	-11703
▁SpA	-11704
▁bhu	-11705
▁dtu	-11706
▁dul	-11707
▁kmp	-11708
▁mún	-11709
▁oil	-11710
▁pío	-11711
▁rún	-11712
▁sak	-11713
▁thí	-11714
▁tsu	-11715
▁ver	-11716
▁Íos	-11717
2.88.	-11718
71700	-11719
720,7	-11720
Clúir	-11721
Hambg	-11722
Texas	-11723
Tudor	-11724
acáin	-11725
adori	-11726
aicme	-11727
arkey	-11728
asach	-11729
chead	-11730
chnol	-11731
cules	-11732
dháil	-11733
dings	-11734
eanta	-11735
eapta	-11736
earch	-11737
eresa	-11738
esota	-11739
ienna	-11740
iforn	-11741
imera	-11742
ineán	-11743
landa	-11744
leion	-11745
mbuds	-11746
mheas	-11747
ndste	-11748
olksw	-11749
orgos	-11750
osúil	-11751
ragas	-11752
raims	-11753
rithe	-11754
seoil	-11755
uille	-11756
varez	-11757
yning	-11758
íneas	-11759
ódach	-11760
ónais	-11761
▁000,	-11762
▁0348	-11763
▁1.52	-11764
▁100.	-11765
▁168.	-11766
▁1911	-11767
▁1936	-11768
▁1976	-11769
▁214,	-11770
▁23.0	-11771
▁24.4	-11772
▁62.0	-11773
▁682,	-11774
▁817,	-11775
▁8514	-11776
▁972.	-11777
▁9833	-11778
▁Bosc	-11779
▁CRBL	-11780
▁Cais	-11781
▁Coca	-11782
▁Erie	-11783
▁Fhin	-11784
▁Foin	-11785
▁Gerd	-11786
▁Gött	-11787
▁Horn	-11788
▁Jord	-11789
▁KABI	-11790
▁Lane	-11791
▁Leis	-11792
▁Lond	-11793
▁Lour	-11794
▁Piar	-11795
▁Tart	-11796
▁Turk	-11797
▁Táir	-11798
▁aird	-11799
▁bBan	-11800
▁bach	-11801
▁clúc	-11802
▁cusp	-11803
▁deil	-11804
▁gclu	-11805
▁gcón	-11806
▁hOtó	-11807
▁kile	-11808
▁leán	-11809
▁tAad	-11810
▁uimh	-11811
▁uisc	-11812
▁vsus	-11813
▁éile	-11814
▁éist	-11815
Anglia	-11816
Eataim	-11817
Jerseo	-11818
Shamal	-11819
aisand	-11820
aminis	-11821
aoilte	-11822
chiste	-11823
iciúil	-11824
icéada	-11825
ilebín	-11826
laíonn	-11827
mheoil	-11828
orgach	-11829
reofar	-11830
shaoil	-11831
tachas	-11832
íneoir	-11833
ústaic	-11834
▁16.76	-11835
▁168".	-11836
▁1820.	-11837
▁1927,	-11838
▁1948.	-11839
▁1959,	-11840
▁1965.	-11841
▁1983,	-11842
▁286.5	-11843
▁37497	-11844
▁45.97	-11845
▁535.0	-11846
▁973.0	-11847
▁AMAHE	-11848
▁Aeirí	-11849
▁Anzio	-11850
▁Bhais	-11851
▁Bhear	-11852
▁Blóth	-11853
▁Chain	-11854
▁Colón	-11855
▁Deimh	-11856
▁Drake	-11857
▁First	-11858
▁Forth	-11859
▁Grúpó	-11860
▁Major	-11861
▁Maria	-11862
▁Minas	-11863
▁Monra	-11864
▁Negre	-11865
▁Ocoil	-11866
▁Panta	-11867
▁Putin	-11868
▁Rican	-11869
▁Suaid	-11870
▁Weber	-11871
▁Wells	-11872
▁bacon	-11873
▁bhfhu	-11874
▁blúga	-11875
▁básca	-11876
▁chart	-11877
▁fhoin	-11878
▁gCath	-11879
▁gSeap	-11880
▁gearr	-11881
▁gheil	-11882
▁gnéir	-11883
▁luath	-11884
▁mbath	-11885
▁metal	-11886
▁oibrí	-11887
▁pháip	-11888
▁ríodh	-11889
▁scéag	-11890
▁shamh	-11891
▁speis	-11892
▁stair	-11893
▁tarch	-11894
▁thogh	-11895
▁tháin	-11896
Bhináin	-11897
Bhraine	-11898
Duchère	-11899
Oileáin	-11900
angacha	-11901
eartóir	-11902
ndstedt	-11903
odoxach	-11904
oibhéal	-11905
pháirtí	-11906
reachta	-11907
scríofa	-11908
seinere	-11909
éileann	-11910
éiríodh	-11911
▁0.0068	-11912
▁1.9304	-11913
▁11264.	-11914
▁148015	-11915
▁18.52.	-11916
▁2215.0	-11917
▁3310.0	-11918
▁ATISET	-11919
▁Adamsa	-11920
▁Aonaid	-11921
▁Barrow	-11922
▁Collin	-11923
▁Deoraí	-11924
▁Ducati	-11925
▁Gaffey	-11926
▁Gairid	-11927
▁Gairle	-11928
▁Gineál	-11929
▁Guínín	-11930
▁Iamáic	-11931
▁Inline	-11932
▁Island	-11933
▁Jamaic	-11934
▁LaVern	-11935
▁League	-11936
▁Mhaith	-11937
▁Oibigh	-11938
▁Ordadh	-11939
▁Phríom	-11940
▁Rafael	-11941
▁Sereno	-11942
▁Sphinx	-11943
▁Stadio	-11944
▁Teague	-11945
▁Uruéig	-11946
▁Vienna	-11947
▁Volksw	-11948
▁beanna	-11949
▁bhaite	-11950
▁bhaoir	-11951
▁blúise	-11952
▁cathra	-11953
▁ceanna	-11954
▁ceilín	-11955
▁chiste	-11956
▁chúnta	-11957
▁chúrsa	-11958
▁coirce	-11959
▁crioch	-11960
▁cónóna	-11961
▁cúigiú	-11962
▁eagasc	-11963
▁fágtha	-11964
▁gCaith	-11965
▁gceart	-11966
▁gheill	-11967
▁gránit	-11968
▁mhaile	-11969
▁mheola	-11970
▁ngairt	-11971
▁nuálaí	-11972
▁rapóir	-11973
▁smirtí	-11974
▁strait	-11975
▁tUacht	-11976
Islainne	-11977
Weymouth	-11978
Zéalainn	-11979
aispeáin	-11980
aisteoir	-11981
arsanach	-11982
bunaithe	-11983
chnology	-11984
eampainn	-11985
esteapta	-11986
football	-11987
lathóirí	-11988
mbudsman	-11989
ociacion	-11990
oiliúint	-11991
áisteoir	-11992
íleachta	-11993
▁3800.0.	-11994
▁4371700	-11995
▁Alvarez	-11996
▁Ambient	-11997
▁Ambrose	-11998
▁Arscoil	-11999
▁Asphalt	-12000
▁Bhealaí	-12001
▁Bhuinne	-12002
▁Bryning	-12003
▁Central	-12004
▁Chóirle	-12005
▁Chóthaí	-12006
▁Clianta	-12007
▁Clochán	-12008
▁Comhrac	-12009
▁Delfino	-12010
▁Espanol	-12011
▁Feisire	-12012
▁Gineall	-12013
▁Giorgos	-12014
▁Guaráin	-12015
▁Kaminis	-12016
▁Kolóine	-12017
▁Lourdes	-12018
▁Pescara	-12019
▁Phinsil	-12020
▁Phragas	-12021
▁Roghadh	-12022
▁Sadique	-12023
▁Sanchez	-12024
▁Scóinne	-12025
▁Service	-12026
▁Theresa	-12027
▁Uruéara	-12028
▁Vesayas	-12029
▁Vísaias	-12030
▁amandaí	-12031
▁bhraims	-12032
▁carbóin	-12033
▁chineal	-12034
▁déantar	-12035
▁gcoinbh	-12036
▁gheilín	-12037
▁ghránta	-12038
▁géinear	-12039
▁hAigéan	-12040
▁hAraibí	-12041
▁hEodóip	-12042
▁hIndéin	-12043
▁hábhair	-12044
▁leanadh	-12045
▁mhuirce	-12046
▁muicíní	-12047
▁ndaoine	-12048
▁neamhfu	-12049
▁rithphl	-12050
▁scríoch	-12051
▁soisíse	-12052
▁tAchura	-12053
▁teagáin	-12054
▁threoir	-12055
▁Áiríonn	-12056
Teicniúil	-12057
ethelwald	-12058
fhearmata	-12059
ichedelia	-12060
ionstraim	-12061
oibríoidh	-12062
réitheach	-12063
thaíochta	-12064
úrsaíocht	-12065
▁69862200	-12066
▁8805735.	-12067
▁Cearnáir	-12068
▁Chamilla	-12069
▁Deighigh	-12070
▁Dunwoody	-12071
▁Fleamann	-12072
▁Fleáchas	-12073
▁Fíileáin	-12074
▁Hercules	-12075
▁Holdings	-12076
▁Laurales	-12077
▁Militari	-12078
▁Mularkey	-12079
▁Nakadori	-12080
▁Ricanach	-12081
▁Seabáine	-12082
▁Shiitake	-12083
▁Théacsis	-12084
▁Vladimir	-12085
▁acmhainn	-12086
▁bhaicéal	-12087
▁bphointe	-12088
▁bánbharm	-12089
▁ceangail	-12090
▁chláirge	-12091
▁chuairce	-12092
▁cáilithe	-12093
▁daonlath	-12094
▁ealaíont	-12095
▁fochiste	-12096
▁ghealach	-12097
▁hIndones	-12098
▁marmhuir	-12099
▁rialtóir	-12100
▁roghnigh	-12101
▁rothróil	-12102
▁ríomhphr	-12103
▁thosófar	-12104
▁thíortha	-12105
▁tógáilte	-12106
▁Íoslainn	-12107
eartartóir	-12108
footballer	-12109
▁0001-8392	-12110
▁1558-2868	-12111
▁1998-07-2	-12112
▁211200000	-12113
▁324,720,7	-12114
▁60040714,	-12115
▁605718000	-12116
▁83646315.	-12117
▁90640840.	-12118
▁Aistituta	-12119
▁Andersson	-12120
▁Aontaíonn	-12121
▁Appletone	-12122
▁Astronaid	-12123
▁Bhaincáin	-12124
▁Bheilgáim	-12125
▁Bhuilléid	-12126
▁Chaibidil	-12127
▁Chínatown	-12128
▁Cóireacha	-12129
▁Geraisand	-12130
▁Ghaoinéal	-12131
▁Göttingen	-12132
▁Leagandaí	-12133
▁Mhoiblíon	-12134
▁Pantaleon	-12135
▁Reilleion	-12136
▁Rundstedt	-12137
▁Seirbhísí	-12138
▁Sionadóid	-12139
▁aimsítear	-12140
▁bhanánama	-12141
▁catharach	-12142
▁cathracha	-12143
▁ceithreag	-12144
▁charbóidr	-12145
▁chicaróin	-12146
▁chuirfear	-12147
▁daonraigh	-12148
▁feithicle	-12149
▁fochneach	-12150
▁fuilleadh	-12151
▁gcoimsiún	-12152
▁gcuirfear	-12153
▁ghluaiste	-12154
▁leanúnamh	-12155
▁máthairch	-12156
▁nAilíonna	-12157
▁oibritúil	-12158
▁phríomhth	-12159
▁phónaithe	-12160
▁soláthair	-12161
▁tAireacht	-12162
▁tSeannair	-12163
▁teisiníse	-12164
▁tharraing	-12165
▁tráchtála	-12166
▁vericelli	-12167
▁éisteacht	-12168
00000000003	-12169
▁1046-8188.	-12170
▁1080-6377.	-12171
▁1473-5571.	-12172
▁1558-2868.	-12173
▁2014-2015.	-12174
▁7715100000	-12175
▁8514837.14	-12176
▁9833516.63	-12177
▁Chicharron	-12178
▁Cuideachta	-12179
▁Fhinchurch	-12180
▁Fíipíneíní	-12181
▁Gobhardais	-12182
▁Hornchurch	-12183
▁Indéinéise	-12184
▁Iodáileach	-12185
▁Sapindales	-12186
▁Simeannach	-12187
▁Singapóire	-12188
▁Technology	-12189
▁Volkswagen	-12190
▁ceithreach	-12191
▁chothroach	-12192
▁chruthófar	-12193
▁comhshaoil	-12194
▁dtionscail	-12195
▁gcoinneadh	-12196
▁hOttomáine	-12197
▁ionchumadh	-12198
▁labhraíonn	-12199
▁malartacha	-12200
▁nAilteanna	-12201
▁phobhaanta	-12202
▁rannpháirt	-12203
▁rithbhalaí	-12204
▁sheinnfadh	-12205
▁sheinníonn	-12206
▁tIinéinéas	-12207
▁theangacha	-12208
▁tionscadal	-12209
▁uimhreacha	-12210
▁01-01-1959.	-12211
▁183309000.0	-12212
▁1907-07-11.	-12213
▁1920-08-16.	-12214
▁1930-01-20.	-12215
▁437170000.0	-12216
▁Bainisteoir	-12217
▁Chomhdhéalú	-12218
▁Gluaiseacht	-12219
▁Idnáisiúnta	-12220
▁Miscissippi	-12221
▁Orthodoxach	-12222
▁Taispeánadh	-12223
▁bhfaightear	-12224
▁bhréireacht	-12225
▁chomhleacht	-12226
▁cuideachtaí	-12227
▁díospórtáil	-12228
▁ealaíontach	-12229
▁instéartóir	-12230
▁saothraithe	-12231
▁sheirbhíodh	-12232
▁135589000.0.	-12233
▁183309000.0,	-12234
▁439-17685-9.	-12235
▁Amiriceánach	-12236
▁Comhlánaíodh	-12237
▁Deimhneachta	-12238
▁Phillíneacha	-12239
▁Spáschalairt	-12240
▁Thirthearach	-12241
▁Uachtaránach	-12242
▁bhFeirneacht	-12243
▁fhoighíneach	-12244
▁iomlánmhéide	-12245
▁leictreonach	-12246
▁príomhchláir	-12247
▁roimheanacha	-12248
▁seirbhíseann	-12249
▁taispeántóir	-12250
▁0-439-17684-0	-12251
▁7729430000.0.	-12252
▁chomharsanach	-12253
▁dtionscnaíonn	-12254
▁healaitheoirí	-12255
▁leithdhíníodh	-12256
8-1-4165-4253-7	-12257
▁29919600000.0.	-12258
▁88234300000.0.	-12259
▁Meiriceáiniúla	-12260
▁ceannaitheoirí	-12261
▁chruthaitheoir	-12262
▁comhpháirteach	-12263
▁thuaisceartach	-12264
▁6155910000000.0	-12265
▁Stiúrthóireacht	-12266
#:	-12267
/0	-12268
4"	-12269
81	-12270
Gh	-12271
Hu	-12272
LG	-12273
MI	-12274
ba	-12275
bu	-12276
fl	-12277
hb	-12278
hp	-12279
li	-12280
sí	-12281
òs	-12282
şê	-12283
▁Ş	-12284
-27	-12285
188	-12286
202	-12287
28.	-12288
43.	-12289
5-9	-12290
504	-12291
6.1	-12292
701	-12293
711	-12294
92"	-12295
Alc	-12296
All	-12297
Ast	-12298
Ion	-12299
Los	-12300
cel	-12301
com	-12302
eds	-12303
feo	-12304
gia	-12305
ipr	-12306
ium	-12307
mer	-12308
oux	-12309
ril	-12310
rió	-12311
tch	-12312
tát	-12313
upé	-12314
uth	-12315
ver	-12316
▁57	-12317
▁7,	-12318
▁92	-12319
▁Dn	-12320
▁Iv	-12321
▁NV	-12322
▁SQ	-12323
▁Sm	-12324
▁TN	-12325
▁cl	-12326
-02.	-12327
/21.	-12328
/26.	-12329
006.	-12330
12.2	-12331
2-24	-12332
4.0.	-12333
58-3	-12334
7.16	-12335
8-11	-12336
Ailí	-12337
Cúis	-12338
Neil	-12339
PSTH	-12340
adao	-12341
agus	-12342
aití	-12343
ajik	-12344
amon	-12345
ario	-12346
atam	-12347
bhír	-12348
cóin	-12349
eaga	-12350
eirg	-12351
emor	-12352
ewín	-12353
flot	-12354
goas	-12355
hbaz	-12356
igia	-12357
imen	-12358
inse	-12359
iomp	-12360
isse	-12361
léar	-12362
oict	-12363
ompl	-12364
pson	-12365
rath	-12366
reme	-12367
roth	-12368
réal	-12369
réar	-12370
samb	-12371
scrú	-12372
táir	-12373
uper	-12374
vall	-12375
ánaí	-12376
óint	-12377
▁1.7	-12378
▁121	-12379
▁140	-12380
▁153	-12381
▁2.4	-12382
▁219	-12383
▁345	-12384
▁401	-12385
▁609	-12386
▁672	-12387
▁ASD	-12388
▁Abe	-12389
▁Asa	-12390
▁Bre	-12391
▁CFC	-12392
▁Dún	-12393
▁EMI	-12394
▁FLG	-12395
▁Gin	-12396
▁Gir	-12397
▁Lio	-12398
▁Nug	-12399
▁Nur	-12400
▁Omb	-12401
▁Res	-12402
▁Róm	-12403
▁Sov	-12404
▁Suw	-12405
▁Taq	-12406
▁Wee	-12407
▁Zan	-12408
▁aic	-12409
▁cás	-12410
▁dán	-12411
▁gan	-12412
▁gré	-12413
▁hús	-12414
▁mao	-12415
▁mhe	-12416
▁mur	-12417
▁plé	-12418
▁pol	-12419
▁rúp	-12420
▁tac	-12421
-05-2	-12422
-11-1	-12423
0,000	-12424
6,000	-12425
7.14.	-12426
AMAHE	-12427
Earth	-12428
Jaish	-12429
Jersí	-12430
aanst	-12431
aifid	-12432
ailín	-12433
aocha	-12434
aonta	-12435
arrar	-12436
asket	-12437
athsh	-12438
bhóid	-12439
báise	-12440
dacha	-12441
deach	-12442
ebago	-12443
elvín	-12444
eroid	-12445
exics	-12446
gipán	-12447
igéar	-12448
ileog	-12449
iness	-12450
ingue	-12451
inéar	-12452
ionov	-12453
iprop	-12454
ipéar	-12455
jamin	-12456
meoir	-12457
mergh	-12458
other	-12459
riúil	-12460
tcher	-12461
tóirí	-12462
ument	-12463
untry	-12464
ónach	-12465
şêkar	-12466
▁1.55	-12467
▁1023	-12468
▁1461	-12469
▁1533	-12470
▁1800	-12471
▁1853	-12472
▁1941	-12473
▁1964	-12474
▁1978	-12475
▁24.0	-12476
▁25.0	-12477
▁25.2	-12478
▁34.0	-12479
▁3711	-12480
▁404.	-12481
▁52.0	-12482
▁600.	-12483
▁7202	-12484
▁9453	-12485
▁9504	-12486
▁Aman	-12487
▁Ando	-12488
▁Aona	-12489
▁Ardh	-12490
▁Bhac	-12491
▁Bozo	-12492
▁Bren	-12493
▁Bush	-12494
▁Chnó	-12495
▁Comm	-12496
▁Cupé	-12497
▁Cúis	-12498
▁Dáil	-12499
▁Ever	-12500
▁Gron	-12501
▁Kate	-12502
▁Mala	-12503
▁Nasa	-12504
▁Nola	-12505
▁Sazi	-12506
▁Sbra	-12507
▁Solo	-12508
▁Vars	-12509
▁Vitt	-12510
▁Vítn	-12511
▁Wink	-12512
▁Winn	-12513
▁Zwan	-12514
▁ante	-12515
▁bhan	-12516
▁bhao	-12517
▁bhru	-12518
▁chua	-12519
▁clúd	-12520
▁coin	-12521
▁cuim	-12522
▁cúpa	-12523
▁cúpé	-12524
▁doic	-12525
▁dtag	-12526
▁each	-12527
▁fion	-12528
▁gCor	-12529
▁guan	-12530
▁heil	-12531
▁iarn	-12532
▁leig	-12533
▁rath	-12534
▁saig	-12535
▁tAbh	-12536
▁tIon	-12537
APGPAC	-12538
Jseach	-12539
antair	-12540
celona	-12541
daithe	-12542
eagáin	-12543
eolais	-12544
isteal	-12545
luichí	-12546
native	-12547
odistr	-12548
réacht	-12549
thairí	-12550
thróip	-12551
turing	-12552
uirari	-12553
uiséis	-12554
uthale	-12555
vallis	-12556
úrsála	-12557
▁08/26	-12558
▁1.800	-12559
▁13/31	-12560
▁14260	-12561
▁15/33	-12562
▁1890.	-12563
▁1904,	-12564
▁1904.	-12565
▁1907,	-12566
▁1928,	-12567
▁1932,	-12568
▁1969,	-12569
▁1980.	-12570
▁1985,	-12571
▁1988,	-12572
▁1995,	-12573
▁29075	-12574
▁32.2.	-12575
▁37.16	-12576
▁37701	-12577
▁4387.	-12578
▁Anois	-12579
▁April	-12580
▁Arròs	-12581
▁Bajik	-12582
▁Banda	-12583
▁Bhaiv	-12584
▁Bharc	-12585
▁Boged	-12586
▁Bánbh	-12587
▁Chuck	-12588
▁Chóst	-12589
▁Damon	-12590
▁Eifia	-12591
▁Fótha	-12592
▁Ghabh	-12593
▁Giant	-12594
▁Greme	-12595
▁Ivkov	-12596
▁Josef	-12597
▁Kella	-12598
▁Klubu	-12599
▁Leeds	-12600
▁Liara	-12601
▁Memor	-12602
▁Orfeo	-12603
▁Pimen	-12604
▁Print	-12605
▁Quzon	-12606
▁Ricky	-12607
▁Réims	-12608
▁Rúnta	-12609
▁Saill	-12610
▁Seach	-12611
▁Státa	-12612
▁Syria	-12613
▁Tabak	-12614
▁Tadao	-12615
▁Temer	-12616
▁Turca	-12617
▁Zamba	-12618
▁agrac	-12619
▁bhrúd	-12620
▁brath	-12621
▁cabap	-12622
▁chean	-12623
▁chuma	-12624
▁chóis	-12625
▁coirp	-12626
▁dtioc	-12627
▁fearr	-12628
▁fhoch	-12629
▁gCuid	-12630
▁genre	-12631
▁gráin	-12632
▁liige	-12633
▁lármh	-12634
▁maisc	-12635
▁mhoin	-12636
▁monoc	-12637
▁nAilí	-12638
▁nionc	-12639
▁palam	-12640
▁phaim	-12641
▁pháil	-12642
▁phéit	-12643
▁pláit	-12644
▁suite	-12645
▁super	-12646
▁tAeir	-12647
▁tAint	-12648
▁tabar	-12649
▁teach	-12650
▁Éifia	-12651
-07-27.	-12652
Dosaint	-12653
Duchere	-12654
aimeach	-12655
aiminte	-12656
bhreach	-12657
chumann	-12658
chódach	-12659
comflot	-12660
déanamh	-12661
eachtar	-12662
ealaíon	-12663
eamhrán	-12664
eannadh	-12665
earrtha	-12666
eastóin	-12667
etrovsk	-12668
ilíneas	-12669
irthear	-12670
laíocht	-12671
leáchas	-12672
mhachta	-12673
mhainní	-12674
oibhrán	-12675
ompleas	-12676
ondisse	-12677
orbairt	-12678
raítear	-12679
áileoir	-12680
íníocht	-12681
íolaire	-12682
▁0-670-	-12683
▁08/26.	-12684
▁1099.0	-12685
▁1989-0	-12686
▁2004-0	-12687
▁2158-3	-12688
▁2160.0	-12689
▁29,000	-12690
▁2900.0	-12691
▁560937	-12692
▁AAIDBI	-12693
▁Aonair	-12694
▁Basket	-12695
▁Bharra	-12696
▁Borneo	-12697
▁Breach	-12698
▁Caisse	-12699
▁Chrosc	-12700
▁Chóige	-12701
▁Farrar	-12702
▁Gaúise	-12703
▁Ghaill	-12704
▁Gineóa	-12705
▁Giroux	-12706
▁Gluais	-12707
▁Guineá	-12708
▁Hardie	-12709
▁Japáin	-12710
▁Jepson	-12711
▁Kashub	-12712
▁Marsaí	-12713
▁Mhuill	-12714
▁Moscow	-12715
▁Mother	-12716
▁Patrio	-12717
▁Patrió	-12718
▁Páirce	-12719
▁Spring	-12720
▁Spóirt	-12721
▁Straus	-12722
▁Sóthaí	-12723
▁Tógáil	-12724
▁Wayans	-12725
▁Zaanst	-12726
▁amanda	-12727
▁beacón	-12728
▁bharna	-12729
▁bhfasc	-12730
▁bhlach	-12731
▁bhréas	-12732
▁bliain	-12733
▁bpléas	-12734
▁bunadh	-12735
▁chluch	-12736
▁chéise	-12737
▁chúige	-12738
▁cluicí	-12739
▁cruach	-12740
▁cócais	-12741
▁cúpáil	-12742
▁dearaí	-12743
▁deonaí	-12744
▁dréile	-12745
▁díosca	-12746
▁faoina	-12747
▁hEipip	-12748
▁kelvín	-12749
▁liosta	-12750
▁mering	-12751
▁mhaise	-12752
▁phoist	-12753
▁phróis	-12754
▁pinsin	-12755
▁rithse	-12756
▁rothla	-12757
▁shární	-12758
▁taiscí	-12759
▁teasaí	-12760
▁Éilith	-12761
▁éigthe	-12762
01-8392"	-12763
12.2006.	-12764
Alcatraz	-12765
aingéile	-12766
artaithe	-12767
athracha	-12768
bhealach	-12769
cheangal	-12770
eangacha	-12771
eáiseach	-12772
ionscnaí	-12773
mhealach	-12774
ocraithe	-12775
oibrithe	-12776
patacóin	-12777
▁11473.9	-12778
▁2014-10	-12779
▁2215.0.	-12780
▁2702.0.	-12781
▁8805735	-12782
▁Alagoas	-12783
▁Amhréid	-12784
▁Anglann	-12785
▁Araibis	-12786
▁Arscail	-12787
▁Brenner	-12788
▁Bávaraí	-12789
▁Ceithre	-12790
▁Choiste	-12791
▁Chreast	-12792
▁Chuanda	-12793
▁Chuirce	-12794
▁Clayton	-12795
▁Coiléil	-12796
▁Cosaint	-12797
▁Cultúir	-12798
▁Dniprop	-12799
▁Díolann	-12800
▁Everett	-12801
▁Ghairid	-12802
▁Gronnaí	-12803
▁Gréasán	-12804
▁Grúirte	-12805
▁Hilario	-12806
▁Kubelle	-12807
▁Liúirte	-12808
▁Nugenre	-12809
▁Peşêkar	-12810
▁Primera	-12811
▁Reigiún	-12812
▁Sbragia	-12813
▁Seineán	-12814
▁Seorgia	-12815
▁Shehbaz	-12816
▁Solanum	-12817
▁Suwalki	-12818
▁Tapioca	-12819
▁Thuaigh	-12820
▁Thuaite	-12821
▁Tuircis	-12822
▁Víneoin	-12823
▁Winkler	-12824
▁aireamh	-12825
▁balairt	-12826
▁beanóin	-12827
▁bhaillí	-12828
▁bhileog	-12829
▁biannaí	-12830
▁bodhran	-12831
▁bphoict	-12832
▁cabhúis	-12833
▁cilewín	-12834
▁country	-12835
▁dhuisce	-12836
▁dhíthír	-12837
▁eachoch	-12838
▁fágaisí	-12839
▁fíorain	-12840
▁gCanair	-12841
▁gCóthas	-12842
▁gcaithe	-12843
▁gcúrsaí	-12844
▁ghinera	-12845
▁hAfraic	-12846
▁hIinéin	-12847
▁iarbhír	-12848
▁mbainní	-12849
▁nAilíne	-12850
▁nOstair	-12851
▁oibríbe	-12852
▁phéadaí	-12853
▁spásach	-12854
▁sraithe	-12855
▁tAinéid	-12856
▁tTexics	-12857
▁thairim	-12858
▁tionscn	-12859
▁tsuíomh	-12860
▁Úruéach	-12861
▁éiféacs	-12862
Alligator	-12863
Alvinegro	-12864
aitheacha	-12865
dáiteacha	-12866
eartasóir	-12867
iforniach	-12868
▁0025-585	-12869
▁1865-878	-12870
▁2014–15.	-12871
▁3078.48.	-12872
▁3992.88.	-12873
▁88002539	-12874
▁Amharach	-12875
▁Asteroid	-12876
▁Bathanna	-12877
▁Contairt	-12878
▁Cornwall	-12879
▁Cóireach	-12880
▁Fletcher	-12881
▁Fraincis	-12882
▁Ghaiséad	-12883
▁Ghaoinse	-12884
▁Gheapáin	-12885
▁Inneoise	-12886
▁Memorial	-12887
▁Meringue	-12888
▁Mhoinnte	-12889
▁Monument	-12890
▁Pháipéar	-12891
▁Pimentel	-12892
▁Research	-12893
▁Rodionov	-12894
▁Scaminer	-12895
▁Seorgach	-12896
▁Staidéir	-12897
▁Steghlal	-12898
▁Teacsáin	-12899
▁Thoirthe	-12900
▁Turcacha	-12901
▁bakewell	-12902
▁bhFillip	-12903
▁bpáipéar	-12904
▁ceantáin	-12905
▁cuirfidh	-12906
▁dhíolann	-12907
▁dtéacsas	-12908
▁gCóstair	-12909
▁gceannte	-12910
▁gceaptha	-12911
▁ghearrth	-12912
▁gheilvin	-12913
▁ghnóthas	-12914
▁hAigraic	-12915
▁luandáin	-12916
▁lúiseach	-12917
▁príomhdh	-12918
▁tAerfort	-12919
▁tSeapáin	-12920
▁talúnach	-12921
▁tosaíodh	-12922
▁trealamh	-12923
▁trombóin	-12924
▁tseanamh	-12925
▁Ábharann	-12926
ainmneacha	-12927
aitheachta	-12928
chalafoirt	-12929
cheampainn	-12930
enburgbaan	-12931
▁0567-7920	-12932
▁1046-8188	-12933
▁1923-11-1	-12934
▁45644811.	-12935
▁523329000	-12936
▁88002539.	-12937
▁Aerbhunsa	-12938
▁Amiriceán	-12939
▁Archumann	-12940
▁Barcelona	-12941
▁Bhrasaíle	-12942
▁Boscaiste	-12943
▁Corvallis	-12944
▁Craftsman	-12945
▁Fothrocha	-12946
▁Gravesend	-12947
▁Géarchéim	-12948
▁Haputhale	-12949
▁Indóinéin	-12950
▁Kolomáise	-12951
▁Malaíéise	-12952
▁Nuaiseach	-12953
▁Nurturing	-12954
▁Oibriúidh	-12955
▁Phíipíneí	-12956
▁Príomhara	-12957
▁Roghnaigh	-12958
▁Seapánach	-12959
▁Taquirari	-12960
▁Tionscail	-12961
▁Winnebago	-12962
▁ainmneadh	-12963
▁astéidéid	-12964
▁balafoirt	-12965
▁chairirir	-12966
▁cheannach	-12967
▁chuimsiún	-12968
▁chustaimí	-12969
▁eartartar	-12970
▁feofheoil	-12971
▁gCompleas	-12972
▁gSeapáine	-12973
▁gaolúintí	-12974
▁gceannadh	-12975
▁gceartach	-12976
▁hIilíneas	-12977
▁inbhreith	-12978
▁leathanna	-12979
▁mbainiste	-12980
▁meathróip	-12981
▁oifigeach	-12982
▁rithphlód	-12983
▁scríbhadh	-12984
▁sholáthar	-12985
▁suntasach	-12986
▁Úsáidíonn	-12987
eolaitheoir	-12988
ondissement	-12989
▁0567-7920.	-12990
▁1360-0443.	-12991
▁1932-03-15	-12992
▁2015-06-27	-12993
▁Chómhairle	-12994
▁Comhphobal	-12995
▁Cothraithe	-12996
▁Kellamergh	-12997
▁Matchstick	-12998
▁Meiriceáic	-12999
▁Motherwell	-13000
▁MórBhuaine	-13001
▁Olimpiacos	-13002
▁Pinsilváin	-13003
▁Sovcomflot	-13004
▁Zaanstreek	-13005
▁beartasóir	-13006
▁bóisealach	-13007
▁cabhrachán	-13008
▁ceannaíonn	-13009
▁chomhlacht	-13010
▁chothroman	-13011
▁hOstrálach	-13012
▁meiriceáic	-13013
▁réamhchóir	-13014
▁scríochadh	-13015
▁scríofaíní	-13016
▁solanaceae	-13017
▁spearálach	-13018
▁staidheann	-13019
▁stílíleach	-13020
▁tOmbudsman	-13021
▁tarchurtha	-13022
Uachtaránach	-13023
▁"0001-8392"	-13024
▁01-01-2000.	-13025
▁142603000.0	-13026
▁1932-07-27.	-13027
▁1939-01-03,	-13028
▁2006-12-31.	-13029
▁31.12.2006.	-13030
▁560937000.0	-13031
▁611961000.0	-13032
▁Alternative	-13033
▁Athchúrsála	-13034
▁Breithníodh	-13035
▁Cathairnais	-13036
▁Chomhaideam	-13037
▁Commelinids	-13038
▁Dhréachtadh	-13039
▁Nigeríreach	-13040
▁Preachtarán	-13041
▁Springfield	-13042
▁aimsitheoir	-13043
▁bhaithreach	-13044
▁bhfoilsíodh	-13045
▁bhféadfaidh	-13046
▁bhreisealaí	-13047
▁bhreitheadh	-13048
▁bhreithláir	-13049
▁bánbheacóin	-13050
▁chartreacht	-13051
▁deamhnamach	-13052
▁dtuaisceart	-13053
▁hOttománach	-13054
▁institiúidí	-13055
▁phéitónitis	-13056
▁príomlánach	-13057
▁sceidealach	-13058
▁tUachtaráin	-13059
▁"0-374-26131	-13060
▁139705000.0.	-13061
▁Americeánach	-13062
▁Filipíneacha	-13063
▁Mionartaithe	-13064
▁bphoicteacht	-13065
▁feabhaíochta	-13066
▁hIndonesáine	-13067
▁phobháideach	-13068
▁seirbhíníonn	-13069
▁shainisteoir	-13070
▁tarmhlachais	-13071
▁Bainistíochta	-13072
▁Dhainníochtaí	-13073
▁Seirbhíseofar	-13074
▁ceannaitheoir	-13075
▁cheannteideal	-13076
▁cumhachtaíonn	-13077
▁gcoinbhleacht	-13078
▁oibritheánach	-13079
▁283326000000.0	-13080
▁Arrondissement	-13081
▁Dnipropetrovsk	-13082
▁Zwanenburgbaan	-13083
▁comhioncromach	-13084
▁neamhfuaimeach	-13085
▁plandaitheacha	-13086
▁349206000000.0.	-13087
▁leictreictreach	-13088
▁príomhtháideach	-13089
";	-13090
);	-13091
..	-13092
34	-13093
5"	-13094
7"	-13095
87	-13096
9"	-13097
AZ	-13098
Af	-13099
IR	-13100
LK	-13101
Ro	-13102
cm	-13103
ty	-13104
tó	-13105
ws	-13106
▁‘	-13107
-19	-13108
.).	-13109
/08	-13110
/18	-13111
226	-13112
482	-13113
533	-13114
632	-13115
65.	-13116
70,	-13117
97.	-13118
982	-13119
ACM	-13120
Aig	-13121
Diy	-13122
Dra	-13123
ICE	-13124
Lan	-13125
Mer	-13126
Tao	-13127
aak	-13128
eer	-13129
emi	-13130
ery	-13131
gao	-13132
gór	-13133
ilä	-13134
inb	-13135
iog	-13136
ipy	-13137
lly	-13138
met	-13139
más	-13140
nas	-13141
nin	-13142
odó	-13143
raz	-13144
rit	-13145
rún	-13146
ser	-13147
tiú	-13148
uck	-13149
vár	-13150
ärt	-13151
éam	-13152
óna	-13153
úip	-13154
▁9,	-13155
▁Gm	-13156
▁Ih	-13157
▁JP	-13158
▁Km	-13159
▁Ko	-13160
▁Ni	-13161
▁PA	-13162
▁WI	-13163
▁XM	-13164
▁ZF	-13165
▁dT	-13166
▁dl	-13167
▁gm	-13168
▁má	-13169
▁Úc	-13170
-01.	-13171
-22.	-13172
-28.	-13173
/192	-13174
/201	-13175
/25.	-13176
/33.	-13177
1.2.	-13178
3.26	-13179
5.42	-13180
8.0.	-13181
953.	-13182
Fort	-13183
ISSN	-13184
Jear	-13185
Mark	-13186
Máit	-13187
aaki	-13188
aban	-13189
adeh	-13190
adán	-13191
akal	-13192
alph	-13193
ambo	-13194
aont	-13195
arle	-13196
arra	-13197
atak	-13198
ayne	-13199
back	-13200
bail	-13201
ciún	-13202
coff	-13203
deen	-13204
eene	-13205
ghan	-13206
iago	-13207
iceh	-13208
iger	-13209
iman	-13210
inzo	-13211
itar	-13212
kalb	-13213
kenh	-13214
léid	-13215
nard	-13216
oith	-13217
oorn	-13218
oste	-13219
ousi	-13220
rais	-13221
sair	-13222
scar	-13223
silä	-13224
uinn	-13225
unds	-13226
xton	-13227
óite	-13228
ósta	-13229
ótaí	-13230
údar	-13231
úine	-13232
▁"03	-13233
▁"05	-13234
▁"19	-13235
▁-8.	-13236
▁10.	-13237
▁14,	-13238
▁163	-13239
▁2.5	-13240
▁234	-13241
▁36,	-13242
▁469	-13243
▁64.	-13244
▁678	-13245
▁714	-13246
▁83.	-13247
▁925	-13248
▁ABI	-13249
▁ATW	-13250
▁Ach	-13251
▁Cel	-13252
▁Cód	-13253
▁Fos	-13254
▁Gem	-13255
▁Las	-13256
▁Lau	-13257
▁Lem	-13258
▁Nav	-13259
▁PAS	-13260
▁SCD	-13261
▁SLK	-13262
▁Sná	-13263
▁Sán	-13264
▁Tag	-13265
▁Tal	-13266
▁Top	-13267
▁Wir	-13268
▁dún	-13269
▁ego	-13270
▁ein	-13271
▁etc	-13272
▁fan	-13273
▁fis	-13274
▁fís	-13275
▁hua	-13276
▁ias	-13277
▁mio	-13278
▁púd	-13279
▁shu	-13280
▁éan	-13281
-07-1	-13282
-12-1	-13283
Cúirt	-13284
Diyos	-13285
Drake	-13286
Fylde	-13287
Metal	-13288
achim	-13289
angas	-13290
annta	-13291
anyon	-13292
bhain	-13293
easaí	-13294
eeney	-13295
eisiú	-13296
eoidh	-13297
eoise	-13298
fhíor	-13299
geadh	-13300
iseas	-13301
iteal	-13302
ithin	-13303
itner	-13304
iúint	-13305
liath	-13306
lónaí	-13307
mmerm	-13308
ninge	-13309
nóire	-13310
osain	-13311
reann	-13312
relly	-13313
respi	-13314
réire	-13315
sctha	-13316
stman	-13317
stáil	-13318
tanen	-13319
usage	-13320
uster	-13321
ánola	-13322
éarma	-13323
íníne	-13324
úirtí	-13325
▁0999	-13326
▁1,12	-13327
▁16/3	-13328
▁1793	-13329
▁1855	-13330
▁1878	-13331
▁1891	-13332
▁1960	-13333
▁2744	-13334
▁2777	-13335
▁28.0	-13336
▁3,99	-13337
▁404,	-13338
▁6.97	-13339
▁734.	-13340
▁765.	-13341
▁96.1	-13342
▁Aber	-13343
▁Beif	-13344
▁Braz	-13345
▁CDTE	-13346
▁Cels	-13347
▁Clud	-13348
▁Enge	-13349
▁Fear	-13350
▁Féil	-13351
▁Fíor	-13352
▁Germ	-13353
▁Iasc	-13354
▁Peña	-13355
▁Saos	-13356
▁Suim	-13357
▁Teil	-13358
▁Tory	-13359
▁Tosa	-13360
▁Wang	-13361
▁Wärt	-13362
▁Yemi	-13363
▁aeir	-13364
▁bhas	-13365
▁bhro	-13366
▁cait	-13367
▁choc	-13368
▁chos	-13369
▁chód	-13370
▁cili	-13371
▁cosc	-13372
▁cosm	-13373
▁cóir	-13374
▁dhla	-13375
▁dhío	-13376
▁dtús	-13377
▁foin	-13378
▁gcin	-13379
▁gclá	-13380
▁guit	-13381
▁hAIR	-13382
▁heic	-13383
▁hidr	-13384
▁iard	-13385
▁kmps	-13386
▁lagh	-13387
▁ligí	-13388
▁loga	-13389
▁maan	-13390
▁mhír	-13391
▁nAbh	-13392
▁nAla	-13393
▁nGru	-13394
▁paid	-13395
▁phol	-13396
▁pion	-13397
▁spri	-13398
▁súpa	-13399
▁tAid	-13400
▁tAmb	-13401
▁tUru	-13402
▁trád	-13403
-9327"	-13404
/1989.	-13405
0.0.0.	-13406
Orange	-13407
Spanol	-13408
abansa	-13409
achtas	-13410
ainéal	-13411
akalik	-13412
andesh	-13413
ations	-13414
bacóin	-13415
beacha	-13416
eleine	-13417
fhuill	-13418
fuaigh	-13419
heacht	-13420
iaróir	-13421
iaváin	-13422
illíne	-13423
inbajo	-13424
ineach	-13425
inseal	-13426
ipyard	-13427
istigh	-13428
lactha	-13429
namáin	-13430
ndiana	-13431
odhrán	-13432
odóipí	-13433
oifige	-13434
omharc	-13435
ostela	-13436
ragese	-13437
ruithe	-13438
rúdach	-13439
taithe	-13440
tearaí	-13441
városi	-13442
áinéas	-13443
áitinn	-13444
álaigh	-13445
éaradh	-13446
ómhair	-13447
▁"0002	-13448
▁09/27	-13449
▁11/29	-13450
▁16.54	-13451
▁184.0	-13452
▁1910.	-13453
▁1911,	-13454
▁1913)	-13455
▁1932)	-13456
▁1956,	-13457
▁1982,	-13458
▁19880	-13459
▁2000)	-13460
▁2002.	-13461
▁2013,	-13462
▁2016,	-13463
▁21.2.	-13464
▁306.0	-13465
▁600.0	-13466
▁733.0	-13467
▁8.500	-13468
▁9953.	-13469
▁Batak	-13470
▁Bhall	-13471
▁Bhóth	-13472
▁Cantù	-13473
▁Cello	-13474
▁Chlán	-13475
▁Chlúb	-13476
▁Cúipé	-13477
▁Cúrsa	-13478
▁Death	-13479
▁EISSN	-13480
▁Elkin	-13481
▁Fhuir	-13482
▁Fháil	-13483
▁Frews	-13484
▁Gauck	-13485
▁Heads	-13486
▁Heill	-13487
▁Ihaca	-13488
▁Inneá	-13489
▁Marta	-13490
▁Meáin	-13491
▁Mheam	-13492
▁Mheir	-13493
▁Payne	-13494
▁Phípi	-13495
▁Préig	-13496
▁Quinn	-13497
▁Ralph	-13498
▁Scile	-13499
▁Stéas	-13500
▁Tiger	-13501
▁Valor	-13502
▁Vuaim	-13503
▁aginn	-13504
▁bBall	-13505
▁banjo	-13506
▁beaga	-13507
▁bhard	-13508
▁cacún	-13509
▁choit	-13510
▁chruc	-13511
▁clárn	-13512
▁cósta	-13513
▁cúban	-13514
▁dhaon	-13515
▁dhéas	-13516
▁droch	-13517
▁dteag	-13518
▁díriú	-13519
▁feist	-13520
▁feofa	-13521
▁gSlan	-13522
▁gclúd	-13523
▁ghram	-13524
▁ligiú	-13525
▁maoir	-13526
▁mheal	-13527
▁padeh	-13528
▁rithh	-13529
▁slóis	-13530
▁tAinn	-13531
▁tAirí	-13532
▁tIosl	-13533
▁tTony	-13534
▁theip	-13535
▁tógóg	-13536
▁Éipip	-13537
Astérix	-13538
Merrikh	-13539
ainneas	-13540
aontóir	-13541
charest	-13542
eacháin	-13543
earnach	-13544
etrovir	-13545
iannáin	-13546
iantúil	-13547
iarthar	-13548
icheadh	-13549
kenhead	-13550
oneiche	-13551
permini	-13552
roicéid	-13553
ríomhch	-13554
ticiúil	-13555
táthair	-13556
Éilainn	-13557
áileáin	-13558
áineach	-13559
éimeach	-13560
íleataí	-13561
íreacha	-13562
óintach	-13563
ónaithe	-13564
▁03/21.	-13565
▁1.524.	-13566
▁1121.0	-13567
▁15/33.	-13568
▁185.42	-13569
▁192000	-13570
▁19255)	-13571
▁253.26	-13572
▁2989.0	-13573
▁64.008	-13574
▁Aeráid	-13575
▁Aeráit	-13576
▁Affair	-13577
▁Aontaí	-13578
▁Baíodh	-13579
▁Bheilt	-13580
▁Breman	-13581
▁Buxton	-13582
▁Canyon	-13583
▁Cearán	-13584
▁Celery	-13585
▁Chainé	-13586
▁Chúnas	-13587
▁Cluirb	-13588
▁Comhag	-13589
▁Crespi	-13590
▁Cóireá	-13591
▁Dekalb	-13592
▁Desoto	-13593
▁Discip	-13594
▁Déanta	-13595
▁Eolais	-13596
▁Fhoils	-13597
▁Forest	-13598
▁Foster	-13599
▁Fuaite	-13600
▁Fóthaí	-13601
▁Ghraig	-13602
▁Haarle	-13603
▁Kolóis	-13604
▁Leanna	-13605
▁Lemper	-13606
▁Ligiún	-13607
▁Mhaile	-13608
▁Mughan	-13609
▁Navajo	-13610
▁Oiféid	-13611
▁Pangas	-13612
▁Patter	-13613
▁Phréad	-13614
▁Prague	-13615
▁Rasher	-13616
▁Réimsí	-13617
▁Scóisc	-13618
▁Seasún	-13619
▁Serbia	-13620
▁Shinzo	-13621
▁Sipilä	-13622
▁Sports	-13623
▁Státha	-13624
▁Tanaka	-13625
▁Tógfar	-13626
▁aeráit	-13627
▁amharc	-13628
▁astron	-13629
▁astóid	-13630
▁baincí	-13631
▁bhFeis	-13632
▁bhargí	-13633
▁bharta	-13634
▁bhfian	-13635
▁bpobal	-13636
▁caiste	-13637
▁ceiste	-13638
▁cuspás	-13639
▁diosil	-13640
▁dollar	-13641
▁foirmi	-13642
▁foirra	-13643
▁gCeann	-13644
▁gCúige	-13645
▁gCúrsa	-13646
▁gcoith	-13647
▁ghnéim	-13648
▁ghnóir	-13649
▁hAtlas	-13650
▁iasann	-13651
▁kailín	-13652
▁luaite	-13653
▁meáile	-13654
▁mheath	-13655
▁mhoinn	-13656
▁mionta	-13657
▁muicil	-13658
▁muraic	-13659
▁pipéir	-13660
▁romane	-13661
▁romano	-13662
▁sairir	-13663
▁scnóid	-13664
▁socraí	-13665
▁spóirt	-13666
▁tStair	-13667
▁tabaré	-13668
▁taighd	-13669
▁teicir	-13670
▁tógann	-13671
▁uathsh	-13672
▁Úcráin	-13673
▁éigéid	-13674
▁éirith	-13675
236-5294	-13676
Ceannair	-13677
chlúdach	-13678
comhalta	-13679
fhéanadh	-13680
iceáilte	-13681
iontairí	-13682
lainnach	-13683
mirleach	-13684
mmermeer	-13685
ociación	-13686
oifigigh	-13687
ordaithe	-13688
raftsman	-13689
taineach	-13690
áscaithe	-13691
íníneach	-13692
úisteach	-13693
▁2776.0.	-13694
▁3360.12	-13695
▁45000.0	-13696
▁96.1632	-13697
▁Airteán	-13698
▁Amhróir	-13699
▁Bernard	-13700
▁Bhávara	-13701
▁Celsius	-13702
▁Charóin	-13703
▁Cornish	-13704
▁Country	-13705
▁Cúigéar	-13706
▁Dialann	-13707
▁Diliman	-13708
▁Duursem	-13709
▁Fallach	-13710
▁Gemmill	-13711
▁Gnóthaí	-13712
▁Grounds	-13713
▁Heileán	-13714
▁Japáine	-13715
▁Joachim	-13716
▁Ketchup	-13717
▁Maguire	-13718
▁Marousi	-13719
▁Martair	-13720
▁Martirí	-13721
▁Masaaki	-13722
▁Mathews	-13723
▁Philipe	-13724
▁Príomhb	-13725
▁Pudding	-13726
▁Ribcoff	-13727
▁Sausage	-13728
▁Seachas	-13729
▁Spánola	-13730
▁Sweeney	-13731
▁Sánchez	-13732
▁Thruinn	-13733
▁Treoraí	-13734
▁asphalt	-13735
▁asthéid	-13736
▁beartas	-13737
▁bhfhuis	-13738
▁caipíní	-13739
▁chabhrú	-13740
▁chláirí	-13741
▁chomhdh	-13742
▁cilebín	-13743
▁clúdach	-13744
▁dhuirge	-13745
▁dtugann	-13746
▁díolann	-13747
▁feabhas	-13748
▁gCanaid	-13749
▁gCúimse	-13750
▁gCúirtí	-13751
▁gcuirbe	-13752
▁ghníomh	-13753
▁ghranít	-13754
▁géineán	-13755
▁hioncam	-13756
▁luaithe	-13757
▁maiscot	-13758
▁nSuíomh	-13759
▁nasctha	-13760
▁phaimne	-13761
▁phianna	-13762
▁pláiste	-13763
▁réicéid	-13764
▁saorann	-13765
▁shainiú	-13766
▁shineál	-13767
▁stóráid	-13768
▁suasáin	-13769
▁tAidéid	-13770
▁tAigéid	-13771
▁tUdarás	-13772
▁theasaí	-13773
▁tháithe	-13774
▁uachtar	-13775
▁áireann	-13776
▁éagarth	-13777
Addiction	-13778
Mheiriceá	-13779
daonaithe	-13780
eabhracha	-13781
scaiteach	-13782
teangacha	-13783
▁1480153.	-13784
▁32024459	-13785
▁Aberdeen	-13786
▁Airíonna	-13787
▁Alphonse	-13788
▁Arsáiste	-13789
▁Bhallach	-13790
▁Bhatasal	-13791
▁Borrelly	-13792
▁Chláraid	-13793
▁Chóiteán	-13794
▁Chóstais	-13795
▁Coisteal	-13796
▁Coisteil	-13797
▁Cuireann	-13798
▁Examiner	-13799
▁Germania	-13800
▁Gerstman	-13801
▁Indiáine	-13802
▁Iomaíonn	-13803
▁Kológais	-13804
▁Laughlin	-13805
▁Luachais	-13806
▁Mathanna	-13807
▁Mheánáil	-13808
▁Miontála	-13809
▁Oirthear	-13810
▁Osinbajo	-13811
▁Santiago	-13812
▁Schuster	-13813
▁Shipyard	-13814
▁Sábhairí	-13815
▁Sínthpop	-13816
▁Tagartha	-13817
▁Taileáis	-13818
▁Teacsáis	-13819
▁Tionadaí	-13820
▁Warninge	-13821
▁Wirtanen	-13822
▁Wärtsilä	-13823
▁acústaic	-13824
▁baintear	-13825
▁bhaicéad	-13826
▁bhcáiste	-13827
▁bronnéis	-13828
▁chloinne	-13829
▁chosanta	-13830
▁choscail	-13831
▁chruiche	-13832
▁chéiméad	-13833
▁coinciún	-13834
▁coiteann	-13835
▁cuaillín	-13836
▁cuireann	-13837
▁dhréacht	-13838
▁dleabhar	-13839
▁dáileadh	-13840
▁fhéadfar	-13841
▁fíorainm	-13842
▁fónaíodh	-13843
▁gheineál	-13844
▁hEipipia	-13845
▁hEodóipí	-13846
▁hIndiáin	-13847
▁hUruéire	-13848
▁iompóirí	-13849
▁leanúint	-13850
▁leathach	-13851
▁mheasamh	-13852
▁nAlabama	-13853
▁nGruigia	-13854
▁ndéanann	-13855
▁phianóin	-13856
▁roghnadh	-13857
▁réicéada	-13858
▁saothrom	-13859
▁tAiléise	-13860
▁tIodáile	-13861
▁tOstaire	-13862
▁teaghrán	-13863
▁thaifead	-13864
▁tharchur	-13865
▁theannta	-13866
▁theasail	-13867
▁táirgthe	-13868
Ailícheann	-13869
aispeántar	-13870
akalikasan	-13871
ionadaithe	-13872
ionadaíodh	-13873
luicheanna	-13874
óinéiseach	-13875
▁1360-0443	-13876
▁1473-5571	-13877
▁318875313	-13878
▁78771100.	-13879
▁Airleacht	-13880
▁Airtearaí	-13881
▁Arscailte	-13882
▁Bainistiú	-13883
▁Benitoite	-13884
▁Breithiún	-13885
▁Bucharest	-13886
▁Caitheadh	-13887
▁Carragese	-13888
▁Catalóiní	-13889
▁Choritiba	-13890
▁Chóthairt	-13891
▁Fhiontair	-13892
▁Forrester	-13893
▁Gravesham	-13894
▁Iarscríbh	-13895
▁Indiúnais	-13896
▁Inuktitut	-13897
▁Ionáinéas	-13898
▁Jordanáin	-13899
▁Kashubais	-13900
▁Kolombach	-13901
▁Madeleine	-13902
▁Makabansa	-13903
▁Marthairí	-13904
▁Matchstix	-13905
▁Mhoinnimh	-13906
▁Piaraithe	-13907
▁Priontáil	-13908
▁Ríochtúil	-13909
▁Scéileadh	-13910
▁Seirbhigh	-13911
▁Sionadóin	-13912
▁Spórtpark	-13913
▁Tosnaíodh	-13914
▁achomharc	-13915
▁aicmeofar	-13916
▁ainmníonn	-13917
▁aistrithe	-13918
▁aitheanta	-13919
▁almaMater	-13920
▁bhíreofar	-13921
▁bliantúil	-13922
▁chluaiste	-13923
▁choiteamh	-13924
▁chothroim	-13925
▁cúbanelle	-13926
▁deimhnach	-13927
▁dhiméadar	-13928
▁dhíorthaí	-13929
▁feabhairí	-13930
▁feistithe	-13931
▁fhaithnid	-13932
▁frangipán	-13933
▁fuinneadh	-13934
▁féadfaidh	-13935
▁gSeoirsia	-13936
▁gcoireann	-13937
▁ghnóthais	-13938
▁hAraibíne	-13939
▁hIonracha	-13940
▁hOtómáine	-13941
▁leachtóir	-13942
▁marmhréid	-13943
▁meabhraim	-13944
▁meastóirí	-13945
▁oibrálach	-13946
▁phoblacht	-13947
▁pháileann	-13948
▁rithítear	-13949
▁réasghabh	-13950
▁shógaiste	-13951
▁stáisiúin	-13952
▁supermini	-13953
▁tArdhórsa	-13954
▁teicneach	-13955
ealaitheoir	-13956
ealaíontach	-13957
ordaitheoir	-13958
▁0025-5858.	-13959
▁179942000.	-13960
▁1800000000	-13961
▁1865-8784.	-13962
▁1959-01-01	-13963
▁2005-11-26	-13964
▁380700000.	-13965
▁Asociacion	-13966
▁Bhávaraigh	-13967
▁Birkenhead	-13968
▁Chraftsman	-13969
▁Comhaideam	-13970
▁Comhlánadh	-13971
▁Comhpháirt	-13972
▁Compostela	-13973
▁Connection	-13974
▁Copenhagán	-13975
▁Cádáideach	-13976
▁Disciplíne	-13977
▁Ghearchéim	-13978
▁Inneoiseas	-13979
▁Ionadaíodh	-13980
▁Kolombáine	-13981
▁Leannaíonn	-13982
▁Mheabhréid	-13983
▁Mhoinimhne	-13984
▁Mhuillteán	-13985
▁Schoneiche	-13986
▁Uachtarach	-13987
▁Uachtaráin	-13988
▁Vermicelli	-13989
▁aithnítear	-13990
▁bhraimsigh	-13991
▁cabhachtas	-13992
▁cabhraithe	-13993
▁chairimsiú	-13994
▁comhlactha	-13995
▁doicneacht	-13996
▁easpórtóir	-13997
▁fhoibrithe	-13998
▁ghiothaoir	-13999
▁hAigintíne	-14000
▁hAirteanna	-14001
▁imirceoirí	-14002
▁láimhriúil	-14003
▁mheathróip	-14004
▁mhoinimhne	-14005
▁mhonraíonn	-14006
▁muicníocht	-14007
▁pháisteoir	-14008
▁reoillithe	-14009
▁ríomháilte	-14010
▁smearnóire	-14011
▁staireacha	-14012
▁tharraingt	-14013
▁thoirtheas	-14014
▁uachtarach	-14015
eobiolaíocht	-14016
▁"0002-9327"	-14017
▁0-439-92550	-14018
▁01-01-1913,	-14019
▁01-01-1913.	-14020
▁08-16-1920.	-14021
▁10264000000	-14022
▁15100000000	-14023
▁1896-02-01,	-14024
▁1907-07-11)	-14025
▁1932-03-15)	-14026
▁1980-04-23.	-14027
▁2009-04-04.	-14028
▁2014-10-28.	-14029
▁380,700000.	-14030
▁69862200.0,	-14031
▁Asociazione	-14032
▁Fleamannach	-14033
▁Oibríochtaí	-14034
▁Parlaiminte	-14035
▁Scóiscainne	-14036
▁Tamilíleach	-14037
▁Thoirtheart	-14038
▁bhruinneadh	-14039
▁chineachtar	-14040
▁daonlathach	-14041
▁ealaíontóra	-14042
▁fhaisnítear	-14043
▁freastalach	-14044
▁gCuideachta	-14045
▁gcoibhneach	-14046
▁ghinearálta	-14047
▁hIodáileach	-14048
▁leictreacha	-14049
▁metropolait	-14050
▁mhaitheanna	-14051
▁mhoinnimhne	-14052
▁ollscoileán	-14053
▁ordaitheach	-14054
▁príomhthéan	-14055
▁sraitheoirí	-14056
▁stílisteach	-14057
▁tAirneachta	-14058
▁tionscnaigh	-14059
▁142603000.0.	-14060
▁439-92550-9.	-14061
▁Cheathrúchán	-14062
▁Cheathrúdúil	-14063
▁Ferencvárosi	-14064
▁Javanéiseach	-14065
▁Logóireachta	-14066
▁Mhaiséiseach	-14067
▁Portaingéile	-14068
▁Publications	-14069
▁Saorlathóirí	-14070
▁Saothrachais	-14071
▁ceithreagair	-14072
▁inbhuanaithe	-14073
▁príomhghrúpa	-14074
▁trombóiniste	-14075
▁0-439-17685-9	-14076
▁29919600000.0	-14077
▁41498400000.0	-14078
▁8788850000.0,	-14079
▁88234300000.0	-14080
▁Chothrochtain	-14081
▁Cludiomaccone	-14082
▁Inneálaíochta	-14083
▁Makakalikasan	-14084
▁Phillipíneach	-14085
▁bhFreabhaisín	-14086
▁bhfochainnach	-14087
▁chomhracaithe	-14088
▁ghearrthaíodh	-14089
▁metropóilteán	-14090
▁monocotyledon	-14091
▁"0-374-26131-8	-14092
▁Bhainistíochta	-14093
▁Haarlemmermeer	-14094
▁inbhreithnithe	-14095
▁meathróipolait	-14096
▁sheirbhínítear	-14097
▁tarmhailiúnais	-14098
▁éaghréireachta	-14099
▁soghluaisteacha	-14100
',	-14101
//	-14102
16	-14103
1;	-14104
28	-14105
35	-14106
6)	-14107
Ak	-14108
CQ	-14109
Ch	-14110
Fh	-14111
Fo	-14112
VI	-14113
ZF	-14114
dc	-14115
fá	-14116
ni	-14117
to	-14118
tă	-14119
ww	-14120
▁j	-14121
-08	-14122
/09	-14123
/1,	-14124
/10	-14125
/19	-14126
102	-14127
434	-14128
678	-14129
72.	-14130
://	-14131
;",	-14132
ACY	-14133
Ajo	-14134
Cam	-14135
Don	-14136
Dre	-14137
EAT	-14138
Eng	-14139
Liv	-14140
New	-14141
Sol	-14142
aku	-14143
bhe	-14144
bro	-14145
caí	-14146
duo	-14147
eav	-14148
eik	-14149
fág	-14150
gov	-14151
her	-14152
hro	-14153
ior	-14154
kau	-14155
lex	-14156
loo	-14157
lua	-14158
mad	-14159
oly	-14160
ool	-14161
oph	-14162
ród	-14163
top	-14164
ttp	-14165
tír	-14166
tóg	-14167
ury	-14168
viy	-14169
wic	-14170
www	-14171
yed	-14172
âne	-14173
íle	-14174
öke	-14175
úla	-14176
▁67	-14177
▁Aq	-14178
▁Bă	-14179
▁CF	-14180
▁CT	-14181
▁Di	-14182
▁Ea	-14183
▁Gá	-14184
▁Lú	-14185
▁MO	-14186
▁Mk	-14187
▁Ré	-14188
▁VW	-14189
▁ab	-14190
▁bi	-14191
▁cc	-14192
▁hp	-14193
▁ma	-14194
▁nN	-14195
/193	-14196
/194	-14197
/199	-14198
/30.	-14199
0473	-14200
12.3	-14201
4434	-14202
6-09	-14203
637.	-14204
AZAL	-14205
Fhor	-14206
Gear	-14207
Jord	-14208
OCLC	-14209
Sean	-14210
Sque	-14211
VIAG	-14212
Wash	-14213
abau	-14214
ahan	-14215
anao	-14216
anga	-14217
angk	-14218
arpa	-14219
bany	-14220
bler	-14221
bóin	-14222
cloc	-14223
dúil	-14224
eict	-14225
enko	-14226
enne	-14227
ever	-14228
ezed	-14229
gair	-14230
gíor	-14231
góir	-14232
hran	-14233
iasc	-14234
illt	-14235
ilod	-14236
ilse	-14237
inae	-14238
iosc	-14239
iots	-14240
itat	-14241
itol	-14242
kaus	-14243
late	-14244
líth	-14245
mhar	-14246
náth	-14247
odán	-14248
ofdc	-14249
oirs	-14250
radi	-14251
ráis	-14252
serv	-14253
taor	-14254
taró	-14255
thin	-14256
tine	-14257
tioc	-14258
tiúr	-14259
ture	-14260
uisc	-14261
utag	-14262
áras	-14263
úide	-14264
▁"0-	-14265
▁"15	-14266
▁"87	-14267
▁(18	-14268
▁-7,	-14269
▁032	-14270
▁08,	-14271
▁130	-14272
▁177	-14273
▁214	-14274
▁293	-14275
▁3.0	-14276
▁38.	-14277
▁395	-14278
▁524	-14279
▁618	-14280
▁64,	-14281
▁8.0	-14282
▁Aca	-14283
▁BCE	-14284
▁Dos	-14285
▁Duš	-14286
▁Eic	-14287
▁FSV	-14288
▁Fin	-14289
▁Iod	-14290
▁Lag	-14291
▁Meá	-14292
▁Nós	-14293
▁Pás	-14294
▁Raf	-14295
▁Raj	-14296
▁Rút	-14297
▁Shu	-14298
▁Vin	-14299
▁Von	-14300
▁Yam	-14301
▁adh	-14302
▁crí	-14303
▁cún	-14304
▁dea	-14305
▁dte	-14306
▁dís	-14307
▁fao	-14308
▁fos	-14309
▁fré	-14310
▁gSt	-14311
▁gcu	-14312
▁gcé	-14313
▁gio	-14314
▁hAr	-14315
▁kur	-14316
▁lús	-14317
▁mis	-14318
▁orm	-14319
▁phá	-14320
▁scá	-14321
-03-1	-14322
-130,	-14323
12400	-14324
5.33.	-14325
75-03	-14326
Acoil	-14327
Aenir	-14328
Akron	-14329
Dodge	-14330
Eatam	-14331
Engle	-14332
North	-14333
acios	-14334
aipis	-14335
alann	-14336
allon	-14337
amhar	-14338
anila	-14339
athrú	-14340
atory	-14341
betti	-14342
bharc	-14343
bhuan	-14344
bróir	-14345
ceann	-14346
dóidh	-14347
eagán	-14348
eamhr	-14349
eaptă	-14350
earla	-14351
ecial	-14352
eicme	-14353
eoirí	-14354
ersea	-14355
ether	-14356
fheir	-14357
ghamp	-14358
iféin	-14359
ileán	-14360
ilipe	-14361
imice	-14362
iseán	-14363
iyéid	-14364
iúnal	-14365
lasse	-14366
liiga	-14367
maigh	-14368
mharc	-14369
neadh	-14370
ochta	-14371
ockey	-14372
onadh	-14373
onnas	-14374
opert	-14375
opher	-14376
opóip	-14377
páirt	-14378
pásca	-14379
smash	-14380
stáit	-14381
taoil	-14382
teurs	-14383
thach	-14384
thadh	-14385
theil	-14386
usach	-14387
▁0068	-14388
▁0252	-14389
▁1472	-14390
▁168"	-14391
▁1873	-14392
▁1948	-14393
▁1972	-14394
▁200.	-14395
▁2439	-14396
▁2953	-14397
▁330.	-14398
▁3301	-14399
▁3678	-14400
▁6.81	-14401
▁657,	-14402
▁714.	-14403
▁770,	-14404
▁8.0.	-14405
▁8002	-14406
▁806.	-14407
▁82.8	-14408
▁8388	-14409
▁Atty	-14410
▁Chlé	-14411
▁Coat	-14412
▁Cumh	-14413
▁Dean	-14414
▁Doom	-14415
▁Einh	-14416
▁Eyed	-14417
▁Foir	-14418
▁Folk	-14419
▁Good	-14420
▁High	-14421
▁Inne	-14422
▁KACY	-14423
▁Kota	-14424
▁Lesh	-14425
▁Léig	-14426
▁Löke	-14427
▁Maor	-14428
▁Maur	-14429
▁Meas	-14430
▁Mest	-14431
▁Mind	-14432
▁Minn	-14433
▁Peas	-14434
▁Rest	-14435
▁Ring	-14436
▁Réal	-14437
▁SEAT	-14438
▁Scag	-14439
▁Seos	-14440
▁Sess	-14441
▁Slán	-14442
▁Sula	-14443
▁Suov	-14444
▁Topc	-14445
▁Veik	-14446
▁Vísv	-14447
▁Weav	-14448
▁Zwic	-14449
▁aigé	-14450
▁aman	-14451
▁beal	-14452
▁bhfo	-14453
▁bóth	-14454
▁cart	-14455
▁ceap	-14456
▁coid	-14457
▁cost	-14458
▁cóis	-14459
▁cóta	-14460
▁cúil	-14461
▁diam	-14462
▁dtár	-14463
▁fíor	-14464
▁físe	-14465
▁hion	-14466
▁hÉip	-14467
▁hÍos	-14468
▁iloc	-14469
▁lamh	-14470
▁lath	-14471
▁lira	-14472
▁mhal	-14473
▁mion	-14474
▁orth	-14475
▁pean	-14476
▁peso	-14477
▁phal	-14478
▁ráta	-14479
▁réir	-14480
▁saom	-14481
▁sinc	-14482
▁sios	-14483
▁sásc	-14484
▁síos	-14485
▁tSir	-14486
▁thom	-14487
▁tuir	-14488
▁verm	-14489
▁Úrag	-14490
/1987.	-14491
000823	-14492
AAIDBI	-14493
Cambus	-14494
Donald	-14495
agamie	-14496
aideal	-14497
aighde	-14498
aitear	-14499
arradh	-14500
ascoil	-14501
astóin	-14502
change	-14503
déanta	-14504
eabank	-14505
ealann	-14506
eamach	-14507
eantas	-14508
eapach	-14509
eisean	-14510
ennedy	-14511
erback	-14512
fheola	-14513
hammad	-14514
iciúla	-14515
idráil	-14516
ilodon	-14517
inense	-14518
ineáil	-14519
iompar	-14520
iteann	-14521
iítear	-14522
ladóir	-14523
lasaic	-14524
leanna	-14525
mheall	-14526
oraigh	-14527
ormáid	-14528
oslóir	-14529
rachaí	-14530
raibis	-14531
rituta	-14532
roimse	-14533
ríosca	-14534
scrúde	-14535
strail	-14536
teoirí	-14537
uilino	-14538
éadadh	-14539
íneíní	-14540
íonadh	-14541
íorach	-14542
íseach	-14543
ógairt	-14544
ótóire	-14545
▁07/23	-14546
▁09/22	-14547
▁1,121	-14548
▁1,533	-14549
▁1080.	-14550
▁11.35	-14551
▁11/08	-14552
▁1411.	-14553
▁16/34	-14554
▁168.0	-14555
▁171.0	-14556
▁179.0	-14557
▁1793,	-14558
▁18.09	-14559
▁1857,	-14560
▁1872.	-14561
▁1873.	-14562
▁1878.	-14563
▁1910,	-14564
▁1921.	-14565
▁1925.	-14566
▁1979,	-14567
▁1990,	-14568
▁2011,	-14569
▁258.0	-14570
▁3,990	-14571
▁30/05	-14572
▁3800.	-14573
▁597.0	-14574
▁6.97%	-14575
▁66391	-14576
▁686.0	-14577
▁746.0	-14578
▁755.3	-14579
▁7637.	-14580
▁900.0	-14581
▁9000,	-14582
▁Apium	-14583
▁Arepa	-14584
▁Bakou	-14585
▁Balan	-14586
▁Balls	-14587
▁Baron	-14588
▁Blanc	-14589
▁Bruce	-14590
▁Bátha	-14591
▁Bălan	-14592
▁Ceirí	-14593
▁Chath	-14594
▁Cuimh	-14595
▁Cúlra	-14596
▁Daram	-14597
▁Deher	-14598
▁EPSTH	-14599
▁Falsc	-14600
▁Feill	-14601
▁Fight	-14602
▁Flate	-14603
▁Gineo	-14604
▁Glass	-14605
▁Gábor	-14606
▁Hocht	-14607
▁Hogao	-14608
▁Lucky	-14609
▁Løkei	-14610
▁Meirí	-14611
▁Outag	-14612
▁Palas	-14613
▁Pedas	-14614
▁Plack	-14615
▁Ranna	-14616
▁Roman	-14617
▁Róque	-14618
▁Scrip	-14619
▁South	-14620
▁Théil	-14621
▁Water	-14622
▁Wever	-14623
▁Zambo	-14624
▁aarpa	-14625
▁alter	-14626
▁baita	-14627
▁bhaif	-14628
▁bharm	-14629
▁bhlán	-14630
▁bhras	-14631
▁bhíne	-14632
▁binig	-14633
▁breis	-14634
▁clúbe	-14635
▁crime	-14636
▁cuimh	-14637
▁cóise	-14638
▁cúrsa	-14639
▁deaim	-14640
▁diana	-14641
▁diosl	-14642
▁dlúns	-14643
▁dlúth	-14644
▁eacht	-14645
▁foimh	-14646
▁fúine	-14647
▁gCadá	-14648
▁gcath	-14649
▁gcoim	-14650
▁ghlas	-14651
▁glúis	-14652
▁hOtta	-14653
▁leigh	-14654
▁maire	-14655
▁meirg	-14656
▁mhair	-14657
▁mhala	-14658
▁mucla	-14659
▁pionc	-14660
▁ritim	-14661
▁roicé	-14662
▁scrío	-14663
▁soisí	-14664
▁spéal	-14665
▁suímh	-14666
▁sármh	-14667
▁sární	-14668
▁thian	-14669
▁tráth	-14670
▁Áitín	-14671
000000,	-14672
25-5858	-14673
Jerseoí	-14674
Jorcail	-14675
Lambien	-14676
Lancach	-14677
Livorno	-14678
Obhléal	-14679
Obhléid	-14680
aileach	-14681
aingéil	-14682
bhreith	-14683
bulspor	-14684
chanics	-14685
eachtaí	-14686
eamaire	-14687
eamáine	-14688
inseach	-14689
insealy	-14690
ionadaí	-14691
lathach	-14692
líonadh	-14693
oileann	-14694
ordúirí	-14695
osaintí	-14696
pudding	-14697
racáine	-14698
reagadh	-14699
reoiste	-14700
rothair	-14701
ticeach	-14702
viyenko	-14703
áiltear	-14704
áireach	-14705
áiseach	-14706
íolíodh	-14707
▁0.0473	-14708
▁12/30.	-14709
▁140000	-14710
▁1533.0	-14711
▁1800.0	-14712
▁184434	-14713
▁2744.0	-14714
▁3400.0	-14715
▁4000.0	-14716
▁4100.0	-14717
▁45000.	-14718
▁497.0.	-14719
▁597.0.	-14720
▁63800.	-14721
▁64,008	-14722
▁900.0.	-14723
▁Aideam	-14724
▁Araibí	-14725
▁Baling	-14726
▁Barney	-14727
▁Bealaí	-14728
▁Bhainc	-14729
▁Bhinle	-14730
▁Chónaí	-14731
▁Citrus	-14732
▁Fheith	-14733
▁Gardaí	-14734
▁Gineal	-14735
▁Hockey	-14736
▁Hoofdc	-14737
▁Hunter	-14738
▁Mhearr	-14739
▁Nether	-14740
▁Nuairí	-14741
▁Observ	-14742
▁Panama	-14743
▁Phléas	-14744
▁Rogadh	-14745
▁Rúnach	-14746
▁School	-14747
▁Sement	-14748
▁Seoidh	-14749
▁Seoirs	-14750
▁Stairg	-14751
▁Stádas	-14752
▁Stádio	-14753
▁Stáire	-14754
▁Syntop	-14755
▁Taifid	-14756
▁Talaba	-14757
▁Tallon	-14758
▁Tehran	-14759
▁Uruéag	-14760
▁Vinoly	-14761
▁Yamand	-14762
▁bPáirt	-14763
▁bPáras	-14764
▁bhaill	-14765
▁bhfios	-14766
▁bhroin	-14767
▁caipip	-14768
▁ceannt	-14769
▁cheáin	-14770
▁chloch	-14771
▁cúpála	-14772
▁dearán	-14773
▁dhéimh	-14774
▁dhíche	-14775
▁dochth	-14776
▁dseoil	-14777
▁dúncha	-14778
▁eartán	-14779
▁eonach	-14780
▁ephoch	-14781
▁fhaill	-14782
▁fheoil	-14783
▁fhoigh	-14784
▁foilse	-14785
▁gSonra	-14786
▁gceang	-14787
▁gcluch	-14788
▁gheasa	-14789
▁gheasc	-14790
▁ghréir	-14791
▁hOtóta	-14792
▁lámhán	-14793
▁maocha	-14794
▁marbán	-14795
▁mheall	-14796
▁mheoil	-14797
▁muicní	-14798
▁pheith	-14799
▁phoint	-14800
▁pháile	-14801
▁riteas	-14802
▁rithim	-14803
▁roiscí	-14804
▁soláth	-14805
▁spáinn	-14806
▁tSalam	-14807
▁tSeirg	-14808
▁tStiúr	-14809
▁téarma	-14810
▁vótáil	-14811
▁áirigh	-14812
▁éanach	-14813
▁éiridh	-14814
Ghabháil	-14815
Michigan	-14816
Squeezed	-14817
aillithe	-14818
ainneola	-14819
angkabau	-14820
cheadail	-14821
eolaíoch	-14822
gearrtha	-14823
ghampara	-14824
ibearáin	-14825
illinois	-14826
nitheach	-14827
oirtheas	-14828
operties	-14829
oscailte	-14830
racleoir	-14831
reastáil	-14832
stitúide	-14833
táineach	-14834
uinneamh	-14835
áireacht	-14836
▁0236-52	-14837
▁125800.	-14838
▁1461102	-14839
▁165.33.	-14840
▁1856-09	-14841
▁1875-03	-14842
▁1974-08	-14843
▁2744.0.	-14844
▁3078.48	-14845
▁3712400	-14846
▁3992.88	-14847
▁4387.00	-14848
[...]
