<unk>	0
<s>	0
</s>	0
ta	-0
▁ta	-1
an	-2
ti	-3
▁f	-4
▁A	-5
li	-6
er	-7
▁m	-8
in	-9
il	-10
▁h	-11
ja	-12
on	-13
ar	-14
en	-15
wa	-16
▁tal	-17
▁l	-18
▁hu	-19
▁u	-20
għ	-21
el	-22
▁huwa	-23
or	-24
ru	-25
▁I	-26
is	-27
al	-28
ni	-29
et	-30
ija	-31
▁L	-32
▁k	-33
▁li	-34
ed	-35
▁S	-36
▁j	-37
and	-38
ra	-39
es	-40
▁M	-41
ol	-42
ik	-43
sa	-44
it	-45
▁għ	-46
sta	-47
em	-48
ej	-49
at	-50
▁fl	-51
▁hija	-52
▁B	-53
Uni	-54
▁C	-55
▁Al	-56
am	-57
ill	-58
▁1	-59
▁Il	-60
▁t	-61
▁p	-62
▁Uni	-63
▁fil	-64
Ista	-65
as	-66
▁jin	-67
▁R	-68
ma	-69
ien	-70
▁il	-71
▁b	-72
sab	-73
▁mill	-74
▁Uniti	-75
Istati	-76
▁D	-77
zz	-78
ur	-79
▁T	-80
ex	-81
wi	-82
▁kien	-83
ew	-84
▁għand	-85
inn	-86
▁P	-87
▁minn	-88
jon	-89
▁F	-90
ad	-91
▁ti	-92
un	-93
ri	-94
pp	-95
ha	-96
▁s	-97
00	-98
▁J	-99
re	-100
▁W	-101
▁H	-102
▁jinsab	-103
ul	-104
arti	-105
ers	-106
ub	-107
nd	-108
ro	-109
▁G	-110
id	-111
ali	-112
ent	-113
▁d	-114
us	-115
-1	-116
om	-117
ch	-118
▁N	-119
exx	-120
ell	-121
ejn	-122
zzjon	-123
wiel	-124
na	-125
ka	-126
ing	-127
wieled	-128
ir	-129
te	-130
▁fejn	-131
ort	-132
ani	-133
ika	-134
ba	-135
mexx	-136
ng	-137
um	-138
st	-139
▁K	-140
▁ġ	-141
jru	-142
all	-143
iż	-144
▁2	-145
port	-146
▁twieled	-147
ju	-148
po	-149
ita	-150
▁għandu	-151
egħ	-152
▁ma	-153
▁V	-154
▁huma	-155
mer	-156
uż	-157
im	-158
ic	-159
ut	-160
▁E	-161
ac	-162
oll	-163
ter	-164
ab	-165
emb	-166
▁O	-167
▁(	-168
ot	-169
egħu	-170
▁tiegħu	-171
ak	-172
jruport	-173
onte	-174
▁ħ	-175
▁għandha	-176
mexxej	-177
embru	-178
ala	-179
ek	-180
ata	-181
▁Ab	-182
▁19	-183
Konte	-184
▁parti	-185
iet	-186
zzjoni	-187
ku	-188
ċi	-189
ità	-190
rupp	-191
ili	-192
grupp	-193
▁bħ	-194
▁In	-195
ton	-196
▁’	-197
pa	-198
ud	-199
▁Ad	-200
op	-201
Amer	-202
res	-203
pan	-204
elt	-205
red	-206
ran	-207
▁bħala	-208
kl	-209
ini	-210
0.	-211
ie	-212
os	-213
ana	-214
io	-215
-19	-216
ett	-217
-2	-218
▁tin	-219
Ajruport	-220
▁tat	-221
▁muż	-222
ib	-223
va	-224
▁għall	-225
ċja	-226
iss	-227
stab	-228
vers	-229
ia	-230
▁And	-231
▁New	-232
art	-233
zzjonali	-234
▁et	-235
▁etni	-236
ist	-237
jj	-238
ff	-239
belt	-240
▁Ch	-241
▁tagħ	-242
he	-243
vi	-244
uq	-245
od	-246
eg	-247
ey	-248
iġ	-249
za	-250
Ind	-251
so	-252
ikan	-253
ig	-254
koll	-255
etru	-256
▁membru	-257
ola	-258
add	-259
att	-260
ov	-261
▁Aar	-262
▁Ro	-263
▁fi	-264
▁Mar	-265
jjiż	-266
▁għal	-267
ess	-268
01	-269
▁n	-270
▁tinsab	-271
enti	-272
pita	-273
▁fit	-274
ara	-275
Is	-276
▁im	-277
▁3	-278
la	-279
ant	-280
ġġ	-281
bli	-282
ura	-283
Univers	-284
le	-285
ert	-286
ling	-287
▁Alb	-288
▁magħ	-289
▁Re	-290
▁Ar	-291
nazzjonali	-292
pital	-293
ard	-294
Università	-295
ina	-296
kapital	-297
ond	-298
ip	-299
lan	-300
lin	-301
▁Ak	-302
tan	-303
sh	-304
oriġ	-305
▁10	-306
era	-307
redj	-308
kar	-309
ay	-310
son	-311
ow	-312
▁Inter	-313
ingredj	-314
ce	-315
klub	-316
ash	-317
iv	-318
end	-319
ubbli	-320
▁fuq	-321
Al	-322
▁Alan	-323
way	-324
ck	-325
▁Jo	-326
kell	-327
ena	-328
orn	-329
▁Span	-330
63	-331
post	-332
▁tagħha	-333
▁200	-334
urn	-335
hn	-336
tal	-337
▁mużika	-338
Ing	-339
▁5	-340
▁mal	-341
tic	-342
pajjiż	-343
mani	-344
Amerikan	-345
▁Anders	-346
tit	-347
▁ġej	-348
▁jind	-349
▁etniku	-350
iku	-351
ord	-352
av	-353
ge	-354
▁jindika	-355
mar	-356
▁Internazzjonali	-357
ington	-358
▁is	-359
joni	-360
ham	-361
illi	-362
▁At	-363
ue	-364
essa	-365
▁r	-366
▁km	-367
▁Aaron	-368
ens	-369
ħed	-370
reġ	-371
-3	-372
lingwa	-373
atti	-374
▁w	-375
resid	-376
ervi	-377
iana	-378
lu	-379
▁a	-380
ħar	-381
▁ik	-382
▁Y	-383
ama	-384
▁Ind	-385
▁v	-386
co	-387
atur	-388
liż	-389
Tessa	-390
Tessas	-391
▁grupp	-392
eda	-393
con	-394
isem	-395
land	-396
ashington	-397
ico	-398
▁ħadd	-399
iċ	-400
olo	-401
▁Alf	-402
▁0	-403
mu	-404
eli	-405
▁wi	-406
wad	-407
6.	-408
eħed	-409
▁wieħed	-410
▁ħaddem	-411
ark	-412
hom	-413
▁tar	-414
000	-415
ore	-416
▁in	-417
ari	-418
ilom	-419
▁An	-420
ikani	-421
jat	-422
▁metru	-423
ista	-424
▁It	-425
▁4	-426
wer	-427
▁it	-428
umru	-429
ris	-430
soċja	-431
▁tas	-432
pe	-433
ack	-434
ire	-435
ork	-436
Ar	-437
▁ukoll	-438
len	-439
▁Adam	-440
ong	-441
ġen	-442
▁Washington	-443
▁ġie	-444
eor	-445
FC	-446
▁ħa	-447
alif	-448
ment	-449
Ingliż	-450
▁Amer	-451
▁Am	-452
8.	-453
onn	-454
ob	-455
ern	-456
eni	-457
ass	-458
▁kienet	-459
resident	-460
jun	-461
żi	-462
▁id	-463
hm	-464
ona	-465
▁Fran	-466
ag	-467
ya	-468
mexxija	-469
oriġina	-470
ss	-471
eks	-472
tiku	-473
run	-474
ajruport	-475
tub	-476
runway	-477
bur	-478
▁q	-479
▁Mad	-480
Kalif	-481
▁Aleks	-482
bili	-483
ok	-484
of	-485
one	-486
oli	-487
▁as	-488
▁John	-489
▁St	-490
enju	-491
rew	-492
▁kwad	-493
per	-494
Renju	-495
▁ew	-496
000.	-497
da	-498
ou	-499
▁pro	-500
ID	-501
xx	-502
liv	-503
dis	-504
jan	-505
etta	-506
▁York	-507
stabbili	-508
utb	-509
ipp	-510
ap	-511
▁Unit	-512
▁Spanja	-513
4.	-514
▁Af	-515
gra	-516
▁Alex	-517
una	-518
▁FC	-519
ruf	-520
▁stabbili	-521
tar	-522
▁di	-523
▁Marti	-524
▁ja	-525
▁Martin	-526
tad	-527
livell	-528
pubbli	-529
epo	-530
sin	-531
▁per	-532
▁etniċi	-533
▁joriġina	-534
pr	-535
ont	-536
baħar	-537
rin	-538
▁Alfred	-539
New	-540
emm	-541
are	-542
▁II	-543
▁fis	-544
ilipp	-545
umpan	-546
reġjun	-547
Ital	-548
▁mir	-549
▁Albert	-550
▁Z	-551
ras	-552
ich	-553
man	-554
ry	-555
▁jinstab	-556
Italja	-557
ji	-558
ity	-559
if	-560
eb	-561
▁ro	-562
uss	-563
▁Aleksand	-564
pop	-565
▁mil	-566
gna	-567
ingredjent	-568
aw	-569
Indja	-570
oper	-571
▁jit	-572
illiam	-573
▁fir	-574
ee	-575
▁magħruf	-576
▁Is	-577
At	-578
▁Co	-579
umpanija	-580
2.	-581
tin	-582
▁William	-583
Istat	-584
gruppi	-585
werra	-586
▁Bak	-587
hus	-588
rit	-589
ema	-590
est	-591
utbol	-592
adem	-593
ston	-594
mul	-595
waq	-596
ords	-597
sti	-598
Filipp	-599
▁wkoll	-600
▁magħmul	-601
ersey	-602
▁Jersey	-603
▁assoċja	-604
5.	-605
ġer	-606
▁mexx	-607
rat	-608
▁11	-609
ejja	-610
Filippini	-611
dul	-612
amp	-613
kat	-614
▁Atlan	-615
▁Abdul	-616
jiet	-617
unta	-618
numru	-619
As	-620
▁kwadru	-621
jani	-622
lues	-623
iktub	-624
eem	-625
ollo	-626
▁City	-627
▁Akeem	-628
rid	-629
▁Ma	-630
du	-631
▁7	-632
▁pa	-633
maniġer	-634
▁ċ	-635
▁Id	-636
oneż	-637
jet	-638
▁jitkell	-639
enn	-640
▁tad	-641
▁kilom	-642
9.	-643
▁Ċ	-644
▁Sp	-645
▁Andrew	-646
▁Ald	-647
itett	-648
burg	-649
nolo	-650
own	-651
Ba	-652
▁‘	-653
ath	-654
ornja	-655
app	-656
Kalifornja	-657
urk	-658
▁ikla	-659
muż	-660
1.	-661
▁mmexxija	-662
pl	-663
artit	-664
Ajru	-665
ċċ	-666
isa	-667
van	-668
enza	-669
▁Bu	-670
634	-671
tion	-672
▁Aarhus	-673
ingredjenti	-674
▁Jon	-675
jod	-676
▁De	-677
55	-678
▁201	-679
▁ingredjent	-680
3.	-681
ann	-682
ġja	-683
futbol	-684
udi	-685
▁ir	-686
▁ġiet	-687
oy	-688
▁Mon	-689
▁Ġ	-690
▁Tek	-691
▁miktub	-692
64	-693
▁Afr	-694
noloġ	-695
rem	-696
ewt	-697
jonali	-698
iċembru	-699
que	-700
▁of	-701
kk	-702
▁ewlen	-703
▁6	-704
▁Na	-705
oċ	-706
▁25	-707
▁epo	-708
ene	-709
7.	-710
olazzjoni	-711
eww	-712
jetà	-713
Ġeor	-714
▁imwieled	-715
▁st	-716
attiv	-717
ota	-718
▁Rec	-719
Ġeorġja	-720
▁Wh	-721
oc	-722
▁Bar	-723
ittad	-724
exas	-725
).	-726
arth	-727
gh	-728
▁8	-729
ang	-730
acon	-731
ċjali	-732
00.	-733
▁oper	-734
prjetà	-735
eloċ	-736
eloċità	-737
▁Ag	-738
ella	-739
żona	-740
Indoneż	-741
ittadin	-742
▁assoċjat	-743
char	-744
▁Records	-745
▁Diċembru	-746
▁Anderson	-747
ite	-748
unt	-749
▁Inf	-750
▁Man	-751
▁kul	-752
iċi	-753
olf	-754
President	-755
▁Abra	-756
tul	-757
ħadd	-758
▁Mend	-759
charya	-760
dot	-761
▁Acharya	-762
▁tan	-763
uni	-764
▁La	-765
nija	-766
tw	-767
Indiana	-768
ican	-769
▁Tran	-770
marka	-771
▁miet	-772
Indoneżja	-773
ace	-774
any	-775
▁Reġ	-776
shire	-777
ħa	-778
▁tagħhom	-779
▁stabbilit	-780
),	-781
▁So	-782
elid	-783
og	-784
ress	-785
titut	-786
twelid	-787
de	-788
ron	-789
jana	-790
▁mexxej	-791
ned	-792
alas	-793
ater	-794
Partit	-795
animarka	-796
▁Reġjonali	-797
ustin	-798
▁data	-799
popolazzjoni	-800
bar	-801
▁kull	-802
Gwerra	-803
iga	-804
las	-805
iegħ	-806
▁Afrikani	-807
baż	-808
sis	-809
▁Ac	-810
▁or	-811
▁iss	-812
attru	-813
jodu	-814
reż	-815
▁magna	-816
vill	-817
ondra	-818
▁mewt	-819
▁mħadd	-820
▁ppubbli	-821
ph	-822
Gre	-823
▁Hu	-824
▁ser	-825
▁rock	-826
▁proprjetà	-827
Aw	-828
fatt	-829
enz	-830
Istitut	-831
di	-832
Malas	-833
reżen	-834
ejjaħ	-835
AL	-836
les	-837
Malasja	-838
ffil	-839
ine	-840
ric	-841
disin	-842
ville	-843
▁Jones	-844
▁Teknoloġ	-845
▁Asa	-846
▁White	-847
ix	-848
ane	-849
AS	-850
lo	-851
▁“	-852
let	-853
Isk	-854
jar	-855
ales	-856
▁taħ	-857
kellma	-858
▁mużik	-859
Danimarka	-860
▁1634	-861
▁Fo	-862
jali	-863
ument	-864
Amerika	-865
▁tul	-866
▁Town	-867
bita	-868
qu	-869
ira	-870
▁mib	-871
▁mkellma	-872
▁i	-873
▁affil	-874
ec	-875
AID	-876
▁Ay	-877
▁kilometru	-878
raż	-879
orza	-880
▁103	-881
inist	-882
pollo	-883
▁El	-884
tika	-885
▁runway	-886
▁Roma	-887
rija	-888
▁Rib	-889
▁Rom	-890
▁taż	-891
▁taħt	-892
10	-893
zu	-894
▁Aż	-895
ulju	-896
▁199	-897
▁Lulju	-898
▁Marzu	-899
mexxejja	-900
▁isservi	-901
miss	-902
▁fih	-903
▁Ażjani	-904
▁de	-905
iscon	-906
isconsin	-907
▁9	-908
-11	-909
Forza	-910
icoff	-911
paz	-912
▁She	-913
risio	-914
▁Ribicoff	-915
▁X	-916
servi	-917
etri	-918
der	-919
▁12	-920
▁Ju	-921
▁kif	-922
irm	-923
▁Mary	-924
▁Cl	-925
▁Adams	-926
▁Madrid	-927
▁pers	-928
▁jinkl	-929
ost	-930
anad	-931
▁Wil	-932
ewwel	-933
▁orbita	-934
kov	-935
▁As	-936
ship	-937
alter	-938
iegħed	-939
hio	-940
kumpanija	-941
▁Wisconsin	-942
▁Huwa	-943
▁epoch	-944
uma	-945
tiva	-946
bo	-947
▁U	-948
ekwi	-949
ekwipa	-950
fa	-951
▁The	-952
istan	-953
▁stud	-954
mp	-955
ħam	-956
abel	-957
akbar	-958
ekwipaġġ	-959
-0	-960
ion	-961
▁beda	-962
▁Alexand	-963
je	-964
ean	-965
xxi	-966
▁orbitali	-967
eo	-968
ott	-969
▁Mich	-970
onnell	-971
ande	-972
pard	-973
waqt	-974
▁Aldrin	-975
▁Shepard	-976
akk	-977
uċċ	-978
▁Gu	-979
▁jinsabu	-980
▁tned	-981
jazzjoni	-982
ero	-983
ner	-984
▁Ċiv	-985
Iskola	-986
▁Ċivili	-987
karattru	-988
itar	-989
▁193	-990
lieda	-991
▁Township	-992
▁Texas	-993
▁veloċità	-994
tim	-995
▁Char	-996
▁Apollo	-997
▁ms	-998
onda	-999
Donnell	-1000
▁Abraham	-1001
▁Austin	-1002
▁ppubblikat	-1003
assa	-1004
▁Spanj	-1005
erg	-1006
ust	-1007
riera	-1008
▁Amerikan	-1009
▁pop	-1010
ve	-1011
▁Ohio	-1012
uċċess	-1013
Ac	-1014
▁IS	-1015
▁me	-1016
▁tax	-1017
tat	-1018
asti	-1019
▁ċittadin	-1020
għa	-1021
▁jista	-1022
otali	-1023
▁totali	-1024
ci	-1025
ża	-1026
karriera	-1027
▁kell	-1028
▁Monument	-1029
reċ	-1030
▁Ob	-1031
▁Bean	-1032
mużika	-1033
erm	-1034
erja	-1035
▁Ir	-1036
bacon	-1037
-4	-1038
poli	-1039
▁192	-1040
▁rel	-1041
ilene	-1042
-31	-1043
▁sing	-1044
▁Abilene	-1045
▁Aleksandr	-1046
MA	-1047
olari	-1048
ila	-1049
ons	-1050
Aston	-1051
▁qabel	-1052
American	-1053
ev	-1054
ous	-1055
liot	-1056
▁Elliot	-1057
▁See	-1058
reċed	-1059
oz	-1060
antry	-1061
▁Hall	-1062
oriġini	-1063
▁Buzz	-1064
arl	-1065
tor	-1066
0000	-1067
ison	-1068
tikk	-1069
ġenru	-1070
▁Turn	-1071
disinjat	-1072
ein	-1073
zza	-1074
▁bl	-1075
annar	-1076
▁Count	-1077
▁Soċjali	-1078
▁Turner	-1079
▁Ali	-1080
anada	-1081
▁1634:	-1082
▁mużiku	-1083
▁Mendrisio	-1084
ticut	-1085
Pa	-1086
reg	-1087
▁relata	-1088
▁mħaddma	-1089
▁AC	-1090
lack	-1091
▁kom	-1092
urnal	-1093
▁Brit	-1094
Belt	-1095
tanja	-1096
▁Abel	-1097
92	-1098
tà	-1099
ilvan	-1100
▁mibnija	-1101
ener	-1102
more	-1103
▁AID	-1104
fattura	-1105
▁Franza	-1106
uri	-1107
▁17	-1108
▁tw	-1109
metru	-1110
▁County	-1111
▁ewlenin	-1112
▁Atlantic	-1113
▁Q	-1114
▁Ahm	-1115
▁sħ	-1116
▁Ana	-1117
vel	-1118
ettaq	-1119
▁Albany	-1120
▁Alison	-1121
ċip	-1122
Pajjiż	-1123
muni	-1124
▁Infantry	-1125
▁Akron	-1126
tu	-1127
uta	-1128
vin	-1129
igan	-1130
▁Lan	-1131
dam	-1132
ippi	-1133
nata	-1134
ississ	-1135
ississippi	-1136
dor	-1137
▁Ta	-1138
Mess	-1139
jata	-1140
itettura	-1141
▁DC	-1142
▁Ot	-1143
-198	-1144
Pajjiżi	-1145
▁Londra	-1146
▁18	-1147
▁mani	-1148
-18	-1149
ASA	-1150
▁Sh	-1151
Messiku	-1152
eġ	-1153
ki	-1154
yl	-1155
▁Feli	-1156
▁Math	-1157
▁Jannar	-1158
▁wa	-1159
uburn	-1160
▁App	-1161
munta	-1162
nie	-1163
ster	-1164
Baxxi	-1165
ingap	-1166
onnec	-1167
kariga	-1168
eri	-1169
ica	-1170
▁Dav	-1171
ċipali	-1172
artisti	-1173
▁Connec	-1174
▁Su	-1175
Pens	-1176
▁fid	-1177
andant	-1178
▁0.	-1179
Gran	-1180
▁Wer	-1181
ngola	-1182
untain	-1183
org	-1184
▁Pa	-1185
▁198	-1186
▁jew	-1187
▁Nazzjonali	-1188
ejj	-1189
Turk	-1190
▁Geor	-1191
▁Auburn	-1192
▁Connecticut	-1193
ys	-1194
enzi	-1195
Greċja	-1196
me	-1197
edia	-1198
▁Cal	-1199
akbarbelt	-1200
▁Fountain	-1201
▁c	-1202
raz	-1203
▁Mex	-1204
ae	-1205
Mar	-1206
▁Gre	-1207
▁tles	-1208
▁Akita	-1209
Amerikani	-1210
▁nazzjonali	-1211
tur	-1212
▁Der	-1213
iviż	-1214
Kanada	-1215
Xj	-1216
▁15	-1217
isti	-1218
▁Dan	-1219
▁Spaz	-1220
▁Mexico	-1221
aħ	-1222
baj	-1223
▁Mc	-1224
▁bacon	-1225
ank	-1226
60	-1227
cio	-1228
artj	-1229
▁Pru	-1230
sb	-1231
▁waħ	-1232
ppartj	-1233
ingapor	-1234
▁Spazjali	-1235
-17	-1236
fer	-1237
▁Bo	-1238
▁Te	-1239
▁Ram	-1240
▁Trane	-1241
▁manifattura	-1242
18	-1243
eru	-1244
ick	-1245
▁NR	-1246
ajru	-1247
ġeneru	-1248
vern	-1249
▁Ahmet	-1250
▁jitkellmu	-1251
ega	-1252
uer	-1253
uża	-1254
heim	-1255
uquer	-1256
▁bbaż	-1257
▁Calcio	-1258
uquerque	-1259
▁tnediet	-1260
ppartjeni	-1261
▁jġ	-1262
eles	-1263
▁att	-1264
▁dom	-1265
Ingil	-1266
akistan	-1267
▁Sc	-1268
bini	-1269
tall	-1270
▁Col	-1271
▁sħi	-1272
▁żona	-1273
▁Anaheim	-1274
odiċi	-1275
▁Teknoloġija	-1276
und	-1277
mata	-1278
▁Sum	-1279
▁ikel	-1280
▁sħiħ	-1281
entina	-1282
▁Obama	-1283
▁Barack	-1284
▁jitkellem	-1285
St	-1286
gwa	-1287
mexxi	-1288
▁jappartjeni	-1289
inc	-1290
jas	-1291
emor	-1292
BN	-1293
ah	-1294
bel	-1295
laħam	-1296
▁Arch	-1297
ademia	-1298
rasport	-1299
▁Indiana	-1300
Pensilvan	-1301
-11-	-1302
▁Gro	-1303
terra	-1304
▁Architettura	-1305
▁109	-1306
▁Har	-1307
▁Adolf	-1308
▁Applet	-1309
-199	-1310
rett	-1311
▁Ber	-1312
ensità	-1313
Ingilterra	-1314
go	-1315
gwaj	-1316
▁ISBN	-1317
▁Garth	-1318
▁Madison	-1319
maniġġ	-1320
▁numru	-1321
cademia	-1322
▁g	-1323
bażi	-1324
level	-1325
leveland	-1326
ny	-1327
gni	-1328
bert	-1329
▁Cam	-1330
Pakistan	-1331
ieġ	-1332
assi	-1333
▁Kar	-1334
▁Sch	-1335
Ro	-1336
▁hemm	-1337
▁Appleton	-1338
▁iddisinjat	-1339
ft	-1340
▁sk	-1341
dni	-1342
▁16	-1343
▁SC	-1344
▁ġes	-1345
▁Atlanta	-1346
ago	-1347
▁Jam	-1348
jax	-1349
▁iż	-1350
lint	-1351
▁Flint	-1352
arkitett	-1353
reżentan	-1354
-27	-1355
▁Mahm	-1356
▁Hy	-1357
▁Po	-1358
ayel	-1359
▁gra	-1360
▁Rayel	-1361
Uru	-1362
▁ff	-1363
▁seg	-1364
ogħ	-1365
odge	-1366
ġieġ	-1367
▁Anti	-1368
▁Eric	-1369
▁Hous	-1370
munita	-1371
▁preċed	-1372
▁Twieled	-1373
Am	-1374
pon	-1375
alore	-1376
▁alter	-1377
33	-1378
jira	-1379
lanco	-1380
▁Taib	-1381
▁waqt	-1382
attiva	-1383
▁blues	-1384
angalore	-1385
kazzjoni	-1386
▁Brittanja	-1387
soċjazzjoni	-1388
kom	-1389
▁Ne	-1390
ings	-1391
vizz	-1392
andeja	-1393
arajas	-1394
ionico	-1395
vizzera	-1396
iża	-1397
nes	-1398
orp	-1399
▁Ol	-1400
band	-1401
▁kar	-1402
risti	-1403
Kam	-1404
-201	-1405
alli	-1406
waqq	-1407
▁Del	-1408
▁For	-1409
▁akk	-1410
parti	-1411
▁attwa	-1412
Urugwaj	-1413
▁Adolfo	-1414
Ġer	-1415
egoz	-1416
gnit	-1417
tirat	-1418
egozju	-1419
▁James	-1420
▁Media	-1421
▁Romeo	-1422
▁Albuquerque	-1423
AM	-1424
mel	-1425
▁ab	-1426
psis	-1427
▁iff	-1428
▁Juan	-1429
▁Agnes	-1430
▁Black	-1431
▁tinstab	-1432
▁Michigan	-1433
▁kumpanija	-1434
zzi	-1435
isco	-1436
rodu	-1437
▁jgħ	-1438
Turkija	-1439
▁Mahmud	-1440
tikketta	-1441
▁perjodu	-1442
Assoċjazzjoni	-1443
▁Aw	-1444
▁Hel	-1445
rażil	-1446
tares	-1447
▁għandhom	-1448
▁jġiegħed	-1449
olu	-1450
omb	-1451
▁Er	-1452
Awst	-1453
▁Ste	-1454
polis	-1455
▁Hamp	-1456
Xjenzi	-1457
▁Lanka	-1458
▁paisa	-1459
▁Hampshire	-1460
BQ	-1461
LC	-1462
uth	-1463
▁med	-1464
Aluna	-1465
▁1000	-1466
▁akkadem	-1467
arjazzjoni	-1468
▁stabbilita	-1469
07	-1470
pj	-1471
▁Air	-1472
istrett	-1473
▁altern	-1474
Mississippi	-1475
ley	-1476
▁Club	-1477
Brażil	-1478
Negozju	-1479
Ir	-1480
unal	-1481
avari	-1482
▁Inc	-1483
▁Ajax	-1484
▁serv	-1485
▁kellu	-1486
Isvizzera	-1487
▁kmandant	-1488
▁affiljata	-1489
ins	-1490
idge	-1491
warti	-1492
▁kemm	-1493
nataka	-1494
by	-1495
▁Osb	-1496
▁Georg	-1497
▁Osborn	-1498
SN	-1499
rim	-1500
pena	-1501
▁Com	-1502
Kamra	-1503
ewell	-1504
icago	-1505
▁Long	-1506
▁Osborne	-1507
.,	-1508
11	-1509
An	-1510
up	-1511
▁Sy	-1512
lieni	-1513
▁NASA	-1514
▁Ridge	-1515
▁ewlieni	-1516
77	-1517
88	-1518
th	-1519
ois	-1520
ding	-1521
itan	-1522
▁and	-1523
▁Asad	-1524
Barajas	-1525
reżentanti	-1526
-200	-1527
wich	-1528
▁issa	-1529
andwich	-1530
wartieri	-1531
bor	-1532
Irland	-1533
dnikov	-1534
ilomar	-1535
▁Aless	-1536
▁Rebel	-1537
Kalifor	-1538
▁Prudnikov	-1539
-01	-1540
Arġ	-1541
bal	-1542
baba	-1543
▁sar	-1544
▁Ababa	-1545
ven	-1546
▁195	-1547
▁Ari	-1548
▁miż	-1549
000.0	-1550
lington	-1551
ovembru	-1552
▁persuna	-1553
Accademia	-1554
AC	-1555
oga	-1556
▁Kh	-1557
▁ni	-1558
▁ra	-1559
Rapp	-1560
onja	-1561
▁fin	-1562
Atlan	-1563
aceae	-1564
▁Road	-1565
▁għat	-1566
▁Novembru	-1567
Pensilvanja	-1568
ħul	-1569
▁14	-1570
▁Ph	-1571
otter	-1572
▁Mata	-1573
ortiva	-1574
▁jgħix	-1575
inignit	-1576
▁msejjaħ	-1577
mi	-1578
ova	-1579
riż	-1580
▁Jenn	-1581
▁Kong	-1582
torità	-1583
▁Antio	-1584
▁Felipe	-1585
▁Johnson	-1586
▁Jennings	-1587
Rappreżentanti	-1588
▁Ben	-1589
▁NRBQ	-1590
▁koll	-1591
udding	-1592
▁domes	-1593
▁tlesta	-1594
▁SV	-1595
oblanco	-1596
▁Bionico	-1597
▁suċċess	-1598
▁magħmula	-1599
/2	-1600
gn	-1601
iG	-1602
eny	-1603
iGas	-1604
pers	-1605
pool	-1606
▁All	-1607
enyet	-1608
onfer	-1609
▁sservi	-1610
rab	-1611
▁250	-1612
▁Ash	-1613
irmat	-1614
▁Amar	-1615
▁iżda	-1616
▁suss	-1617
Arġentina	-1618
▁Chin	-1619
wettaq	-1620
▁solari	-1621
Awtorità	-1622
joblanco	-1623
6,	-1624
oti	-1625
emok	-1626
allas	-1627
▁Ayam	-1628
isaire	-1629
▁Teisaire	-1630
ade	-1631
cia	-1632
dan	-1633
ock	-1634
atch	-1635
▁Cro	-1636
▁Turk	-1637
kodiċi	-1638
linois	-1639
▁milli	-1640
Ast	-1641
eal	-1642
wit	-1643
wro	-1644
eler	-1645
▁sab	-1646
-1963	-1647
metall	-1648
▁waħda	-1649
byshire	-1650
39	-1651
gnoli	-1652
inistru	-1653
▁Robert	-1654
zzazzjoni	-1655
▁Romagnoli	-1656
ón	-1657
fet	-1658
mus	-1659
olq	-1660
ouis	-1661
▁Pri	-1662
ordni	-1663
permar	-1664
▁Louis	-1665
Irlanda	-1666
ubblika	-1667
▁mużikali	-1668
AFC	-1669
ght	-1670
har	-1671
tiy	-1672
data	-1673
reet	-1674
minist	-1675
▁Street	-1676
▁AmeriGas	-1677
▁Karnataka	-1678
eth	-1679
vant	-1680
▁ipp	-1681
▁mater	-1682
titjira	-1683
▁President	-1684
anizzazzjoni	-1685
19	-1686
Pun	-1687
isk	-1688
▁Fl	-1689
aska	-1690
link	-1691
▁Vis	-1692
▁Klink	-1693
▁Alberto	-1694
▁Alessio	-1695
▁Chicago	-1696
▁Sportiva	-1697
▁ewlenija	-1698
orth	-1699
żagħ	-1700
▁Cra	-1701
▁Pet	-1702
▁Vir	-1703
idjar	-1704
▁Zeal	-1705
▁Ayers	-1706
għażagħ	-1707
▁Forres	-1708
▁Zealand	-1709
▁Ministru	-1710
ind	-1711
udu	-1712
lion	-1713
erija	-1714
▁Acta	-1715
▁Grey	-1716
▁twaqq	-1717
▁jinkludu	-1718
organizzazzjoni	-1719
ky	-1720
-15	-1721
dar	-1722
ivi	-1723
arta	-1724
ħolq	-1725
▁Car	-1726
Lvant	-1727
▁serva	-1728
15	-1729
24	-1730
ġa	-1731
▁Ly	-1732
-1955	-1733
ublin	-1734
ussja	-1735
▁dħul	-1736
ingham	-1737
tional	-1738
▁Indivi	-1739
▁Andrews	-1740
▁Rebellion	-1741
▁Derbyshire	-1742
▁alternattiv	-1743
cat	-1744
jji	-1745
egre	-1746
leġġ	-1747
▁Mos	-1748
▁lil	-1749
▁sta	-1750
abank	-1751
▁Ewro	-1752
catraz	-1753
▁Allen	-1754
sterdam	-1755
13	-1756
▁x	-1757
Art	-1758
żgħażagħ	-1759
▁trasport	-1760
▁Chinabank	-1761
pro	-1762
wak	-1763
Lega	-1764
unju	-1765
▁Din	-1766
ament	-1767
ersus	-1768
arawak	-1769
ulleġġ	-1770
▁Versus	-1771
astiment	-1772
▁Forrest	-1773
▁twaqqfet	-1774
mit	-1775
ves	-1776
riżi	-1777
rosa	-1778
▁108	-1779
▁164	-1780
▁Eli	-1781
▁Verm	-1782
▁grad	-1783
▁Aston	-1784
▁Zitar	-1785
▁Alfredo	-1786
▁Bandeja	-1787
▁Zitarrosa	-1788
abat	-1789
edas	-1790
ubli	-1791
▁Cab	-1792
Kriżi	-1793
allero	-1794
Ġerman	-1795
ristian	-1796
ministrat	-1797
▁jinkludi	-1798
▁Caballero	-1799
▁Christian	-1800
ano	-1801
▁ka	-1802
▁min	-1803
entru	-1804
iller	-1805
magna	-1806
Bavari	-1807
CLC	-1808
ori	-1809
▁Mo	-1810
▁jir	-1811
Arena	-1812
▁Mathema	-1813
70	-1814
CO	-1815
▁RS	-1816
00.0	-1817
abama	-1818
erney	-1819
▁Matador	-1820
▁Alcatraz	-1821
▁sussidjar	-1822
cas	-1823
gun	-1824
raq	-1825
-195	-1826
Alfa	-1827
inar	-1828
itra	-1829
▁bdot	-1830
Kulleġġ	-1831
Ġermanja	-1832
65	-1833
ġun	-1834
▁Iq	-1835
Iraq	-1836
twer	-1837
għata	-1838
regon	-1839
tegun	-1840
twerp	-1841
▁Iqbal	-1842
▁twila	-1843
istaġun	-1844
▁Ertegun	-1845
▁Vermont	-1846
ida	-1847
▁AZ	-1848
ahra	-1849
issu	-1850
▁Aww	-1851
omoti	-1852
▁Deer	-1853
Angola	-1854
▁Awwissu	-1855
▁Spanjol	-1856
permarcas	-1857
▁Alderney	-1858
▁affiljat	-1859
▁"	-1860
-20	-1861
ban	-1862
ors	-1863
ġna	-1864
▁29	-1865
kamp	-1866
▁hop	-1867
▁tip	-1868
▁Asam	-1869
omotive	-1870
aa	-1871
zer	-1872
Prim	-1873
sser	-1874
▁Sar	-1875
▁Wat	-1876
janti	-1877
▁Alaa	-1878
▁massa	-1879
reżenta	-1880
▁Allama	-1881
▁Watson	-1882
▁operat	-1883
▁Antwerp	-1884
Americans	-1885
irmingham	-1886
ele	-1887
▁sa	-1888
ioma	-1889
ting	-1890
erona	-1891
▁Baku	-1892
Dallas	-1893
▁Abner	-1894
Awstrija	-1895
▁millimetru	-1896
Sen	-1897
lie	-1898
rar	-1899
wed	-1900
▁Ra	-1901
-192	-1902
pira	-1903
▁Bro	-1904
▁San	-1905
▁reġ	-1906
▁the	-1907
tubru	-1908
▁jagħ	-1909
▁peri	-1910
ġurnal	-1911
▁Craig	-1912
▁Press	-1913
▁paġna	-1914
▁segwit	-1915
▁Ottubru	-1916
zab	-1917
Azer	-1918
istil	-1919
▁Mark	-1920
zabeth	-1921
▁pedas	-1922
▁perija	-1923
▁Blackpool	-1924
Gu	-1925
aq	-1926
agg	-1927
gen	-1928
amil	-1929
bach	-1930
eont	-1931
ilan	-1932
rapp	-1933
▁Gor	-1934
▁Lar	-1935
anija	-1936
Azerbaj	-1937
▁Alfons	-1938
▁Alabama	-1939
▁Gorbach	-1940
▁Elizabeth	-1941
-26	-1942
Dip	-1943
Man	-1944
sal	-1945
sos	-1946
alma	-1947
otba	-1948
▁101	-1949
▁tim	-1950
▁Dagg	-1951
ekonda	-1952
▁Hollo	-1953
▁Ġunju	-1954
▁Holloway	-1955
▁operattiva	-1956
gini	-1957
tica	-1958
▁der	-1959
gabat	-1960
ginia	-1961
▁Agra	-1962
▁tipp	-1963
▁Alpena	-1964
▁penyet	-1965
Azerbajġ	-1966
▁Virginia	-1967
Rum	-1968
ber	-1969
▁Ex	-1970
olomb	-1971
▁prin	-1972
atchoy	-1973
użjoni	-1974
▁Publi	-1975
Rumanija	-1976
Atlantiku	-1977
▁magħrufa	-1978
”.	-1979
▁ż	-1980
Mad	-1981
▁Ba	-1982
abin	-1983
rika	-1984
▁Row	-1985
roduċi	-1986
▁2006.	-1987
▁Bella	-1988
▁Sabin	-1989
▁prodot	-1990
use	-1991
▁Lu	-1992
▁Way	-1993
blues	-1994
rovin	-1995
▁Hija	-1996
▁Pena	-1997
iviżjoni	-1998
▁densità	-1999
▁ffirmat	-2000
▁Ajoblanco	-2001
▁varjazzjoni	-2002
ava	-2003
des	-2004
▁bd	-2005
ALCO	-2006
test	-2007
Memor	-2008
▁Werft	-2009
Azerbajġan	-2010
Kun	-2011
iċċ	-2012
▁bo	-2013
ball	-2014
juni	-2015
onso	-2016
▁ħel	-2017
▁Fort	-2018
inland	-2019
missjoni	-2020
▁prinċipali	-2021
73	-2022
74	-2023
abb	-2024
hak	-2025
vah	-2026
Port	-2027
illo	-2028
onis	-2029
pill	-2030
▁GMA	-2031
Senat	-2032
pillar	-2033
▁Addis	-2034
▁Alvah	-2035
▁Singapor	-2036
aterpillar	-2037
▁manifatturat	-2038
14	-2039
94	-2040
ug	-2041
Lib	-2042
▁5.	-2043
ense	-2044
otel	-2045
vara	-2046
▁Sam	-2047
▁bil	-2048
Gvern	-2049
ennie	-2050
ispon	-2051
varaya	-2052
▁Visves	-2053
▁Albennie	-2054
▁Visvesvaraya	-2055
LX	-2056
▁&	-2057
aid	-2058
him	-2059
iad	-2060
lia	-2061
▁Ef	-2062
anes	-2063
ejħa	-2064
xejj	-2065
iadis	-2066
▁Kant	-2067
xejjex	-2068
Finland	-2069
▁Amarillo	-2070
▁Georgiadis	-2071
▁Teknoloġika	-2072
men	-2073
▁GT	-2074
attil	-2075
▁Frank	-2076
Antares	-2077
Astella	-2078
▁Adonis	-2079
▁Public	-2080
▁Summit	-2081
▁tmexxi	-2082
▁Maryland	-2083
▁sussidjarja	-2084
IP	-2085
ps	-2086
AMC	-2087
cer	-2088
evy	-2089
epox	-2090
▁Ing	-2091
▁Mag	-2092
▁mer	-2093
▁Levy	-2094
▁Pala	-2095
▁impj	-2096
▁bdiet	-2097
▁ġejja	-2098
pudding	-2099
▁Palaeont	-2100
▁persunal	-2101
04	-2102
ose	-2103
aman	-2104
▁Bor	-2105
▁Cla	-2106
▁Liv	-2107
acter	-2108
Battil	-2109
emokra	-2110
ikatur	-2111
▁kwadri	-2112
▁ġestit	-2113
▁perijodu	-2114
▁Character	-2115
▁kilometri	-2116
rappreżenta	-2117
68	-2118
au	-2119
jja	-2120
kop	-2121
min	-2122
Osti	-2123
alle	-2124
ando	-2125
illa	-2126
▁Cru	-2127
▁Pol	-2128
ietro	-2129
Ostina	-2130
anaman	-2131
▁kienu	-2132
ustrija	-2133
▁Pietro	-2134
▁Hypermarcas	-2135
dem	-2136
unk	-2137
▁Ty	-2138
oyal	-2139
opera	-2140
▁għam	-2141
ettura	-2142
▁Cruis	-2143
▁Dancer	-2144
▁Helena	-2145
▁Sarawak	-2146
lig	-2147
rez	-2148
▁Bha	-2149
Atlas	-2150
▁Chie	-2151
▁Scales	-2152
▁kollha	-2153
▁Charlie	-2154
▁sekonda	-2155
bastiment	-2156
▁Day	-2157
▁Tal	-2158
atric	-2159
aware	-2160
istat	-2161
▁Honda	-2162
▁Pubbli	-2163
atriciana	-2164
▁Binignit	-2165
Qu	-2166
dw	-2167
ier	-2168
med	-2169
ros	-2170
▁Ang	-2171
▁jiġ	-2172
Dodge	-2173
▁Paul	-2174
▁wara	-2175
rapira	-2176
▁Hotel	-2177
▁Moore	-2178
▁jkoll	-2179
ananaman	-2180
▁Delaware	-2181
▁Amsterdam	-2182
0,	-2183
-14	-2184
Ari	-2185
iel	-2186
▁Me	-2187
ance	-2188
▁Ice	-2189
▁Loyal	-2190
▁Colmore	-2191
▁Daggett	-2192
Finlandja	-2193
ao	-2194
Liga	-2195
Rosa	-2196
lment	-2197
missil	-2198
▁Miller	-2199
Battilja	-2200
▁iwettaq	-2201
▁relatat	-2202
residenti	-2203
bus	-2204
▁TLX	-2205
venue	-2206
▁Blues	-2207
▁iswed	-2208
▁Avenue	-2209
rovinċja	-2210
▁singatur	-2211
ez	-2212
-23	-2213
lim	-2214
▁Se	-2215
akar	-2216
sill	-2217
▁Bangalore	-2218
26	-2219
vo	-2220
ALV	-2221
Bel	-2222
Kom	-2223
ans	-2224
ave	-2225
lea	-2226
▁kg	-2227
AIDS	-2228
xein	-2229
ement	-2230
perat	-2231
ssemb	-2232
useum	-2233
xeinou	-2234
▁Andra	-2235
▁North	-2236
Kunsill	-2237
Provinċja	-2238
aj	-2239
zi	-2240
GMA	-2241
ami	-2242
uez	-2243
Parl	-2244
árez	-2245
ġija	-2246
▁Lee	-2247
Museum	-2248
enville	-2249
▁Suárez	-2250
▁servit	-2251
ssemblea	-2252
Cleveland	-2253
Parlament	-2254
▁Efxeinou	-2255
▁sandwich	-2256
264	-2257
okk	-2258
▁En	-2259
▁Jr	-2260
-196	-2261
bury	-2262
plos	-2263
▁maq	-2264
ettys	-2265
kotba	-2266
riżat	-2267
▁AIDA	-2268
▁Rock	-2269
otball	-2270
▁ġlieda	-2271
ettysburg	-2272
In	-2273
▁e	-2274
ubb	-2275
vap	-2276
atta	-2277
etti	-2278
-2000	-2279
dmore	-2280
Armata	-2281
▁Chievo	-2282
▁msejħa	-2283
▁pajjiż	-2284
▁Arapira	-2285
▁iffriżat	-2286
IS	-2287
iri	-2288
żin	-2289
Bażi	-2290
▁Sta	-2291
▁ims	-2292
▁van	-2293
ching	-2294
▁Rich	-2295
quense	-2296
▁Ardmore	-2297
▁Demokra	-2298
▁Univers	-2299
Assemblea	-2300
▁studenti	-2301
▁Arapiraquense	-2302
CN	-2303
pt	-2304
gor	-2305
▁Ah	-2306
qass	-2307
rant	-2308
Ġapp	-2309
▁Lum	-2310
▁Vol	-2311
istra	-2312
onica	-2313
▁Abub	-2314
▁Hong	-2315
▁Jway	-2316
▁Luna	-2317
Londra	-2318
▁Abarth	-2319
▁Angeles	-2320
▁Jwaydan	-2321
ocomotive	-2322
▁Fortress	-2323
▁Illinois	-2324
▁residenti	-2325
▁Caterpillar	-2326
29	-2327
600	-2328
ria	-2329
rib	-2330
elet	-2331
kins	-2332
para	-2333
teow	-2334
▁Dim	-2335
▁Sky	-2336
tielet	-2337
pubblika	-2338
▁għamlet	-2339
68.	-2340
Reġ	-2341
ewġ	-2342
rot	-2343
▁1,	-2344
▁VI	-2345
▁Whe	-2346
awtur	-2347
ofsin	-2348
▁Wolf	-2349
▁fiha	-2350
▁House	-2351
suċċess	-2352
ofsinhar	-2353
▁miktuba	-2354
Ram	-2355
ake	-2356
dju	-2357
tis	-2358
ġju	-2359
▁(6	-2360
▁AW	-2361
▁Dy	-2362
phar	-2363
▁Sol	-2364
▁Sri	-2365
▁jim	-2366
▁mit	-2367
ubbio	-2368
enness	-2369
▁Asser	-2370
pharetta	-2371
▁Abubakar	-2372
▁Asilomar	-2373
kon	-2374
oln	-2375
vis	-2376
▁1.	-2377
▁Ga	-2378
ejju	-2379
orno	-2380
urns	-2381
▁100	-2382
▁Hunt	-2383
▁Syst	-2384
pitali	-2385
▁Baade	-2386
▁Burns	-2387
▁Franc	-2388
▁Mejju	-2389
▁Volun	-2390
▁Sparta	-2391
▁Verona	-2392
▁jgħixu	-2393
ennessee	-2394
suċċessur	-2395
ado	-2396
▁8.	-2397
▁Par	-2398
▁sti	-2399
Texas	-2400
▁2009	-2401
▁Park	-2402
Ġappun	-2403
▁Milan	-2404
▁stamp	-2405
▁ħażin	-2406
▁Dublin	-2407
tazzjoni	-2408
▁tagħmel	-2409
8,	-2410
hol	-2411
▁13	-2412
▁Dr	-2413
▁ib	-2414
▁Dou	-2415
ibbli	-2416
range	-2417
ġisem	-2418
▁Serg	-2419
▁Sett	-2420
▁Adare	-2421
▁tista	-2422
▁Oregon	-2423
maniġġja	-2424
▁Settembru	-2425
Sri	-2426
lor	-2427
▁23	-2428
▁se	-2429
▁LaS	-2430
▁Per	-2431
▁hip	-2432
▁mat	-2433
▁1036	-2434
▁Hera	-2435
anymed	-2436
▁Baked	-2437
▁Claud	-2438
▁Gubbio	-2439
AIDAluna	-2440
▁LaSalle	-2441
▁bbażata	-2442
▁jkollha	-2443
12	-2444
Af	-2445
bra	-2446
▁52	-2447
Mend	-2448
aths	-2449
irey	-2450
ylde	-2451
▁Frew	-2452
▁jipp	-2453
▁Costa	-2454
▁Neave	-2455
▁ibbaż	-2456
▁kapitali	-2457
ffi	-2458
pea	-2459
▁34	-2460
Park	-2461
egat	-2462
iden	-2463
over	-2464
Quaid	-2465
▁Hern	-2466
▁Rams	-2467
Belġju	-2468
▁Airey	-2469
▁Fylde	-2470
▁Sport	-2471
▁Afonso	-2472
▁Walter	-2473
▁singul	-2474
▁Cruises	-2475
▁Ewropea	-2476
▁McQuaid	-2477
▁Poaceae	-2478
Nofsinhar	-2479
▁suċċessiv	-2480
▁Aleksandra	-2481
▁300	-2482
▁AWH	-2483
▁Rad	-2484
▁Rod	-2485
▁mis	-2486
kludi	-2487
Ariane	-2488
▁Space	-2489
▁għoli	-2490
▁maqtu	-2491
▁medja	-2492
Konteġġ	-2493
▁Bhajji	-2494
peratura	-2495
▁Ganymed	-2496
▁tinkludi	-2497
▁Alpharetta	-2498
cob	-2499
ejt	-2500
ekk	-2501
uel	-2502
▁Li	-2503
outh	-2504
▁Dent	-2505
▁Guru	-2506
▁nett	-2507
▁Bakso	-2508
muntana	-2509
ċittadin	-2510
ramuntana	-2511
industrija	-2512
ces	-2513
gram	-2514
itet	-2515
pril	-2516
▁Ter	-2517
▁tra	-2518
▁ġen	-2519
gitar	-2520
▁1910	-2521
▁Adis	-2522
▁ħelu	-2523
muntat	-2524
vances	-2525
Ċentru	-2526
▁Ampara	-2527
▁Guruli	-2528
artiment	-2529
national	-2530
▁Dimitra	-2531
▁Advances	-2532
isponibbli	-2533
▁immexxija	-2534
▁akkademiku	-2535
▁Efxeinoupolis	-2536
▁International	-2537
ish	-2538
▁Le	-2539
ISSN	-2540
tain	-2541
▁Ham	-2542
▁maħ	-2543
▁2014	-2544
▁tradi	-2545
arkitet	-2546
▁finali	-2547
▁Camilla	-2548
▁American	-2549
▁Amerikani	-2550
▁Aleksandre	-2551
▁tradizzjonali	-2552
ute	-2553
iniż	-2554
ovac	-2555
wili	-2556
▁107	-2557
▁Mat	-2558
Ateni	-2559
Bacon	-2560
socia	-2561
▁OCLC	-2562
estley	-2563
▁Twili	-2564
▁Bakewell	-2565
▁Twilight	-2566
▁impjegat	-2567
▁imsejjaħ	-2568
emperatura	-2569
▁Priestley	-2570
▁Amministrat	-2571
LA	-2572
▁Cas	-2573
unità	-2574
▁Batchoy	-2575
▁qiegħed	-2576
Bananaman	-2577
▁attwalment	-2578
▁Amatriciana	-2579
80	-2580
Bri	-2581
Ser	-2582
ción	-2583
enha	-2584
▁Bob	-2585
▁Koc	-2586
▁Ser	-2587
atata	-2588
entif	-2589
▁Atat	-2590
▁Brem	-2591
▁Jack	-2592
laston	-2593
unción	-2594
▁Kovac	-2595
▁Richard	-2596
▁Romance	-2597
▁Wheeler	-2598
▁Ashgabat	-2599
lastonbury	-2600
▁Arlington	-2601
▁disponibbli	-2602
/3	-2603
CCN	-2604
Kap	-2605
asp	-2606
mir	-2607
ult	-2608
boza	-2609
ikov	-2610
itas	-2611
onal	-2612
tiċi	-2613
▁Ace	-2614
▁Bay	-2615
▁Pra	-2616
otting	-2617
▁celes	-2618
▁deriv	-2619
▁Ingliż	-2620
▁United	-2621
kampjuni	-2622
▁Barboza	-2623
▁domestiku	-2624
▁Locomotive	-2625
▁Glastonbury	-2626
37	-2627
dav	-2628
kun	-2629
zny	-2630
ġin	-2631
▁44	-2632
arai	-2633
▁Big	-2634
▁Eng	-2635
davad	-2636
kateg	-2637
tiyat	-2638
▁Chir	-2639
▁Gufa	-2640
▁LCCN	-2641
▁jiġi	-2642
▁meret	-2643
▁Kharai	-2644
▁Werder	-2645
entement	-2646
▁celestiku	-2647
istrazzjoni	-2648
▁Kharaitiyat	-2649
De	-2650
bu	-2651
90.	-2652
ezz	-2653
off	-2654
ylv	-2655
ovje	-2656
rich	-2657
teer	-2658
tiet	-2659
ezzane	-2660
hambra	-2661
titolu	-2662
▁Wilder	-2663
▁Adisham	-2664
▁Journal	-2665
▁artisti	-2666
▁Chirikov	-2667
▁Lumezzane	-2668
▁Volunteer	-2669
BS	-2670
gu	-2671
ão	-2672
dab	-2673
uro	-2674
▁pi	-2675
-197	-2676
ipli	-2677
vana	-2678
zzat	-2679
▁Dia	-2680
▁Fig	-2681
▁Poll	-2682
▁karo	-2683
▁uffi	-2684
iplina	-2685
▁sabet	-2686
000000.	-2687
▁rtirat	-2688
ovjetika	-2689
▁Amdavad	-2690
▁Spartak	-2691
Av	-2692
ne	-2693
▁-	-2694
▁3.	-2695
fond	-2696
pany	-2697
żeww	-2698
▁fiċ	-2699
aħħar	-2700
▁Manor	-2701
▁Attica	-2702
▁Bremen	-2703
▁Aleksey	-2704
-16	-2705
oto	-2706
żul	-2707
▁20	-2708
orma	-2709
▁app	-2710
ivers	-2711
▁1918	-2712
▁Ruma	-2713
▁juża	-2714
salami	-2715
▁Abradab	-2716
▁Company	-2717
▁filwaqt	-2718
▁magħżul	-2719
kwartieri	-2720
▁Abdulsalami	-2721
Ab	-2722
Pol	-2723
cow	-2724
jad	-2725
kma	-2726
wat	-2727
rali	-2728
▁185	-2729
▁Pro	-2730
▁inv	-2731
andir	-2732
kmaar	-2733
itanti	-2734
▁Potter	-2735
vazzjoni	-2736
▁Antioch	-2737
onferenza	-2738
▁mexxejja	-2739
Tramuntana	-2740
25	-2741
▁$	-2742
alo	-2743
▁re	-2744
berg	-2745
▁DBS	-2746
▁Hum	-2747
▁Ras	-2748
▁Val	-2749
▁bar	-2750
ering	-2751
▁Corn	-2752
▁Dani	-2753
▁Franċ	-2754
▁abjad	-2755
▁Bobina	-2756
▁Orange	-2757
▁Alkmaar	-2758
▁Livorno	-2759
▁mħaddim	-2760
▁uffiċjali	-2761
Dipartiment	-2762
09	-2763
97	-2764
Isf	-2765
han	-2766
▁bi	-2767
ardc	-2768
tari	-2769
▁Bur	-2770
Isfel	-2771
Marce	-2772
ffiċċ	-2773
istru	-2774
sburg	-2775
▁oriġ	-2776
żewweġ	-2777
▁nstab	-2778
▁popul	-2779
▁stili	-2780
artista	-2781
ffiċċju	-2782
ardcover	-2783
▁relatati	-2784
BC	-2785
án	-2786
ġi	-2787
eed	-2788
jop	-2789
luq	-2790
ora	-2791
kien	-2792
niku	-2793
▁sim	-2794
▁ħad	-2795
irond	-2796
ervizz	-2797
lingwi	-2798
▁April	-2799
limkien	-2800
▁maħluq	-2801
▁simili	-2802
irondack	-2803
entifikatur	-2804
▁Adirondack	-2805
▁tipproduċi	-2806
91	-2807
bi	-2808
ko	-2809
sit	-2810
vid	-2811
war	-2812
arez	-2813
ovač	-2814
▁Daw	-2815
▁Kad	-2816
▁mid	-2817
tarju	-2818
▁raġġ	-2819
ogaard	-2820
openha	-2821
▁Agrem	-2822
▁Kovač	-2823
ontevid	-2824
▁Philli	-2825
enerġija	-2826
▁DeMarce	-2827
▁Boogaard	-2828
▁Francisco	-2829
▁reġistrazzjoni	-2830
max	-2831
ral	-2832
ram	-2833
▁196	-2834
▁Bru	-2835
▁Pow	-2836
iviżi	-2837
konte	-2838
▁Assa	-2839
▁erja	-2840
▁pied	-2841
Polonja	-2842
▁Baymax	-2843
▁attwali	-2844
▁maqtugħ	-2845
ontevideo	-2846
▁Indiviżi	-2847
▁flimkien	-2848
▁jimmaniġġja	-2849
▁Ġd	-2850
ttar	-2851
▁Old	-2852
▁Pop	-2853
elvin	-2854
erick	-2855
esena	-2856
iphol	-2857
olist	-2858
ontrib	-2859
▁Ateni	-2860
▁Zahra	-2861
▁ġenru	-2862
twieled	-2863
rederick	-2864
xxiplina	-2865
▁studjat	-2866
▁Schiphol	-2867
▁Spanjola	-2868
▁ingredjenti	-2869
La	-2870
deb	-2871
desh	-2872
itmu	-2873
▁Ful	-2874
▁Carl	-2875
ġlieda	-2876
▁Angola	-2877
▁Fulton	-2878
Singapor	-2879
ijametru	-2880
▁Pradesh	-2881
▁stilisti	-2882
▁Frederick	-2883
iz	-2884
Isp	-2885
oza	-2886
oupe	-2887
▁600	-2888
▁Vic	-2889
riott	-2890
operta	-2891
▁Acura	-2892
▁Allan	-2893
▁kellha	-2894
openhagen	-2895
▁Cleveland	-2896
Kalifornija	-2897
Re	-2898
Bak	-2899
ret	-2900
tel	-2901
ver	-2902
abad	-2903
guez	-2904
▁Hop	-2905
▁Jar	-2906
ester	-2907
sinki	-2908
▁Stan	-2909
▁Star	-2910
▁Madin	-2911
▁Parker	-2912
▁immuntat	-2913
Avjazzjoni	-2914
▁assoċjata	-2915
▁Gettysburg	-2916
qa	-2917
aqs	-2918
▁ak	-2919
ccon	-2920
kiri	-2921
tone	-2922
uren	-2923
▁jik	-2924
ccone	-2925
pazju	-2926
▁Sand	-2927
▁Wasp	-2928
umakov	-2929
▁11264	-2930
▁Armin	-2931
▁negre	-2932
estjoni	-2933
▁Buuren	-2934
utbolist	-2935
▁Bertone	-2936
iomaccone	-2937
▁Chumakov	-2938
AIDAstella	-2939
dixxiplina	-2940
▁Alexandra	-2941
▁Claudiomaccone	-2942
Ak	-2943
LT	-2944
ood	-2945
rup	-2946
tru	-2947
viv	-2948
acob	-2949
alla	-2950
elso	-2951
uper	-2952
▁Ker	-2953
▁Tom	-2954
athan	-2955
▁Tama	-2956
▁daqs	-2957
Afrika	-2958
Isptar	-2959
elsohn	-2960
▁Suarez	-2961
menistan	-2962
▁Jonathan	-2963
▁Alexandria	-2964
▁Mendelsohn	-2965
▁Demokratiku	-2966
5,	-2967
iaç	-2968
ile	-2969
sul	-2970
▁110	-2971
▁Fuq	-2972
▁jum	-2973
▁ħaf	-2974
elett	-2975
iação	-2976
▁1089	-2977
▁Gras	-2978
▁fost	-2979
▁matul	-2980
endenza	-2981
persuni	-2982
▁Carlos	-2983
▁Gwerra	-2984
▁Harbor	-2985
▁Ingliża	-2986
Konferenza	-2987
Washington	-2988
rażmissjoni	-2989
▁Amministrattiva	-2990
-22	-2991
lub	-2992
▁uż	-2993
Soto	-2994
alib	-2995
enos	-2996
jija	-2997
nejn	-2998
pace	-2999
▁Aur	-3000
▁Fen	-3001
▁Sib	-3002
andum	-3003
zione	-3004
▁Fall	-3005
▁2009.	-3006
▁ġener	-3007
▁ħaeda	-3008
▁Dawson	-3009
▁Grasso	-3010
▁Cornell	-3011
▁Dinjija	-3012
▁Houston	-3013
▁Franċiża	-3014
sociazione	-3015
46	-3016
emi	-3017
ilo	-3018
yan	-3019
▁47	-3020
▁Iż	-3021
▁Xj	-3022
▁po	-3023
▁Tab	-3024
platt	-3025
▁Lake	-3026
Madrid	-3027
jament	-3028
musika	-3029
▁Indie	-3030
▁Sibal	-3031
ħolqien	-3032
▁ngħata	-3033
▁Phillips	-3034
Pre	-3035
alv	-3036
olt	-3037
par	-3038
▁He	-3039
hekk	-3040
uart	-3041
▁197	-3042
mużik	-3043
▁Bill	-3044
amilja	-3045
▁Stuart	-3046
▁System	-3047
▁fużjoni	-3048
▁ippubblika	-3049
▁Indianapolis	-3050
1,	-3051
Ad	-3052
br	-3053
uf	-3054
777	-3055
788	-3056
Vir	-3057
▁Pl	-3058
-193	-3059
Kong	-3060
enir	-3061
erba	-3062
juri	-3063
pres	-3064
urch	-3065
▁170	-3066
▁Tar	-3067
aylor	-3068
ogħol	-3069
▁2006	-3070
▁Hess	-3071
▁jazz	-3072
▁jiss	-3073
Alaska	-3074
fattur	-3075
irmata	-3076
▁massi	-3077
▁ritmu	-3078
▁Alaska	-3079
Alhambra	-3080
Kongress	-3081
▁irtirat	-3082
▁Distrett	-3083
Sao	-3084
ino	-3085
jab	-3086
mpi	-3087
old	-3088
rys	-3089
▁Ku	-3090
argh	-3091
ator	-3092
hand	-3093
hann	-3094
hnan	-3095
▁Moy	-3096
▁tit	-3097
Acura	-3098
halli	-3099
▁5600	-3100
▁Hero	-3101
▁Main	-3102
Punent	-3103
devana	-3104
hakris	-3105
▁Anton	-3106
▁Baths	-3107
▁invol	-3108
vapalli	-3109
▁Cesena	-3110
▁Kolomb	-3111
▁Moyine	-3112
▁bbażat	-3113
anespace	-3114
arghatta	-3115
ilometri	-3116
▁Williams	-3117
Greenville	-3118
hakrishnan	-3119
devanahalli	-3120
▁Sarvapalli	-3121
▁akkademika	-3122
▁Hessarghatta	-3123
▁Radhakrishnan	-3124
-6	-3125
gg	-3126
km	-3127
ELA	-3128
roti	-3129
ċina	-3130
▁AIP	-3131
▁Ann	-3132
endas	-3133
▁1950	-3134
▁Tyus	-3135
▁Aenir	-3136
▁Arbor	-3137
▁epoċi	-3138
entrali	-3139
otterdam	-3140
▁Agustin	-3141
▁ibbażat	-3142
▁student	-3143
20	-3144
0.0	-3145
And	-3146
ato	-3147
her	-3148
iro	-3149
mad	-3150
Para	-3151
atto	-3152
irst	-3153
naħa	-3154
▁Wie	-3155
▁los	-3156
Marti	-3157
anden	-3158
▁Cent	-3159
▁Jose	-3160
istemi	-3161
▁ħadet	-3162
▁Wieħed	-3163
cobendas	-3164
ċipalità	-3165
▁jagħmel	-3166
andenberg	-3167
▁Alexander	-3168
▁ippubblikata	-3169
Bu	-3170
hy	-3171
acy	-3172
hyt	-3173
alis	-3174
alls	-3175
plex	-3176
quia	-3177
soss	-3178
▁AFC	-3179
attle	-3180
biata	-3181
hythm	-3182
▁Diag	-3183
▁Vinc	-3184
church	-3185
▁litru	-3186
fettura	-3187
▁jservi	-3188
rabbiata	-3189
▁Vincent	-3190
maniġġjat	-3191
▁Antioquia	-3192
▁Birmingham	-3193
▁perijapsis	-3194
▁trażmissjoni	-3195
34	-3196
är	-3197
alf	-3198
ruġ	-3199
▁mm	-3200
atal	-3201
oloq	-3202
tics	-3203
▁Joe	-3204
▁Squ	-3205
10777	-3206
għalf	-3207
jarat	-3208
mouth	-3209
tadam	-3210
▁1099	-3211
▁1923	-3212
▁Eras	-3213
▁ISSN	-3214
▁inkl	-3215
▁wera	-3216
landiż	-3217
ħolqot	-3218
▁Peter	-3219
▁Turki	-3220
▁Square	-3221
▁Erasmus	-3222
Tennessee	-3223
Repubblika	-3224
▁Mathematics	-3225
-5	-3226
hu	-3227
anac	-3228
olog	-3229
▁Bus	-3230
▁diż	-3231
fjuri	-3232
ikant	-3233
▁bħal	-3234
▁għad	-3235
kontea	-3236
▁Dales	-3237
▁bojod	-3238
▁jkell	-3239
familja	-3240
gitarra	-3241
Uffiċċju	-3242
▁massima	-3243
Kwartieri	-3244
▁AIDAluna	-3245
▁Polonica	-3246
▁oriġinar	-3247
▁Palaeontolog	-3248
▁oriġinarjament	-3249
Pad	-3250
odo	-3251
▁FD	-3252
anil	-3253
arem	-3254
eeds	-3255
għob	-3256
hore	-3257
lini	-3258
rand	-3259
▁mad	-3260
ritmu	-3261
words	-3262
▁Doug	-3263
▁Davis	-3264
▁Disco	-3265
▁Kerala	-3266
▁Lahore	-3267
▁Sergio	-3268
▁topera	-3269
Bangalore	-3270
▁Marriott	-3271
▁mużikist	-3272
▁skoperta	-3273
▁Copenhagen	-3274
▁Vandenberg	-3275
▁temperatura	-3276
".	-3277
CA	-3278
NA	-3279
Aar	-3280
acu	-3281
ale	-3282
alt	-3283
jin	-3284
ġli	-3285
arba	-3286
ikat	-3287
unds	-3288
▁12.	-3289
▁ACM	-3290
▁Vik	-3291
▁Wid	-3292
ellos	-3293
erali	-3294
▁Bata	-3295
▁Bert	-3296
dweeds	-3297
istess	-3298
logħob	-3299
▁Ahmad	-3300
▁Aires	-3301
▁Arros	-3302
▁Assad	-3303
▁Bacon	-3304
▁Biden	-3305
▁Enter	-3306
▁Grupp	-3307
densità	-3308
▁Jarama	-3309
▁Kadhim	-3310
acuellos	-3311
▁Bertram	-3312
▁popular	-3313
Memorandum	-3314
▁Palaeontologica	-3315
05	-3316
9,	-3317
EK	-3318
-13	-3319
-3.	-3320
-30	-3321
192	-3322
Niġ	-3323
Tek	-3324
cup	-3325
ger	-3326
nam	-3327
sat	-3328
▁39	-3329
hens	-3330
▁Blo	-3331
▁Jens	-3332
▁Lyon	-3333
Abarth	-3334
Guiana	-3335
incoln	-3336
▁Davut	-3337
▁Dodge	-3338
irstrup	-3339
ħxejjex	-3340
▁Athens	-3341
▁Grozny	-3342
Teknoloġ	-3343
▁miżżewweġ	-3344
Teknoloġija	-3345
Es	-3346
,000	-3347
Audi	-3348
ence	-3349
ieni	-3350
tieb	-3351
▁Jay	-3352
▁Los	-3353
Andal	-3354
erson	-3355
idcup	-3356
inġen	-3357
▁Java	-3358
▁drit	-3359
▁tikk	-3360
▁Deram	-3361
▁darba	-3362
▁Daniel	-3363
▁kelvin	-3364
tainment	-3365
▁Shivers	-3366
▁Football	-3367
▁Entertainment	-3368
Ash	-3369
amb	-3370
odi	-3371
xxa	-3372
Mars	-3373
ague	-3374
fiel	-3375
tiba	-3376
ympi	-3377
Tieni	-3378
field	-3379
neria	-3380
ridge	-3381
▁Meta	-3382
tiġieġ	-3383
▁mezzi	-3384
▁Confer	-3385
▁Grounds	-3386
Kaliforni	-3387
kilometri	-3388
▁Fenchurch	-3389
▁Conference	-3390
▁Kolombjana	-3391
gie	-3392
▁Ka	-3393
▁Vo	-3394
▁on	-3395
Roma	-3396
aras	-3397
giea	-3398
guay	-3399
hais	-3400
ixma	-3401
▁Pin	-3402
▁den	-3403
citas	-3404
kompe	-3405
organ	-3406
▁1101	-3407
▁Arem	-3408
▁ħruġ	-3409
00000.	-3410
ematis	-3411
▁Sixma	-3412
▁mibni	-3413
chester	-3414
▁Hygiea	-3415
▁Morgan	-3416
▁Moscow	-3417
▁Olympi	-3418
▁Trance	-3419
mużikist	-3420
▁Batagor	-3421
▁Pinhais	-3422
▁karozza	-3423
▁Clematis	-3424
▁Diagonal	-3425
▁Figneria	-3426
▁Felicitas	-3427
▁Wildweeds	-3428
pubblikazzjoni	-3429
▁jirrappreżenta	-3430
ho	-3431
500	-3432
ids	-3433
kan	-3434
żeb	-3435
eyer	-3436
▁dos	-3437
▁mar	-3438
▁taċ	-3439
andez	-3440
apsis	-3441
ktieb	-3442
żebbu	-3443
▁AZAL	-3444
▁Glen	-3445
▁Mars	-3446
Punjab	-3447
banana	-3448
deburg	-3449
▁Meyer	-3450
ispazju	-3451
▁instab	-3452
atalonja	-3453
▁Indjana	-3454
▁ġestjoni	-3455
▁Hernandez	-3456
▁mużikatur	-3457
Lun	-3458
alb	-3459
var	-3460
cher	-3461
idro	-3462
ptun	-3463
tjop	-3464
▁Rut	-3465
Inġin	-3466
aturi	-3467
għoli	-3468
ilota	-3469
thpop	-3470
▁isem	-3471
▁Solan	-3472
▁Terek	-3473
ersburg	-3474
plosion	-3475
▁Engine	-3476
▁Hamburg	-3477
▁Samaras	-3478
▁tnedija	-3479
Birmingham	-3480
Inġinerija	-3481
▁Explosion	-3482
▁Magdeburg	-3483
▁president	-3484
▁Engineering	-3485
Ch	-3486
IR	-3487
ċa	-3488
Bur	-3489
IRE	-3490
kes	-3491
▁Iċ	-3492
akes	-3493
bdot	-3494
wiċċ	-3495
▁18.	-3496
▁Cow	-3497
NAIRE	-3498
Uttar	-3499
kċina	-3500
ustom	-3501
▁1993	-3502
▁ling	-3503
attoor	-3504
uttikk	-3505
▁2005.	-3506
▁Boris	-3507
▁Julia	-3508
▁Powys	-3509
▁Ariane	-3510
▁Cowper	-3511
▁Custom	-3512
▁Isidro	-3513
▁Nation	-3514
Asunción	-3515
▁Lincoln	-3516
▁twettaq	-3517
uttikkattoor	-3518
Sol	-3519
dia	-3520
jed	-3521
ofs	-3522
ols	-3523
▁Fi	-3524
▁Je	-3525
▁ba	-3526
6391	-3527
etro	-3528
nell	-3529
uner	-3530
▁Nar	-3531
▁Nik	-3532
00.0.	-3533
800.0	-3534
Etjop	-3535
abbre	-3536
▁lill	-3537
▁Lydia	-3538
▁Peron	-3539
▁aktar	-3540
▁ġesti	-3541
Etjopja	-3542
▁jmexxi	-3543
▁pilota	-3544
▁ġejjin	-3545
▁Indoneż	-3546
▁stampat	-3547
Katalonja	-3548
▁Pubbliku	-3549
▁operattiv	-3550
17	-3551
98	-3552
Gż	-3553
075	-3554
azz	-3555
iha	-3556
rek	-3557
▁AL	-3558
▁Bl	-3559
-14-	-3560
-439	-3561
Euro	-3562
arol	-3563
heed	-3564
orge	-3565
ried	-3566
▁Dun	-3567
▁ban	-3568
▁jaħ	-3569
ejjer	-3570
wadra	-3571
xxert	-3572
▁Fern	-3573
▁Lipp	-3574
▁Rahm	-3575
▁kond	-3576
Xogħol	-3577
incott	-3578
papsis	-3579
▁Jorge	-3580
artitur	-3581
ligator	-3582
ockheed	-3583
tarella	-3584
▁17068.	-3585
▁Taljan	-3586
iskwadra	-3587
riedrich	-3588
▁Antonis	-3589
▁Saranac	-3590
▁Wilkins	-3591
▁dixxert	-3592
▁sistemi	-3593
▁Fernando	-3594
▁karattru	-3595
Andalussja	-3596
▁Lippincott	-3597
▁Mattarella	-3598
Soldevanahalli	-3599
IT	-3600
-21	-3601
Mon	-3602
ejl	-3603
▁SB	-3604
Stat	-3605
ania	-3606
eyes	-3607
riet	-3608
▁AEK	-3609
▁Seb	-3610
assif	-3611
▁Audi	-3612
▁mara	-3613
▁post	-3614
▁ross	-3615
▁Alvis	-3616
▁Reyes	-3617
▁Serie	-3618
veloċità	-3619
▁Sebasti	-3620
▁artitur	-3621
Prefettura	-3622
▁domestiċi	-3623
▁joriġinaw	-3624
arkitettiku	-3625
▁Arianespace	-3626
-9	-3627
21	-3628
yr	-3629
imo	-3630
uce	-3631
▁AM	-3632
6063	-3633
NASA	-3634
back	-3635
ihaj	-3636
kata	-3637
magħ	-3638
nais	-3639
tiye	-3640
▁Bal	-3641
▁Hip	-3642
▁Mas	-3643
Black	-3644
janċa	-3645
remju	-3646
ħġieġ	-3647
▁1097	-3648
▁1998	-3649
▁Brom	-3650
▁Joko	-3651
▁Tenn	-3652
colini	-3653
nedija	-3654
qassar	-3655
▁2014.	-3656
▁Bengo	-3657
▁Bruss	-3658
▁Mihaj	-3659
▁Valls	-3660
missili	-3661
orizzat	-3662
▁Island	-3663
▁Widodo	-3664
▁Xjenza	-3665
▁tiġieġ	-3666
Reġistru	-3667
▁Douglas	-3668
▁Michele	-3669
▁Pollakk	-3670
▁ingħata	-3671
▁Lyonnais	-3672
▁prodotti	-3673
▁Marcolini	-3674
▁preċedentement	-3675
-8	-3676
US	-3677
be	-3678
-10	-3679
/19	-3680
Edu	-3681
ede	-3682
fen	-3683
igh	-3684
int	-3685
sha	-3686
▁Pu	-3687
Assa	-3688
Java	-3689
Miri	-3690
elle	-3691
liga	-3692
usuf	-3693
▁Syn	-3694
▁com	-3695
debit	-3696
klubi	-3697
ontra	-3698
rarji	-3699
▁1932	-3700
▁Khor	-3701
▁biex	-3702
▁tuża	-3703
shafen	-3704
tijiet	-3705
▁Jusuf	-3706
▁Kalla	-3707
▁Vicia	-3708
▁Ċiniż	-3709
Gżejjer	-3710
▁Manuel	-3711
▁gruppi	-3712
▁lingwa	-3713
Asilomar	-3714
Bakewell	-3715
Librarji	-3716
abitanti	-3717
▁17068.8	-3718
▁Synthpop	-3719
▁Ċentrali	-3720
▁dijametru	-3721
Edukazzjoni	-3722
kategorizzat	-3723
riedrichshafen	-3724
FK	-3725
RA	-3726
ld	-3727
uc	-3728
Atl	-3729
Kar	-3730
Lan	-3731
aka	-3732
erv	-3733
rie	-3734
sam	-3735
sid	-3736
▁Im	-3737
ette	-3738
jedi	-3739
korp	-3740
limp	-3741
▁Hus	-3742
▁Mot	-3743
▁għa	-3744
6391)	-3745
istud	-3746
regol	-3747
▁1999	-3748
▁Jeff	-3749
▁Soho	-3750
Sidcup	-3751
▁0-439	-3752
▁Atlas	-3753
▁Stars	-3754
Assault	-3755
ederali	-3756
ilogram	-3757
Paraguay	-3758
▁(66391)	-3759
egretarju	-3760
▁singulatur	-3761
▁Mississippi	-3762
▁ppubblikata	-3763
▁manifatturata	-3764
Iż	-3765
ach	-3766
idu	-3767
▁AS	-3768
Mich	-3769
agle	-3770
bozz	-3771
esel	-3772
otta	-3773
▁Gaz	-3774
▁Mak	-3775
avers	-3776
memor	-3777
njoni	-3778
▁Cand	-3779
▁Hemm	-3780
▁Ward	-3781
▁Delta	-3782
▁Dykes	-3783
▁Grant	-3784
▁comic	-3785
Istadju	-3786
▁ENAIRE	-3787
▁jaħdem	-3788
▁vjanti	-3789
aversham	-3790
▁Indjani	-3791
▁Jackson	-3792
▁Tennant	-3793
▁hemmhekk	-3794
▁kilogram	-3795
▁preċeduta	-3796
▁Grantville	-3797
identifikatur	-3798
Im	-3799
mb	-3800
to	-3801
San	-3802
ony	-3803
tip	-3804
▁To	-3805
acif	-3806
bena	-3807
jaġġ	-3808
peon	-3809
ubur	-3810
ġazz	-3811
▁Vor	-3812
kopri	-3813
oriċi	-3814
▁Bras	-3815
-2000.	-3816
Aarhus	-3817
Atlant	-3818
Kolomb	-3819
acific	-3820
edabad	-3821
ileiro	-3822
▁Grove	-3823
▁Rutte	-3824
▁sauce	-3825
peonato	-3826
tnedija	-3827
uburban	-3828
▁Britta	-3829
▁dritta	-3830
▁inkluż	-3831
Britanja	-3832
▁ħxejjex	-3833
manifattur	-3834
▁Agremiação	-3835
▁Brasileiro	-3836
-7	-3837
-41	-3838
Saħ	-3839
ati	-3840
fil	-3841
iżl	-3842
nia	-3843
▁33	-3844
▁UT	-3845
▁ie	-3846
634:	-3847
eren	-3848
mewt	-3849
▁151	-3850
▁Fil	-3851
▁Nix	-3852
-4165	-3853
Saħħa	-3854
Serje	-3855
endam	-3856
iomay	-3857
phrys	-3858
▁1927	-3859
▁Hali	-3860
Unjoni	-3861
▁sfond	-3862
▁ħafna	-3863
▁Borman	-3864
Kolombja	-3865
ellendam	-3866
▁Larcher	-3867
▁Systems	-3868
▁Brussell	-3869
▁Suburban	-3870
abbrevazzjoni	-3871
ly	-3872
oħ	-3873
Egg	-3874
għu	-3875
sse	-3876
▁83	-3877
West	-3878
ħmar	-3879
▁190	-3880
Zahra	-3881
tnejn	-3882
umber	-3883
▁Ryan	-3884
eminar	-3885
▁waħdu	-3886
▁Battle	-3887
▁Neptun	-3888
▁Antares	-3889
Gvernatur	-3890
▁inħolqot	-3891
▁tlestiet	-3892
▁kkategorizzat	-3893
AG	-3894
WC	-3895
jo	-3896
zo	-3897
▁'	-3898
-28	-3899
Bil	-3900
▁RO	-3901
▁TC	-3902
▁es	-3903
Hong	-3904
anga	-3905
bank	-3906
ider	-3907
mann	-3908
▁Bri	-3909
▁May	-3910
▁Rol	-3911
▁Tex	-3912
▁art	-3913
Akita	-3914
Niġer	-3915
erenc	-3916
lines	-3917
stown	-3918
usana	-3919
wenza	-3920
▁2005	-3921
▁mezz	-3922
Ammann	-3923
neider	-3924
▁Asher	-3925
▁Casey	-3926
ervizzi	-3927
żebbuġa	-3928
▁Johann	-3929
Komunità	-3930
Lunching	-3931
rietstown	-3932
▁Airlines	-3933
▁jinstabu	-3934
▁Schneider	-3935
▁jissejjaħ	-3936
47	-3937
▁4.	-3938
cier	-3939
mond	-3940
▁Dol	-3941
▁Hor	-3942
▁ġew	-3943
▁ġur	-3944
endra	-3945
irage	-3946
veral	-3947
▁Bolt	-3948
▁Cana	-3949
▁Modi	-3950
DeSoto	-3951
▁1932.	-3952
▁Paulo	-3953
▁aħmar	-3954
magħruf	-3955
servizz	-3956
ussjoni	-3957
▁Crosse	-3958
▁Gruppo	-3959
▁Susana	-3960
ottingen	-3961
▁jkellmu	-3962
▁prodott	-3963
Mendrisio	-3964
▁Humphrys	-3965
▁Narendra	-3966
▁aspapsis	-3967
▁Canaveral	-3968
▁Palaeontol	-3969
▁rotazzjoni	-3970
IV	-3971
ke	-3972
rk	-3973
tt	-3974
ese	-3975
ito	-3976
orf	-3977
pov	-3978
rol	-3979
ürk	-3980
▁45	-3981
▁Du	-3982
anza	-3983
ceae	-3984
▁12-	-3985
▁fun	-3986
-1913	-3987
-2014	-3988
alcon	-3989
ciere	-3990
hakur	-3991
metri	-3992
endorf	-3993
ermani	-3994
istgħu	-3995
▁Croma	-3996
▁David	-3997
▁Popov	-3998
Madison	-3999
disinja	-4000
▁Ferenc	-4001
▁Thakur	-4002
▁patata	-4003
▁Tarrant	-4004
Faversham	-4005
▁Federali	-4006
▁Oldendorf	-4007
▁Arrabbiata	-4008
▁University	-4009
54	-4010
62	-4011
Il	-4012
rò	-4013
▁–	-4014
pat	-4015
ròs	-4016
▁6.	-4017
▁Or	-4018
Arab	-4019
anda	-4020
atri	-4021
isch	-4022
tero	-4023
▁Lib	-4024
▁Mik	-4025
Baħar	-4026
Bilda	-4027
aputa	-4028
attan	-4029
tions	-4030
▁1001	-4031
▁2015	-4032
▁Jano	-4033
▁Mala	-4034
▁bejn	-4035
000000	-4036
10777)	-4037
Futbol	-4038
pjanti	-4039
preċed	-4040
▁2006,	-4041
▁Olimp	-4042
aputale	-4043
▁Texans	-4044
▁tkopri	-4045
▁jistgħu	-4046
▁Crociere	-4047
▁ffirmata	-4048
▁perijażi	-4049
▁popolari	-4050
Manchester	-4051
Montevideo	-4052
▁Alligator	-4053
▁Olympique	-4054
hi	-4055
fal	-4056
ibb	-4057
kap	-4058
mod	-4059
ren	-4060
vil	-4061
ilip	-4062
orju	-4063
ough	-4064
▁Des	-4065
▁Dra	-4066
▁Otk	-4067
6063)	-4068
addum	-4069
egend	-4070
iment	-4071
jarju	-4072
ostru	-4073
▁sena	-4074
-1963.	-4075
istema	-4076
▁Dynam	-4077
▁Monoc	-4078
▁metri	-4079
▁super	-4080
Servizz	-4081
ellieda	-4082
resjedi	-4083
▁bankar	-4084
▁madwar	-4085
▁Atatürk	-4086
▁gradwat	-4087
plussjoni	-4088
▁Spanjoli	-4089
▁Alexandre	-4090
▁Wolfsburg	-4091
▁jirresjedi	-4092
muniċipalità	-4093
qi	-4094
AIP	-4095
VAC	-4096
hem	-4097
ial	-4098
ics	-4099
kin	-4100
osi	-4101
▁(4	-4102
▁21	-4103
▁Għ	-4104
▁KW	-4105
000,	-4106
Alba	-4107
adoi	-4108
arju	-4109
atra	-4110
film	-4111
heau	-4112
iċil	-4113
osun	-4114
tizz	-4115
uben	-4116
Ċina	-4117
▁Hil	-4118
▁Yin	-4119
▁bni	-4120
▁inf	-4121
▁jiż	-4122
Coupe	-4123
itiku	-4124
massa	-4125
umbus	-4126
ylvia	-4127
▁Berg	-4128
▁Funk	-4129
▁King	-4130
▁Lira	-4131
▁Mike	-4132
▁Nofs	-4133
▁Plan	-4134
▁Rose	-4135
Manila	-4136
ustizz	-4137
varosi	-4138
▁Arròs	-4139
▁Badoi	-4140
▁Tosun	-4141
▁elett	-4142
appassi	-4143
klassif	-4144
▁George	-4145
▁Sylvia	-4146
▁(66063)	-4147
▁Steuben	-4148
▁involut	-4149
▁Ġermani	-4150
hardcover	-4151
▁(410777)	-4152
▁Bergheau	-4153
▁Pubbliċi	-4154
▁servizzi	-4155
▁stilistika	-4156
▁Friedrichshafen	-4157
67	-4158
82	-4159
84	-4160
TU	-4161
ca	-4162
1.6	-4163
Par	-4164
adz	-4165
but	-4166
die	-4167
fli	-4168
rov	-4169
tir	-4170
▁Qu	-4171
▁Th	-4172
iazz	-4173
inco	-4174
oglu	-4175
onny	-4176
sols	-4177
▁320	-4178
▁AMC	-4179
▁BLT	-4180
▁Här	-4181
▁PFK	-4182
▁Pen	-4183
▁Roy	-4184
▁Van	-4185
▁miġ	-4186
▁qed	-4187
Padru	-4188
andat	-4189
attur	-4190
offri	-4191
▁Isab	-4192
▁Port	-4193
▁Vein	-4194
Reġjun	-4195
hattan	-4196
iazzia	-4197
rotrin	-4198
▁131.6	-4199
▁Jonny	-4200
Mendoza	-4201
ticinco	-4202
▁Härtel	-4203
▁Rhythm	-4204
▁Siomay	-4205
▁jagħti	-4206
▁Piazzia	-4207
▁Isabelle	-4208
▁Davutoglu	-4209
▁Jefferson	-4210
▁Petrotrin	-4211
arkitettett	-4212
▁Richardson	-4213
▁Veinticinco	-4214
52	-4215
-0.	-4216
55)	-4217
aab	-4218
ege	-4219
żer	-4220
▁Es	-4221
▁aċ	-4222
Tfal	-4223
aħam	-4224
ford	-4225
jjar	-4226
▁252	-4227
▁Por	-4228
▁dan	-4229
ogson	-4230
ralja	-4231
ummer	-4232
▁Coll	-4233
-01-01	-4234
-2014.	-4235
Swords	-4236
ikanti	-4237
klassi	-4238
Burbank	-4239
▁Plante	-4240
▁Viking	-4241
▁minuta	-4242
▁rregol	-4243
▁College	-4244
▁Hopkins	-4245
▁Taljana	-4246
Sovjetika	-4247
▁National	-4248
▁komitiku	-4249
-3,	-4250
Ung	-4251
gre	-4252
por	-4253
zhn	-4254
▁VK	-4255
788)	-4256
Bund	-4257
Kalb	-4258
atar	-4259
iput	-4260
muss	-4261
panj	-4262
rott	-4263
sede	-4264
▁Edw	-4265
▁Kub	-4266
▁mon	-4267
flitt	-4268
overn	-4269
passa	-4270
▁(192	-4271
▁164,	-4272
▁Lars	-4273
▁Viċi	-4274
▁bini	-4275
▁punk	-4276
abbozz	-4277
gwerra	-4278
mussen	-4279
ranola	-4280
umiput	-4281
▁Tyrol	-4282
▁bniet	-4283
ilitari	-4284
▁Academ	-4285
▁Pogson	-4286
▁Taylor	-4287
Michigan	-4288
▁(19255)	-4289
▁artista	-4290
▁oriġina	-4291
▁ġurnata	-4292
futbolist	-4293
umiputera	-4294
▁Gottingen	-4295
▁Manhattan	-4296
▁Rasmussen	-4297
▁Ferencvarosi	-4298
3,	-4299
DE	-4300
ħħ	-4301
▁.	-4302
DEN	-4303
adu	-4304
ejk	-4305
eta	-4306
ket	-4307
oit	-4308
pew	-4309
rum	-4310
▁2.	-4311
▁63	-4312
▁CO	-4313
Fran	-4314
Rost	-4315
arma	-4316
colo	-4317
itur	-4318
real	-4319
ġina	-4320
▁(15	-4321
▁253	-4322
▁Pal	-4323
▁Tur	-4324
ampus	-4325
ckbus	-4326
doria	-4327
itans	-4328
▁Hein	-4329
▁Mont	-4330
▁Samp	-4331
▁Stad	-4332
▁muni	-4333
Staten	-4334
▁CODEN	-4335
▁Johns	-4336
▁nigre	-4337
Rostock	-4338
fużjoni	-4339
kompeti	-4340
▁Benoit	-4341
▁DeKalb	-4342
▁Legend	-4343
ckbuster	-4344
ostijiet	-4345
▁(15788)	-4346
▁Ataturk	-4347
▁Ewropew	-4348
▁Informa	-4349
▁Montreal	-4350
▁Antwerpen	-4351
▁Sampdoria	-4352
▁Solanales	-4353
▁ddisinjat	-4354
▁Bumiputera	-4355
▁derivattiv	-4356
▁Blockbuster	-4357
95	-4358
”,	-4359
524	-4360
558	-4361
edo	-4362
elk	-4363
kul	-4364
ċew	-4365
ċiż	-4366
▁38	-4367
OCLC	-4368
elli	-4369
eyin	-4370
loom	-4371
ssja	-4372
tart	-4373
well	-4374
ċili	-4375
▁Cul	-4376
▁Pes	-4377
Libli	-4378
iness	-4379
olina	-4380
▁Frar	-4381
▁book	-4382
▁Ġdid	-4383
▁żejt	-4384
orpedo	-4385
▁Hilmi	-4386
▁Maran	-4387
▁Rodri	-4388
▁Wiley	-4389
▁attiv	-4390
▁espon	-4391
▁farma	-4392
Franċiż	-4393
amilton	-4394
elkhand	-4395
ootball	-4396
persuna	-4397
▁Membru	-4398
▁Titans	-4399
Ungerija	-4400
ubblikat	-4401
▁Rolando	-4402
▁operata	-4403
Istazzjon	-4404
Memorarju	-4405
▁hijabelt	-4406
▁Sovjetika	-4407
Parkersburg	-4408
▁kilogrammi	-4409
▁Harrietstown	-4410
ARA	-4411
BBC	-4412
CAO	-4413
arz	-4414
chi	-4415
etw	-4416
ipz	-4417
jah	-4418
upé	-4419
▁01	-4420
▁03	-4421
ICAO	-4422
enns	-4423
igbe	-4424
oris	-4425
orks	-4426
ozon	-4427
stad	-4428
tern	-4429
ujah	-4430
▁bin	-4431
esing	-4432
ierce	-4433
ipzig	-4434
isinn	-4435
ovini	-4436
renad	-4437
▁Mass	-4438
▁Netw	-4439
▁Prem	-4440
▁Wick	-4441
▁Wien	-4442
0000.0	-4443
Esplos	-4444
Premju	-4445
eneral	-4446
iction	-4447
qassra	-4448
▁25326	-4449
▁Drago	-4450
▁Gozon	-4451
▁Ranil	-4452
▁Works	-4453
▁miżju	-4454
ennsylv	-4455
esinghe	-4456
istadju	-4457
▁Luanda	-4458
▁Transa	-4459
▁diżert	-4460
▁Leipzig	-4461
▁Massimo	-4462
▁Network	-4463
▁Philipp	-4464
▁Prussja	-4465
▁Tekniku	-4466
▁Torpedo	-4467
▁Wickrem	-4468
▁gradjat	-4469
▁minnhom	-4470
diviżjoni	-4471
▁distrett	-4472
▁farmaċew	-4473
▁pubblika	-4474
Dipendenza	-4475
ennsylvania	-4476
kazzjonijiet	-4477
▁ippubblikat	-4478
▁Turkmenistan	-4479
▁Wickremesinghe	-4480
.)	-4481
Bo	-4482
Or	-4483
Los	-4484
can	-4485
eau	-4486
ets	-4487
ewż	-4488
▁Ca	-4489
Imst	-4490
acid	-4491
lein	-4492
oħra	-4493
▁Akh	-4494
▁Con	-4495
▁Mac	-4496
-1928	-4497
gvern	-4498
night	-4499
uleau	-4500
utsis	-4501
▁1994	-4502
▁Mayo	-4503
▁żewġ	-4504
Dublin	-4505
Pjanċa	-4506
rekord	-4507
▁Nikos	-4508
▁medju	-4509
Virġina	-4510
amaturi	-4511
ferenza	-4512
▁Duncan	-4513
▁Grenad	-4514
▁Motors	-4515
▁Pierce	-4516
▁Placid	-4517
▁miljun	-4518
▁Akhigbe	-4519
▁Metapan	-4520
▁Rouleau	-4521
▁Voutsis	-4522
▁Ġustizz	-4523
▁Fallujah	-4524
▁Heinlein	-4525
▁Helsinki	-4526
▁mużikant	-4527
arkitettur	-4528
▁jikkompeti	-4529
▁jipproduċi	-4530
▁Information	-4531
-12	-4532
2.2	-4533
ejo	-4534
eol	-4535
▁av	-4536
Golf	-4537
dida	-4538
epro	-4539
rata	-4540
rema	-4541
umai	-4542
zmir	-4543
▁Gri	-4544
▁III	-4545
▁dak	-4546
▁ded	-4547
enton	-4548
eoles	-4549
izade	-4550
▁HVAC	-4551
▁Head	-4552
▁Tony	-4553
▁konn	-4554
ctions	-4555
eproku	-4556
ilvano	-4557
sulass	-4558
uttiva	-4559
▁Artur	-4560
▁Bures	-4561
▁Chute	-4562
▁Doris	-4563
▁Mason	-4564
▁Qatar	-4565
▁influ	-4566
▁kollu	-4567
▁ġisem	-4568
iżlatur	-4569
uritiba	-4570
▁Conejo	-4571
▁Knight	-4572
▁govern	-4573
▁kodiċi	-4574
Haputale	-4575
▁560090.	-4576
▁Silvano	-4577
▁ġestiti	-4578
ottingham	-4579
▁Aureoles	-4580
▁Rasizade	-4581
▁binignit	-4582
▁kklassif	-4583
▁stampata	-4584
▁ġenerali	-4585
Stellendam	-4586
▁Rodriguez	-4587
▁Rotterdam	-4588
▁AIDAstella	-4589
▁Transactions	-4590
78	-4591
cr	-4592
rí	-4593
/28	-4594
645	-4595
mah	-4596
sil	-4597
tle	-4598
ħħa	-4599
▁7.	-4600
Hous	-4601
ador	-4602
eraq	-4603
ermo	-4604
erty	-4605
mara	-4606
tali	-4607
tech	-4608
▁Cit	-4609
▁Ger	-4610
▁Pan	-4611
▁Tel	-4612
▁Ung	-4613
-1768	-4614
arkov	-4615
ensat	-4616
hajan	-4617
homas	-4618
iżola	-4619
othan	-4620
▁Alba	-4621
▁Fior	-4622
▁Mosk	-4623
▁Perm	-4624
▁Rand	-4625
▁Real	-4626
▁Salv	-4627
▁għaċ	-4628
▁meta	-4629
▁oħra	-4630
alifor	-4631
membru	-4632
sandir	-4633
▁Scott	-4634
▁Yacob	-4635
ekwenza	-4636
▁Barkov	-4637
▁Contra	-4638
▁Shumai	-4639
▁Thomas	-4640
▁astero	-4641
Tirstrup	-4642
crington	-4643
▁Gaussja	-4644
▁Mahajan	-4645
▁Palermo	-4646
orazzjoni	-4647
▁253260.0	-4648
▁Business	-4649
▁Curitiba	-4650
▁Salvador	-4651
▁relatata	-4652
▁mmaniġġjat	-4653
▁Indoneżjana	-4654
▁Ġustizzjarju	-4655
AF	-4656
vn	-4657
300	-4658
592	-4659
Gro	-4660
obż	-4661
our	-4662
ple	-4663
sky	-4664
vić	-4665
▁Vi	-4666
▁iċ	-4667
Tess	-4668
anti	-4669
reek	-4670
tant	-4671
unch	-4672
wenz	-4673
▁Gra	-4674
Izmir	-4675
ctech	-4676
inaug	-4677
ġliġi	-4678
▁Alfa	-4679
▁Cape	-4680
▁kiri	-4681
▁ċili	-4682
-1996.	-4683
esliga	-4684
hangra	-4685
sajjar	-4686
▁Amkar	-4687
▁Malay	-4688
▁Paisa	-4689
▁South	-4690
▁jiżen	-4691
▁użata	-4692
▁Center	-4693
▁jopera	-4694
inaugura	-4695
▁Halimah	-4696
▁Sumitra	-4697
▁konness	-4698
ġliġijiet	-4699
▁Dynamics	-4700
▁Lockheed	-4701
▁McDonnell	-4702
▁diviżjoni	-4703
▁influwenz	-4704
▁kondensat	-4705
▁Aleksander	-4706
prestazzjoni	-4707
▁Associazione	-4708
-07	-4709
/36	-4710
Akk	-4711
HAM	-4712
oye	-4713
qat	-4714
qiq	-4715
roj	-4716
▁Iu	-4717
▁Sé	-4718
▁da	-4719
Fort	-4720
alan	-4721
aħda	-4722
otus	-4723
pura	-4724
uzhn	-4725
wadh	-4726
żola	-4727
▁Eat	-4728
▁Mer	-4729
▁Mid	-4730
anese	-4731
arica	-4732
ocado	-4733
ondon	-4734
watch	-4735
weraq	-4736
ħalib	-4737
ħoloq	-4738
Britan	-4739
Buenos	-4740
ríguez	-4741
▁Iulia	-4742
▁Stern	-4743
▁Série	-4744
▁Waħda	-4745
▁segwi	-4746
▁Ġdida	-4747
avanese	-4748
eniżola	-4749
enzjana	-4750
uzhnoye	-4751
▁Cumber	-4752
▁Eaters	-4753
▁Rahman	-4754
▁domiċil	-4755
▁servita	-4756
alifornia	-4757
▁imsajjar	-4758
▁Rodríguez	-4759
▁referenza	-4760
▁Cumberland	-4761
▁Fiorentina	-4762
▁Valenzjana	-4763
▁Mathematica	-4764
▁popolazzjoni	-4765
Fi	-4766
Hel	-4767
dal	-4768
fiċ	-4769
gan	-4770
kaw	-4771
kro	-4772
kum	-4773
ung	-4774
yah	-4775
▁AT	-4776
▁Di	-4777
▁Od	-4778
▁ss	-4779
-17-	-4780
Fiat	-4781
Gali	-4782
Viċi	-4783
andu	-4784
enna	-4785
innu	-4786
kant	-4787
rist	-4788
stan	-4789
vent	-4790
▁700	-4791
▁Can	-4792
▁MTU	-4793
▁baj	-4794
adzhi	-4795
areas	-4796
brejk	-4797
chine	-4798
fiċje	-4799
phalt	-4800
rojtu	-4801
▁Awst	-4802
▁Bund	-4803
▁Gard	-4804
▁RHAM	-4805
▁Seco	-4806
▁logħ	-4807
Alpena	-4808
Ispanj	-4809
alcons	-4810
dalene	-4811
patata	-4812
rażini	-4813
ventus	-4814
▁2004.	-4815
▁Filip	-4816
▁Jacob	-4817
▁Patri	-4818
▁ħalib	-4819
sistema	-4820
▁Gadzhi	-4821
▁Virage	-4822
Helsinki	-4823
▁Gujarat	-4824
onteareas	-4825
▁Canonica	-4826
▁Magdalene	-4827
▁California	-4828
▁superfiċje	-4829
▁Pennsylvania	-4830
--	-4831
7,	-4832
Er	-4833
Gw	-4834
ds	-4835
603	-4836
ate	-4837
esh	-4838
ian	-4839
ink	-4840
kub	-4841
mor	-4842
oka	-4843
oġġ	-4844
sip	-4845
▁MB	-4846
▁fa	-4847
▁ps	-4848
Arti	-4849
Glen	-4850
asan	-4851
avlo	-4852
bira	-4853
idis	-4854
idja	-4855
inif	-4856
iser	-4857
obon	-4858
poul	-4859
satu	-4860
usic	-4861
▁210	-4862
▁Tan	-4863
▁bit	-4864
cakes	-4865
ikata	-4866
iżvel	-4867
kopis	-4868
Ċiniż	-4869
▁Koln	-4870
▁Tsip	-4871
▁saus	-4872
▁twil	-4873
editur	-4874
mandat	-4875
poulos	-4876
▁2015.	-4877
▁Awadh	-4878
▁Laura	-4879
▁Makis	-4880
▁Pavlo	-4881
▁appli	-4882
▁aċidu	-4883
▁barny	-4884
▁sinif	-4885
Komplex	-4886
ademija	-4887
machine	-4888
▁Alexis	-4889
▁Launch	-4890
▁Pesaka	-4891
▁Sports	-4892
Veloċità	-4893
▁Arctech	-4894
▁Bersatu	-4895
▁Gazette	-4896
▁Legends	-4897
▁Tsipras	-4898
▁Voridis	-4899
▁arkitet	-4900
Diviżjoni	-4901
Postijiet	-4902
▁Juventus	-4903
▁Prokopis	-4904
▁Sandwich	-4905
▁inaugura	-4906
Alcobendas	-4907
Esplosjoni	-4908
▁0-439-1768	-4909
▁Greenville	-4910
▁Battlefield	-4911
▁Pavlopoulos	-4912
▁governattiv	-4913
▁sinifikanti	-4914
48	-4915
72	-4916
ks	-4917
ša	-4918
-4.	-4919
adi	-4920
det	-4921
ide	-4922
imu	-4923
kis	-4924
lay	-4925
urs	-4926
ánd	-4927
▁70	-4928
▁CE	-4929
▁DA	-4930
▁so	-4931
-15.	-4932
bagħ	-4933
bajd	-4934
diri	-4935
luss	-4936
mera	-4937
oger	-4938
paty	-4939
ritm	-4940
rock	-4941
stit	-4942
▁8.3	-4943
▁Aug	-4944
▁Wiz	-4945
▁dem	-4946
▁lok	-4947
▁ħaġ	-4948
-1962	-4949
Gward	-4950
Kapit	-4951
iniša	-4952
lović	-4953
media	-4954
onimu	-4955
reġim	-4956
saħħa	-4957
stali	-4958
ández	-4959
▁9000	-4960
▁Lviv	-4961
▁Wash	-4962
▁poli	-4963
▁ħdan	-4964
Disinn	-4965
Kampus	-4966
Xjenza	-4967
▁kompl	-4968
Martiri	-4969
stitute	-4970
▁August	-4971
▁Berlin	-4972
▁Għandu	-4973
▁Siniša	-4974
▁Stoger	-4975
▁Wizard	-4976
Illinois	-4977
Kapitolu	-4978
Karolina	-4979
komunità	-4980
▁63800.0	-4981
▁Patrick	-4982
▁poaceae	-4983
▁Olimpiku	-4984
▁enerġija	-4985
appappassi	-4986
▁Hernández	-4987
▁Institute	-4988
▁singulant	-4989
▁Mihajlović	-4990
▁Spacewatch	-4991
96	-4992
Kh	-4993
ef	-4994
-2)	-4995
lib	-4996
ool	-4997
tig	-4998
vas	-4999
▁0,	-5000
▁Pe	-5001
▁aw	-5002
▁to	-5003
▁xi	-5004
Khor	-5005
Vejl	-5006
bbaż	-5007
diem	-5008
egun	-5009
ekel	-5010
jjal	-5011
tuża	-5012
▁000	-5013
▁318	-5014
▁Gos	-5015
▁qud	-5016
endic	-5017
ibbet	-5018
lands	-5019
udell	-5020
vapur	-5021
▁Stat	-5022
Dothan	-5023
alissa	-5024
bertig	-5025
dirizz	-5026
majjal	-5027
sulari	-5028
tiekel	-5029
▁17000	-5030
▁Arena	-5031
▁Auron	-5032
Martiti	-5033
itajiet	-5034
vasjoni	-5035
▁Boston	-5036
▁School	-5037
▁Sendic	-5038
▁marbut	-5039
▁miġbur	-5040
Ashgabat	-5041
kunflitt	-5042
persunal	-5043
trasport	-5044
▁Karpaty	-5045
▁postali	-5046
▁quddiem	-5047
Niġerjana	-5048
libbertig	-5049
▁monument	-5050
Akkademija	-5051
▁Campeonato	-5052
Pensilvanija	-5053
Turkmenistan	-5054
▁Greymachine	-5055
Kuttikkattoor	-5056
▁Jacksonville	-5057
libbertigibbet	-5058
60.	-5059
Mut	-5060
lat	-5061
riġ	-5062
zio	-5063
▁55	-5064
▁Vf	-5065
enaw	-5066
erti	-5067
jant	-5068
jaya	-5069
okke	-5070
ssex	-5071
ucci	-5072
▁11.	-5073
▁Dig	-5074
▁Gar	-5075
▁mms	-5076
▁nud	-5077
Demok	-5078
brari	-5079
elini	-5080
embri	-5081
orija	-5082
raero	-5083
rovdi	-5084
tenaw	-5085
▁Camp	-5086
▁Cupé	-5087
▁Dave	-5088
▁Graz	-5089
▁Kent	-5090
▁Pain	-5091
▁Tech	-5092
▁salv	-5093
▁tard	-5094
▁wett	-5095
-1986.	-5096
Oregon	-5097
kantur	-5098
randon	-5099
razija	-5100
▁Creek	-5101
▁Essex	-5102
▁Lokke	-5103
▁saret	-5104
▁sehem	-5105
oughlin	-5106
▁inbena	-5107
▁metall	-5108
introjtu	-5109
▁Pacific	-5110
▁Panucci	-5111
▁Sumatra	-5112
▁salvata	-5113
Awstralja	-5114
ipendenza	-5115
▁Hamilton	-5116
▁esponent	-5117
Liblibrari	-5118
Segretarju	-5119
▁jittiekel	-5120
Demokrazija	-5121
▁Alcobendas	-5122
▁Brittaniku	-5123
▁Repubblika	-5124
▁arkitetton	-5125
ty	-5126
-04	-5127
Col	-5128
Dem	-5129
don	-5130
erh	-5131
mag	-5132
roe	-5133
tom	-5134
erva	-5135
ffer	-5136
lins	-5137
orld	-5138
żejt	-5139
▁1,9	-5140
▁211	-5141
▁McL	-5142
▁Sil	-5143
▁Tud	-5144
▁deċ	-5145
▁org	-5146
▁sew	-5147
Addis	-5148
abbli	-5149
abdet	-5150
elman	-5151
ifiża	-5152
▁Imag	-5153
▁Rash	-5154
▁bażi	-5155
▁ilma	-5156
▁jaqa	-5157
▁stor	-5158
Apollo	-5159
alisco	-5160
gherty	-5161
▁1969.	-5162
▁2016.	-5163
▁Edwin	-5164
▁Oberh	-5165
▁Ottom	-5166
▁Paris	-5167
Gwardji	-5168
elinids	-5169
Ġermani	-5170
▁Gerard	-5171
▁Sergey	-5172
▁fażola	-5173
▁kompar	-5174
▁rażini	-5175
Distrett	-5176
Ispanjol	-5177
indirizz	-5178
▁Complex	-5179
▁Cullins	-5180
▁Imagine	-5181
▁Mendoza	-5182
▁Moskova	-5183
▁Seminar	-5184
▁pudding	-5185
▁vettura	-5186
iżvelatur	-5187
mużikatur	-5188
▁Infraero	-5189
▁Insulari	-5190
▁imqassra	-5191
kategorija	-5192
▁Dougherty	-5193
▁Tennessee	-5194
Amministrat	-5195
Paracuellos	-5196
ostruzzjoni	-5197
▁Burlington	-5198
▁McLoughlin	-5199
▁Montevideo	-5200
▁Oberhelman	-5201
▁Paracuellos	-5202
▁influwenzat	-5203
▁komparabbli	-5204
Universitajiet	-5205
osa	-5206
pán	-5207
uda	-5208
yde	-5209
yss	-5210
▁ax	-5211
5426	-5212
akka	-5213
bell	-5214
chel	-5215
mbul	-5216
otte	-5217
silġ	-5218
tati	-5219
yril	-5220
▁5.3	-5221
▁546	-5222
▁Mit	-5223
▁Rak	-5224
▁Sci	-5225
▁bas	-5226
-2001	-5227
1634:	-5228
amaph	-5229
assis	-5230
award	-5231
berto	-5232
himov	-5233
liver	-5234
midja	-5235
▁1907	-5236
▁Bako	-5237
▁Dona	-5238
▁Jaya	-5239
▁Live	-5240
▁Puig	-5241
▁Wyss	-5242
▁użat	-5243
anadiż	-5244
isting	-5245
league	-5246
▁Botta	-5247
▁Clyde	-5248
▁Coupe	-5249
▁Cyril	-5250
▁Jalan	-5251
▁Kotte	-5252
▁Mario	-5253
▁Roger	-5254
enepura	-5255
inġenji	-5256
inġenju	-5257
perjodu	-5258
▁475426	-5259
▁Balder	-5260
▁Monroe	-5261
▁Oliver	-5262
▁Ramaph	-5263
▁Rashid	-5264
▁Seagle	-5265
▁Steven	-5266
▁logħob	-5267
Britanni	-5268
memorial	-5269
sekwenza	-5270
▁Disting	-5271
▁Georges	-5272
▁Kontrib	-5273
▁Premier	-5274
▁granola	-5275
▁komplut	-5276
▁Campbell	-5277
▁Franklin	-5278
▁Humberto	-5279
▁Jayaward	-5280
▁Rakhimov	-5281
roduzzjoni	-5282
▁Ramaphosa	-5283
▁Washtenaw	-5284
▁inaugurat	-5285
▁stilistiċi	-5286
kostruzzjoni	-5287
▁Flibbertigibbet	-5288
▁Jayawardenepura	-5289
06	-5290
45	-5291
ga	-5292
14.	-5293
62.	-5294
7.0	-5295
HIV	-5296
ela	-5297
hai	-5298
uso	-5299
wal	-5300
▁93	-5301
AFIT	-5302
edon	-5303
elos	-5304
iema	-5305
otyl	-5306
quez	-5307
race	-5308
skap	-5309
zija	-5310
▁120	-5311
▁159	-5312
▁277	-5313
▁737	-5314
▁NWC	-5315
▁Ska	-5316
-1996	-5317
Icolo	-5318
Iżmir	-5319
Parti	-5320
icino	-5321
ndard	-5322
ogħla	-5323
wixxi	-5324
zquez	-5325
▁1930	-5326
▁2013	-5327
▁Akti	-5328
▁Iuso	-5329
▁korp	-5330
▁seħħ	-5331
-1995.	-5332
000.0.	-5333
Errata	-5334
ichita	-5335
iżjoni	-5336
kampus	-5337
miktub	-5338
parata	-5339
▁56009	-5340
▁Billy	-5341
▁ġdida	-5342
Newport	-5343
alletti	-5344
▁Monark	-5345
▁Portal	-5346
▁nudles	-5347
Peniżola	-5348
ashville	-5349
eselskap	-5350
melinids	-5351
otyledon	-5352
▁Kuching	-5353
▁axapsis	-5354
▁nstabet	-5355
▁Asunción	-5356
▁Pollakka	-5357
▁Popolari	-5358
▁separata	-5359
▁toriġina	-5360
kodiċijiet	-5361
▁futbolist	-5362
▁reġjonali	-5363
▁salvataġġ	-5364
produzzjoni	-5365
▁Varjazzjoni	-5366
▁Aktieselskap	-5367
gy	-5368
vd	-5369
3.9	-5370
5.3	-5371
BLT	-5372
Mos	-5373
Taq	-5374
ast	-5375
hap	-5376
oke	-5377
tec	-5378
ċev	-5379
ħun	-5380
▁78	-5381
▁AF	-5382
▁Cu	-5383
▁Ya	-5384
▁ed	-5385
Saab	-5386
ajer	-5387
alem	-5388
ftha	-5389
iked	-5390
itat	-5391
kokk	-5392
orea	-5393
park	-5394
▁24.	-5395
▁295	-5396
▁But	-5397
▁Lam	-5398
▁Tim	-5399
▁mob	-5400
▁riż	-5401
▁tun	-5402
Titan	-5403
bbili	-5404
elije	-5405
ffalo	-5406
orino	-5407
orizo	-5408
salsa	-5409
tonku	-5410
vjaġġ	-5411
ġenre	-5412
ġobon	-5413
▁1850	-5414
▁Korn	-5415
▁bajd	-5416
Gujana	-5417
fthavn	-5418
iskola	-5419
nology	-5420
onserv	-5421
tecorp	-5422
yahoga	-5423
ċentru	-5424
▁Anbar	-5425
▁inġen	-5426
▁krema	-5427
▁laħam	-5428
▁ħoloq	-5429
Gujarat	-5430
Partita	-5431
nellata	-5432
ristina	-5433
univers	-5434
▁Brooke	-5435
▁mobbli	-5436
▁organi	-5437
▁psiked	-5438
▁pubbli	-5439
▁Ċiniżi	-5440
▁ċilind	-5441
Taqaddum	-5442
kmandant	-5443
▁Charles	-5444
▁Wichita	-5445
▁inħoloq	-5446
▁riżerva	-5447
▁titjira	-5448
Rotterdam	-5449
▁Cuyahoga	-5450
▁Lufthavn	-5451
Ponteareas	-5452
▁Ahmedabad	-5453
▁Kornelije	-5454
▁Mantecorp	-5455
▁Spaceport	-5456
▁Sportpark	-5457
▁Philippine	-5458
▁Technology	-5459
▁tunnellata	-5460
▁Monocotyledon	-5461
▁arkitettoniku	-5462
▁irrappreżenta	-5463
SD	-5464
af	-5465
5.0	-5466
80.	-5467
Kro	-5468
gew	-5469
iac	-5470
ies	-5471
lun	-5472
row	-5473
▁30	-5474
▁Gl	-5475
▁SK	-5476
▁eż	-5477
▁tt	-5478
075)	-5479
bago	-5480
chup	-5481
chus	-5482
ekom	-5483
etts	-5484
euro	-5485
ffin	-5486
ieto	-5487
raġġ	-5488
rona	-5489
sott	-5490
öger	-5491
▁(29	-5492
▁CEO	-5493
▁aus	-5494
allin	-5495
ettes	-5496
gradu	-5497
iacao	-5498
idgew	-5499
janta	-5500
phins	-5501
rique	-5502
telev	-5503
tisch	-5504
ueens	-5505
uezon	-5506
ħarab	-5507
▁1500	-5508
▁1933	-5509
▁Cara	-5510
▁Evil	-5511
▁Pall	-5512
▁Solo	-5513
▁apop	-5514
▁erba	-5515
▁kors	-5516
▁pres	-5517
▁saba	-5518
Russja	-5519
ekomst	-5520
lungen	-5521
regola	-5522
sottop	-5523
wieldu	-5524
▁Guner	-5525
▁Gvern	-5526
▁Nieto	-5527
▁Trans	-5528
▁ogħla	-5529
allinor	-5530
▁Bavari	-5531
▁Franco	-5532
▁Għarab	-5533
assachus	-5534
idgewood	-5535
▁(29075)	-5536
▁Afrikan	-5537
▁Butuner	-5538
▁Caravan	-5539
▁Central	-5540
▁Enrique	-5541
▁Huseyin	-5542
▁Konserv	-5543
▁Penarol	-5544
▁Stanley	-5545
▁jwettaq	-5546
erazzjoni	-5547
president	-5548
▁Toekomst	-5549
▁abitanti	-5550
▁bħalissa	-5551
▁jindikaw	-5552
università	-5553
▁Accademia	-5554
▁Challinor	-5555
▁Hamburger	-5556
▁Sebastián	-5557
televiżjoni	-5558
assachusetts	-5559
▁Commelinids	-5560
▁Mathematisch	-5561
87	-5562
AT	-5563
ín	-5564
00,	-5565
7.4	-5566
Med	-5567
Sur	-5568
jew	-5569
laj	-5570
lla	-5571
new	-5572
onz	-5573
sas	-5574
sub	-5575
▁04	-5576
▁08	-5577
▁87	-5578
▁hi	-5579
▁ji	-5580
cept	-5581
gret	-5582
ical	-5583
kara	-5584
kles	-5585
laza	-5586
ombe	-5587
otto	-5588
raba	-5589
roll	-5590
użaw	-5591
▁129	-5592
▁Gab	-5593
▁blu	-5594
▁fiż	-5595
▁miċ	-5596
▁spe	-5597
Monoc	-5598
konju	-5599
tieni	-5600
under	-5601
▁Book	-5602
▁Gonz	-5603
▁Kids	-5604
▁bass	-5605
▁dqiq	-5606
▁ħaġa	-5607
Difiża	-5608
Verona	-5609
bridge	-5610
desert	-5611
grethe	-5612
platti	-5613
ritiye	-5614
ronaut	-5615
▁1979.	-5616
▁Ernie	-5617
▁Perón	-5618
▁Plaza	-5619
▁Salem	-5620
▁Sands	-5621
▁Steve	-5622
▁isseg	-5623
astilla	-5624
eymouth	-5625
urakles	-5626
▁Ankara	-5627
▁Except	-5628
▁Poales	-5629
▁Stöger	-5630
▁lokali	-5631
▁minnha	-5632
▁toffri	-5633
Monocacy	-5634
demonimu	-5635
▁Primera	-5636
▁Thunder	-5637
▁dedikat	-5638
▁twieldu	-5639
▁Candombe	-5640
▁bankarji	-5641
▁preċedut	-5642
▁ċilindri	-5643
Gettysburg	-5644
handlungen	-5645
▁Margrethe	-5646
ontribwixxi	-5647
▁Agremiacao	-5648
▁Demokratika	-5649
▁Konservattiv	-5650
cy	-5651
yk	-5652
253	-5653
6.0	-5654
Alb	-5655
abi	-5656
lam	-5657
olk	-5658
qet	-5659
▁6,	-5660
▁ch	-5661
Club	-5662
cabi	-5663
hael	-5664
impj	-5665
nika	-5666
rari	-5667
▁Mic	-5668
▁Pag	-5669
▁aċċ	-5670
▁but	-5671
▁ieb	-5672
▁mas	-5673
▁mhu	-5674
Alvis	-5675
Asher	-5676
Bajja	-5677
Demak	-5678
Korea	-5679
itoba	-5680
qatlu	-5681
ġinja	-5682
▁Gali	-5683
▁Holl	-5684
▁View	-5685
▁ħabb	-5686
-2015.	-5687
Taylor	-5688
ummerċ	-5689
ħarreġ	-5690
▁1986.	-5691
▁Gloom	-5692
▁Urich	-5693
Batchoy	-5694
diction	-5695
▁Buenos	-5696
▁Queens	-5697
▁Static	-5698
▁nqatlu	-5699
▁pjanti	-5700
Istambul	-5701
Virġinja	-5702
▁Jalisco	-5703
▁Librari	-5704
▁Michael	-5705
▁Pagnell	-5706
▁Storiċi	-5707
▁inklużi	-5708
▁storiku	-5709
▁wettqet	-5710
Amsterdam	-5711
brejkatur	-5712
▁Hollande	-5713
▁asteroid	-5714
▁aċċapsis	-5715
▁ddisinja	-5716
▁Gvernatur	-5717
▁Sebastian	-5718
▁Accrington	-5719
▁tikkontribwixxi	-5720
22	-5721
158	-5722
352	-5723
Bat	-5724
Wil	-5725
air	-5726
ghl	-5727
ice	-5728
pli	-5729
vaz	-5730
▁09	-5731
▁3,	-5732
▁88	-5733
▁On	-5734
▁am	-5735
1092	-5736
bour	-5737
haca	-5738
iton	-5739
iċċa	-5740
kemm	-5741
kovo	-5742
mewġ	-5743
remi	-5744
viċi	-5745
ħana	-5746
▁179	-5747
▁Jak	-5748
▁Kan	-5749
▁Kon	-5750
▁Sat	-5751
-2060	-5752
Serie	-5753
asant	-5754
eleon	-5755
ettur	-5756
ghlal	-5757
hukum	-5758
orida	-5759
rtiye	-5760
tario	-5761
wenti	-5762
▁3180	-5763
▁MBAs	-5764
▁Prab	-5765
▁Rosa	-5766
▁jkun	-5767
-1957.	-5768
-2000,	-5769
London	-5770
market	-5771
nieżer	-5772
▁1,524	-5773
▁1930.	-5774
▁Ahvaz	-5775
▁Heads	-5776
▁Krist	-5777
▁iebsa	-5778
▁kremi	-5779
▁skadu	-5780
▁ħeluq	-5781
Houston	-5782
Tessess	-5783
hukumar	-5784
itonite	-5785
pajjiżi	-5786
redjent	-5787
teghlal	-5788
▁1-4165	-5789
▁441092	-5790
▁Solent	-5791
▁Stadio	-5792
▁mitħun	-5793
▁sarnie	-5794
▁singer	-5795
▁Britain	-5796
▁Florida	-5797
▁Harbour	-5798
▁Jakarta	-5799
▁Moskovo	-5800
▁Ontario	-5801
▁Teknika	-5802
▁apopsis	-5803
Blackwell	-5804
Ridgewood	-5805
disinjata	-5806
okomotive	-5807
ootballer	-5808
umpannija	-5809
▁Aurakles	-5810
▁Castilla	-5811
▁Javanese	-5812
Bundesliga	-5813
isplussjoni	-5814
▁Academical	-5815
▁Ingredjent	-5816
▁preċedenti	-5817
▁1-4165-2060	-5818
▁Prabhukumar	-5819
Għ	-5820
Ku	-5821
cu	-5822
gl	-5823
-03	-5824
-9.	-5825
735	-5826
lar	-5827
leġ	-5828
orb	-5829
ppa	-5830
ħor	-5831
▁Ni	-5832
Flor	-5833
chew	-5834
emer	-5835
emin	-5836
enan	-5837
gled	-5838
laus	-5839
ovel	-5840
sher	-5841
ussa	-5842
vard	-5843
üner	-5844
ġiel	-5845
▁142	-5846
▁BBC	-5847
▁Far	-5848
▁Fit	-5849
▁Web	-5850
▁Ġie	-5851
Baths	-5852
Green	-5853
Kroċi	-5854
askat	-5855
urple	-5856
ġliet	-5857
▁Bern	-5858
▁Cant	-5859
▁Cham	-5860
▁Ruth	-5861
▁Zuma	-5862
▁barm	-5863
▁gram	-5864
-1862.	-5865
chewan	-5866
etchup	-5867
merick	-5868
ċeviet	-5869
▁Grieg	-5870
▁Lotus	-5871
▁Russa	-5872
▁Satem	-5873
▁Studi	-5874
▁butty	-5875
▁roman	-5876
Florida	-5877
Kummerċ	-5878
irettur	-5879
▁Adenan	-5880
▁Appell	-5881
▁Kaiser	-5882
▁ħabbad	-5883
mużikant	-5884
ġellieda	-5885
▁Bhangra	-5886
▁Harvard	-5887
▁Terrace	-5888
▁oriġini	-5889
immexxija	-5890
▁Limerick	-5891
▁iffirmat	-5892
▁Chameleon	-5893
▁Ellington	-5894
▁Kristjani	-5895
askatchewan	-5896
manifattura	-5897
temperatura	-5898
▁Librarians	-5899
▁Williamson	-5900
▁iddisinjata	-5901
▁Abhandlungen	-5902
▁Mathematischen	-5903
23	-5904
32	-5905
83	-5906
iu	-5907
sk	-5908
11.	-5909
252	-5910
92.	-5911
The	-5912
Tur	-5913
ahn	-5914
bak	-5915
dak	-5916
ebi	-5917
ler	-5918
żja	-5919
▁49	-5920
▁Em	-5921
▁FK	-5922
▁Gi	-5923
▁Sk	-5924
▁cm	-5925
3528	-5926
Asja	-5927
Aġen	-5928
aple	-5929
areġ	-5930
ayas	-5931
cuit	-5932
iaol	-5933
jang	-5934
jara	-5935
ksur	-5936
thur	-5937
utch	-5938
ħriġ	-5939
▁978	-5940
▁Cir	-5941
▁Peñ	-5942
▁Qiu	-5943
▁Sec	-5944
▁Spe	-5945
▁VfL	-5946
▁ass	-5947
▁bis	-5948
▁kub	-5949
▁meq	-5950
▁Ċin	-5951
-1904	-5952
-4253	-5953
Super	-5954
Tajer	-5955
aster	-5956
ennai	-5957
itman	-5958
kmand	-5959
limon	-5960
ocano	-5961
risis	-5962
uffin	-5963
▁2160	-5964
▁Bebi	-5965
▁Blvd	-5966
▁Dane	-5967
▁Figh	-5968
▁Gang	-5969
▁Huma	-5970
▁Isis	-5971
▁Marv	-5972
▁mhux	-5973
▁rapp	-5974
▁roll	-5975
-1962.	-5976
Boston	-5977
iapsis	-5978
isfond	-5979
▁2013.	-5980
▁Afara	-5981
▁Barny	-5982
▁Klaus	-5983
▁Metal	-5984
▁Xiaol	-5985
▁diżil	-5986
▁ikkom	-5987
▁minnu	-5988
▁ħareġ	-5989
-1-4165	-5990
Buffalo	-5991
istatus	-5992
▁Arthur	-5993
▁Benton	-5994
▁Candle	-5995
▁Castle	-5996
▁Kansas	-5997
▁Secret	-5998
▁miżjud	-5999
▁ġabdet	-6000
Asherton	-6001
Aġenzija	-6002
▁Circuit	-6003
▁Falcons	-6004
▁Flandiż	-6005
▁Whitman	-6006
▁Wolfman	-6007
▁karozzi	-6008
▁Kristina	-6009
▁Tirstrup	-6010
▁Xiaolong	-6011
▁ibbażata	-6012
▁pubbliċi	-6013
▁Cambridge	-6014
▁Danimarka	-6015
▁domiċilja	-6016
arkitettura	-6017
-1-4165-4253	-6018
▁Bundelkhand	-6019
▁Kontribwenti	-6020
▁Kuttikkattoor	-6021
▁korporazzjoni	-6022
AZ	-6023
Ag	-6024
II	-6025
qq	-6026
ħu	-6027
13.	-6028
633	-6029
8.0	-6030
III	-6031
Ply	-6032
atu	-6033
eno	-6034
umi	-6035
3329	-6036
Atta	-6037
Post	-6038
Tarz	-6039
akra	-6040
baxx	-6041
bnew	-6042
eron	-6043
ikel	-6044
olqu	-6045
sena	-6046
sija	-6047
sota	-6048
tana	-6049
▁0-7	-6050
▁Bib	-6051
▁Dil	-6052
▁Mul	-6053
▁USD	-6054
▁UTC	-6055
▁War	-6056
▁bak	-6057
▁cob	-6058
▁tir	-6059
▁ħut	-6060
anner	-6061
biċċa	-6062
ciano	-6063
ellow	-6064
ience	-6065
irley	-6066
iċini	-6067
kbira	-6068
klabb	-6069
tinos	-6070
▁1901	-6071
▁1913	-6072
▁Bart	-6073
▁XIII	-6074
▁eżek	-6075
▁tipi	-6076
-2009.	-6077
Grozny	-6078
Tarzna	-6079
Wilson	-6080
anilow	-6081
bbażat	-6082
▁70634	-6083
▁Marry	-6084
▁World	-6085
▁fihom	-6086
▁ieħor	-6087
▁novel	-6088
▁total	-6089
▁ħolqu	-6090
abadash	-6091
alajara	-6092
isponge	-6093
pressat	-6094
ritorju	-6095
sotakis	-6096
▁523329	-6097
▁DeSoto	-6098
▁deċert	-6099
▁muffin	-6100
▁Ċiniża	-6101
Plymouth	-6102
baxxatur	-6103
etropoli	-6104
▁560090,	-6105
▁Alfonso	-6106
▁Banilow	-6107
▁Cameron	-6108
▁Luciano	-6109
▁Science	-6110
▁Visayas	-6111
▁bbażati	-6112
Blackpool	-6113
▁Dolphins	-6114
▁Stanford	-6115
footballer	-6116
▁Newmarket	-6117
▁Spalletti	-6118
▁rregolata	-6119
Albuquerque	-6120
Superleague	-6121
▁Mitsotakis	-6122
▁peritonite	-6123
Amministratur	-6124
▁ikkompressat	-6125
-"	-6126
jm	-6127
se	-6128
eil	-6129
iġġ	-6130
mon	-6131
pod	-6132
rus	-6133
tra	-6134
uto	-6135
▁07	-6136
▁65	-6137
▁8,	-6138
▁9.	-6139
▁AK	-6140
▁Ha	-6141
▁sp	-6142
Stad	-6143
anut	-6144
boud	-6145
egen	-6146
esti	-6147
idad	-6148
wood	-6149
ċell	-6150
▁11-	-6151
▁280	-6152
▁3.8	-6153
▁ATK	-6154
▁Min	-6155
▁Red	-6156
▁Ros	-6157
▁off	-6158
▁var	-6159
Adare	-6160
Grupp	-6161
akrah	-6162
anger	-6163
bital	-6164
forma	-6165
gorot	-6166
ibien	-6167
klubb	-6168
kulur	-6169
larer	-6170
stema	-6171
zjali	-6172
▁1989	-6173
▁2004	-6174
▁32.2	-6175
▁5594	-6176
▁Blue	-6177
▁Cook	-6178
▁Jazz	-6179
▁Kenn	-6180
▁Naik	-6181
▁Walt	-6182
▁Whig	-6183
▁tiġi	-6184
attivi	-6185
cticut	-6186
jmegen	-6187
peanut	-6188
▁1923.	-6189
▁1927.	-6190
▁1956.	-6191
▁Donal	-6192
▁Oddie	-6193
▁Parti	-6194
▁Speed	-6195
▁Valer	-6196
▁kaxxa	-6197
▁metal	-6198
Chennai	-6199
Sarawak	-6200
muntata	-6201
oloġija	-6202
passaġġ	-6203
reġjuni	-6204
rinidad	-6205
▁Mellow	-6206
▁rasher	-6207
Diċembru	-6208
▁Konstan	-6209
▁Maccabi	-6210
▁Radboud	-6211
▁Roberts	-6212
▁derivat	-6213
dijametru	-6214
kmandanti	-6215
▁Otkrtiye	-6216
▁Weymouth	-6217
▁mediċini	-6218
▁Otkritiye	-6219
▁elettrika	-6220
▁iffirmata	-6221
▁jitkellma	-6222
▁eżekuttiva	-6223
▁kumpannija	-6224
etropolitana	-6225
▁Konstantinos	-6226
,1	-6227
Id	-6228
Sh	-6229
ät	-6230
/21	-6231
0,7	-6232
5.4	-6233
Ahm	-6234
Fra	-6235
leo	-6236
llo	-6237
pju	-6238
ula	-6239
▁73	-6240
▁Az	-6241
▁Op	-6242
▁ex	-6243
0756	-6244
Arts	-6245
chie	-6246
ität	-6247
ousa	-6248
ydor	-6249
żati	-6250
▁$10	-6251
▁125	-6252
▁Dal	-6253
▁Don	-6254
▁Mel	-6255
▁Pic	-6256
▁ħab	-6257
64597	-6258
frott	-6259
ikana	-6260
inger	-6261
▁3.04	-6262
▁Dale	-6263
▁Karl	-6264
▁stri	-6265
▁sħun	-6266
-1928.	-6267
Moscow	-6268
alillo	-6269
debita	-6270
imenti	-6271
taħriġ	-6272
▁10000	-6273
▁1513.	-6274
▁Berry	-6275
▁Cakes	-6276
▁Colon	-6277
▁Kesel	-6278
▁Sousa	-6279
▁Tudor	-6280
▁għadd	-6281
▁vjaġġ	-6282
▁Ġener	-6283
▁ħafef	-6284
Kuching	-6285
anachie	-6286
oritiba	-6287
▁29,000	-6288
▁440756	-6289
▁Penyet	-6290
▁Purple	-6291
▁Tobago	-6292
preċedur	-6293
▁9364597	-6294
▁Brandon	-6295
▁Desmond	-6296
▁Galileo	-6297
▁Ilocano	-6298
▁Randall	-6299
▁inġenju	-6300
Ahmedabad	-6301
elettrika	-6302
proprjetà	-6303
▁Nijmegen	-6304
▁involuta	-6305
▁tinstema	-6306
▁tmexxija	-6307
▁Ġenerali	-6308
Ambaxxatur	-6309
▁Atlantiku	-6310
▁periapsis	-6311
▁Universität	-6312
▁1-4165-2060-0.	-6313
▁Fredericksburg	-6314
38	-6315
51	-6316
SV	-6317
TV	-6318
pi	-6319
vv	-6320
yn	-6321
3.0	-6322
4.0	-6323
Kol	-6324
Mum	-6325
Tam	-6326
hit	-6327
ikh	-6328
ius	-6329
jde	-6330
kam	-6331
teo	-6332
żar	-6333
▁27	-6334
▁28	-6335
▁5,	-6336
▁89	-6337
▁Km	-6338
▁su	-6339
▁te	-6340
-27.	-6341
0002	-6342
Lake	-6343
Meta	-6344
Tham	-6345
asam	-6346
guni	-6347
għaż	-6348
hitl	-6349
inat	-6350
lokk	-6351
mili	-6352
naqq	-6353
ogan	-6354
sing	-6355
vviż	-6356
wali	-6357
żewġ	-6358
▁1.2	-6359
▁722	-6360
▁AFB	-6361
▁End	-6362
▁are	-6363
▁for	-6364
▁jig	-6365
Agrem	-6366
Akron	-6367
Batla	-6368
Dales	-6369
Fraji	-6370
Grand	-6371
Ordni	-6372
Turin	-6373
ating	-6374
cking	-6375
ekart	-6376
elika	-6377
essam	-6378
etown	-6379
etwer	-6380
ieter	-6381
karti	-6382
orbot	-6383
ottoj	-6384
tatur	-6385
▁Olus	-6386
▁sago	-6387
▁skur	-6388
Pensil	-6389
Rhythm	-6390
Thames	-6391
angani	-6392
appoġġ	-6393
asanjo	-6394
disinn	-6395
sessam	-6396
stadio	-6397
▁Eagle	-6398
▁Emile	-6399
▁Lazio	-6400
▁Renzi	-6401
▁attur	-6402
▁mnaqq	-6403
etlands	-6404
hitleri	-6405
impjant	-6406
jopsija	-6407
ħnieżer	-6408
▁Crisis	-6409
▁Dieter	-6410
▁Matteo	-6411
▁Rivers	-6412
▁Roemer	-6413
▁Samuda	-6414
▁jorbot	-6415
▁komiku	-6416
▁stonku	-6417
Yuzhnoye	-6418
operatur	-6419
vviżorju	-6420
▁Carroll	-6421
▁Hecking	-6422
▁Jackets	-6423
▁Kanadiż	-6424
▁Lansing	-6425
▁Peñarol	-6426
▁Sandesh	-6427
istazzjon	-6428
sottopart	-6429
▁252000.0	-6430
▁Awstrija	-6431
▁Bavarian	-6432
▁Filipina	-6433
▁Obasanjo	-6434
▁Olusegun	-6435
▁Spangled	-6436
▁Trinidad	-6437
▁politiku	-6438
▁Ġermaniż	-6439
Agremiação	-6440
Nottingham	-6441
▁Riverside	-6442
▁Bernalillo	-6443
▁provviżorju	-6444
Identifikatur	-6445
▁rrappreżenta	-6446
",	-6447
/0	-6448
Fl	-6449
fl	-6450
gi	-6451
ll	-6452
1.2	-6453
3.8	-6454
ACF	-6455
awn	-6456
bid	-6457
imm	-6458
jus	-6459
lov	-6460
nod	-6461
ċif	-6462
ġam	-6463
▁05	-6464
▁Nu	-6465
▁Sq	-6466
,264	-6467
3717	-6468
702.	-6469
90.9	-6470
Flem	-6471
Kard	-6472
kons	-6473
kors	-6474
lajn	-6475
pata	-6476
pere	-6477
rani	-6478
ross	-6479
Ħadd	-6480
▁Adv	-6481
▁Arm	-6482
▁ELA	-6483
▁Sau	-6484
▁Sin	-6485
▁rap	-6486
73513	-6487
Marys	-6488
arien	-6489
atgħa	-6490
ennis	-6491
linja	-6492
lovic	-6493
nodar	-6494
olone	-6495
sħana	-6496
▁Azin	-6497
▁Drum	-6498
▁Gene	-6499
▁High	-6500
▁Kras	-6501
▁Taro	-6502
▁vell	-6503
Netwer	-6504
Wakrah	-6505
dekart	-6506
kellem	-6507
mijiet	-6508
ranita	-6509
waqqfa	-6510
Ċiniżi	-6511
▁43717	-6512
▁Adsit	-6513
▁Arion	-6514
▁Bloom	-6515
▁Colan	-6516
▁Kuban	-6517
▁Union	-6518
▁Worth	-6519
▁baked	-6520
▁ċenti	-6521
Kardija	-6522
Netwerk	-6523
Tampere	-6524
sbridge	-6525
▁373513	-6526
▁Almond	-6527
▁Claude	-6528
▁Manila	-6529
▁Michel	-6530
▁Parana	-6531
▁Sinisa	-6532
▁Swords	-6533
▁jiggra	-6534
▁meqjus	-6535
▁onlajn	-6536
▁sanger	-6537
▁speċif	-6538
▁tipika	-6539
Ħaddiema	-6540
▁Baltika	-6541
▁Gangsta	-6542
▁Grenada	-6543
▁Orbital	-6544
▁chorizo	-6545
▁mnaqqsa	-6546
Astronaut	-6547
▁Afrikana	-6548
▁Stabbili	-6549
▁Wetlands	-6550
▁iddebita	-6551
▁ġellieda	-6552
Marysville	-6553
leġiżlatur	-6554
▁Bartolone	-6555
▁Esteghlal	-6556
▁Krasnodar	-6557
▁iddisinja	-6558
▁Mihajlovic	-6559
▁tippubblika	-6560
▁farmaċewtika	-6561
▁kklassifikat	-6562
▁Knightsbridge	-6563
16	-6564
Ka	-6565
SA	-6566
ct	-6567
-24	-6568
339	-6569
343	-6570
395	-6571
9.0	-6572
Afr	-6573
Big	-6574
Liġ	-6575
Pan	-6576
ays	-6577
dut	-6578
eca	-6579
heb	-6580
nyk	-6581
ogi	-6582
oni	-6583
ryp	-6584
▁Av	-6585
▁Io	-6586
▁el	-6587
▁jk	-6588
-130	-6589
3.0.	-6590
7392	-6591
Loga	-6592
Ohio	-6593
alez	-6594
cell	-6595
cema	-6596
edan	-6597
elwa	-6598
iftu	-6599
inis	-6600
utra	-6601
▁$55	-6602
▁16.	-6603
▁17.	-6604
▁36.	-6605
▁511	-6606
▁94.	-6607
▁Abh	-6608
▁Bel	-6609
▁Eal	-6610
▁Klu	-6611
1582.	-6612
843.8	-6613
Maple	-6614
aracy	-6615
bidla	-6616
butir	-6617
eoria	-6618
ijiet	-6619
mater	-6620
milli	-6621
rigan	-6622
ulari	-6623
ustín	-6624
vival	-6625
żjoni	-6626
▁Aviv	-6627
▁Eman	-6628
▁Enda	-6629
▁Fons	-6630
▁Hays	-6631
▁Marc	-6632
▁Muni	-6633
▁Post	-6634
▁Wolt	-6635
▁abbo	-6636
▁awto	-6637
▁kejl	-6638
▁kies	-6639
▁lewż	-6640
▁stru	-6641
▁tiss	-6642
▁ħobż	-6643
-1634:	-6644
739224	-6645
Lancia	-6646
Mumbaj	-6647
Panama	-6648
ateurs	-6649
bagħad	-6650
dorman	-6651
elwald	-6652
hannis	-6653
mudell	-6654
rypnyk	-6655
sinkro	-6656
vaguni	-6657
▁1989,	-6658
▁1998.	-6659
▁2005,	-6660
▁490.9	-6661
▁52395	-6662
▁Kenny	-6663
▁Popul	-6664
▁Putra	-6665
▁Tomsk	-6666
▁Uttar	-6667
▁Voice	-6668
▁Youth	-6669
▁indie	-6670
▁komik	-6671
▁miftu	-6672
Flemish	-6673
amiffer	-6674
▁511592	-6675
▁Joseph	-6676
▁Kluwer	-6677
▁Viktor	-6678
▁bibien	-6679
distrett	-6680
militati	-6681
▁30843.8	-6682
▁Agustín	-6683
▁Avocado	-6684
▁Buscema	-6685
▁Emanuel	-6686
▁Fonseca	-6687
▁Metapán	-6688
▁Revival	-6689
▁Wolters	-6690
▁jintuża	-6691
▁segwita	-6692
▁Gonzalez	-6693
▁Goslarer	-6694
▁Horrigan	-6695
▁Iohannis	-6696
▁Rabadash	-6697
▁Skrypnyk	-6698
▁abbozzat	-6699
▁appassis	-6700
▁rregolat	-6701
▁tikketta	-6702
▁Bananaman	-6703
▁Ealdorman	-6704
▁Putrajaya	-6705
▁Ġermaniża	-6706
▁523951582.	-6707
▁437170000.0	-6708
▁farmaċewtiċi	-6709
▁muniċipalità	-6710
02	-6711
AA	-6712
It	-6713
dy	-6714
kg	-6715
ts	-6716
ér	-6717
10.	-6718
ATA	-6719
Air	-6720
Ang	-6721
Del	-6722
NWC	-6723
din	-6724
fts	-6725
nif	-6726
pal	-6727
ñol	-6728
▁00	-6729
▁53	-6730
▁75	-6731
▁al	-6732
-033	-6733
-194	-6734
-670	-6735
6468	-6736
Hess	-6737
alac	-6738
aleg	-6739
aron	-6740
asha	-6741
beda	-6742
cour	-6743
eing	-6744
erth	-6745
ferm	-6746
home	-6747
ilem	-6748
koni	-6749
niti	-6750
obem	-6751
oldr	-6752
teċi	-6753
ġogi	-6754
▁-3.	-6755
▁31.	-6756
▁Arp	-6757
▁Dem	-6758
▁FAS	-6759
▁Flo	-6760
▁Fox	-6761
▁Gér	-6762
▁Kap	-6763
▁Neu	-6764
▁Tes	-6765
▁bha	-6766
▁rek	-6767
-1986	-6768
-2009	-6769
-2015	-6770
ariam	-6771
astik	-6772
kamik	-6773
riela	-6774
stadt	-6775
▁3500	-6776
▁Alma	-6777
▁Hung	-6778
▁Kemm	-6779
▁Line	-6780
▁Linn	-6781
▁Roll	-6782
▁Tink	-6783
▁West	-6784
▁folk	-6785
▁jiff	-6786
▁tran	-6787
-03380	-6788
-1958.	-6789
-1963,	-6790
-2011.	-6791
646863	-6792
Anglia	-6793
alment	-6794
enasha	-6795
fermat	-6796
komika	-6797
lottoj	-6798
prodot	-6799
sterix	-6800
▁0-670	-6801
▁1933.	-6802
▁Aniti	-6803
▁Boldr	-6804
▁Citta	-6805
▁Logan	-6806
▁Match	-6807
▁arepa	-6808
▁bajji	-6809
▁kotba	-6810
Bandeja	-6811
Galicia	-6812
Pacific	-6813
alactic	-6814
asphalt	-6815
llerija	-6816
perback	-6817
plastik	-6818
▁Globem	-6819
▁Gérard	-6820
▁Hailem	-6821
▁Mulatu	-6822
▁Newark	-6823
▁Wiener	-6824
▁editat	-6825
▁gradwa	-6826
▁xandir	-6827
Atlantic	-6828
Hessisch	-6829
Lockheed	-6830
gitarist	-6831
kantatur	-6832
patakoni	-6833
▁-3.3528	-6834
▁2014-15	-6835
▁5739224	-6836
▁Asterix	-6837
▁Desaleg	-6838
▁Gardner	-6839
▁Teshome	-6840
▁Tinkham	-6841
▁kultant	-6842
konfermat	-6843
reżentant	-6844
▁125800.0	-6845
▁89646863	-6846
▁Boldrini	-6847
▁Brittani	-6848
▁Distingu	-6849
▁Gabriela	-6850
▁Imwieled	-6851
▁Michetti	-6852
▁Neustadt	-6853
▁Populous	-6854
▁Ungarica	-6855
▁imqassar	-6856
arrabbiata	-6857
millimetri	-6858
▁Grenadier	-6859
▁Sehitleri	-6860
▁millimetri	-6861
▁0-670-03380	-6862
▁Globemaster	-6863
▁Hailemariam	-6864
▁varjazzjonijiet	-6865
2,	-6866
BI	-6867
Na	-6868
TE	-6869
oğ	-6870
-92	-6871
550	-6872
919	-6873
942	-6874
bas	-6875
cam	-6876
dik	-6877
far	-6878
fay	-6879
fun	-6880
ieħ	-6881
keh	-6882
nin	-6883
ows	-6884
set	-6885
ugħ	-6886
użu	-6887
yev	-6888
▁2,	-6889
▁61	-6890
▁ċm	-6891
-19-	-6892
0906	-6893
5589	-6894
7.43	-6895
8024	-6896
Gazz	-6897
Palo	-6898
ayam	-6899
disk	-6900
djan	-6901
hach	-6902
holm	-6903
ilma	-6904
imli	-6905
lect	-6906
mira	-6907
otja	-6908
oğlu	-6909
yang	-6910
▁14.	-6911
▁17-	-6912
▁512	-6913
▁973	-6914
▁Dep	-6915
▁Her	-6916
▁Run	-6917
▁Tra	-6918
▁ind	-6919
▁ċik	-6920
-1957	-6921
artel	-6922
okacy	-6923
panja	-6924
sojja	-6925
sossi	-6926
▁1928	-6927
▁Chil	-6928
▁Diaz	-6929
▁East	-6930
▁Veil	-6931
▁nies	-6932
▁nnif	-6933
▁soċċ	-6934
-92550	-6935
Kompju	-6936
Ticino	-6937
ambien	-6938
camore	-6939
kamiko	-6940
kijiet	-6941
lijiet	-6942
matika	-6943
rarese	-6944
rysler	-6945
▁16000	-6946
▁Broad	-6947
▁Elect	-6948
▁Halla	-6949
▁Larry	-6950
▁Maher	-6951
▁Price	-6952
▁Reddy	-6953
▁Serja	-6954
▁jimpj	-6955
▁mimli	-6956
▁music	-6957
▁nbnew	-6958
▁ċanga	-6959
600000.	-6960
Seminar	-6961
fayette	-6962
ivvjaġġ	-6963
kantant	-6964
▁107.43	-6965
▁135589	-6966
▁179942	-6967
▁410777	-6968
▁520906	-6969
▁Anyang	-6970
▁Bruins	-6971
▁Dallas	-6972
▁Hartel	-6973
▁Stalin	-6974
▁blanco	-6975
▁bovini	-6976
▁seħħet	-6977
Kolumbus	-6978
istudell	-6979
▁94.8024	-6980
▁Francis	-6981
▁General	-6982
▁Telanga	-6983
▁miftuħa	-6984
▁ġestita	-6985
Nashville	-6986
▁Coritiba	-6987
▁Floating	-6988
▁Manitoba	-6989
▁Addiction	-6990
▁Davutoğlu	-6991
▁Gadzhiyev	-6992
▁Immexxija	-6993
▁Shanachie	-6994
▁partijiet	-6995
▁tissejjaħ	-6996
▁Indoneżjan	-6997
▁Lokomotive	-6998
▁Segretarju	-6999
▁awtomatika	-7000
▁industrija	-7001
▁ċentimetru	-7002
ċittadinanza	-7003
▁0-439-17685	-7004
▁0-439-92550	-7005
▁alternattiva	-7006
BA	-7007
Po	-7008
eq	-7009
uk	-7010
▁Ż	-7011
-05	-7012
-08	-7013
-1.	-7014
4.9	-7015
983	-7016
Cov	-7017
Fal	-7018
Liv	-7019
MBA	-7020
Roy	-7021
Sum	-7022
bod	-7023
egw	-7024
ith	-7025
mut	-7026
oro	-7027
osé	-7028
qan	-7029
ykh	-7030
zja	-7031
▁nt	-7032
----	-7033
01-8	-7034
Alma	-7035
Bini	-7036
awwa	-7037
bidu	-7038
cash	-7039
elja	-7040
fejn	-7041
imon	-7042
karo	-7043
okku	-7044
olai	-7045
oton	-7046
oyet	-7047
phen	-7048
vilu	-7049
▁16-	-7050
▁570	-7051
▁610	-7052
▁767	-7053
▁911	-7054
▁ACF	-7055
▁Egg	-7056
▁Gio	-7057
▁Gus	-7058
▁HIV	-7059
▁Tej	-7060
▁deb	-7061
▁kon	-7062
▁man	-7063
Delta	-7064
Grant	-7065
Royce	-7066
entry	-7067
ished	-7068
opert	-7069
otaur	-7070
stock	-7071
ulent	-7072
▁1003	-7073
▁15,1	-7074
▁1974	-7075
▁3807	-7076
▁Clay	-7077
▁José	-7078
▁Moga	-7079
▁Okeh	-7080
▁Palo	-7081
▁Slay	-7082
▁Wall	-7083
▁band	-7084
▁djar	-7085
▁prop	-7086
-1976.	-7087
Banner	-7088
Ithaca	-7089
Jannar	-7090
ancell	-7091
ernykh	-7092
karest	-7093
▁1905.	-7094
▁19238	-7095
▁344.9	-7096
▁523.9	-7097
▁Horch	-7098
▁Maine	-7099
▁Poyet	-7100
▁Rjali	-7101
▁Rolls	-7102
▁frott	-7103
▁jużaw	-7104
▁qiegħ	-7105
▁ħaġar	-7106
Chicago	-7107
appoġġi	-7108
cashire	-7109
peanuts	-7110
unijiet	-7111
▁570592	-7112
▁767983	-7113
▁Cruise	-7114
▁Giovan	-7115
▁Marius	-7116
▁Tejano	-7117
▁ġeneru	-7118
Coventry	-7119
militari	-7120
pazzjoni	-7121
▁Nikolai	-7122
▁Polydor	-7123
▁Rostock	-7124
▁Servizz	-7125
▁Stephen	-7126
▁Turkmen	-7127
▁issegwi	-7128
▁ketchup	-7129
▁kontrib	-7130
Karnataka	-7131
Kompjuter	-7132
adalajara	-7133
kompetiet	-7134
sociation	-7135
▁2014-15.	-7136
▁Chernykh	-7137
▁Gazettes	-7138
▁Mamiffer	-7139
▁jimpjega	-7140
▁populari	-7141
0000000000	-7142
Grantville	-7143
maniġġjata	-7144
▁93645978.	-7145
▁Hungarica	-7146
▁Lafayette	-7147
▁jipprovdi	-7148
▁titkellem	-7149
arkitetturi	-7150
egwentement	-7151
Associazione	-7152
▁Asociazione	-7153
▁immaniġġjat	-7154
▁Distinguished	-7155
▁978-1-4165-4253	-7156
OK	-7157
Sc	-7158
UT	-7159
XN	-7160
bg	-7161
ln	-7162
uß	-7163
úl	-7164
▁Ħ	-7165
/1.	-7166
2.3	-7167
407	-7168
7.1	-7169
749	-7170
776	-7171
Kan	-7172
Mat	-7173
NAS	-7174
Pla	-7175
bol	-7176
che	-7177
ify	-7178
jor	-7179
kas	-7180
ole	-7181
pen	-7182
ser	-7183
ted	-7184
öln	-7185
ġab	-7186
▁60	-7187
▁kl	-7188
▁ru	-7189
091.	-7190
2164	-7191
6463	-7192
Klub	-7193
Luna	-7194
Stir	-7195
arif	-7196
deon	-7197
ejħu	-7198
enta	-7199
etam	-7200
inen	-7201
mien	-7202
morċ	-7203
pjan	-7204
rewe	-7205
saac	-7206
ugin	-7207
zzja	-7208
▁288	-7209
▁292	-7210
▁ALV	-7211
▁Cor	-7212
▁Taq	-7213
▁apa	-7214
▁dis	-7215
-1862	-7216
00000	-7217
Blues	-7218
allis	-7219
eldon	-7220
ensis	-7221
enzie	-7222
inali	-7223
irien	-7224
pañol	-7225
porti	-7226
▁1856	-7227
▁1983	-7228
▁1996	-7229
▁7877	-7230
▁8.33	-7231
▁Boat	-7232
▁Dick	-7233
▁Hold	-7234
▁Köln	-7235
▁Lyle	-7236
▁Mold	-7237
▁Oros	-7238
▁Raul	-7239
▁Tait	-7240
▁Univ	-7241
▁VIAG	-7242
▁Vorw	-7243
▁akus	-7244
▁ayam	-7245
▁bron	-7246
▁disk	-7247
▁dwar	-7248
▁klub	-7249
▁parz	-7250
-1955,	-7251
-1959.	-7252
000270	-7253
Airbus	-7254
Peoria	-7255
Stirja	-7256
United	-7257
alopod	-7258
attakk	-7259
chelen	-7260
demont	-7261
icelli	-7262
itarja	-7263
ußisch	-7264
vilupp	-7265
▁01-01	-7266
▁1516.	-7267
▁15788	-7268
▁2008.	-7269
▁2011.	-7270
▁Bhaji	-7271
▁Hambg	-7272
▁Isaac	-7273
▁Music	-7274
▁Odeon	-7275
▁Pugin	-7276
▁Rojas	-7277
▁Semin	-7278
▁Serje	-7279
▁Simon	-7280
▁Steyr	-7281
▁Super	-7282
▁itwal	-7283
▁qasam	-7284
▁reali	-7285
▁ttemm	-7286
▁ħaġeb	-7287
Shirley	-7288
istudju	-7289
oviment	-7290
▁142603	-7291
▁162164	-7292
▁288749	-7293
▁836463	-7294
▁Carles	-7295
▁Digify	-7296
▁Dillin	-7297
▁Maiden	-7298
▁Quezon	-7299
▁Torino	-7300
▁joffri	-7301
▁komuni	-7302
▁kubiku	-7303
▁kummer	-7304
▁Ġlieda	-7305
Plaasant	-7306
Trasport	-7307
morċilla	-7308
orsville	-7309
politika	-7310
thelwald	-7311
ġunijiet	-7312
żizzjoni	-7313
▁8000270	-7314
▁Academy	-7315
▁Español	-7316
▁Menasha	-7317
▁Moldoff	-7318
▁Seattle	-7319
▁Sheldon	-7320
▁jkellem	-7321
▁servizz	-7322
Invasjoni	-7323
invasjoni	-7324
▁Augustus	-7325
▁Chancell	-7326
▁Electric	-7327
▁Francois	-7328
▁Galactic	-7329
▁Giovanni	-7330
▁Mechelen	-7331
▁Monocacy	-7332
▁Taqaddum	-7333
▁irċeviet	-7334
▁prodotta	-7335
▁suċċessur	-7336
00000000003	-7337
Bundelkhand	-7338
▁162164091.	-7339
▁475426000.	-7340
▁Puigdemont	-7341
▁0-439-17684	-7342
▁kklassifikata	-7343
Ja	-7344
Ma	-7345
Sy	-7346
qs	-7347
-02	-7348
-09	-7349
4.7	-7350
5,4	-7351
622	-7352
MIT	-7353
Ter	-7354
USF	-7355
Zaw	-7356
bre	-7357
eme	-7358
kup	-7359
lus	-7360
nem	-7361
reb	-7362
vio	-7363
wan	-7364
▁No	-7365
▁Va	-7366
▁pl	-7367
-932	-7368
/198	-7369
3900	-7370
4.33	-7371
42.3	-7372
7.0.	-7373
9447	-7374
Auto	-7375
Mold	-7376
aber	-7377
aduy	-7378
coni	-7379
enoa	-7380
ever	-7381
guin	-7382
ibla	-7383
inau	-7384
ions	-7385
ivis	-7386
krop	-7387
ligħ	-7388
lira	-7389
mezz	-7390
mpar	-7391
oilo	-7392
orta	-7393
ozja	-7394
prje	-7395
risk	-7396
romb	-7397
ruċi	-7398
sche	-7399
tiop	-7400
ulta	-7401
unde	-7402
weed	-7403
ħobż	-7404
▁168	-7405
▁448	-7406
▁698	-7407
▁945	-7408
▁Ast	-7409
▁Bas	-7410
▁HOK	-7411
▁Kir	-7412
▁Paz	-7413
▁bid	-7414
▁qab	-7415
▁web	-7416
-1981	-7417
-1995	-7418
00082	-7419
64517	-7420
Deheb	-7421
Lanek	-7422
Latin	-7423
Perth	-7424
Zawra	-7425
adier	-7426
assic	-7427
ichar	-7428
lutch	-7429
press	-7430
serje	-7431
urole	-7432
vezja	-7433
▁1174	-7434
▁AIDS	-7435
▁Bola	-7436
▁Cohn	-7437
▁Gary	-7438
▁Hist	-7439
▁Jong	-7440
▁Moro	-7441
▁Raúl	-7442
▁Russ	-7443
▁lejn	-7444
▁stil	-7445
▁tras	-7446
▁ċart	-7447
iegħdu	-7448
isinau	-7449
jetnam	-7450
membri	-7451
sville	-7452
tinsky	-7453
▁23900	-7454
▁347.1	-7455
▁39447	-7456
▁74.33	-7457
▁Bible	-7458
▁Crewe	-7459
▁Diane	-7460
▁Duane	-7461
▁Faber	-7462
▁Reith	-7463
▁Silva	-7464
▁Steel	-7465
▁Thema	-7466
▁Ukrop	-7467
▁apapp	-7468
▁debut	-7469
▁frisk	-7470
▁użati	-7471
Albaama	-7472
Iskozja	-7473
Livorno	-7474
Moldova	-7475
einster	-7476
ematika	-7477
landiża	-7478
lusconi	-7479
nemunde	-7480
qiegħed	-7481
ħamrija	-7482
▁1142.3	-7483
▁464517	-7484
▁600407	-7485
▁698622	-7486
▁787711	-7487
▁Dayton	-7488
▁Garden	-7489
▁Igorot	-7490
▁Iloilo	-7491
▁Kaduna	-7492
▁Random	-7493
▁Sharif	-7494
▁Shorta	-7495
▁Silvio	-7496
▁Singer	-7497
▁bhajji	-7498
▁membri	-7499
Seminary	-7500
binignit	-7501
istampar	-7502
sandwich	-7503
uffiċċju	-7504
Ġermaniż	-7505
▁Classic	-7506
▁Digweed	-7507
▁Garrett	-7508
▁Penguin	-7509
▁Vazquez	-7510
▁impjega	-7511
▁manwali	-7512
▁mbagħad	-7513
▁miżjuda	-7514
▁mmuntat	-7515
▁nżewweġ	-7516
▁permezz	-7517
-2014-15.	-7518
Granadier	-7519
Hardcover	-7520
istrument	-7521
materjali	-7522
ogħlijiet	-7523
prjetarju	-7524
uroleague	-7525
▁Alhambra	-7526
▁Antietam	-7527
▁Berliner	-7528
▁Chrysler	-7529
▁Monokacy	-7530
▁bankarju	-7531
▁jissejħu	-7532
▁militari	-7533
Pensilvana	-7534
pożizzjoni	-7535
zzjonijiet	-7536
▁Broadwood	-7537
▁Historiċi	-7538
▁Lauraceae	-7539
▁mużikisti	-7540
▁oriġinali	-7541
Caterpillar	-7542
▁Berlusconi	-7543
▁Bolatinsky	-7544
▁Marysville	-7545
▁Warnemunde	-7546
▁Bloomington	-7547
▁Guadalajara	-7548
▁arkitettiku	-7549
Massachusetts	-7550
.”	-7551
/1	-7552
53	-7553
Wy	-7554
/01	-7555
/03	-7556
156	-7557
648	-7558
971	-7559
AGE	-7560
Luf	-7561
aré	-7562
bab	-7563
its	-7564
nan	-7565
ory	-7566
pul	-7567
pur	-7568
qam	-7569
tik	-7570
zii	-7571
▁42	-7572
▁KC	-7573
▁UC	-7574
▁kk	-7575
▁sq	-7576
7055	-7577
9343	-7578
9776	-7579
Ajax	-7580
Char	-7581
aker	-7582
elod	-7583
eniz	-7584
miem	-7585
mine	-7586
psey	-7587
rati	-7588
rome	-7589
snin	-7590
tino	-7591
vang	-7592
▁$38	-7593
▁3.9	-7594
▁Fru	-7595
▁Sha	-7596
▁din	-7597
▁ele	-7598
▁imm	-7599
▁mej	-7600
-3648	-7601
Asser	-7602
Ordon	-7603
acker	-7604
akora	-7605
araba	-7606
ejjel	-7607
eqreb	-7608
okado	-7609
orden	-7610
ourou	-7611
posta	-7612
sberg	-7613
versi	-7614
▁6603	-7615
▁Apul	-7616
▁Boer	-7617
▁Fute	-7618
▁Kway	-7619
▁Nova	-7620
▁Sadi	-7621
▁Vila	-7622
▁blat	-7623
▁play	-7624
-1955.	-7625
Lufkin	-7626
Pubbli	-7627
Wyeler	-7628
antino	-7629
elikop	-7630
enburg	-7631
estina	-7632
okholm	-7633
penjet	-7634
pirali	-7635
▁144.7	-7636
▁1987.	-7637
▁2001.	-7638
▁39971	-7639
▁Adnan	-7640
▁Amhar	-7641
▁Babel	-7642
▁Città	-7643
▁Evang	-7644
▁Hamad	-7645
▁Kuala	-7646
▁Mater	-7647
▁Round	-7648
▁Santi	-7649
▁Unger	-7650
▁Velod	-7651
▁Veniz	-7652
▁iserv	-7653
▁tmiem	-7654
▁tnejn	-7655
▁ħajja	-7656
Charles	-7657
Flandiż	-7658
Isvezja	-7659
karozza	-7660
konjuġi	-7661
▁0-7156	-7662
▁259776	-7663
▁479343	-7664
▁Admira	-7665
▁Fruits	-7666
▁Graeme	-7667
▁Kanada	-7668
▁Lumpur	-7669
▁Russel	-7670
▁Shabab	-7671
▁Sheikh	-7672
▁Tabare	-7673
▁Travis	-7674
▁Turzii	-7675
▁Wacker	-7676
▁Worden	-7677
▁Xjenzi	-7678
▁marmor	-7679
▁wettaq	-7680
▁ġirien	-7681
▁ħabbel	-7682
Galizzja	-7683
Moviment	-7684
Sycamore	-7685
▁$10,264	-7686
▁6603633	-7687
▁Assault	-7688
▁Carmine	-7689
▁Chester	-7690
▁Chichar	-7691
▁England	-7692
▁Futebol	-7693
▁Lambien	-7694
▁avokado	-7695
▁nħolqot	-7696
▁qiegħda	-7697
▁spirali	-7698
▁strixxi	-7699
▁ċikaron	-7700
▁Chisinau	-7701
▁Columbus	-7702
▁Kmandant	-7703
▁Rebeljon	-7704
▁Rosaceae	-7705
▁Yuzhnoye	-7706
kamikotika	-7707
raġunijiet	-7708
▁Apulensis	-7709
▁Evangelos	-7710
▁Infantino	-7711
▁Velodrome	-7712
▁Venizelos	-7713
▁mużikista	-7714
▁tipprovdi	-7715
▁259776702.	-7716
▁Babelsberg	-7717
▁kkompetiet	-7718
proprjetarju	-7719
▁0-7156-3648	-7720
▁elevazzjoni	-7721
▁sussidjarji	-7722
▁Chesterfield	-7723
▁ChievoVerona	-7724
▁Indipendenza	-7725
▁metropolitana	-7726
NR	-7727
Wh	-7728
ċu	-7729
-06	-7730
-1,	-7731
-7.	-7732
057	-7733
12.	-7734
150	-7735
18.	-7736
371	-7737
5.8	-7738
744	-7739
Bas	-7740
STV	-7741
TEC	-7742
age	-7743
gar	-7744
ney	-7745
ohn	-7746
pot	-7747
ppe	-7748
pre	-7749
sen	-7750
sor	-7751
ull	-7752
uti	-7753
ċin	-7754
’29	-7755
▁57	-7756
▁Ko	-7757
▁Vá	-7758
3309	-7759
9618	-7760
Amin	-7761
Bets	-7762
Kent	-7763
ahar	-7764
aris	-7765
bien	-7766
dħul	-7767
egro	-7768
gaum	-7769
ight	-7770
ollu	-7771
onet	-7772
orti	-7773
peri	-7774
qamħ	-7775
ters	-7776
teru	-7777
umac	-7778
uris	-7779
urku	-7780
wice	-7781
▁194	-7782
▁388	-7783
▁434	-7784
▁5.7	-7785
▁Cel	-7786
▁Gat	-7787
▁Jan	-7788
▁McK	-7789
▁Ply	-7790
▁RCA	-7791
▁Waq	-7792
▁dik	-7793
-1971	-7794
-1989	-7795
05718	-7796
5.324	-7797
7080.	-7798
Honda	-7799
Minis	-7800
andro	-7801
biegħ	-7802
ectra	-7803
eller	-7804
gramm	-7805
lamun	-7806
okkor	-7807
onnes	-7808
poplu	-7809
tehim	-7810
▁108,	-7811
▁360.	-7812
▁5300	-7813
▁Bari	-7814
▁Cata	-7815
▁Chap	-7816
▁Hard	-7817
▁Iach	-7818
▁Kien	-7819
▁Mahe	-7820
▁SAGE	-7821
▁Saab	-7822
▁Sach	-7823
▁Sons	-7824
▁Ximo	-7825
▁dawn	-7826
▁epox	-7827
▁ikun	-7828
▁kann	-7829
▁plat	-7830
Betsda	-7831
Darien	-7832
Għotja	-7833
Orange	-7834
Tennis	-7835
chelor	-7836
duttur	-7837
għażla	-7838
indsor	-7839
istrat	-7840
roduċu	-7841
sambal	-7842
ursema	-7843
useppe	-7844
▁$556,	-7845
▁1202.	-7846
▁125.8	-7847
▁8.334	-7848
▁Canto	-7849
▁Guard	-7850
▁Kirby	-7851
▁Nouri	-7852
▁deher	-7853
▁forma	-7854
▁spiża	-7855
▁suwed	-7856
▁xaħam	-7857
▁ħaddu	-7858
atowice	-7859
vinegro	-7860
▁$380,7	-7861
▁183309	-7862
▁605718	-7863
▁75.324	-7864
▁Airman	-7865
▁Benito	-7866
▁Canada	-7867
▁Crafts	-7868
▁Qaraba	-7869
▁Record	-7870
▁Rovers	-7871
▁Tabaré	-7872
▁premju	-7873
Paragwaj	-7874
Stokholm	-7875
imqassar	-7876
politiku	-7877
tubulari	-7878
▁837080.	-7879
▁Airport	-7880
▁Catania	-7881
▁Daggash	-7882
▁Dempsey	-7883
▁Iachini	-7884
▁Ipermar	-7885
▁Sachsen	-7886
▁Studies	-7887
▁Vázquez	-7888
▁diversi	-7889
Ministeru	-7890
ajoblanco	-7891
ambangani	-7892
▁140000.0	-7893
▁Duursema	-7894
▁Giuseppe	-7895
▁Leinster	-7896
▁Matchsti	-7897
▁McKenzie	-7898
▁Plymouth	-7899
▁għalkemm	-7900
▁kannella	-7901
▁maqtugħa	-7902
▁ċentrali	-7903
Charleston	-7904
Euroleague	-7905
Indoneżjan	-7906
Liġiżlatur	-7907
ervazzjoni	-7908
▁Sanderson	-7909
▁Stabbilit	-7910
▁bastiment	-7911
▁propeller	-7912
Artillerija	-7913
Universitas	-7914
▁135589000.	-7915
▁Alessandro	-7916
▁Brittaniżi	-7917
▁Ipermarcas	-7918
▁Petersburg	-7919
▁jipproduċu	-7920
Kongressjoni	-7921
▁441092000.0	-7922
▁kummerċjali	-7923
▁Saskatchewan	-7924
▁Amministratur	-7925
Ce	-7926
GR	-7927
Km	-7928
Op	-7929
ze	-7930
’.	-7931
/23	-7932
/32	-7933
131	-7934
14,	-7935
705	-7936
Fed	-7937
Gri	-7938
Mah	-7939
Vaj	-7940
elv	-7941
lad	-7942
oup	-7943
teb	-7944
tiv	-7945
uad	-7946
val	-7947
żme	-7948
▁50	-7949
▁BC	-7950
▁CD	-7951
▁HA	-7952
▁MA	-7953
▁Ow	-7954
▁Tr	-7955
▁em	-7956
▁mħ	-7957
-01.	-7958
-374	-7959
2447	-7960
80.7	-7961
9.0.	-7962
AZAL	-7963
Ażja	-7964
IATA	-7965
Kans	-7966
LCCN	-7967
Pers	-7968
Ruma	-7969
Vajl	-7970
acos	-7971
baan	-7972
beat	-7973
ebel	-7974
edah	-7975
isha	-7976
kpot	-7977
luzz	-7978
nixx	-7979
palm	-7980
pjat	-7981
pper	-7982
rezz	-7983
sain	-7984
sons	-7985
tred	-7986
utan	-7987
Żona	-7988
’295	-7989
▁139	-7990
▁882	-7991
▁Abu	-7992
▁Cut	-7993
▁Pre	-7994
▁Sip	-7995
▁Spr	-7996
▁Vig	-7997
▁abb	-7998
▁aka	-7999
▁fer	-8000
▁ħin	-8001
-1959	-8002
47055	-8003
Arabi	-8004
Milan	-8005
allef	-8006
deriv	-8007
għoti	-8008
ietta	-8009
istri	-8010
kawża	-8011
kruċi	-8012
mexxa	-8013
oluti	-8014
żmien	-8015
▁1114	-8016
▁2000	-8017
▁2008	-8018
▁21.2	-8019
▁4150	-8020
▁8388	-8021
▁Afro	-8022
▁Aust	-8023
▁Doll	-8024
▁Fuad	-8025
▁Jahn	-8026
▁Juha	-8027
▁Maġġ	-8028
▁Mish	-8029
▁Pick	-8030
▁Quay	-8031
▁Sago	-8032
▁Sama	-8033
▁Vlad	-8034
▁arem	-8035
▁doll	-8036
-26131	-8037
000.0,	-8038
Cealla	-8039
Ftehim	-8040
Stadju	-8041
bagħat	-8042
bodran	-8043
elvini	-8044
etturi	-8045
istrib	-8046
pjatta	-8047
rimest	-8048
▁1974.	-8049
▁1981.	-8050
▁69618	-8051
▁Halim	-8052
▁Kedah	-8053
▁Kochi	-8054
▁Masum	-8055
▁Sauli	-8056
▁Stock	-8057
▁Sumac	-8058
▁Turka	-8059
▁Ujang	-8060
▁Zahar	-8061
▁barni	-8062
▁gitar	-8063
▁kompe	-8064
▁qoton	-8065
▁sewda	-8066
-01-01.	-8067
Arabija	-8068
Falsons	-8069
Ispazju	-8070
Niġerja	-8071
Windsor	-8072
breaker	-8073
kartiċi	-8074
konteġġ	-8075
rekords	-8076
▁0001-8	-8077
▁139705	-8078
▁162447	-8079
▁Chapin	-8080
▁Griega	-8081
▁Helmut	-8082
▁Inkpot	-8083
▁Kupper	-8084
▁States	-8085
▁fergħa	-8086
▁kiesħa	-8087
▁kompli	-8088
▁number	-8089
▁rekord	-8090
▁sewqan	-8091
6000000.	-8092
Direttur	-8093
Monument	-8094
Persunal	-8095
kruċiera	-8096
ottetown	-8097
programm	-8098
▁1516.67	-8099
▁Austria	-8100
▁Barajas	-8101
▁Chilton	-8102
▁Hussain	-8103
▁Mishkin	-8104
▁Pickard	-8105
▁Portali	-8106
▁Samaist	-8107
▁Trenton	-8108
▁Vicenza	-8109
▁akapsis	-8110
▁joperaw	-8111
▁merluzz	-8112
▁mibniet	-8113
▁mħarreġ	-8114
Ajruporti	-8115
Ceallaigh	-8116
residenza	-8117
▁Afrobeat	-8118
▁Bachelor	-8119
▁Bukarest	-8120
▁Guardian	-8121
▁Minotaur	-8122
▁Richland	-8123
▁involuti	-8124
▁komikjat	-8125
▁nnifisha	-8126
-374-26131	-8127
Locomotive	-8128
avjazzjoni	-8129
▁Awstrijak	-8130
▁Carrarese	-8131
▁produttur	-8132
▁speċifiku	-8133
▁tirregola	-8134
Arianespace	-8135
varjazzjoni	-8136
▁440756000.	-8137
▁523329000.	-8138
▁Kupperberg	-8139
▁Manchester	-8140
▁Olympiacos	-8141
▁psikedelja	-8142
Federazzjoni	-8143
okkupazzjoni	-8144
▁373513000.0	-8145
ervazzjonijiet	-8146
▁288749000000.	-8147
▁rappreżentant	-8148
▁0-439-92550-9.	-8149
▁259776702.47055	-8150
GP	-8151
PS	-8152
mo	-8153
vu	-8154
xa	-8155
zs	-8156
üs	-8157
üt	-8158
/35	-8159
11,	-8160
142	-8161
21.	-8162
3.1	-8163
805	-8164
881	-8165
900	-8166
911	-8167
PGP	-8168
ald	-8169
amo	-8170
ben	-8171
bni	-8172
ded	-8173
dji	-8174
hov	-8175
iżi	-8176
mlu	-8177
okl	-8178
ots	-8179
rom	-8180
▁By	-8181
▁CA	-8182
▁HE	-8183
▁Ia	-8184
▁MD	-8185
▁SN	-8186
▁ST	-8187
▁sh	-8188
7.94	-8189
Baku	-8190
NRBQ	-8191
Pira	-8192
afta	-8193
ajub	-8194
amin	-8195
anth	-8196
blat	-8197
bżar	-8198
cinn	-8199
djar	-8200
esse	-8201
iles	-8202
kris	-8203
nhem	-8204
olum	-8205
onta	-8206
oupé	-8207
tori	-8208
wett	-8209
▁$87	-8210
▁03/	-8211
▁10,	-8212
▁374	-8213
▁45.	-8214
▁535	-8215
▁99.	-8216
▁AGR	-8217
▁Bat	-8218
▁Büt	-8219
▁Eva	-8220
▁Hal	-8221
▁Hüs	-8222
▁Len	-8223
▁Muc	-8224
▁Mus	-8225
▁SVE	-8226
▁VAM	-8227
▁sub	-8228
-1700	-8229
Iskri	-8230
PGPAC	-8231
cinny	-8232
elery	-8233
ellaħ	-8234
enzil	-8235
hoven	-8236
konja	-8237
marja	-8238
oklyn	-8239
onist	-8240
sisti	-8241
sserv	-8242
tault	-8243
zsimm	-8244
zzata	-8245
ġabar	-8246
▁3000	-8247
▁4881	-8248
▁8805	-8249
▁Eind	-8250
▁Kiss	-8251
▁Prin	-8252
▁Punk	-8253
▁Vala	-8254
▁Wein	-8255
▁Żejt	-8256
Kourou	-8257
Kunċja	-8258
Pirata	-8259
Virage	-8260
Wheler	-8261
armata	-8262
atorju	-8263
evered	-8264
hachos	-8265
isport	-8266
itesse	-8267
mużiku	-8268
teċipa	-8269
tredia	-8270
▁1,905	-8271
▁1999.	-8272
▁39371	-8273
▁783.1	-8274
▁Genoa	-8275
▁Giles	-8276
▁Güner	-8277
▁Memor	-8278
▁Panth	-8279
▁Roque	-8280
▁Spata	-8281
▁Spell	-8282
▁Vajub	-8283
▁Valur	-8284
▁assol	-8285
▁nbena	-8286
▁qligħ	-8287
▁short	-8288
▁xafta	-8289
General	-8290
Mahutan	-8291
Sumatra	-8292
alerija	-8293
ffiljat	-8294
jalment	-8295
konjura	-8296
▁$875,4	-8297
▁'1634:	-8298
▁111484	-8299
▁1580.7	-8300
▁2777.0	-8301
▁Arnhem	-8302
▁Batumi	-8303
▁Denzil	-8304
▁Dinamo	-8305
▁Herald	-8306
▁Leiden	-8307
▁Provin	-8308
▁Staten	-8309
▁awtori	-8310
▁ikollu	-8311
▁mudell	-8312
▁offset	-8313
▁sposta	-8314
bakewell	-8315
reġistra	-8316
servizzi	-8317
zsimmons	-8318
▁5705922	-8319
▁8700082	-8320
▁Antonio	-8321
▁Asajaya	-8322
▁Attault	-8323
▁Bütüner	-8324
▁Estadio	-8325
▁Hüseyin	-8326
▁Kissing	-8327
▁Severed	-8328
▁jagħmlu	-8329
▁kelvini	-8330
Britanniż	-8331
konsulent	-8332
▁Brooklyn	-8333
▁Goscinny	-8334
▁Memorial	-8335
▁Olimpico	-8336
▁Ottomana	-8337
▁Panthers	-8338
▁Simonson	-8339
▁Vajubhai	-8340
▁għalhekk	-8341
▁immellaħ	-8342
dipendenza	-8343
ontacticut	-8344
territorju	-8345
▁80002709.	-8346
▁Eindhoven	-8347
▁Muchachos	-8348
▁Proprjetà	-8349
▁Samtredia	-8350
Britannique	-8351
sservatorju	-8352
▁179942000.	-8353
▁muniċipali	-8354
▁spostament	-8355
▁Fitzsimmons	-8356
▁parzjalment	-8357
▁Efxeinoupoli	-8358
▁Massachusetts	-8359
▁0-670-03380-4.	-8360
▁Soldevanahalli	-8361
▁sussegwentement	-8362
4,	-8363
58	-8364
Ko	-8365
LO	-8366
rd	-8367
-56	-8368
/18	-8369
/27	-8370
39.	-8371
7-3	-8372
ICO	-8373
LCO	-8374
Leg	-8375
War	-8376
bet	-8377
bil	-8378
cip	-8379
dom	-8380
eso	-8381
ird	-8382
oul	-8383
pee	-8384
rea	-8385
riq	-8386
rix	-8387
waz	-8388
ċie	-8389
ħal	-8390
ħob	-8391
▁35	-8392
▁Sa	-8393
▁WB	-8394
▁si	-8395
-214	-8396
6521	-8397
Acta	-8398
Agra	-8399
Kbar	-8400
Kont	-8401
Mari	-8402
Meda	-8403
Prin	-8404
Town	-8405
acio	-8406
amen	-8407
arch	-8408
atov	-8409
bata	-8410
boid	-8411
bron	-8412
chez	-8413
daqs	-8414
elez	-8415
enry	-8416
ertà	-8417
eter	-8418
head	-8419
kies	-8420
konċ	-8421
kuas	-8422
kwad	-8423
lank	-8424
ning	-8425
olfo	-8426
olja	-8427
ould	-8428
owle	-8429
seum	-8430
soci	-8431
tage	-8432
uson	-8433
utat	-8434
érix	-8435
▁12,	-8436
▁5.4	-8437
▁507	-8438
▁Aff	-8439
▁Def	-8440
▁Kek	-8441
▁Lem	-8442
▁Mam	-8443
▁Res	-8444
▁Sir	-8445
▁São	-8446
▁Var	-8447
▁imq	-8448
▁jib	-8449
▁jil	-8450
▁kej	-8451
-05-2	-8452
-1927	-8453
-1932	-8454
-5694	-8455
7-301	-8456
Grieg	-8457
House	-8458
ICOLO	-8459
Murku	-8460
Print	-8461
atown	-8462
biltà	-8463
enent	-8464
entri	-8465
ether	-8466
għadd	-8467
inson	-8468
lanta	-8469
rakov	-8470
teina	-8471
tures	-8472
ċanga	-8473
Ġunju	-8474
▁0965	-8475
▁1952	-8476
▁ALCO	-8477
▁Cast	-8478
▁Ferg	-8479
▁Fiat	-8480
▁Greg	-8481
▁Into	-8482
▁Kali	-8483
▁Leon	-8484
▁Mond	-8485
▁Opel	-8486
▁Orth	-8487
▁Trot	-8488
▁dded	-8489
▁nofs	-8490
▁teow	-8491
-1981.	-8492
-2001.	-8493
Quezon	-8494
bovini	-8495
egunda	-8496
etroit	-8497
iensis	-8498
kwadru	-8499
lastik	-8500
orpora	-8501
ptford	-8502
tituta	-8503
▁1907.	-8504
▁1920,	-8505
▁Andal	-8506
▁Barry	-8507
▁Blank	-8508
▁Carpi	-8509
▁Fowle	-8510
▁Gould	-8511
▁Henry	-8512
▁Jarmo	-8513
▁Laird	-8514
▁Nawaz	-8515
▁Place	-8516
▁bronż	-8517
▁għadu	-8518
▁iffri	-8519
▁inter	-8520
Colmore	-8521
Legjoni	-8522
Mariott	-8523
alainen	-8524
arlamen	-8525
batagor	-8526
herwell	-8527
issjoni	-8528
oliseum	-8529
sekonda	-8530
▁1,9558	-8531
▁296521	-8532
▁Affair	-8533
▁Halton	-8534
▁Nether	-8535
▁Operat	-8536
▁Picchi	-8537
▁Rosids	-8538
▁Ticino	-8539
▁Valery	-8540
▁Vectra	-8541
▁Wilson	-8542
▁appoġġ	-8543
▁differ	-8544
▁imnixx	-8545
▁inbeda	-8546
▁jkollu	-8547
▁komika	-8548
▁stadji	-8549
▁ċentri	-8550
Afrikani	-8551
Columbus	-8552
Marriott	-8553
Township	-8554
▁Armando	-8555
▁Coronet	-8556
▁Detroit	-8557
▁Gregory	-8558
▁Kaliber	-8559
▁Kubatov	-8560
▁Mwaqqfa	-8561
▁Odinson	-8562
▁Segunda	-8563
▁Stanyan	-8564
▁Trotsky	-8565
▁Vantage	-8566
▁Volunti	-8567
▁imsejħa	-8568
▁jkejjel	-8569
▁karboid	-8570
▁maħluqa	-8571
▁mimlija	-8572
▁skopert	-8573
▁tintuża	-8574
▁varjant	-8575
Ethelwald	-8576
Kaliforja	-8577
Kansiller	-8578
ikazzjoni	-8579
Ġermaniżi	-8580
▁0965-214	-8581
▁Ferguson	-8582
▁Mondelez	-8583
▁Petrakov	-8584
▁jġiegħdu	-8585
▁mmuntata	-8586
▁proteina	-8587
-56947-301	-8588
maniġġjati	-8589
orporation	-8590
▁475426000	-8591
▁57059226.	-8592
▁Distinguż	-8593
▁Nashville	-8594
▁Restituta	-8595
▁domiċilju	-8596
▁kejkijiet	-8597
▁paperback	-8598
Association	-8599
Contacticut	-8600
arlamentari	-8601
▁142603000.	-8602
▁441092000.	-8603
▁Kekalainen	-8604
▁Lancashire	-8605
▁Salvadoran	-8606
▁Stellendam	-8607
▁kodiċijiet	-8608
Osservatorju	-8609
▁39971000000	-8610
▁520906000.0	-8611
▁Netherlands	-8612
▁Universitas	-8613
▁amatriciana	-8614
▁mmaniġġjata	-8615
▁mmaniġġjati	-8616
▁perijopsija	-8617
▁Aarhusiensis	-8618
▁0-439-17685-9.	-8619
Wi	-8620
fs	-8621
-25	-8622
0.8	-8623
01.	-8624
04.	-8625
290	-8626
4.1	-8627
Cam	-8628
ESA	-8629
Ist	-8630
Mob	-8631
amm	-8632
bja	-8633
den	-8634
iva	-8635
ión	-8636
jir	-8637
lli	-8638
tus	-8639
uck	-8640
ħab	-8641
▁Cy	-8642
▁GA	-8643
▁RQ	-8644
-263	-8645
1951	-8646
473.	-8647
6448	-8648
9142	-8649
Ares	-8650
Camb	-8651
Jawi	-8652
Quwa	-8653
Tema	-8654
acan	-8655
aide	-8656
avan	-8657
ayat	-8658
erts	-8659
esta	-8660
hman	-8661
hmuż	-8662
iego	-8663
laġġ	-8664
omor	-8665
orse	-8666
osev	-8667
pane	-8668
rażm	-8669
reaz	-8670
reta	-8671
rota	-8672
rupa	-8673
tera	-8674
trat	-8675
utur	-8676
uzzi	-8677
▁324	-8678
▁331	-8679
▁476	-8680
▁Ark	-8681
▁Dis	-8682
▁Ent	-8683
▁Eug	-8684
▁Kim	-8685
▁Lin	-8686
▁Mig	-8687
▁dro	-8688
▁fix	-8689
▁ikk	-8690
▁kli	-8691
▁mik	-8692
▁uni	-8693
-1920	-8694
-1930	-8695
-1976	-8696
2-932	-8697
33968	-8698
52497	-8699
68.65	-8700
Almen	-8701
April	-8702
Arese	-8703
Charl	-8704
Disco	-8705
Etiop	-8706
Lotus	-8707
Maine	-8708
Patri	-8709
adolu	-8710
arter	-8711
atura	-8712
berly	-8713
egina	-8714
estro	-8715
ieħeb	-8716
innah	-8717
iżika	-8718
ordon	-8719
retur	-8720
ċieva	-8721
▁000.	-8722
▁0473	-8723
▁1080	-8724
▁1301	-8725
▁1558	-8726
▁1987	-8727
▁Adel	-8728
▁Ahri	-8729
▁Dino	-8730
▁Efes	-8731
▁Isem	-8732
▁Iwan	-8733
▁Jati	-8734
▁Luis	-8735
▁Mill	-8736
▁Mols	-8737
▁drum	-8738
▁jint	-8739
▁kapa	-8740
▁mewġ	-8741
▁pjan	-8742
▁rkup	-8743
▁siti	-8744
-1913,	-8745
-1931.	-8746
-1986,	-8747
88-263	-8748
Jawiya	-8749
Medala	-8750
Serbja	-8751
Singap	-8752
Spanja	-8753
Wieler	-8754
butoka	-8755
gipane	-8756
talist	-8757
tament	-8758
torali	-8759
udelli	-8760
unster	-8761
Ġlieda	-8762
▁03/04	-8763
▁10252	-8764
▁17023	-8765
▁18.52	-8766
▁1913.	-8767
▁233.9	-8768
▁47290	-8769
▁Breaz	-8770
▁Colin	-8771
▁Cyrus	-8772
▁Diego	-8773
▁Horse	-8774
▁Melbo	-8775
▁Moska	-8776
▁Ramis	-8777
▁Vance	-8778
▁Wheel	-8779
▁bosta	-8780
▁kbira	-8781
▁mexxa	-8782
▁skemm	-8783
▁ħomor	-8784
00.0.0.	-8785
Etiopja	-8786
Falcons	-8787
Metapán	-8788
arterly	-8789
ecorino	-8790
osevelt	-8791
prodott	-8792
riżulta	-8793
vettura	-8794
▁1104.1	-8795
▁11473.	-8796
▁279142	-8797
▁352497	-8798
▁368.65	-8799
▁456448	-8800
▁Ballis	-8801
▁Bujang	-8802
▁Celery	-8803
▁Disney	-8804
▁Edward	-8805
▁Eugene	-8806
▁Falcon	-8807
▁Fenves	-8808
▁Gordon	-8809
▁Jinnah	-8810
▁Melaka	-8811
▁Meride	-8812
▁Miguel	-8813
▁Othman	-8814
▁Powell	-8815
▁mehmuż	-8816
▁qatgħa	-8817
Iżvilupp	-8818
Mobbiltà	-8819
Patriots	-8820
Singapur	-8821
enlandiż	-8822
Ġestjoni	-8823
▁15,100,	-8824
▁1558-28	-8825
▁488160.	-8826
▁Entella	-8827
▁Horacio	-8828
▁Huskies	-8829
▁Iżolari	-8830
▁Larreta	-8831
▁Manuzzi	-8832
▁Marsden	-8833
▁Nofsani	-8834
▁Rosales	-8835
▁Studios	-8836
▁bhangra	-8837
▁servuti	-8838
▁trimest	-8839
Cambridge	-8840
Gazzettes	-8841
Wisconsin	-8842
acanestro	-8843
eqrebbelt	-8844
mentalist	-8845
remicelli	-8846
▁0002-932	-8847
▁Adelaide	-8848
▁Fighting	-8849
▁Kimberly	-8850
▁Martinez	-8851
▁Philippe	-8852
▁Santilli	-8853
▁Standard	-8854
▁dedikata	-8855
▁imħarreġ	-8856
▁ismijiet	-8857
▁strument	-8858
Accrington	-8859
Campeonato	-8860
Matematika	-8861
Territorju	-8862
prefettura	-8863
▁Awstralja	-8864
▁Chinatown	-8865
▁Deportiva	-8866
▁Quarterly	-8867
▁Roosevelt	-8868
▁Stockport	-8869
▁asterojde	-8870
▁hardcover	-8871
▁immuntata	-8872
▁subġeneru	-8873
Isplussjoni	-8874
Kaliforniża	-8875
Operazzjoni	-8876
▁139705000.	-8877
▁Bundesliga	-8878
▁appappassi	-8879
▁differenti	-8880
Saskatchewan	-8881
manifatturat	-8882
▁1-56947-301	-8883
▁Corporation	-8884
▁Provinċjali	-8885
▁karboidrati	-8886
▁psikedelika	-8887
Amsterdamsche	-8888
Charlottetown	-8889
▁$380,700000.	-8890
▁prestazzjoni	-8891
▁0-7156-3648-0.	-8892
'.	-8893
HE	-8894
ea	-8895
rs	-8896
’2	-8897
-6.	-8898
250	-8899
477	-8900
6.2	-8901
73-	-8902
73.	-8903
833	-8904
978	-8905
Aff	-8906
Nor	-8907
Sov	-8908
awt	-8909
cru	-8910
ead	-8911
fin	-8912
gue	-8913
isp	-8914
lok	-8915
lop	-8916
mun	-8917
nom	-8918
obi	-8919
rok	-8920
sea	-8921
sej	-8922
tuħ	-8923
wol	-8924
øke	-8925
żel	-8926
▁48	-8927
▁AD	-8928
▁ED	-8929
▁KV	-8930
▁KY	-8931
▁NJ	-8932
▁NZ	-8933
▁bċ	-8934
▁ko	-8935
▁vi	-8936
0068	-8937
3.95	-8938
4770	-8939
516.	-8940
6.65	-8941
8500	-8942
92.6	-8943
Anti	-8944
Aten	-8945
Cone	-8946
Cour	-8947
MAHE	-8948
Siġġ	-8949
arja	-8950
arts	-8951
atel	-8952
egħa	-8953
ench	-8954
esen	-8955
evat	-8956
ewis	-8957
iang	-8958
iben	-8959
iena	-8960
ijan	-8961
miġġ	-8962
ohne	-8963
omer	-8964
ompe	-8965
prim	-8966
rogh	-8967
taro	-8968
tras	-8969
tugħ	-8970
ture	-8971
urne	-8972
vell	-8973
vuċi	-8974
çois	-8975
ċjal	-8976
ċjar	-8977
ġenb	-8978
▁1,8	-8979
▁127	-8980
▁162	-8981
▁221	-8982
▁274	-8983
▁3.5	-8984
▁44.	-8985
▁Ata	-8986
▁Hec	-8987
▁Kai	-8988
▁Max	-8989
▁Rap	-8990
▁Tuk	-8991
▁Tze	-8992
▁fri	-8993
▁jam	-8994
-0-15	-8995
00.0,	-8996
2.213	-8997
Libja	-8998
North	-8999
Norve	-9000
aktar	-9001
anyum	-9002
arage	-9003
cipal	-9004
crust	-9005
elsea	-9006
ensio	-9007
epoċi	-9008
ieled	-9009
ijano	-9010
ilips	-9011
iskid	-9012
jenti	-9013
kollu	-9014
kotta	-9015
lieva	-9016
lopis	-9017
manov	-9018
nival	-9019
oraes	-9020
orneo	-9021
panol	-9022
perti	-9023
rezze	-9024
thony	-9025
ħabba	-9026
▁0.01	-9027
▁1299	-9028
▁2011	-9029
▁2112	-9030
▁250.	-9031
▁4.14	-9032
▁4000	-9033
▁55.4	-9034
▁8500	-9035
▁Arti	-9036
▁Buck	-9037
▁Ciro	-9038
▁Faro	-9039
▁Hort	-9040
▁Huib	-9041
▁Løke	-9042
▁Miri	-9043
▁Numa	-9044
▁Puya	-9045
▁SqKm	-9046
▁Stor	-9047
▁Wave	-9048
▁Yong	-9049
▁belt	-9050
▁biss	-9051
▁biċċ	-9052
▁from	-9053
▁hekk	-9054
▁nnom	-9055
▁suċċ	-9056
▁ħadu	-9057
-1962,	-9058
516.63	-9059
950000	-9060
Arabja	-9061
Boeing	-9062
Bovini	-9063
Fiżika	-9064
aleobi	-9065
aminer	-9066
artist	-9067
backer	-9068
clutch	-9069
inarju	-9070
miġġur	-9071
ologna	-9072
sociac	-9073
ċellur	-9074
żebbuġ	-9075
▁01/01	-9076
▁140.8	-9077
▁1473-	-9078
▁1966.	-9079
▁1989.	-9080
▁2014,	-9081
▁486.2	-9082
▁497.0	-9083
▁50000	-9084
▁8,500	-9085
▁99.83	-9086
▁992.6	-9087
▁Anand	-9088
▁Arrow	-9089
▁Barra	-9090
▁Brian	-9091
▁Celeb	-9092
▁Dunne	-9093
▁Elihu	-9094
▁Force	-9095
▁Grand	-9096
▁Homer	-9097
▁Laħam	-9098
▁Lewis	-9099
▁Patel	-9100
▁Royce	-9101
▁disco	-9102
▁jilqa	-9103
▁tranż	-9104
▁turis	-9105
-204770	-9106
Brandon	-9107
Demokra	-9108
Indjani	-9109
Lanċjar	-9110
William	-9111
bandeja	-9112
fatturi	-9113
kantera	-9114
kottage	-9115
minster	-9116
rogheda	-9117
traspor	-9118
ussisch	-9119
▁10,252	-9120
▁100305	-9121
▁360.29	-9122
▁703.95	-9123
▁Chiang	-9124
▁Fortin	-9125
▁Hector	-9126
▁Lancia	-9127
▁Llopis	-9128
▁London	-9129
▁Marcos	-9130
▁Maġġer	-9131
▁Miktub	-9132
▁Moench	-9133
▁Moraes	-9134
▁Motion	-9135
▁Philip	-9136
▁Prague	-9137
▁Prince	-9138
▁elevat	-9139
▁gramma	-9140
▁għolja	-9141
▁komple	-9142
▁livell	-9143
▁mejjet	-9144
▁mmexxi	-9145
▁ttrażm	-9146
▁varjat	-9147
▁vjanta	-9148
Javanese	-9149
Koliseum	-9150
Mumbajba	-9151
Norveġja	-9152
direttur	-9153
ganzjali	-9154
idsville	-9155
ittadini	-9156
▁1296.65	-9157
▁2015-06	-9158
▁Anthony	-9159
▁Belgaum	-9160
▁Chelsea	-9161
▁Coaracy	-9162
▁Defense	-9163
▁Irtirat	-9164
▁Opelika	-9165
▁Qarabag	-9166
▁Quijano	-9167
▁Rodolfo	-9168
▁Webster	-9169
▁asphalt	-9170
▁biċċiet	-9171
▁mudelli	-9172
▁mħallef	-9173
▁sistema	-9174
Kanċellur	-9175
anyumasan	-9176
beltijiet	-9177
couronnes	-9178
stabbilit	-9179
▁Atalanta	-9180
▁Carnival	-9181
▁Filipini	-9182
▁François	-9183
▁Huiberts	-9184
▁Liberali	-9185
▁Pakistan	-9186
▁Pallesen	-9187
▁Tukmanov	-9188
▁huwabelt	-9189
▁ntbagħat	-9190
▁suċċessa	-9191
Conecticut	-9192
▁16244700.	-9193
▁Anandiben	-9194
▁Craftsman	-9195
▁Hortensio	-9196
▁Irlandiża	-9197
▁Melbourne	-9198
▁Municipal	-9199
▁Robertson	-9200
▁emissjoni	-9201
▁kondiment	-9202
▁turistika	-9203
inghamshire	-9204
manifatturi	-9205
▁0002-9327.	-9206
▁511592000.	-9207
▁837080.744	-9208
▁Celebrezze	-9209
▁Cottingham	-9210
▁Ipermarkas	-9211
▁Motherwell	-9212
▁Recordings	-9213
▁iddisinjaw	-9214
▁manifattur	-9215
▁xogħlijiet	-9216
-0-15-204770	-9217
▁Westminster	-9218
▁derivattiva	-9219
▁jippubblika	-9220
aleobioloġija	-9221
▁6603633000.0	-9222
▁352497000000.	-9223
▁kontributtiva	-9224
▁0-439-17684-0.	-9225
▁523951582.33968	-9226
▁Buckinghamshire	-9227
▁internazzjonali	-9228
-“	-9229
30	-9230
57	-9231
Kø	-9232
Me	-9233
rl	-9234
sc	-9235
sm	-9236
wn	-9237
-63	-9238
/22	-9239
/30	-9240
12,	-9241
2.0	-9242
392	-9243
557	-9244
683	-9245
894	-9246
904	-9247
Esp	-9248
Lay	-9249
Mer	-9250
bul	-9251
chd	-9252
dip	-9253
itt	-9254
iġi	-9255
jer	-9256
jka	-9257
kel	-9258
rón	-9259
sow	-9260
ste	-9261
web	-9262
win	-9263
yav	-9264
ċċa	-9265
Ġam	-9266
ħut	-9267
▁06	-9268
▁22	-9269
▁62	-9270
▁VA	-9271
▁VD	-9272
▁co	-9273
-044	-9274
-16-	-9275
-187	-9276
-818	-9277
1928	-9278
2445	-9279
3968	-9280
7.41	-9281
Alan	-9282
Djan	-9283
Makk	-9284
Triq	-9285
afsc	-9286
alja	-9287
ambo	-9288
anne	-9289
arst	-9290
ashi	-9291
ated	-9292
died	-9293
empe	-9294
fred	-9295
here	-9296
iera	-9297
iita	-9298
inna	-9299
ioca	-9300
issa	-9301
mill	-9302
osra	-9303
owda	-9304
peso	-9305
rejn	-9306
riku	-9307
shek	-9308
ssal	-9309
tron	-9310
udap	-9311
udju	-9312
ulas	-9313
vens	-9314
wick	-9315
Ġama	-9316
żoni	-9317
▁08.	-9318
▁124	-9319
▁404	-9320
▁657	-9321
▁746	-9322
▁Cov	-9323
▁Eis	-9324
▁Fir	-9325
▁Low	-9326
▁Mes	-9327
▁PSV	-9328
▁Ple	-9329
▁Pun	-9330
▁Srl	-9331
▁Zor	-9332
▁daħ	-9333
▁div	-9334
▁doc	-9335
▁leġ	-9336
▁pri	-9337
▁qaw	-9338
▁sqm	-9339
▁ħaħ	-9340
-1820	-9341
-1931	-9342
-1985	-9343
-1990	-9344
-2006	-9345
Abadi	-9346
Anton	-9347
Bloom	-9348
Hohne	-9349
Lunch	-9350
Mater	-9351
Xlokk	-9352
adija	-9353
adipo	-9354
aider	-9355
bashi	-9356
borgh	-9357
casti	-9358
diska	-9359
eader	-9360
egodi	-9361
erala	-9362
jorie	-9363
karta	-9364
krema	-9365
monta	-9366
owski	-9367
pitan	-9368
stein	-9369
wiċċa	-9370
ċċell	-9371
▁0.02	-9372
▁0.04	-9373
▁000,	-9374
▁1046	-9375
▁1360	-9376
▁1418	-9377
▁5000	-9378
▁Arib	-9379
▁Bent	-9380
▁Bibb	-9381
▁Diya	-9382
▁Fein	-9383
▁Għal	-9384
▁Hill	-9385
▁Hull	-9386
▁Jean	-9387
▁Jill	-9388
▁Kuet	-9389
▁Shil	-9390
▁Wara	-9391
▁għas	-9392
▁hard	-9393
▁imma	-9394
▁jugħ	-9395
▁muri	-9396
▁nned	-9397
▁rwol	-9398
-1913.	-9399
-1989.	-9400
-1990.	-9401
/03/19	-9402
00,000	-9403
Gruppo	-9404
Medali	-9405
Michel	-9406
Stadio	-9407
andesh	-9408
annota	-9409
assija	-9410
awturi	-9411
chdale	-9412
chilli	-9413
ementi	-9414
iitake	-9415
irġiel	-9416
kailan	-9417
ompeti	-9418
pjanta	-9419
pjanċa	-9420
rovill	-9421
solini	-9422
wettqu	-9423
yavsky	-9424
zokkor	-9425
Ġamika	-9426
ħobija	-9427
▁16.55	-9428
▁178.0	-9429
▁1983.	-9430
▁2001,	-9431
▁2015-	-9432
▁31.48	-9433
▁33968	-9434
▁Annie	-9435
▁Aulas	-9436
▁Brown	-9437
▁Coupé	-9438
▁Gowda	-9439
▁Irwin	-9440
▁Kempe	-9441
▁Leach	-9442
▁Malas	-9443
▁Power	-9444
▁Robur	-9445
▁Siena	-9446
▁Sirku	-9447
▁Tudyk	-9448
▁klieb	-9449
▁kożme	-9450
▁where	-9451
Antonio	-9452
Atlanta	-9453
Ilinois	-9454
Kanadiż	-9455
Metapan	-9456
afschap	-9457
anesque	-9458
ankollu	-9459
casting	-9460
granita	-9461
landiżi	-9462
regolat	-9463
udapest	-9464
Ġamajka	-9465
▁"1634:	-9466
▁331683	-9467
▁Bright	-9468
▁Daniża	-9469
▁Dianne	-9470
▁Donald	-9471
▁Farmer	-9472
▁Haider	-9473
▁Hearst	-9474
▁Johnny	-9475
▁Kelvin	-9476
▁Kerman	-9477
▁Punjab	-9478
▁Virtus	-9479
▁abbozz	-9480
▁artist	-9481
▁ipprov	-9482
▁jbiegħ	-9483
▁klassi	-9484
▁pakora	-9485
▁studju	-9486
Brażilja	-9487
Deptford	-9488
Drogheda	-9489
Football	-9490
Katowice	-9491
Niġerjan	-9492
borghini	-9493
ertiment	-9494
phalopod	-9495
sinkromu	-9496
▁1080-63	-9497
▁3202445	-9498
▁Anadolu	-9499
▁Culture	-9500
▁Daniele	-9501
▁Fiction	-9502
▁Fighter	-9503
▁Khadija	-9504
▁Orthodo	-9505
▁Sandage	-9506
▁Station	-9507
▁Stevens	-9508
▁Taljani	-9509
▁Zoratto	-9510
▁destina	-9511
▁granita	-9512
▁koperta	-9513
▁realità	-9514
▁univers	-9515
Alligator	-9516
Demokrati	-9517
Istandard	-9518
Kumpanija	-9519
rovillari	-9520
ċittadini	-9521
▁1046-818	-9522
▁1360-044	-9523
▁1473-557	-9524
▁76798317	-9525
▁Amateurs	-9526
▁Examiner	-9527
▁Għalkemm	-9528
▁Hardwick	-9529
▁Marjorie	-9530
▁Pictures	-9531
▁Pleasant	-9532
▁Shiitake	-9533
▁Shilling	-9534
▁Svizzera	-9535
▁ddedikat	-9536
▁gitarist	-9537
▁imnixxfa	-9538
▁jammonta	-9539
▁jintużaw	-9540
▁minħabba	-9541
▁musician	-9542
▁politika	-9543
▁standard	-9544
▁ħaddiema	-9545
Makkinarju	-9546
tramuntana	-9547
▁124950000	-9548
▁46451790.	-9549
▁57392246.	-9550
▁89646863.	-9551
▁Alvinegro	-9552
▁Belyavsky	-9553
▁Bentegodi	-9554
▁Bibbowski	-9555
▁Covington	-9556
▁Feinstein	-9557
▁Mussolini	-9558
▁kompetiet	-9559
▁materjali	-9560
dipartiment	-9561
eontoloġija	-9562
immaniġġjat	-9563
perijopsija	-9564
▁296521000.	-9565
▁Banyumasan	-9566
▁Graafschap	-9567
▁Muniċipali	-9568
▁Romanesque	-9569
▁Solanaceae	-9570
▁kkonfermat	-9571
▁ttrażmetti	-9572
Kaliforniżja	-9573
Williamsburg	-9574
annotazzjoni	-9575
▁0-374-26131	-9576
▁Lamborghini	-9577
▁arkitettura	-9578
▁divertiment	-9579
▁ikkonfermat	-9580
▁trimestrali	-9581
▁Turkmenbashi	-9582
▁kompletament	-9583
▁parlamentari	-9584
▁trasmissjoni	-9585
-0-15-204770-2	-9586
preċedentement	-9587
▁Castrovillari	-9588
▁Pallacanestro	-9589
▁destinazzjoni	-9590
44	-9591
56	-9592
66	-9593
Du	-9594
ET	-9595
Ga	-9596
Kö	-9597
Ne	-9598
PT	-9599
VI	-9600
jg	-9601
my	-9602
ün	-9603
▁”	-9604
-8.	-9605
15.	-9606
17.	-9607
269	-9608
3-0	-9609
312	-9610
8.2	-9611
AAJ	-9612
Fam	-9613
Køb	-9614
Lut	-9615
MTU	-9616
Pap	-9617
RAA	-9618
Sar	-9619
Soċ	-9620
TLX	-9621
ame	-9622
bir	-9623
duo	-9624
eef	-9625
ego	-9626
esa	-9627
gua	-9628
hot	-9629
kaz	-9630
kli	-9631
lid	-9632
mán	-9633
rak	-9634
top	-9635
ugh	-9636
wyn	-9637
ysh	-9638
ärf	-9639
ħti	-9640
▁24	-9641
▁37	-9642
▁85	-9643
▁97	-9644
▁Bħ	-9645
▁IV	-9646
▁PC	-9647
▁bu	-9648
▁je	-9649
▁op	-9650
▁“0	-9651
/200	-9652
1.54	-9653
1911	-9654
1930	-9655
5591	-9656
6.66	-9657
6265	-9658
7294	-9659
8055	-9660
Alex	-9661
HAAJ	-9662
ISET	-9663
Jazz	-9664
Sent	-9665
VIAG	-9666
adze	-9667
ahle	-9668
asse	-9669
aċċa	-9670
bale	-9671
bhai	-9672
bħal	-9673
duat	-9674
dway	-9675
edef	-9676
edom	-9677
edut	-9678
erry	-9679
fess	-9680
gita	-9681
hard	-9682
ikav	-9683
jgal	-9684
kunċ	-9685
kura	-9686
line	-9687
lish	-9688
mere	-9689
nies	-9690
odju	-9691
olan	-9692
olat	-9693
olph	-9694
osys	-9695
patt	-9696
qies	-9697
roup	-9698
rown	-9699
sone	-9700
sowd	-9701
suss	-9702
tuti	-9703
ärts	-9704
ünku	-9705
ċità	-9706
▁-8.	-9707
▁03.	-9708
▁178	-9709
▁219	-9710
▁25,	-9711
▁360	-9712
▁4.6	-9713
▁Bod	-9714
▁Hav	-9715
▁Kha	-9716
▁Lit	-9717
▁Osm	-9718
▁Ren	-9719
▁Rub	-9720
▁Rud	-9721
▁Sob	-9722
▁gar	-9723
▁mex	-9724
▁plc	-9725
▁ħix	-9726
-1634	-9727
-1923	-9728
-1966	-9729
-1974	-9730
-1998	-9731
3394.	-9732
653-0	-9733
Ankar	-9734
Kenos	-9735
Manor	-9736
Semin	-9737
alows	-9738
attro	-9739
blokk	-9740
court	-9741
derzo	-9742
ebras	-9743
isher	-9744
isser	-9745
ketti	-9746
lancy	-9747
landa	-9748
medja	-9749
mulin	-9750
nitur	-9751
putat	-9752
rewer	-9753
shers	-9754
stone	-9755
toria	-9756
urati	-9757
vener	-9758
yanin	-9759
ċerti	-9760
ħtieġ	-9761
żerri	-9762
▁0.21	-9763
▁0455	-9764
▁168,	-9765
▁168.	-9766
▁1936	-9767
▁1955	-9768
▁1959	-9769
▁1966	-9770
▁737.	-9771
▁8788	-9772
▁Anni	-9773
▁Beef	-9774
▁Gasp	-9775
▁Gran	-9776
▁Issa	-9777
▁Nock	-9778
▁Polo	-9779
▁Rick	-9780
▁Udin	-9781
▁Wide	-9782
▁bżar	-9783
▁epoċ	-9784
▁kmps	-9785
▁lang	-9786
▁marb	-9787
▁miss	-9788
▁ruta	-9789
▁tart	-9790
▁viċi	-9791
▁Ġapp	-9792
-1983.	-9793
-1989,	-9794
-2006.	-9795
00000,	-9796
Cesena	-9797
Eċċell	-9798
Kerala	-9799
Metall	-9800
Neptun	-9801
Regina	-9802
Unique	-9803
albhai	-9804
anella	-9805
astero	-9806
ellner	-9807
ershot	-9808
eteran	-9809
istile	-9810
ivisie	-9811
kawkaw	-9812
klasse	-9813
kuluri	-9814
mirall	-9815
ratura	-9816
taturi	-9817
xogħol	-9818
yshkin	-9819
ġieled	-9820
▁08-16	-9821
▁2000.	-9822
▁2015,	-9823
▁2368.	-9824
▁24.4.	-9825
▁27250	-9826
▁41911	-9827
▁610.0	-9828
▁66063	-9829
▁77294	-9830
▁Barun	-9831
▁Byron	-9832
▁Carlo	-9833
▁Comic	-9834
▁Dance	-9835
▁Dutch	-9836
▁Gabor	-9837
▁Gates	-9838
▁Günku	-9839
▁Harry	-9840
▁India	-9841
▁Jerry	-9842
▁Magik	-9843
▁Redef	-9844
▁Sahle	-9845
▁Sammy	-9846
▁Tamil	-9847
▁avven	-9848
▁brown	-9849
▁group	-9850
▁kċina	-9851
▁mużju	-9852
▁qosra	-9853
▁qtugħ	-9854
▁taxxa	-9855
▁viċin	-9856
▁ġenre	-9857
Alexand	-9858
Bologna	-9859
Estadio	-9860
Istudju	-9861
Kenosha	-9862
Københa	-9863
Saranac	-9864
Soċjetà	-9865
akkjata	-9866
bbażata	-9867
bionico	-9868
domiċil	-9869
ebraska	-9870
ffiċjal	-9871
ikament	-9872
ikavkaz	-9873
luwenza	-9874
malment	-9875
patbhai	-9876
perties	-9877
pliment	-9878
sejbien	-9879
▁0.0068	-9880
▁16,000	-9881
▁161.54	-9882
▁167.94	-9883
▁336265	-9884
▁498055	-9885
▁615591	-9886
▁AMHAAJ	-9887
▁Alania	-9888
▁Boeing	-9889
▁Brewer	-9890
▁Calero	-9891
▁Carrie	-9892
▁Clancy	-9893
▁Dimmit	-9894
▁Dynamo	-9895
▁Fisher	-9896
▁Holdon	-9897
▁Indjan	-9898
▁Ithaca	-9899
▁Khalid	-9900
▁Kontra	-9901
▁Lanark	-9902
▁Ordway	-9903
▁Qatgħa	-9904
▁Schärf	-9905
▁Sidcup	-9906
▁Storrs	-9907
▁Uderzo	-9908
▁bċejja	-9909
▁jikkon	-9910
▁pjanta	-9911
▁taħdem	-9912
▁ġeneri	-9913
--------	-9914
00000000	-9915
653-0633	-9916
Hamilton	-9917
Kanadiżi	-9918
Manitoba	-9919
Marietta	-9920
brejkjar	-9921
dizzjoni	-9922
jgaladze	-9923
jonijiet	-9924
klijenti	-9925
pubbliku	-9926
ungalows	-9927
▁3746.66	-9928
▁45000.0	-9929
▁Alianza	-9930
▁English	-9931
▁Franċiż	-9932
▁Greater	-9933
▁Ibbażat	-9934
▁Kapitan	-9935
▁Mahmood	-9936
▁Oladipo	-9937
▁Orosmán	-9938
▁Osmosys	-9939
▁Philips	-9940
▁Plastik	-9941
▁Rudolph	-9942
▁Sansone	-9943
▁Udinese	-9944
▁Vitesse	-9945
▁dollari	-9946
▁graduat	-9947
▁impress	-9948
▁iservat	-9949
▁jitqies	-9950
▁maniġer	-9951
▁rċeviet	-9952
▁vetturi	-9953
▁Ġappuni	-9954
Addiction	-9955
Papenburg	-9956
Preußisch	-9957
istabbili	-9958
redivisie	-9959
żerriegħa	-9960
▁1588-263	-9961
▁1622.213	-9962
▁83646315	-9963
▁Affiljat	-9964
▁Annibale	-9965
▁Gasparis	-9966
▁Harcourt	-9967
▁Havering	-9968
▁Nockalls	-9969
▁Ottomani	-9970
▁Pallotta	-9971
▁Premiera	-9972
▁Redefine	-9973
▁Samaisto	-9974
▁Sobyanin	-9975
▁Tranmere	-9976
▁Victoria	-9977
▁Vorwärts	-9978
▁akustika	-9979
▁elementi	-9980
▁karriera	-9981
▁rutaceae	-9982
Eċċellenza	-9983
Kaliforniż	-9984
elikopters	-9985
gitaratura	-9986
memorandum	-9987
▁Aldershot	-9988
▁Ballistic	-9989
▁Naryshkin	-9990
▁Orthodoxa	-9991
▁doctorali	-9992
▁esponenti	-9993
▁immaniġer	-9994
▁kilogramm	-9995
pjattaforma	-9996
▁419113394.	-9997
▁479343000.	-9998
▁6155910000	-9999
▁Chicharrón	-10000
▁Dalpatbhai	-10001
▁Iddisinjat	-10002
▁Properties	-10003
▁tikkompeti	-10004
▁0-7653-0633	-10005
▁2015-06-27.	-10006
▁440756000.0	-10007
▁Lanarkshire	-10008
▁Manjgaladze	-10009
▁Vladikavkaz	-10010
▁avvenimenti	-10011
▁jikkonsisti	-10012
▁$875,400000.	-10013
▁ċittadinanza	-10014
▁Universitarja	-10015
Friedrichshafen	-10016
▁1-56947-301-3.	-10017
76	-10018
90	-10019
Ot	-10020
dm	-10021
öd	-10022
ħs	-10023
’3	-10024
’6	-10025
/33	-10026
196	-10027
348	-10028
498	-10029
70.	-10030
815	-10031
88.	-10032
907	-10033
961	-10034
ACM	-10035
Amp	-10036
Har	-10037
Inf	-10038
Kök	-10039
Otk	-10040
RCA	-10041
Rad	-10042
Rut	-10043
Vfl	-10044
ada	-10045
bai	-10046
did	-10047
dio	-10048
eja	-10049
inx	-10050
ipy	-10051
ium	-10052
jib	-10053
lew	-10054
lez	-10055
luż	-10056
pis	-10057
pun	-10058
qab	-10059
yaz	-10060
zan	-10061
▁59	-10062
▁94	-10063
▁Be	-10064
▁OB	-10065
▁RB	-10066
▁SJ	-10067
▁XC	-10068
▁xa	-10069
-03.	-10070
-101	-10071
-11.	-10072
-16.	-10073
1.92	-10074
2.2.	-10075
3326	-10076
39.3	-10077
392.	-10078
4.0.	-10079
9-09	-10080
9206	-10081
Avja	-10082
Bben	-10083
Bron	-10084
Ewro	-10085
Fred	-10086
Mond	-10087
Page	-10088
Plok	-10089
ambj	-10090
biza	-10091
erto	-10092
ffey	-10093
goza	-10094
iman	-10095
istr	-10096
karm	-10097
kond	-10098
liet	-10099
mary	-10100
moto	-10101
mpia	-10102
olet	-10103
onne	-10104
oods	-10105
ower	-10106
ritt	-10107
rosi	-10108
spor	-10109
togħ	-10110
urma	-10111
ález	-10112
ínez	-10113
▁0.0	-10114
▁07.	-10115
▁153	-10116
▁560	-10117
▁611	-10118
▁846	-10119
▁Edm	-10120
▁Key	-10121
▁Möd	-10122
▁OAA	-10123
▁Rox	-10124
▁Sej	-10125
▁Tap	-10126
▁Vfl	-10127
▁ego	-10128
▁int	-10129
▁kkw	-10130
▁kum	-10131
▁mod	-10132
-1987	-10133
-2003	-10134
145.3	-10135
19691	-10136
49895	-10137
Baduy	-10138
Javan	-10139
Kanad	-10140
Qorti	-10141
World	-10142
ardar	-10143
atten	-10144
bajer	-10145
bibla	-10146
ejjes	-10147
ellun	-10148
etrov	-10149
fibla	-10150
iduża	-10151
ilied	-10152
ingue	-10153
kuppa	-10154
limpi	-10155
mford	-10156
ories	-10157
prema	-10158
qawwa	-10159
rupja	-10160
safar	-10161
volum	-10162
ysics	-10163
▁08/2	-10164
▁1953	-10165
▁1967	-10166
▁2016	-10167
▁3800	-10168
▁4349	-10169
▁4411	-10170
▁4458	-10171
▁524.	-10172
▁9453	-10173
▁Arms	-10174
▁Ayaz	-10175
▁Dqiq	-10176
▁Fair	-10177
▁Gale	-10178
▁Lega	-10179
▁Lewż	-10180
▁Lour	-10181
▁Mart	-10182
▁Maya	-10183
▁Over	-10184
▁Pers	-10185
▁Rona	-10186
▁Sula	-10187
▁Tart	-10188
▁Waqt	-10189
▁Zara	-10190
▁epis	-10191
▁jiek	-10192
▁jikk	-10193
▁jiġu	-10194
▁nisa	-10195
▁roti	-10196
▁solo	-10197
▁tkun	-10198
-07-11	-10199
-10-17	-10200
-1930.	-10201
-1972.	-10202
-1996,	-10203
Ampara	-10204
Ewropa	-10205
Garage	-10206
Groton	-10207
Iskeja	-10208
Kaiser	-10209
Membru	-10210
Sovita	-10211
Warton	-10212
ations	-10213
entali	-10214
esseri	-10215
ipyard	-10216
ocated	-10217
ondiss	-10218
punent	-10219
urales	-10220
ustika	-10221
▁1121.	-10222
▁1868.	-10223
▁1908.	-10224
▁2009,	-10225
▁2776.	-10226
▁29000	-10227
▁32.2.	-10228
▁3310.	-10229
▁3992.	-10230
▁53502	-10231
▁77.41	-10232
▁875.4	-10233
▁94509	-10234
▁Atiku	-10235
▁Baduy	-10236
▁Beach	-10237
▁Bibbo	-10238
▁Chris	-10239
▁Chung	-10240
▁Group	-10241
▁Ibiza	-10242
▁Icolo	-10243
▁Jamie	-10244
▁Kazan	-10245
▁Lemon	-10246
▁Maria	-10247
▁Numru	-10248
▁Perez	-10249
▁Qabel	-10250
▁Rapid	-10251
▁Rover	-10252
▁Rubin	-10253
▁Sadiq	-10254
▁Sanat	-10255
▁Sedan	-10256
▁Woods	-10257
▁barra	-10258
▁butir	-10259
▁għali	-10260
▁limun	-10261
▁skema	-10262
▁soċċa	-10263
▁spiss	-10264
Afrikan	-10265
Fredick	-10266
Gaussja	-10267
Koaracy	-10268
Kökenna	-10269
Rutland	-10270
Vjetnam	-10271
avocado	-10272
chionne	-10273
emblaġġ	-10274
istitut	-10275
karmiċi	-10276
terling	-10277
ħsejjes	-10278
▁121.92	-10279
▁283326	-10280
▁349206	-10281
▁519691	-10282
▁611961	-10283
▁880573	-10284
▁Astero	-10285
▁Campus	-10286
▁DuPage	-10287
▁Edmund	-10288
▁Eisner	-10289
▁Futbol	-10290
▁League	-10291
▁Little	-10292
▁Manley	-10293
▁Patten	-10294
▁Puerto	-10295
▁Roland	-10296
▁Romano	-10297
▁Sardar	-10298
▁Sereno	-10299
▁Sipila	-10300
▁Spanol	-10301
▁Violet	-10302
▁abbord	-10303
▁għamel	-10304
▁għażel	-10305
▁imħadd	-10306
▁jgħadd	-10307
▁merluż	-10308
▁monark	-10309
▁zokkor	-10310
▁“1634:	-10311
-1920-08	-10312
4989570.	-10313
Amateurs	-10314
Irlandiż	-10315
ismijiet	-10316
kalerija	-10317
limpique	-10318
prodotti	-10319
reżentat	-10320
▁2005-11	-10321
▁62145.3	-10322
▁Chorizo	-10323
▁Ketchup	-10324
▁Lalbhai	-10325
▁Lourdes	-10326
▁Munster	-10327
▁Mödling	-10328
▁Orosman	-10329
▁Ottoman	-10330
▁Physics	-10331
▁Roxbury	-10332
▁Stadium	-10333
▁Suprema	-10334
▁Tapioca	-10335
▁Virtuti	-10336
▁Vjetnam	-10337
▁Zellner	-10338
▁apapsis	-10339
▁avocado	-10340
▁aċiduża	-10341
▁imqatta	-10342
▁inkluża	-10343
▁jiżdied	-10344
▁jwettqu	-10345
▁nnediet	-10346
▁serviet	-10347
▁ttemmet	-10348
▁Ġeneral	-10349
København	-10350
Memorjali	-10351
Plokijiet	-10352
domiċilju	-10353
imqiegħed	-10354
preċedent	-10355
rombonist	-10356
▁03/04/19	-10357
▁57392246	-10358
▁87000823	-10359
▁87888500	-10360
▁Amharika	-10361
▁Desalegn	-10362
▁Fairhead	-10363
▁González	-10364
▁Haputale	-10365
▁Holdings	-10366
▁Jacobean	-10367
▁Keystone	-10368
▁Martínez	-10369
▁Nebraska	-10370
▁Shipyard	-10371
▁Sulaiman	-10372
▁Vorwarts	-10373
▁Zaragoza	-10374
▁derivata	-10375
▁episodju	-10376
▁ippreċed	-10377
▁issegwit	-10378
▁jiggrava	-10379
▁jinġabar	-10380
▁presedut	-10381
▁relattiv	-10382
Alexandria	-10383
Bbenesseri	-10384
Istandards	-10385
Kökennagen	-10386
Lokomotive	-10387
Reidsville	-10388
kondimenti	-10389
▁2014-2015	-10390
▁49805501.	-10391
▁76798317.	-10392
▁83646315.	-10393
▁Kilometri	-10394
▁Kolombjan	-10395
▁Preußisch	-10396
▁jirregola	-10397
ondissement	-10398
▁0001-8392.	-10399
▁254989570.	-10400
▁331683000.	-10401
▁380700000.	-10402
▁Konferenza	-10403
▁Marchionne	-10404
▁Voluntiera	-10405
▁apappassis	-10406
▁arrabbiata	-10407
▁kumpliment	-10408
▁shortcrust	-10409
Harrietstown	-10410
▁$10,264,000	-10411
▁108,600000.	-10412
▁Turkmenabat	-10413
istabbiliment	-10414
trasportaturi	-10415
▁Nazzjonalità	-10416
▁Publications	-10417
Amministrattiv	-10418
Paleobioloġija	-10419
▁283326000000.	-10420
▁universitarja	-10421
▁0-374-26131-8.	-10422
▁0-7653-0633-6.	-10423
▁suċċessivament	-10424
CE	-10425
Do	-10426
Kl	-10427
Ru	-10428
UC	-10429
WI	-10430
ms	-10431
rt	-10432
su	-10433
▁»	-10434
▁Ş	-10435
/05	-10436
008	-10437
48.	-10438
77.	-10439
801	-10440
ABI	-10441
AEK	-10442
App	-10443
Bor	-10444
Dek	-10445
Ham	-10446
Kop	-10447
Ria	-10448
Tud	-10449
Vej	-10450
cht	-10451
dod	-10452
for	-10453
hni	-10454
isl	-10455
jal	-10456
jao	-10457
jum	-10458
kla	-10459
mat	-10460
miż	-10461
nka	-10462
nud	-10463
och	-10464
ofu	-10465
ove	-10466
piż	-10467
rġa	-10468
stá	-10469
une	-10470
xur	-10471
zak	-10472
zna	-10473
ċef	-10474
▁26	-10475
▁67	-10476
▁80	-10477
▁92	-10478
▁Ce	-10479
▁Ge	-10480
▁Ho	-10481
▁ar	-10482
-04.	-10483
05.0	-10484
078.	-10485
14.8	-10486
1613	-10487
7701	-10488
8753	-10489
Arms	-10490
Bury	-10491
Klaj	-10492
Mani	-10493
Mosk	-10494
Naft	-10495
Psal	-10496
Tita	-10497
alik	-10498
amra	-10499
anag	-10500
awto	-10501
bbli	-10502
erle	-10503
ezia	-10504
harp	-10505
hnic	-10506
imit	-10507
inkl	-10508
mell	-10509
onga	-10510
osco	-10511
prop	-10512
taġġ	-10513
tend	-10514
xxut	-10515
ġjan	-10516
ġugħ	-10517
▁19-	-10518
▁22-	-10519
▁230	-10520
▁233	-10521
▁265	-10522
▁3,9	-10523
▁5.6	-10524
▁7.9	-10525
▁814	-10526
▁900	-10527
▁Ama	-10528
▁Cur	-10529
▁Lic	-10530
▁Mil	-10531
▁Mod	-10532
▁Owl	-10533
▁Sov	-10534
▁SpA	-10535
▁Tiġ	-10536
▁Tri	-10537
▁Uab	-10538
▁ini	-10539
▁kis	-10540
▁kko	-10541
▁mgħ	-10542
▁tid	-10543
▁ġam	-10544
-1857	-10545
-1872	-10546
-1933	-10547
-1983	-10548
-1988	-10549
90.0.	-10550
96-02	-10551
AIDBI	-10552
Bejja	-10553
Espru	-10554
Indie	-10555
Karta	-10556
Point	-10557
Psalm	-10558
Rupee	-10559
Spanj	-10560
Tudor	-10561
Unità	-10562
Vejil	-10563
charf	-10564
chell	-10565
duate	-10566
garan	-10567
grada	-10568
komik	-10569
ogħti	-10570
ombat	-10571
ranit	-10572
ritor	-10573
sbury	-10574
tajer	-10575
twera	-10576
verti	-10577
zjoni	-10578
âmpia	-10579
▁0112	-10580
▁100.	-10581
▁173.	-10582
▁1909	-10583
▁1920	-10584
▁1980	-10585
▁657.	-10586
▁9833	-10587
▁Beda	-10588
▁Bush	-10589
▁Dawn	-10590
▁Dean	-10591
▁Imst	-10592
▁Maka	-10593
▁Reid	-10594
▁René	-10595
▁RoPS	-10596
▁Stra	-10597
▁alma	-10598
▁ambj	-10599
▁asam	-10600
▁fans	-10601
▁luss	-10602
▁maqs	-10603
▁mini	-10604
▁ners	-10605
▁ġdid	-10606
▁“978	-10607
-1862,	-10608
-1911.	-10609
-1914.	-10610
-1920,	-10611
-1964.	-10612
-1966.	-10613
-1981,	-10614
Igorot	-10615
Titani	-10616
Tories	-10617
akaria	-10618
farrak	-10619
għażel	-10620
igante	-10621
imited	-10622
partit	-10623
rijani	-10624
stádio	-10625
tarzna	-10626
ħarrġa	-10627
▁14801	-10628
▁15/33	-10629
▁1855.	-10630
▁1857.	-10631
▁1901.	-10632
▁1920.	-10633
▁19255	-10634
▁1941.	-10635
▁1971.	-10636
▁1994.	-10637
▁24.0.	-10638
▁258.2	-10639
▁3078.	-10640
▁37701	-10641
▁41613	-10642
▁45.97	-10643
▁524.5	-10644
▁914.8	-10645
▁Andre	-10646
▁Death	-10647
▁Dilts	-10648
▁Divis	-10649
▁Light	-10650
▁Major	-10651
▁Manag	-10652
▁Najib	-10653
▁Razak	-10654
▁State	-10655
▁Tnejn	-10656
▁Vigor	-10657
▁drogi	-10658
▁gvern	-10659
▁jibqa	-10660
▁kamra	-10661
▁limon	-10662
▁linka	-10663
▁ordni	-10664
▁publi	-10665
▁sedan	-10666
▁solan	-10667
▁xafet	-10668
▁ħaħeb	-10669
300000.	-10670
Bionico	-10671
Borough	-10672
Deputat	-10673
Greater	-10674
Kapital	-10675
derivat	-10676
distrib	-10677
eringue	-10678
erlecht	-10679
indales	-10680
izzjoni	-10681
retarju	-10682
risjedi	-10683
▁1,800,	-10684
▁1239.3	-10685
▁1299.0	-10686
▁1421.2	-10687
▁445895	-10688
▁Arifin	-10689
▁Ashdod	-10690
▁Collin	-10691
▁Curtis	-10692
▁Gaffey	-10693
▁Griegi	-10694
▁Licata	-10695
▁Ramsey	-10696
▁Scharf	-10697
▁Spring	-10698
▁Tiġieġ	-10699
▁banana	-10700
▁ethnic	-10701
▁grammi	-10702
▁jugħeb	-10703
▁kapaċi	-10704
▁mogħti	-10705
▁munita	-10706
▁qabdet	-10707
▁taħriġ	-10708
▁titolu	-10709
▁vaguni	-10710
▁ġurnal	-10711
,000000.	-10712
-1857-03	-10713
9-09-01.	-10714
Infantry	-10715
Pubbliku	-10716
arteċipa	-10717
għasafar	-10718
sottopra	-10719
▁01/01/2	-10720
▁2006-12	-10721
▁3800.0.	-10722
▁Astérix	-10723
▁Cammell	-10724
▁Country	-10725
▁Gigante	-10726
▁Granola	-10727
▁Lamezia	-10728
▁Libertà	-10729
▁Limited	-10730
▁Milonga	-10731
▁Modling	-10732
▁Rutland	-10733
▁Sadique	-10734
▁Shirley	-10735
▁Solanum	-10736
▁Zakaria	-10737
▁assolut	-10738
▁espress	-10739
▁hardtop	-10740
▁inġenji	-10741
▁jkisser	-10742
▁located	-10743
▁matulha	-10744
▁mikrija	-10745
▁ssieħeb	-10746
Ajoblanco	-10747
Bastiment	-10748
Olimpique	-10749
komikanti	-10750
kubanella	-10751
mużikisti	-10752
ritorjali	-10753
rokustika	-10754
sussidjar	-10755
ċefalopod	-10756
▁$556,300	-10757
▁100305.0	-10758
▁192000.0	-10759
▁60040714	-10760
▁Ammirall	-10761
▁Asherton	-10762
▁Carolina	-10763
▁Graduate	-10764
▁Mitchell	-10765
▁Pecorino	-10766
▁Stamford	-10767
▁akustiku	-10768
▁elettron	-10769
▁jiffaċċa	-10770
▁jikkawża	-10771
▁nnominat	-10772
▁perijaps	-10773
▁primarja	-10774
▁sekwenza	-10775
▁sterling	-10776
Eredivisie	-10777
Esprużjoni	-10778
Radcasting	-10779
amboangani	-10780
▁0965-2140	-10781
▁51969173.	-10782
▁523329000	-10783
▁Bungalows	-10784
▁Malasjani	-10785
▁Paperback	-10786
▁Pubblikat	-10787
▁assoċjati	-10788
▁irregolat	-10789
▁magħmulin	-10790
▁Ġappuniża	-10791
Bloomington	-10792
amatriciana	-10793
▁1080-6377.	-10794
▁211200000.	-10795
▁373513000.	-10796
▁9833516.63	-10797
▁Anderlecht	-10798
▁Cephalopod	-10799
▁Georgetown	-10800
▁Management	-10801
▁Nottingham	-10802
▁ambjentali	-10803
▁ippreċedut	-10804
Dekorazzjoni	-10805
▁511592000.0	-10806
▁69862200.0.	-10807
▁Springfield	-10808
▁Superleague	-10809
▁stabbilixxa	-10810
metropolitana	-10811
▁Territorjali	-10812
▁alternattivi	-10813
-1-4165-4253-7	-10814
reġistrazzjoni	-10815
▁416136000000.	-10816
▁strumentalist	-10817
▁elettrokustika	-10818
▁$10,264,000000.	-10819
',	-10820
."	-10821
CD	-10822
Co	-10823
KV	-10824
fi	-10825
fu	-10826
xi	-10827
-58	-10828
064	-10829
084	-10830
110	-10831
151	-10832
20.	-10833
76.	-10834
846	-10835
984	-10836
AGR	-10837
ASK	-10838
Car	-10839
Kas	-10840
LCN	-10841
Lom	-10842
Pri	-10843
Sch	-10844
USA	-10845
WWI	-10846
aná	-10847
box	-10848
edt	-10849
gam	-10850
hip	-10851
ikt	-10852
kab	-10853
kot	-10854
leh	-10855
mac	-10856
ote	-10857
poc	-10858
sek	-10859
ubi	-10860
zhi	-10861
ġeb	-10862
ħin	-10863
ħow	-10864
’34	-10865
▁"0	-10866
▁$2	-10867
▁41	-10868
▁68	-10869
▁77	-10870
▁Pé	-10871
▁Xi	-10872
▁ku	-10873
▁os	-10874
▁xj	-10875
-31.	-10876
11,2	-10877
5.0.	-10878
65-8	-10879
AFAS	-10880
AIDA	-10881
Adis	-10882
Cent	-10883
Cune	-10884
Disk	-10885
Gang	-10886
Gwad	-10887
HVAC	-10888
Kteb	-10889
Kunt	-10890
Lira	-10891
Math	-10892
Nair	-10893
Punk	-10894
Star	-10895
acab	-10896
anci	-10897
anja	-10898
arde	-10899
asim	-10900
asto	-10901
bakk	-10902
bomb	-10903
book	-10904
cara	-10905
corn	-10906
ctad	-10907
ello	-10908
ells	-10909
enis	-10910
eruq	-10911
ewwa	-10912
fass	-10913
fien	-10914
fino	-10915
foni	-10916
fund	-10917
għas	-10918
hinx	-10919
icio	-10920
irja	-10921
itba	-10922
kisi	-10923
kump	-10924
lumi	-10925
ofia	-10926
ogne	-10927
opri	-10928
otev	-10929
rikh	-10930
sage	-10931
shed	-10932
stav	-10933
ucky	-10934
uila	-10935
ular	-10936
vice	-10937
volu	-10938
wija	-10939
zhny	-10940
zing	-10941
▁-7,	-10942
▁102	-10943
▁11,	-10944
▁155	-10945
▁19.	-10946
▁248	-10947
▁25.	-10948
▁298	-10949
▁414	-10950
▁Abe	-10951
▁Blu	-10952
▁GFC	-10953
▁HAL	-10954
▁Mum	-10955
▁Pot	-10956
▁Tor	-10957
▁ann	-10958
▁dif	-10959
▁jta	-10960
▁ord	-10961
▁pud	-10962
▁sal	-10963
▁ġab	-10964
▁ħam	-10965
-1936	-10966
-1964	-10967
-2004	-10968
158-3	-10969
25-58	-10970
269-9	-10971
32-24	-10972
55312	-10973
60815	-10974
Aarus	-10975
Bajji	-10976
Dough	-10977
Imper	-10978
Kelli	-10979
Olimp	-10980
Ralla	-10981
Union	-10982
ampia	-10983
aniji	-10984
bombi	-10985
ctady	-10986
edome	-10987
ermac	-10988
forza	-10989
gamie	-10990
garde	-10991
indku	-10992
itata	-10993
jamin	-10994
kaxxa	-10995
onali	-10996
ostit	-10997
pasta	-10998
stedt	-10999
urmaw	-11000
woody	-11001
Ġdida	-11002
ġebel	-11003
ġebla	-11004
▁1971	-11005
▁24.4	-11006
▁268.	-11007
▁286.	-11008
▁324,	-11009
▁404.	-11010
▁429.	-11011
▁9064	-11012
▁9312	-11013
▁AFIT	-11014
▁Alli	-11015
▁Band	-11016
▁Cold	-11017
▁Dila	-11018
▁Erie	-11019
▁Fost	-11020
▁Gerd	-11021
▁Gori	-11022
▁Ikla	-11023
▁Kend	-11024
▁Kill	-11025
▁Link	-11026
▁Linz	-11027
▁Maur	-11028
▁Minn	-11029
▁Oleh	-11030
▁Outa	-11031
▁Owen	-11032
▁Para	-11033
▁Prim	-11034
▁Rund	-11035
▁Ruta	-11036
▁Sara	-11037
▁Scri	-11038
▁Sess	-11039
▁Shin	-11040
▁Vica	-11041
▁Vigo	-11042
▁club	-11043
▁fikt	-11044
▁game	-11045
▁hawn	-11046
▁jekk	-11047
▁sost	-11048
▁stat	-11049
▁team	-11050
-1929.	-11051
-1971.	-11052
-1972,	-11053
-1985,	-11054
-2003.	-11055
APGPAC	-11056
Affari	-11057
Auburn	-11058
Câmpia	-11059
Ganges	-11060
Indjan	-11061
Ktebri	-11062
Leader	-11063
Lompoc	-11064
Olanda	-11065
Pariġi	-11066
abbani	-11067
artata	-11068
atalon	-11069
ciller	-11070
estizo	-11071
għeruq	-11072
idburg	-11073
istart	-11074
kelvin	-11075
massat	-11076
millan	-11077
mixxut	-11078
mpjant	-11079
passat	-11080
portan	-11081
stanzi	-11082
tajjar	-11083
tennis	-11084
tinsab	-11085
titjir	-11086
ulogne	-11087
▁$108,	-11088
▁10264	-11089
▁1411.	-11090
▁18.29	-11091
▁1856.	-11092
▁1933,	-11093
▁1936.	-11094
▁1982.	-11095
▁2000,	-11096
▁29919	-11097
▁3360.	-11098
▁3500.	-11099
▁77151	-11100
▁Basim	-11101
▁Books	-11102
▁Cantu	-11103
▁Dinji	-11104
▁Glend	-11105
▁Jacab	-11106
▁Kapod	-11107
▁Lions	-11108
▁Macri	-11109
▁Malaj	-11110
▁Pérez	-11111
▁Qasim	-11112
▁Royal	-11113
▁Sofia	-11114
▁Turku	-11115
▁Weber	-11116
▁Wells	-11117
▁Zesta	-11118
▁bajda	-11119
▁billi	-11120
▁bħall	-11121
▁denom	-11122
▁mibgħ	-11123
▁notev	-11124
▁offru	-11125
▁passa	-11126
▁skada	-11127
▁sserv	-11128
▁tibni	-11129
▁tliet	-11130
▁“1928	-11131
▁“1930	-11132
-01-01,	-11133
-05-21.	-11134
000000,	-11135
Adisham	-11136
Antioch	-11137
Arapira	-11138
Arġenti	-11139
Maniġer	-11140
Medalja	-11141
Olimpja	-11142
Primera	-11143
Sandesh	-11144
anciale	-11145
astojde	-11146
bulspor	-11147
inatown	-11148
kampjun	-11149
ketball	-11150
mantaġġ	-11151
popular	-11152
stavson	-11153
teċipan	-11154
uzzjoni	-11155
▁$211,2	-11156
▁1865-8	-11157
▁414984	-11158
▁44114.	-11159
▁560090	-11160
▁APGPAC	-11161
▁Aguila	-11162
▁Angela	-11163
▁Banner	-11164
▁Barrow	-11165
▁Borneo	-11166
▁Luzhny	-11167
▁McCune	-11168
▁McNair	-11169
▁Merkel	-11170
▁Mumbai	-11171
▁Paraná	-11172
▁Preċed	-11173
▁Revolu	-11174
▁Samuel	-11175
▁Sindku	-11176
▁Sphinx	-11177
▁disinn	-11178
▁iservu	-11179
▁jtajru	-11180
▁kontra	-11181
▁puding	-11182
▁tmexxa	-11183
▁ċentru	-11184
-1930-01	-11185
/03/1983	-11186
AmeriGas	-11187
Kelliema	-11188
Portland	-11189
Rochdale	-11190
abrijani	-11191
asteroid	-11192
enectady	-11193
ermacchi	-11194
fundatur	-11195
okkijiet	-11196
peniżola	-11197
uffiċjal	-11198
▁108,600	-11199
▁1732-24	-11200
▁2776.0.	-11201
▁3188753	-11202
▁3310.0.	-11203
▁4349.0.	-11204
▁9064084	-11205
▁Amazing	-11206
▁Asphalt	-11207
▁Cornish	-11208
▁Delfino	-11209
▁Donnell	-11210
▁Estádio	-11211
▁Filwaqt	-11212
▁Geering	-11213
▁Kendall	-11214
▁Legendi	-11215
▁Mammary	-11216
▁Newport	-11217
▁Pescara	-11218
▁Potenza	-11219
▁Runcorn	-11220
▁Running	-11221
▁Sanchez	-11222
▁Sausage	-11223
▁Service	-11224
▁Varjant	-11225
▁Wilfred	-11226
▁bandeja	-11227
▁deċerti	-11228
▁distrib	-11229
▁fittrat	-11230
▁irċieva	-11231
▁maqsuma	-11232
▁mexejja	-11233
▁mħarrġa	-11234
▁ngħatat	-11235
▁sostenn	-11236
▁storiċi	-11237
▁ġestiet	-11238
Arapiraca	-11239
Dougherty	-11240
Imperatur	-11241
abbaniyah	-11242
allettini	-11243
elikopter	-11244
istrijana	-11245
kumpaniji	-11246
rangipane	-11247
vertibbli	-11248
▁1202.846	-11249
▁77294300	-11250
▁Arkitett	-11251
▁Budapest	-11252
▁División	-11253
▁Dunwoody	-11254
▁Jacabian	-11255
▁Laurales	-11256
▁Mauricio	-11257
▁Olandiżi	-11258
▁Rutaceae	-11259
▁Sessions	-11260
▁Springer	-11261
▁importan	-11262
▁imħaddma	-11263
▁inizjali	-11264
▁jwettaqx	-11265
▁konċerti	-11266
▁langkuas	-11267
▁mimlijin	-11268
▁notevoli	-11269
▁pakkjata	-11270
Diskiplina	-11271
Kampeonato	-11272
derbyshire	-11273
▁3310.0.0.	-11274
▁60040714.	-11275
▁78771100.	-11276
▁Diagonali	-11277
▁Glendower	-11278
▁Guanciale	-11279
▁Gustavson	-11280
▁Macmillan	-11281
▁Outagamie	-11282
▁Rundstedt	-11283
▁Zestafoni	-11284
▁domestika	-11285
▁jiffurmaw	-11286
▁kkwartata	-11287
▁published	-11288
-1933-10-17	-11289
Gwadalajara	-11290
Kalifornian	-11291
Rallazzjoni	-11292
disinnaturi	-11293
ministratur	-11294
▁1046-8188.	-11295
▁1588-2632.	-11296
▁1907-07-11	-11297
▁Chicharron	-11298
▁Kopenhagen	-11299
▁Ponteareas	-11300
▁Publishers	-11301
▁Stabbilita	-11302
▁fiktjonali	-11303
▁gallettini	-11304
▁jirrisjedi	-11305
▁sandwiches	-11306
▁segretarju	-11307
▁479343000.0	-11308
▁Universitat	-11309
▁awtorizzata	-11310
▁perijapsija	-11311
Courcouronnes	-11312
▁$556,300000.	-11313
▁0-439-17684-0	-11314
▁0-670-03380-4	-11315
▁279142000000.	-11316
-0-15-204770-2.	-11317
varjazzjonijiet	-11318
▁Kapodistrijana	-11319
▁254989570.60815	-11320
▁419113394.55312	-11321
▁ppubblikazzjoni	-11322
81	-11323
99	-11324
AD	-11325
BL	-11326
DL	-11327
HP	-11328
cs	-11329
hr	-11330
kċ	-11331
no	-11332
rb	-11333
tħ	-11334
ux	-11335
’,	-11336
1.0	-11337
17,	-11338
236	-11339
304	-11340
52.	-11341
53.	-11342
70,	-11343
800	-11344
82,	-11345
BCT	-11346
Bar	-11347
PDL	-11348
Pal	-11349
Pen	-11350
Qas	-11351
RBL	-11352
anġ	-11353
bib	-11354
cul	-11355
dmu	-11356
hok	-11357
hra	-11358
ibu	-11359
iem	-11360
ilä	-11361
irk	-11362
jeċ	-11363
kax	-11364
loq	-11365
mpa	-11366
pet	-11367
qas	-11368
rej	-11369
wel	-11370
żmu	-11371
’15	-11372
’20	-11373
’55	-11374
▁36	-11375
▁46	-11376
▁54	-11377
▁76	-11378
▁BS	-11379
▁We	-11380
▁Za	-11381
▁ge	-11382
▁mi	-11383
-02.	-11384
-03,	-11385
-339	-11386
-792	-11387
/192	-11388
/21.	-11389
1.2.	-11390
90.0	-11391
Adam	-11392
Alle	-11393
Arem	-11394
Bank	-11395
Chap	-11396
Djar	-11397
Fall	-11398
Funk	-11399
Gwar	-11400
Hamb	-11401
Horn	-11402
Iran	-11403
Maka	-11404
ORAA	-11405
Rota	-11406
Sham	-11407
Univ	-11408
Vern	-11409
akad	-11410
amba	-11411
amer	-11412
amon	-11413
asir	-11414
auck	-11415
base	-11416
bura	-11417
burn	-11418
deen	-11419
doll	-11420
edem	-11421
edic	-11422
egwi	-11423
fael	-11424
fens	-11425
fina	-11426
fish	-11427
gula	-11428
hran	-11429
hrán	-11430
iger	-11431
inne	-11432
inva	-11433
isan	-11434
kala	-11435
kswa	-11436
kċej	-11437
leon	-11438
miri	-11439
mont	-11440
nati	-11441
plak	-11442
pson	-11443
qija	-11444
rabi	-11445
rekk	-11446
sand	-11447
sitt	-11448
sten	-11449
tija	-11450
tofu	-11451
unti	-11452
usia	-11453
Ġord	-11454
ħruġ	-11455
▁1,5	-11456
▁2.7	-11457
▁438	-11458
▁500	-11459
▁6.7	-11460
▁63.	-11461
▁AKA	-11462
▁AWD	-11463
▁Aki	-11464
▁Alv	-11465
▁Aso	-11466
▁Baj	-11467
▁Bry	-11468
▁Duc	-11469
▁Kam	-11470
▁Leġ	-11471
▁Mao	-11472
▁Peş	-11473
▁Sig	-11474
▁Sán	-11475
▁ast	-11476
▁des	-11477
▁joħ	-11478
▁pre	-11479
▁tub	-11480
▁urb	-11481
▁xah	-11482
▁“00	-11483
-1878	-11484
-1907	-11485
-1911	-11486
-1939	-11487
-1961	-11488
-1994	-11489
236-5	-11490
720,7	-11491
AMAHE	-11492
Aaron	-11493
Baris	-11494
Għala	-11495
Hambg	-11496
Kopen	-11497
Lazio	-11498
Manus	-11499
Metro	-11500
Qasal	-11501
Sirja	-11502
achim	-11503
album	-11504
anics	-11505
anġjo	-11506
arbox	-11507
conut	-11508
cules	-11509
ernat	-11510
esota	-11511
ettiv	-11512
ienna	-11513
immun	-11514
kaxex	-11515
menti	-11516
messa	-11517
opher	-11518
orgos	-11519
posti	-11520
qasam	-11521
rison	-11522
ropop	-11523
taxxa	-11524
tħejj	-11525
ummit	-11526
usins	-11527
ustri	-11528
utati	-11529
valan	-11530
vania	-11531
varja	-11532
virus	-11533
walki	-11534
ċipat	-11535
ħames	-11536
▁0,04	-11537
▁1,12	-11538
▁1,98	-11539
▁11.3	-11540
▁11/2	-11541
▁13/3	-11542
▁1905	-11543
▁1939	-11544
▁1956	-11545
▁1963	-11546
▁1986	-11547
▁1988	-11548
▁1995	-11549
▁2,19	-11550
▁2012	-11551
▁214,	-11552
▁23.0	-11553
▁4.56	-11554
▁404,	-11555
▁682,	-11556
▁817,	-11557
▁Blat	-11558
▁Buil	-11559
▁Bury	-11560
▁CEPT	-11561
▁CRBL	-11562
▁Coco	-11563
▁Dead	-11564
▁Eber	-11565
▁Eros	-11566
▁Fire	-11567
▁Inuk	-11568
▁Kell	-11569
▁LASK	-11570
▁Laan	-11571
▁Lane	-11572
▁Mani	-11573
▁Mech	-11574
▁Meks	-11575
▁Near	-11576
▁Pura	-11577
▁Rene	-11578
▁Rese	-11579
▁Sazi	-11580
▁Teow	-11581
▁Ther	-11582
▁Wild	-11583
▁gula	-11584
▁għar	-11585
▁jġib	-11586
▁kejk	-11587
▁past	-11588
▁pera	-11589
▁ppar	-11590
▁psew	-11591
▁risp	-11592
▁ssir	-11593
▁taqa	-11594
▁term	-11595
▁tinf	-11596
▁ġeor	-11597
-1904,	-11598
-1959,	-11599
-2000)	-11600
-2009,	-11601
67-792	-11602
Campia	-11603
Chapel	-11604
ENAIRE	-11605
Isport	-11606
Monark	-11607
Portug	-11608
Postri	-11609
Shamal	-11610
Spanol	-11611
abbrev	-11612
akkjat	-11613
amergh	-11614
appapp	-11615
bronza	-11616
burger	-11617
dollar	-11618
fensur	-11619
għasel	-11620
komiks	-11621
krisma	-11622
ortivi	-11623
perija	-11624
ponent	-11625
qamħir	-11626
ritten	-11627
riżata	-11628
soċjat	-11629
taleon	-11630
timiku	-11631
urpura	-11632
wassal	-11633
Ġordan	-11634
ħaddem	-11635
▁10237	-11636
▁13017	-11637
▁1856,	-11638
▁19.94	-11639
▁1909.	-11640
▁1923,	-11641
▁1930,	-11642
▁1931.	-11643
▁1956,	-11644
▁1959.	-11645
▁1965.	-11646
▁2016,	-11647
▁21.2.	-11648
▁2702.	-11649
▁286.5	-11650
▁29075	-11651
▁429.9	-11652
▁535.0	-11653
▁9000.	-11654
▁Ammin	-11655
▁Anzhi	-11656
▁Colón	-11657
▁Damon	-11658
▁Drake	-11659
▁Gauck	-11660
▁Nakad	-11661
▁Negre	-11662
▁Sejdu	-11663
▁Winne	-11664
▁Zamba	-11665
▁dance	-11666
▁dehra	-11667
▁falli	-11668
▁friża	-11669
▁ikteb	-11670
▁imkab	-11671
▁jkunx	-11672
▁lussi	-11673
▁magni	-11674
▁qasir	-11675
▁tenis	-11676
-07-11.	-11677
Alabama	-11678
Asociac	-11679
Barisan	-11680
Impjant	-11681
Moskova	-11682
Penarol	-11683
bniedem	-11684
istudja	-11685
kswagen	-11686
kċejjeċ	-11687
ontroll	-11688
ostitwi	-11689
poaceae	-11690
sinkrom	-11691
tlefish	-11692
ċellata	-11693
Ġustizz	-11694
▁0.0155	-11695
▁0.0482	-11696
▁1,9304	-11697
▁18.52.	-11698
▁2776.0	-11699
▁ATISET	-11700
▁Bodley	-11701
▁Chiefs	-11702
▁Christ	-11703
▁Combat	-11704
▁Cookie	-11705
▁Darien	-11706
▁Ducati	-11707
▁Gators	-11708
▁Graves	-11709
▁Greċja	-11710
▁Inline	-11711
▁LaVern	-11712
▁Mħoloq	-11713
▁Rafael	-11714
▁Runway	-11715
▁Sipilä	-11716
▁Sosten	-11717
▁Teague	-11718
▁Varese	-11719
▁Vienna	-11720
▁Wayans	-11721
▁ammont	-11722
▁attivi	-11723
▁clutch	-11724
▁difiża	-11725
▁distin	-11726
▁granit	-11727
▁groups	-11728
▁jieklu	-11729
▁jvarja	-11730
▁miegħu	-11731
▁minima	-11732
▁offrut	-11733
▁ospita	-11734
▁pjanċa	-11735
▁pjanċi	-11736
▁trance	-11737
▁urbana	-11738
▁wettqu	-11739
▁ġieled	-11740
,264,000	-11741
-1932-03	-11742
-1939-01	-11743
-2014-15	-11744
Alcatraz	-11745
Alleanza	-11746
Gazzetta	-11747
Gwaranja	-11748
Italjani	-11749
Lutenent	-11750
Spanjoli	-11751
diskosco	-11752
fondatur	-11753
hachkala	-11754
immuntar	-11755
istudent	-11756
kulurati	-11757
ministra	-11758
opklasse	-11759
tħejjija	-11760
▁1533.0.	-11761
▁Airbase	-11762
▁Alvarez	-11763
▁Amharic	-11764
▁Andreea	-11765
▁Antigua	-11766
▁Barisan	-11767
▁Bryning	-11768
▁Clayton	-11769
▁Cousins	-11770
▁Giorgos	-11771
▁Joachim	-11772
▁Kaminis	-11773
▁Kubelle	-11774
▁McManus	-11775
▁Monarch	-11776
▁Phillip	-11777
▁Quattro	-11778
▁Sigriet	-11779
▁Sánchez	-11780
▁Theresa	-11781
▁coconut	-11782
▁familja	-11783
▁gearbox	-11784
▁intwera	-11785
▁jeħtieġ	-11786
▁jgħaddi	-11787
▁jinbena	-11788
▁kellhom	-11789
▁missili	-11790
▁oranġjo	-11791
▁persuni	-11792
▁profess	-11793
▁qawwija	-11794
▁rekords	-11795
▁written	-11796
▁xahrejn	-11797
00000000.	-11798
Arġentini	-11799
Esteghlal	-11800
Gottingen	-11801
Hamburger	-11802
Lunchport	-11803
almaMater	-11804
bandijiet	-11805
invażjoni	-11806
iżlattiva	-11807
kartaback	-11808
kartiback	-11809
kokkijiet	-11810
konċernat	-11811
nofsinhar	-11812
operaturi	-11813
postijiet	-11814
zzjonarja	-11815
Ġustizzja	-11816
▁46451790	-11817
▁78771100	-11818
▁8805735.	-11819
▁Asteroid	-11820
▁Building	-11821
▁Eberhard	-11822
▁Hercules	-11823
▁Kentucky	-11824
▁Nakadori	-11825
▁Paraguay	-11826
▁Primarja	-11827
▁Research	-11828
▁Sportivi	-11829
▁assoluta	-11830
▁defensur	-11831
▁demonimu	-11832
▁fornitur	-11833
▁garrison	-11834
▁iffritat	-11835
▁imqattaħ	-11836
▁meringue	-11837
▁mħaddmin	-11838
▁reġistri	-11839
▁tubulari	-11840
▁ġeorġjan	-11841
Alpharetta	-11842
Habbaniyah	-11843
Hornchurch	-11844
Lancashire	-11845
Zambangani	-11846
ettivament	-11847
▁0001-8392	-11848
▁1558-2868	-11849
▁324,720,7	-11850
▁380700000	-11851
▁45644811.	-11852
▁90640840.	-11853
▁Andersson	-11854
▁Appletone	-11855
▁Inuktitut	-11856
▁Mechanics	-11857
▁Pantaleon	-11858
▁Triestina	-11859
▁Winnebago	-11860
▁ajoblanco	-11861
▁astronaut	-11862
▁comicbook	-11863
▁elettriku	-11864
▁iffriżati	-11865
▁impjegati	-11866
▁inċellata	-11867
▁ippakkjat	-11868
▁kożmetiċi	-11869
▁trasmessa	-11870
-10/03/1983	-11871
Esplussjoni	-11872
Groenlandiż	-11873
Pensilvania	-11874
sussidjarja	-11875
▁15,100,000	-11876
▁1558-2868.	-11877
▁520906000.	-11878
▁Andalussja	-11879
▁Influwenza	-11880
▁Kellamergh	-11881
▁Madankollu	-11882
▁Matchstick	-11883
▁Preussisch	-11884
▁awtorizzat	-11885
▁drittimiku	-11886
▁formalment	-11887
▁frangipane	-11888
▁importanti	-11889
▁impressiva	-11890
▁kondimenti	-11891
▁pparteċipa	-11892
▁tirriżulta	-11893
▁ħelikopter	-11894
-1913-01-01.	-11895
nazzjonalità	-11896
rondissement	-11897
trażmissjoni	-11898
▁08-16-1920,	-11899
▁Christopher	-11900
▁Greenlandiż	-11901
▁Makhachkala	-11902
▁elettronika	-11903
▁tippreżenta	-11904
Esplosizzjoni	-11905
amministratur	-11906
▁15100000000.	-11907
▁29919600000.	-11908
▁influwenzata	-11909
▁konvertibbli	-11910
assifikazzjoni	-11911
paleontoloġija	-11912
▁349206000000.	-11913
▁377016000000.	-11914
▁445895000000.	-11915
▁7729430000.0.	-11916
▁dispożizzjoni	-11917
▁speċifikament	-11918
▁rispettivament	-11919
▁Revoluzzjonarja	-11920
▁konnessjonijiet	-11921
,"	-11922
Ay	-11923
MI	-11924
PN	-11925
SB	-11926
SC	-11927
Su	-11928
TH	-11929
hp	-11930
nu	-11931
rg	-11932
vá	-11933
we	-11934
’5	-11935
▁×	-11936
/1,	-11937
125	-11938
504	-11939
925	-11940
937	-11941
Azz	-11942
Dol	-11943
Fir	-11944
Gra	-11945
Jug	-11946
Pop	-11947
Sub	-11948
Tar	-11949
Var	-11950
als	-11951
bit	-11952
chè	-11953
com	-11954
ekw	-11955
feo	-11956
fna	-11957
gaw	-11958
gia	-11959
gnu	-11960
ima	-11961
inu	-11962
mud	-11963
mur	-11964
oom	-11965
ozo	-11966
qqa	-11967
sov	-11968
uan	-11969
uru	-11970
xxu	-11971
áil	-11972
ħaw	-11973
ħmi	-11974
ħud	-11975
’23	-11976
’60	-11977
▁02	-11978
▁31	-11979
▁4,	-11980
▁74	-11981
▁9,	-11982
▁Br	-11983
▁CT	-11984
▁Iv	-11985
▁NY	-11986
▁TN	-11987
▁by	-11988
▁js	-11989
▁xx	-11990
-04,	-11991
-20.	-11992
-26.	-11993
-28.	-11994
-300	-11995
12.2	-11996
1483	-11997
524.	-11998
6110	-11999
7.14	-12000
Alas	-12001
Ayam	-12002
Flam	-12003
Korn	-12004
Lieħ	-12005
Mary	-12006
Matu	-12007
Neil	-12008
Nord	-12009
PSTH	-12010
Poll	-12011
Rams	-12012
Sika	-12013
adao	-12014
anst	-12015
apta	-12016
avor	-12017
coff	-12018
dard	-12019
dren	-12020
ealy	-12021
ened	-12022
eton	-12023
exxi	-12024
flot	-12025
fwar	-12026
ganz	-12027
geri	-12028
ilot	-12029
imir	-12030
inet	-12031
inga	-12032
irti	-12033
istu	-12034
jati	-12035
kann	-12036
kawż	-12037
lava	-12038
lest	-12039
long	-12040
lubu	-12041
mini	-12042
ones	-12043
orja	-12044
quir	-12045
rumb	-12046
tagħ	-12047
tivi	-12048
tran	-12049
urdi	-12050
vajo	-12051
xewż	-12052
yria	-12053
ákar	-12054
ħuta	-12055
▁(19	-12056
▁-7.	-12057
▁14,	-12058
▁140	-12059
▁166	-12060
▁2.4	-12061
▁26.	-12062
▁3,3	-12063
▁345	-12064
▁556	-12065
▁672	-12066
▁734	-12067
▁ASD	-12068
▁Api	-12069
▁Aqu	-12070
▁CFC	-12071
▁Den	-12072
▁Iss	-12073
▁Med	-12074
▁SSD	-12075
▁Spa	-12076
▁Swe	-12077
▁USA	-12078
▁Wee	-12079
▁Zan	-12080
▁dum	-12081
▁fig	-12082
▁imk	-12083
▁kun	-12084
▁mur	-12085
▁one	-12086
▁par	-12087
▁sin	-12088
▁tiv	-12089
▁toħ	-12090
▁voc	-12091
▁ħaż	-12092
-1914	-12093
-1999	-12094
-2011	-12095
-9327	-12096
18.0.	-12097
34300	-12098
Anzio	-12099
Azzar	-12100
Bella	-12101
Brekk	-12102
Burku	-12103
Duchè	-12104
Fland	-12105
Gloom	-12106
Irlam	-12107
Jaish	-12108
Jugos	-12109
Majer	-12110
Minna	-12111
Parte	-12112
Poplu	-12113
Posta	-12114
South	-12115
Stars	-12116
anist	-12117
arkey	-12118
ballo	-12119
banji	-12120
bient	-12121
edict	-12122
egano	-12123
enner	-12124
entaw	-12125
hotel	-12126
ielja	-12127
iesaħ	-12128
ikbar	-12129
iktar	-12130
ilino	-12131
inkra	-12132
ionov	-12133
iroux	-12134
iskey	-12135
itner	-12136
kopru	-12137
liġju	-12138
magni	-12139
nexxi	-12140
ocrat	-12141
olata	-12142
olqot	-12143
pedas	-12144
publi	-12145
rafts	-12146
roman	-12147
sedan	-12148
sovja	-12149
stiku	-12150
twaqq	-12151
tħadd	-12152
ultai	-12153
ħafna	-12154
ħajao	-12155
ħawwa	-12156
ħmima	-12157
’5594	-12158
▁$556	-12159
▁07/2	-12160
▁1.55	-12161
▁1533	-12162
▁164.	-12163
▁1908	-12164
▁1947	-12165
▁24.0	-12166
▁25.2	-12167
▁34.0	-12168
▁3711	-12169
▁5.75	-12170
▁600.	-12171
▁714.	-12172
▁765.	-12173
▁770,	-12174
▁806.	-12175
▁8800	-12176
▁9504	-12177
▁972.	-12178
▁Aids	-12179
▁Aman	-12180
▁Ando	-12181
▁Bass	-12182
▁Bini	-12183
▁Corv	-12184
▁Doom	-12185
▁Dáil	-12186
▁Ever	-12187
▁Flet	-12188
▁Folk	-12189
▁Iron	-12190
▁KABI	-12191
▁Kate	-12192
▁Kins	-12193
▁Kore	-12194
▁Kota	-12195
▁Kupé	-12196
▁LLCN	-12197
▁Mink	-12198
▁Nasa	-12199
▁Nola	-12200
▁Nood	-12201
▁Rapp	-12202
▁Riem	-12203
▁Sbra	-12204
▁Zwan	-12205
▁bdew	-12206
▁film	-12207
▁fond	-12208
▁frit	-12209
▁għax	-12210
▁isir	-12211
▁juru	-12212
▁kokk	-12213
▁kons	-12214
▁kris	-12215
▁lett	-12216
▁line	-12217
▁mejt	-12218
▁nifs	-12219
▁rqab	-12220
▁stra	-12221
▁taro	-12222
▁wħud	-12223
-1820.	-12224
-1904.	-12225
-1941.	-12226
-1957,	-12227
-1974.	-12228
-19804	-12229
-1987,	-12230
-1994.	-12231
-1995,	-12232
-2001,	-12233
-2005.	-12234
12.200	-12235
Batumi	-12236
Belgra	-12237
Colwyn	-12238
Lieħan	-12239
Mantry	-12240
Maturu	-12241
Sikago	-12242
Tenent	-12243
altern	-12244
arahan	-12245
astery	-12246
entità	-12247
fażola	-12248
fergħa	-12249
gnuolo	-12250
iation	-12251
ietika	-12252
inkler	-12253
istili	-12254
iġenti	-12255
lestew	-12256
mużist	-12257
native	-12258
niprop	-12259
provin	-12260
qatgħa	-12261
ralian	-12262
teapta	-12263
ultura	-12264
városi	-12265
Ġurnal	-12266
ġieldu	-12267
żerrej	-12268
▁1,533	-12269
▁18.09	-12270
▁1918.	-12271
▁1927,	-12272
▁1932,	-12273
▁1969,	-12274
▁1974,	-12275
▁1988.	-12276
▁1996,	-12277
▁1996.	-12278
▁2002.	-12279
▁2004,	-12280
▁2011,	-12281
▁265.0	-12282
▁AMAHE	-12283
▁Alton	-12284
▁Bajik	-12285
▁Bones	-12286
▁Chuck	-12287
▁Duhok	-12288
▁Earth	-12289
▁Etiop	-12290
▁Giant	-12291
▁Josef	-12292
▁Klubu	-12293
▁Linka	-12294
▁Maple	-12295
▁Matul	-12296
▁Orfeo	-12297
▁Plack	-12298
▁Putin	-12299
▁Rican	-12300
▁Ricky	-12301
▁Saint	-12302
▁Tabak	-12303
▁Tadao	-12304
▁Tiger	-12305
▁basal	-12306
▁disko	-12307
▁edita	-12308
▁ewwel	-12309
▁forom	-12310
▁kuppa	-12311
▁lesta	-12312
▁mejta	-12313
▁mexxi	-12314
▁orbit	-12315
▁punti	-12316
▁rupee	-12317
▁singa	-12318
▁soppa	-12319
▁sħana	-12320
▁tabib	-12321
▁volum	-12322
▁ġuris	-12323
-07-27.	-12324
Alaskas	-12325
Astérix	-12326
Duchère	-12327
Fallons	-12328
Famħana	-12329
Flammiż	-12330
Iskriba	-12331
Jalisco	-12332
Kornish	-12333
Libertà	-12334
Lincoln	-12335
Pollakk	-12336
Senatur	-12337
ampjuni	-12338
batchoy	-12339
comflot	-12340
damsche	-12341
etrovsk	-12342
gitarri	-12343
granola	-12344
imentel	-12345
irtirar	-12346
kmandat	-12347
kriżata	-12348
kulleġġ	-12349
kunċett	-12350
minenti	-12351
primjum	-12352
quirari	-12353
reċetti	-12354
tagħmir	-12355
titolat	-12356
twaqqif	-12357
tħaddim	-12358
ġġieled	-12359
▁0.0112	-12360
▁0.0925	-12361
▁06-27.	-12362
▁146110	-12363
▁1890.0	-12364
▁2158-3	-12365
▁2215.0	-12366
▁44.125	-12367
▁497.0.	-12368
▁597.0.	-12369
▁851483	-12370
▁882343	-12371
▁AAIDBI	-12372
▁Basket	-12373
▁Dothan	-12374
▁Farrar	-12375
▁Forest	-12376
▁Foster	-12377
▁Giroux	-12378
▁Hardie	-12379
▁Kiesaħ	-12380
▁Navajo	-12381
▁Pakora	-12382
▁Shinzo	-12383
▁Straus	-12384
▁Styria	-12385
▁Wielja	-12386
▁Zaanst	-12387
▁Zokkor	-12388
▁attiva	-12389
▁dollar	-12390
▁figura	-12391
▁impatt	-12392
▁inbnew	-12393
▁jkopri	-12394
▁jkopru	-12395
▁kisbet	-12396
▁leġisl	-12397
▁logħeb	-12398
▁marble	-12399
▁maħsub	-12400
▁mediku	-12401
▁multai	-12402
▁nnifsu	-12403
▁pastry	-12404
▁rapper	-12405
▁rkupra	-12406
▁rkupru	-12407
▁romano	-12408
▁storji	-12409
▁tbiegħ	-12410
▁tikkon	-12411
▁toħloq	-12412
▁vocali	-12413
▁Ċentru	-12414
▁ġabret	-12415
▁ħolqot	-12416
-1896-02	-12417
000.0.0.	-12418
00000.0.	-12419
Dolphins	-12420
Kanadani	-12421
Weymouth	-12422
basketti	-12423
fatturat	-12424
gerijiet	-12425
iżlatura	-12426
kannatur	-12427
konsistu	-12428
kristina	-12429
longkuas	-12430
perijodu	-12431
preċedut	-12432
teratura	-12433
▁2009-04	-12434
▁2215.0.	-12435
▁3990.0.	-12436
▁8805735	-12437
▁Ambient	-12438
▁Asociac	-12439
▁Brenner	-12440
▁Buffalo	-12441
▁Burbank	-12442
▁Espanol	-12443
▁Everett	-12444
▁Georgia	-12445
▁Meksiku	-12446
▁Mestizo	-12447
▁Negozju	-12448
▁Noodles	-12449
▁Peşákar	-12450
▁Ribcoff	-12451
▁Sbragia	-12452
▁Ungeriż	-12453
▁Waqfien	-12454
▁Whiskey	-12455
▁Winkler	-12456
▁abbrett	-12457
▁abitata	-12458
▁bionico	-12459
▁impjant	-12460
▁inkluda	-12461
▁iħaddem	-12462
▁kmandat	-12463
▁massiva	-12464
▁mfarrak	-12465
▁mibgħut	-12466
▁mwaqqfa	-12467
▁mwettaq	-12468
▁ngħażel	-12469
▁pianist	-12470
▁purpura	-12471
▁żvilupp	-12472
0002-9327	-12473
Alvinegro	-12474
Carrarese	-12475
Filippina	-12476
Jugoslava	-12477
Otkritiye	-12478
Portugall	-12479
apindales	-12480
avalerija	-12481
avoritner	-12482
dardcover	-12483
ganzjarju	-12484
garanzija	-12485
ikbarbelt	-12486
kanciller	-12487
provinċja	-12488
qamħirrum	-12489
▁2006.12.	-12490
▁3992.88.	-12491
▁57059226	-12492
▁88234300	-12493
▁Aquilino	-12494
▁Benedict	-12495
▁Boulogne	-12496
▁Children	-12497
▁Deputati	-12498
▁Firedome	-12499
▁Fletcher	-12500
▁Indiviċi	-12501
▁Joriġina	-12502
▁Katowice	-12503
▁Kinsealy	-12504
▁Marietta	-12505
▁Mularkey	-12506
▁Pimentel	-12507
▁Rodionov	-12508
▁Samaistö	-12509
▁Vladimir	-12510
▁football	-12511
▁fritters	-12512
▁hawnhekk	-12513
▁imwettaq	-12514
▁kkoopera	-12515
▁preżenta	-12516
▁pubbliku	-12517
▁reġistru	-12518
▁straight	-12519
Basketball	-12520
Iskrivener	-12521
Kaliforġja	-12522
Kopenhagen	-12523
Parteċipat	-12524
Preussisch	-12525
Xogħlijiet	-12526
balloonist	-12527
enburgbaan	-12528
ostitwixxu	-12529
Żambangani	-12530
▁605718000	-12531
▁Benitoite	-12532
▁Brittaniż	-12533
▁Corvallis	-12534
▁Faversham	-12535
▁Forrester	-12536
▁Gravesham	-12537
▁Matchstix	-12538
▁Minnesota	-12539
▁Samarahan	-12540
▁Sovietika	-12541
▁Spagnuolo	-12542
▁Taquirari	-12543
▁apappassi	-12544
▁ipprovdut	-12545
▁konsulent	-12546
▁miġġieled	-12547
▁postijiet	-12548
▁preċedent	-12549
▁psikedeli	-12550
▁rreġistra	-12551
▁shortened	-12552
▁suċċessaw	-12553
-1932-03-15	-12554
Schenectady	-12555
Zamboangani	-12556
derivattivi	-12557
distributur	-12558
iskoperatur	-12559
ħelikopters	-12560
▁01-01-1913	-12561
▁10,264,000	-12562
▁1360-0443.	-12563
▁1732-2421.	-12564
▁183309000.	-12565
▁2014-2015.	-12566
▁605718000.	-12567
▁611961000.	-12568
▁8514837.14	-12569
▁Bloomsbury	-12570
▁Footballer	-12571
▁Frangipane	-12572
▁Zaanstreek	-12573
▁assemblaġġ	-12574
▁jitqiegħed	-12575
▁linebacker	-12576
▁prominenti	-12577
-1930-01-20.	-12578
-1969-09-01.	-12579
Nazzjonijiet	-12580
Pennsylvania	-12581
▁39447000.0.	-12582
▁605718000.0	-12583
▁Artillerija	-12584
▁amministrat	-12585
▁jikkonsistu	-12586
Libliabrijani	-12587
korporazzjoni	-12588
nipropetrovsk	-12589
rappreżentant	-12590
▁10264000000.	-12591
▁Ferencvárosi	-12592
▁Manifatturat	-12593
▁immaniġġjata	-12594
▁jipparteċipa	-12595
Arrondissement	-12596
kristinazzjoni	-12597
ministrazzjoni	-12598
▁0-439-17685-9	-12599
▁Assoċjazzjoni	-12600
▁identifikatur	-12601
▁manifatturati	-12602
▁professjonali	-12603
▁ġurisdizzjoni	-12604
▁3997100000000.	-12605
▁Preċedentement	-12606
▁Zwanenburgbaan	-12607
▁jikkostitwixxu	-12608
Klassifikazzjoni	-12609
▁124950000000.0.	-12610
▁jirrappreżentaw	-12611
);	-12612
Aq	-12613
Ha	-12614
LG	-12615
LK	-12616
So	-12617
Th	-12618
Uk	-12619
Vf	-12620
jn	-12621
jw	-12622
mm	-12623
sp	-12624
yo	-12625
öt	-12626
”)	-12627
▁É	-12628
▁Í	-12629
.).	-12630
/08	-12631
124	-12632
163	-12633
202	-12634
28.	-12635
58.	-12636
748	-12637
97.	-12638
ADO	-12639
APN	-12640
Ala	-12641
Cal	-12642
Dra	-12643
Eng	-12644
Gos	-12645
ICE	-12646
Mac	-12647
Maj	-12648
Mid	-12649
Ori	-12650
Tyr	-12651
VfL	-12652
ajn	-12653
aki	-12654
arr	-12655
awk	-12656
baz	-12657
boċ	-12658
cel	-12659
cka	-12660
cle	-12661
dok	-12662
dro	-12663
eds	-12664
els	-12665
emp	-12666
erk	-12667
ews	-12668
eħu	-12669
fir	-12670
ied	-12671
jdi	-12672
jur	-12673
mas	-12674
nat	-12675
pad	-12676
roġ	-12677
saq	-12678
siġ	-12679
sur	-12680
umb	-12681
ärt	-12682
ġel	-12683
’10	-12684
’16	-12685
▁43	-12686
▁84	-12687
▁AE	-12688
▁Ix	-12689
▁Lo	-12690
▁MS	-12691
▁Mu	-12692
▁TS	-12693
▁cc	-12694
▁hp	-12695
-18.	-12696
-21.	-12697
/185	-12698
/201	-12699
1632	-12700
1923	-12701
226.	-12702
3.26	-12703
370.	-12704
466.	-12705
5.42	-12706
60.0	-12707
62.0	-12708
7.00	-12709
784.	-12710
953.	-12711
Aids	-12712
Aust	-12713
Base	-12714
CDTE	-12715
Erba	-12716
Grav	-12717
Hock	-12718
Jakk	-12719
Luss	-12720
Mark	-12721
Pjan	-12722
Rock	-12723
Taro	-12724
Tiel	-12725
Tred	-12726
Ukra	-12727
Wasp	-12728
adeh	-12729
adid	-12730
alph	-12731
ario	-12732
asin	-12733
auto	-12734
ayne	-12735
bajo	-12736
ckau	-12737
ctor	-12738
digħ	-12739
dott	-12740
drum	-12741
eder	-12742
elly	-12743
eney	-12744
erst	-12745
etaħ	-12746
ezza	-12747
flus	-12748
goas	-12749
grad	-12750
hbaz	-12751
icut	-12752
idma	-12753
igas	-12754
inho	-12755
kiek	-12756
meer	-12757
minn	-12758
odda	-12759
ogao	-12760
onse	-12761
orji	-12762
ousi	-12763
qrib	-12764
repa	-12765
rgum	-12766
silä	-12767
sius	-12768
sola	-12769
timu	-12770
tina	-12771
tles	-12772
uire	-12773
vdut	-12774
wiet	-12775
xton	-12776
’159	-12777
’610	-12778
▁36,	-12779
▁368	-12780
▁37,	-12781
▁39.	-12782
▁4,1	-12783
▁469	-12784
▁541	-12785
▁678	-12786
▁744	-12787
▁800	-12788
▁83.	-12789
▁96.	-12790
▁ABI	-12791
▁ARA	-12792
▁ATW	-12793
▁Aid	-12794
▁Dos	-12795
▁EMI	-12796
▁FLG	-12797
▁Hap	-12798
▁Ist	-12799
▁Nor	-12800
▁Rum	-12801
▁SLK	-12802
▁STV	-12803
▁Sla	-12804
▁Von	-12805
▁Wir	-12806
▁Zwi	-12807
▁ffa	-12808
▁kup	-12809
▁lew	-12810
▁meħ	-12811
▁sil	-12812
▁tne	-12813
▁tni	-12814
▁“03	-12815
-130,	-12816
-130.	-12817
-1891	-12818
-2005	-12819
4.008	-12820
5.33.	-12821
73.0.	-12822
7487.	-12823
Aqron	-12824
Arros	-12825
Atena	-12826
Bakon	-12827
Bronz	-12828
Drake	-12829
Engle	-12830
Haarl	-12831
Iskja	-12832
Ispan	-12833
Istan	-12834
Lidja	-12835
Pjant	-12836
Stati	-12837
Tyrol	-12838
alaba	-12839
aling	-12840
ammar	-12841
ammra	-12842
anaka	-12843
andeh	-12844
aving	-12845
bakso	-12846
bliċi	-12847
bqija	-12848
burgu	-12849
clear	-12850
disco	-12851
ekkan	-12852
ellen	-12853
emmer	-12854
erais	-12855
erman	-12856
fique	-12857
genre	-12858
icana	-12859
iedet	-12860
inata	-12861
irken	-12862
istur	-12863
jarja	-12864
jatur	-12865
jwana	-12866
kitba	-12867
klubs	-12868
kożme	-12869
liewi	-12870
missa	-12871
mudel	-12872
mutur	-12873
nudle	-12874
onald	-12875
ority	-12876
pinen	-12877
qoton	-12878
relly	-12879
respi	-12880
rican	-12881
riċev	-12882
saaki	-12883
sajja	-12884
short	-12885
sospa	-12886
tanen	-12887
total	-12888
uanku	-12889
udizz	-12890
ughan	-12891
uster	-12892
varar	-12893
ċello	-12894
ġuris	-12895
ħajja	-12896
▁16/3	-12897
▁168"	-12898
▁1960	-12899
▁1981	-12900
▁1982	-12901
▁2744	-12902
▁2777	-12903
▁28.0	-12904
▁334.	-12905
▁500.	-12906
▁52.0	-12907
▁6.97	-12908
▁734.	-12909
▁8.0.	-12910
▁Auth	-12911
▁Belt	-12912
▁Bozo	-12913
▁Cour	-12914
▁Enge	-12915
▁Gemm	-12916
▁Haag	-12917
▁Hook	-12918
▁Iper	-12919
▁Osin	-12920
▁Pubb	-12921
▁Ring	-12922
▁Scot	-12923
▁Test	-12924
▁Tles	-12925
▁Wang	-12926
▁Wärt	-12927
▁Yemi	-12928
▁akkw	-12929
▁bnew	-12930
▁dawk	-12931
▁deer	-12932
▁jġab	-12933
▁ksur	-12934
▁mayo	-12935
▁orig	-12936
▁ppro	-12937
▁rota	-12938
▁sseg	-12939
▁Éire	-12940
▁ġest	-12941
▁ħajj	-12942
-1911,	-12943
-1914,	-12944
-1923.	-12945
-1927.	-12946
-1948.	-12947
-1976,	-12948
-1982.	-12949
/1989.	-12950
Andrew	-12951
Borneo	-12952
Calcio	-12953
Centre	-12954
Granit	-12955
Greene	-12956
Griegi	-12957
Hockey	-12958
Kilied	-12959
Kodiċi	-12960
Legend	-12961
Punġab	-12962
Submar	-12963
Summit	-12964
Tielet	-12965
Urugwa	-12966
alliga	-12967
antiok	-12968
berari	-12969
celona	-12970
difiża	-12971
eleine	-12972
ellata	-12973
fassal	-12974
għajja	-12975
hammad	-12976
iliman	-12977
impatt	-12978
kawżaq	-12979
mument	-12980
operat	-12981
phonse	-12982
pjanju	-12983
saqajn	-12984
setgħa	-12985
tendil	-12986
tfield	-12987
tingen	-12988
ughlin	-12989
ustrat	-12990
uthale	-12991
utorja	-12992
vjaġġa	-12993
ġenera	-12994
ħellun	-12995
▁09/27	-12996
▁16.54	-12997
▁17.99	-12998
▁170.0	-12999
▁1907,	-13000
▁1910.	-13001
▁1913)	-13002
▁1932)	-13003
▁1958.	-13004
▁1978.	-13005
▁1987,	-13006
▁1995.	-13007
▁2003.	-13008
▁2013,	-13009
▁268.0	-13010
▁306.0	-13011
▁346.0	-13012
▁37124	-13013
▁37497	-13014
▁66391	-13015
▁686.0	-13016
▁733.0	-13017
▁746.0	-13018
▁973.0	-13019
▁9953.	-13020
▁Above	-13021
▁Alter	-13022
▁Arepa	-13023
▁Bħala	-13024
▁Cantù	-13025
▁Cello	-13026
▁Clerk	-13027
▁Demak	-13028
▁Einho	-13029
▁Elkin	-13030
▁Extra	-13031
▁First	-13032
▁Frews	-13033
▁Gerst	-13034
▁Hogao	-13035
▁Istan	-13036
▁Latin	-13037
▁Leeds	-13038
▁Malik	-13039
▁Medju	-13040
▁Minas	-13041
▁Payne	-13042
▁Pedas	-13043
▁Pilot	-13044
▁Quinn	-13045
▁Ralph	-13046
▁Retro	-13047
▁Temer	-13048
▁Tista	-13049
▁Ungar	-13050
▁Valor	-13051
▁arros	-13052
▁drabi	-13053
▁droga	-13054
▁grada	-13055
▁hatch	-13056
▁inven	-13057
▁jmexx	-13058
▁komun	-13059
▁padeh	-13060
▁qawwi	-13061
▁sotto	-13062
▁strip	-13063
▁sħuna	-13064
▁tieħu	-13065
▁Ícolo	-13066
▁ġebel	-13067
▁Ħadid	-13068
▁ħażna	-13069
-10-28.	-13070
00000.0	-13071
01-8392	-13072
Alagoas	-13073
Artisti	-13074
Belgaum	-13075
Gravend	-13076
Jakkets	-13077
Lanekar	-13078
Legendi	-13079
Maccabi	-13080
Marousi	-13081
Merrikh	-13082
Sistemi	-13083
Soċjali	-13084
Terrace	-13085
Ukraina	-13086
Vitesse	-13087
angasin	-13088
elerija	-13089
gradati	-13090
isports	-13091
istampa	-13092
istring	-13093
istudji	-13094
katezza	-13095
komitmu	-13096
kristan	-13097
meringa	-13098
onferma	-13099
oregano	-13100
postela	-13101
qiegħdu	-13102
ristjan	-13103
rumblat	-13104
sistemi	-13105
varjant	-13106
veteran	-13107
Ġappuni	-13108
’167.94	-13109
▁0.0455	-13110
▁0236-5	-13111
▁0269-9	-13112
▁03/21.	-13113
▁08/26.	-13114
▁1.524.	-13115
▁1099.0	-13116
▁1121.0	-13117
▁185.42	-13118
▁192000	-13119
▁2160.0	-13120
▁253.26	-13121
▁3,992.	-13122
▁37116.	-13123
▁3800.0	-13124
▁47487.	-13125
▁560937	-13126
▁85466.	-13127
▁8820.0	-13128
▁94531.	-13129
▁Akiito	-13130
▁Birken	-13131
▁Breman	-13132
▁Citrus	-13133
▁Colwyn	-13134
▁Crespi	-13135
▁Faroża	-13136
▁Ganges	-13137
▁Gerais	-13138
▁Govern	-13139
▁Hellen	-13140
▁Issibu	-13141
▁Jepson	-13142
▁Kubiku	-13143
▁Lemper	-13144
▁Madien	-13145
▁Mughan	-13146
▁Patata	-13147
▁Persea	-13148
▁Romani	-13149
▁Rumeni	-13150
▁Stonku	-13151
▁Tanaka	-13152
▁Tehran	-13153
▁Tuanku	-13154
▁Tummit	-13155
▁Turiċi	-13156
▁anness	-13157
▁għalih	-13158
▁jargum	-13159
▁jaħdmu	-13160
▁karboċ	-13161
▁kiesaħ	-13162
▁kopert	-13163
▁kubika	-13164
▁lingwi	-13165
▁maħtur	-13166
▁miksub	-13167
▁mġabar	-13168
▁offsid	-13169
▁platta	-13170
▁reġjun	-13171
▁romane	-13172
▁ssaħħa	-13173
▁tnedew	-13174
▁wassal	-13175
▁xjenza	-13176
▁xogħol	-13177
▁ġiedet	-13178
▁ġudizz	-13179
▁ħellun	-13180
-1923-11	-13181
-1998-07	-13182
12.2006.	-13183
Basketti	-13184
Bukarest	-13185
Coritiba	-13186
Democrat	-13187
Flandera	-13188
Fortress	-13189
Kampanja	-13190
Maryland	-13191
Meringue	-13192
Militari	-13193
Ministru	-13194
Rabadash	-13195
affiljat	-13196
atalonia	-13197
autoharp	-13198
awtorità	-13199
dardback	-13200
istretti	-13201
magħrufa	-13202
materjal	-13203
plosjoni	-13204
plużjoni	-13205
sandviċi	-13206
tikketti	-13207
tmexxija	-13208
öttingen	-13209
Ċinatown	-13210
ġestjoni	-13211
Żgħażagħ	-13212
▁0025-58	-13213
▁165.33.	-13214
▁2368.05	-13215
▁2702.0.	-13216
▁2744.0.	-13217
▁2777.0.	-13218
▁3360.12	-13219
▁3500.0.	-13220
▁4387.00	-13221
▁96.1632	-13222
▁African	-13223
▁Alliant	-13224
▁Artisti	-13225
▁Bernard	-13226
▁Brittan	-13227
▁Celsius	-13228
▁Didburg	-13229
▁Faroese	-13230
▁Gemmill	-13231
▁Hilario	-13232
▁Irċieva	-13233
▁Koreana	-13234
▁Maguire	-13235
▁Masaaki	-13236
▁Mathews	-13237
▁Nugenre	-13238
▁Persuna	-13239
▁Prodott	-13240
▁Pudding	-13241
▁Qarabağ	-13242
▁Rafique	-13243
▁Rajwana	-13244
▁Sweeney	-13245
▁Weaving	-13246
▁Zwickau	-13247
▁fondata	-13248
▁identif	-13249
▁jinbeda	-13250
▁marbuta	-13251
▁mqassra	-13252
▁sservat	-13253
▁Éireann	-13254
▁ħnieżer	-13255
-19804-23	-13256
Aermacchi	-13257
Arlington	-13258
Blackburn	-13259
Couronnes	-13260
Irlandiżi	-13261
Ispangled	-13262
Ispanjoli	-13263
Konteicut	-13264
Monarkija	-13265
Shanachie	-13266
assifikat	-13267
clearinet	-13268
emmermeer	-13269
kampjunat	-13270
kożmetika	-13271
marjament	-13272
okazzjoni	-13273
ristinata	-13274
riċevitur	-13275
▁0567-792	-13276
▁1480153.	-13277
▁3078.48.	-13278
▁80002709	-13279
▁900.0.0.	-13280
▁93645978	-13281
▁Amerigas	-13282
▁Benjamin	-13283
▁Borrelly	-13284
▁Brussels	-13285
▁Bħalissa	-13286
▁Einhoorn	-13287
▁Gerstman	-13288
▁Laughlin	-13289
▁Mexicana	-13290
▁Muhammad	-13291
▁Osinbajo	-13292
▁Santiago	-13293
▁Schuster	-13294
▁Servizzi	-13295
▁Wirtanen	-13296
▁Wärtsilä	-13297
▁ajruport	-13298
▁għażelha	-13299
▁irregola	-13300
▁kapaċità	-13301
▁konflitt	-13302
▁kunflitt	-13303
▁mgħammar	-13304
▁parzjali	-13305
▁speċjali	-13306
▁sustanzi	-13307
▁tipjatur	-13308
Asociación	-13309
Asociation	-13310
Britanniċi	-13311
ederaliżmu	-13312
ondazzjoni	-13313
sinkromish	-13314
▁03/04/190	-13315
▁1473-5571	-13316
▁318875313	-13317
▁32024459.	-13318
▁39447000.	-13319
▁4000.0.0.	-13320
▁87000823.	-13321
▁Authority	-13322
▁Barcelona	-13323
▁Geraisand	-13324
▁Haputhale	-13325
▁Hardcover	-13326
▁Ipermarka	-13327
▁Ipermarki	-13328
▁Madeleine	-13329
▁Matchstik	-13330
▁Pubbbliċi	-13331
▁Scrivener	-13332
▁Universal	-13333
▁Voluntier	-13334
▁hatchback	-13335
▁inventati	-13336
▁jissieħeb	-13337
▁jiġġieldu	-13338
▁jiġġieled	-13339
▁kożmetika	-13340
▁kwartieri	-13341
▁lokalment	-13342
▁ssegwiċċa	-13343
▁supermini	-13344
▁suċċessat	-13345
▁titkellma	-13346
▁tivvjaġġa	-13347
▁Ġermaniżi	-13348
-1896-02-01	-13349
Libliberari	-13350
angasinense	-13351
kristannata	-13352
letteratura	-13353
▁"0002-9327	-13354
▁1800000000	-13355
▁1865-8784.	-13356
▁2005-11-26	-13357
▁2006-12-31	-13358
▁2158-3226.	-13359
▁Asociacion	-13360
▁Birkenhead	-13361
▁Compostela	-13362
▁Connection	-13363
▁Cuttlefish	-13364
▁Fightfield	-13365
▁Linebacker	-13366
▁Retrovirus	-13367
▁Sapindales	-13368
▁Vermicelli	-13369
▁fallimenti	-13370
▁jirriżulta	-13371
▁kkonċernat	-13372
▁madankollu	-13373
▁solanaceae	-13374
▁suċċessiva	-13375
▁trombonist	-13376
-1907-07-11.	-13377
-1932-03-15)	-13378
-1936-05-21.	-13379
-1939-01-03,	-13380
Istanbulspor	-13381
Reġjunalliga	-13382
abbreviation	-13383
rappreżentat	-13384
▁108,600000,	-13385
▁1907-07-11)	-13386
▁2005-11-26.	-13387
▁31.12.2006.	-13388
▁371240000.0	-13389
▁6603633000.	-13390
▁Academicals	-13391
▁Alternative	-13392
▁Arkitettura	-13393
▁Sosteniment	-13394
▁derivattivi	-13395
▁gradazzjoni	-13396
▁jargumentaw	-13397
▁jirreġistra	-13398
▁tappartjeni	-13399
▁tikkonsisti	-13400
manifatturati	-13401
ġurisdizzjoni	-13402
▁$108,600000.	-13403
▁183309000.0.	-13404
▁Leġiżlattiva	-13405
▁ttrażmettiet	-13406
Dnipropetrovsk	-13407
Haarlemmermeer	-13408
Paleontoloġija	-13409
istrumentalist	-13410
▁0-7156-3648-0	-13411
▁1-4165-2060-0	-13412
▁Courcouronnes	-13413
▁Kontributtiva	-13414
▁ssegwentement	-13415
▁15,100,000000.	-13416
▁88234300000.0.	-13417
▁ikkategorizzat	-13418
▁inaugurazzjoni	-13419
▁rappreżentanti	-13420
klassifikazzjoni	-13421
▁offsiderazzjoni	-13422
#:	-13423
//	-13424
4”	-13425
86	-13426
Di	-13427
Fo	-13428
OB	-13429
Ph	-13430
SE	-13431
Sk	-13432
UD	-13433
VW	-13434
lk	-13435
ox	-13436
ww	-13437
ċe	-13438
ĠE	-13439
ġu	-13440
’"	-13441
’1	-13442
”;	-13443
▁y	-13444
▁Æ	-13445
-9,	-13446
.”)	-13447
/09	-13448
/10	-13449
/16	-13450
099	-13451
2.8	-13452
25.	-13453
37,	-13454
4-0	-13455
64,	-13456
678	-13457
8.8	-13458
91.	-13459
://	-13460
ACY	-13461
Acc	-13462
Ajo	-13463
Ark	-13464
Ayr	-13465
Blu	-13466
Bod	-13467
Cap	-13468
Dan	-13469
Diy	-13470
Fan	-13471
Flu	-13472
Kat	-13473
Lee	-13474
Leġ	-13475
Lok	-13476
Min	-13477
Mot	-13478
Oku	-13479
Oly	-13480
PSV	-13481
Rev	-13482
Rup	-13483
Tao	-13484
Ten	-13485
VAM	-13486
aci	-13487
arp	-13488
blu	-13489
bro	-13490
cky	-13491
diż	-13492
edy	-13493
enu	-13494
err	-13495
fik	-13496
gov	-13497
ici	-13498
iki	-13499
inf	-13500
loo	-13501
mil	-13502
num	-13503
ofd	-13504
oly	-13505
oma	-13506
ono	-13507
raw	-13508
rik	-13509
riċ	-13510
saj	-13511
ttp	-13512
unc	-13513
viy	-13514
vol	-13515
www	-13516
šan	-13517
’25	-13518
’26	-13519
’45	-13520
▁AI	-13521
▁Bă	-13522
▁Dc	-13523
▁Dh	-13524
▁Fr	-13525
▁Gm	-13526
▁Gá	-13527
▁ID	-13528
▁Mk	-13529
▁NV	-13530
▁PA	-13531
▁XM	-13532
▁ZF	-13533
▁gm	-13534
▁la	-13535
▁“1	-13536
-13.	-13537
-16,	-13538
-2).	-13539
-23.	-13540
/193	-13541
012.	-13542
0999	-13543
1-07	-13544
2539	-13545
294.	-13546
332.	-13547
5-03	-13548
500.	-13549
637.	-13550
833,	-13551
8388	-13552
867.	-13553
Aber	-13554
Bill	-13555
Book	-13556
Brit	-13557
Brok	-13558
CEPT	-13559
Cler	-13560
Does	-13561
Ekot	-13562
Grey	-13563
Għal	-13564
Imsa	-13565
Kash	-13566
Kati	-13567
Kris	-13568
Maġġ	-13569
Mili	-13570
Pall	-13571
SEAT	-13572
Sano	-13573
Teks	-13574
Verm	-13575
Xell	-13576
afna	-13577
alot	-13578
alur	-13579
anao	-13580
apit	-13581
aram	-13582
bler	-13583
bros	-13584
cake	-13585
daħħ	-13586
enko	-13587
enre	-13588
erka	-13589
erta	-13590
fkin	-13591
folk	-13592
gham	-13593
ieħu	-13594
imna	-13595
inae	-13596
iper	-13597
itor	-13598
iżla	-13599
kili	-13600
lass	-13601
lied	-13602
mert	-13603
morc	-13604
nisa	-13605
oarp	-13606
odon	-13607
onor	-13608
orjo	-13609
peda	-13610
plas	-13611
prek	-13612
ring	-13613
sago	-13614
sost	-13615
taqs	-13616
tine	-13617
ugiż	-13618
usja	-13619
vanz	-13620
vati	-13621
wall	-13622
witu	-13623
xeww	-13624
ċita	-13625
ġewż	-13626
ħala	-13627
ħall	-13628
żiva	-13629
żjan	-13630
▁.88	-13631
▁08,	-13632
▁1.7	-13633
▁2/2	-13634
▁21-	-13635
▁23-	-13636
▁234	-13637
▁3.0	-13638
▁304	-13639
▁4.8	-13640
▁401	-13641
▁50.	-13642
▁505	-13643
▁618	-13644
▁64,	-13645
▁71.	-13646
▁714	-13647
▁8.0	-13648
▁ATA	-13649
▁Akk	-13650
▁Ave	-13651
▁Ayr	-13652
▁Ban	-13653
▁Fin	-13654
▁Hun	-13655
▁Jes	-13656
▁Las	-13657
▁Riċ	-13658
▁Saħ	-13659
▁Vin	-13660
▁Yam	-13661
▁cel	-13662
▁dix	-13663
▁eks	-13664
▁fos	-13665
▁ill	-13666
▁jaf	-13667
▁kit	-13668
▁kwa	-13669
▁mag	-13670
▁met	-13671
▁sek	-13672
▁sem	-13673
▁vot	-13674
▁ħar	-13675
-1944	-13676
-1948	-13677
-1958	-13678
-1972	-13679
Above	-13680
Affar	-13681
Amhar	-13682
Barun	-13683
Capel	-13684
Clerk	-13685
Diyos	-13686
EISSN	-13687
Erosi	-13688
Genoa	-13689
Libra	-13690
Lions	-13691
Marit	-13692
Merez	-13693
Rebel	-13694
Thema	-13695
Xmara	-13696
abate	-13697
acios	-13698
allon	-13699
amate	-13700
ashub	-13701
atran	-13702
banjo	-13703
bansa	-13704
betti	-13705
bronk	-13706
brose	-13707
chere	-13708
deżin	-13709
droga	-13710
egata	-13711
eland	-13712
eriki	-13713
essaħ	-13714
ettwa	-13715
firxa	-13716
gawdi	-13717
gress	-13718
himnu	-13719
iends	-13720
ikali	-13721
illas	-13722
injar	-13723
inqas	-13724
insab	-13725
ispaz	-13726
kalik	-13727
kesħa	-13728
kluda	-13729
ković	-13730
leton	-13731
mezzi	-13732
numri	-13733
oriku	-13734
orrow	-13735
pling	-13736
ponge	-13737
popol	-13738
print	-13739
prosp	-13740
qligħ	-13741
round	-13742
super	-13743
tinju	-13744
torju	-13745
trupp	-13746
Ġkiek	-13747
ġixxi	-13748
ħarel	-13749
ħareġ	-13750
ħidma	-13751
żewwa	-13752
żewwe	-13753
▁"978	-13754
▁0155	-13755
▁0348	-13756
▁1/19	-13757
▁100,	-13758
▁1207	-13759
▁1472	-13760
▁1776	-13761
▁1800	-13762
▁1978	-13763
▁2001	-13764
▁25.0	-13765
▁2953	-13766
▁3678	-13767
▁4/22	-13768
▁458.	-13769
▁575.	-13770
▁6.81	-13771
▁62.0	-13772
▁657,	-13773
▁737,	-13774
▁8002	-13775
▁82.8	-13776
▁925.	-13777
▁Aeth	-13778
▁Atty	-13779
▁Auto	-13780
▁Bena	-13781
▁Ikel	-13782
▁Khom	-13783
▁Lesh	-13784
▁MacD	-13785
▁Mind	-13786
▁ORAA	-13787
▁Peña	-13788
▁Phil	-13789
▁Raja	-13790
▁SBCT	-13791
▁Sami	-13792
▁Tork	-13793
▁deri	-13794
▁desk	-13795
▁djan	-13796
▁fall	-13797
▁għan	-13798
▁għen	-13799
▁għin	-13800
▁kbir	-13801
▁kkon	-13802
▁kkun	-13803
▁kubi	-13804
▁kupé	-13805
▁ntuħ	-13806
▁part	-13807
▁pożi	-13808
▁prem	-13809
▁preż	-13810
▁proġ	-13811
▁rupa	-13812
▁sitt	-13813
▁soli	-13814
▁spaz	-13815
▁temp	-13816
▁tjur	-13817
▁wisa	-13818
-02-24	-13819
-1872.	-13820
-1878.	-13821
-1937,	-13822
-1974,	-13823
-1978.	-13824
-1982,	-13825
-1985.	-13826
-1987.	-13827
-1988.	-13828
-1990,	-13829
-1998.	-13830
-1999.	-13831
-2006,	-13832
-2014,	-13833
-30/05	-13834
/1986.	-13835
/1987.	-13836
000823	-13837
ATISET	-13838
Accord	-13839
Alfred	-13840
Appell	-13841
Bodley	-13842
Gruppi	-13843
Gubbio	-13844
Għalji	-13845
Kasubi	-13846
Katina	-13847
Krisis	-13848
Krisja	-13849
Marina	-13850
Maġġur	-13851
Pjanċi	-13852
Purple	-13853
Revolu	-13854
Rocket	-13855
Xellug	-13856
almond	-13857
alotti	-13858
andiet	-13859
apitol	-13860
appara	-13861
bibien	-13862
daħħal	-13863
diktat	-13864
editat	-13865
ekwota	-13866
ellite	-13867
fikiċi	-13868
garija	-13869
irinae	-13870
joniku	-13871
jonist	-13872
kejjel	-13873
kellmu	-13874
kompet	-13875
konċer	-13876
lewqan	-13877
maskot	-13878
penyet	-13879
ponsab	-13880
prekel	-13881
qatran	-13882
ristin	-13883
sinder	-13884
titoli	-13885
togħma	-13886
tranża	-13887
uncion	-13888
▁"1928	-13889
▁07/23	-13890
▁08/26	-13891
▁09/22	-13892
▁1,982	-13893
▁1.524	-13894
▁1080.	-13895
▁11.35	-13896
▁13/31	-13897
▁16.76	-13898
▁16/34	-13899
▁168”.	-13900
▁1793,	-13901
▁1857,	-13902
▁1910,	-13903
▁1921.	-13904
▁1925.	-13905
▁1936,	-13906
▁1939.	-13907
▁1955.	-13908
▁1980.	-13909
▁1983,	-13910
▁19880	-13911
▁2005-	-13912
▁2014–	-13913
▁3800.	-13914
▁755.3	-13915
▁7637.	-13916
▁8.33.	-13917
▁875,4	-13918
▁9000,	-13919
▁Apium	-13920
▁Asian	-13921
▁Bălan	-13922
▁Deheb	-13923
▁Doshi	-13924
▁Dušan	-13925
▁Frott	-13926
▁Glass	-13927
▁Great	-13928
▁Gábor	-13929
▁Honor	-13930
▁Hoofd	-13931
▁Irlam	-13932
▁Levan	-13933
▁Lucky	-13934
▁Motor	-13935
▁Perth	-13936
▁Plant	-13937
▁Reali	-13938
▁Turin	-13939
▁Water	-13940
▁Wever	-13941
▁avant	-13942
▁baxxa	-13943
▁bhaji	-13944
▁bronk	-13945
▁chich	-13946
▁daħal	-13947
▁diska	-13948
▁friġġ	-13949
▁genre	-13950
▁himna	-13951
▁jieħu	-13952
▁kkawż	-13953
▁lettu	-13954
▁lewnd	-13955
▁loyal	-13956
▁mindu	-13957
▁mwett	-13958
▁nbeda	-13959
▁prezz	-13960
▁qablu	-13961
▁qawwa	-13962
▁resid	-13963
▁ronda	-13964
▁saħħa	-13965
▁serje	-13966
▁skont	-13967
▁sojja	-13968
▁stess	-13969
▁tieni	-13970
▁tneħħ	-13971
▁wiesa	-13972
▁ġammi	-13973
▁ġobon	-13974
▁Ħafna	-13975
▁ħames	-13976
▁ħamlu	-13977
Antigua	-13978
Broklin	-13979
Dellata	-13980
Duchere	-13981
Famlaġġ	-13982
Kashubi	-13983
Kopenha	-13984
Kultura	-13985
Lambien	-13986
Munster	-13987
Plastik	-13988
Polydor	-13989
Quattro	-13990
Vermont	-13991
ademiku	-13992
amateur	-13993
attakki	-13994
bakkell	-13995
derbaan	-13996
deserta	-13997
domanda	-13998
entrata	-13999
enzjali	-14000
essjoni	-14001
ffettwa	-14002
gressiv	-14003
iskotja	-14004
ispazji	-14005
istonku	-14006
iżvelat	-14007
ketchup	-14008
milodon	-14009
oretrov	-14010
plastru	-14011
profess	-14012
reliġju	-14013
shorted	-14014
talista	-14015
ustries	-14016
vetturi	-14017
viyenko	-14018
walment	-14019
xewwien	-14020
▁"0-439	-14021
▁0,0482	-14022
▁0.0348	-14023
▁125800	-14024
▁140000	-14025
▁2,195.	-14026
▁2744.0	-14027
▁2989.0	-14028
▁3,3528	-14029
▁31.48.	-14030
▁33012.	-14031
▁39332.	-14032
▁518.0.	-14033
▁600.0.	-14034
▁64,008	-14035
▁733.0.	-14036
▁9,833,	-14037
▁Baling	-14038
▁Barney	-14039
▁Blanco	-14040
▁Brażil	-14041
▁Church	-14042
▁Empoli	-14043
▁Errata	-14044
▁Hunter	-14045
▁Kashub	-14046
▁Lojali	-14047
▁Lufkin	-14048
▁Maġġur	-14049
▁Moskwa	-14050
▁Pariġi	-14051
▁Peoria	-14052
▁Romero	-14053
▁Saħdar	-14054
▁Singap	-14055
▁Stadju	-14056
▁Talaba	-14057
▁Tallon	-14058
▁Tlesta	-14059
▁Unione	-14060
▁Vinoly	-14061
▁Xandir	-14062
▁appapp	-14063
▁attakk	-14064
▁avvanz	-14065
▁editor	-14066
▁ffaqqa	-14067
▁gradat	-14068
▁gwerra	-14069
▁ikopri	-14070
▁imqatt	-14071
▁inftuħ	-14072
▁jindeb	-14073
▁joħroġ	-14074
▁komiks	-14075
▁leader	-14076
▁mekkan	-14077
▁missil	-14078
▁mmexxa	-14079
▁ordnat	-14080
▁oħrajn	-14081
▁peress	-14082
▁player	-14083
▁qabdem	-14084
▁rnexxi	-14085
▁sempli	-14086
▁solist	-14087
▁string	-14088
-17684-0	-14089
-1875-03	-14090
-1966-02	-14091
-2004-12	-14092
01-8392”	-14093
87000823	-14094
Aberdeen	-14095
Affarjat	-14096
Appleton	-14097
Budapest	-14098
Finlandi	-14099
Fluating	-14100
Fountain	-14101
Goslarer	-14102
Ingilġja	-14103
Kapitali	-14104
Klajlied	-14105
Kolurati	-14106
Minotaur	-14107
Otkrtiye	-14108
Portorjo	-14109
Postriċi	-14110
Treddigħ	-14111
atbridge	-14112
deżinjat	-14113
doktorju	-14114
duzzjoni	-14115
entament	-14116
funzjoni	-14117
ghampara	-14118
identità	-14119
immexxej	-14120
istambul	-14121
monument	-14122
morcilla	-14123
perijażi	-14124
sinkromi	-14125
teċipant	-14126
tlestija	-14127
ustratur	-14128
verżjoni	-14129
Ġappuniż	-14130
Ġermanji	-14131
▁1121.0.	-14132
▁1480153	-14133
▁1856-09	-14134
▁1939-01	-14135
▁3078.48	-14136
▁336265,	-14137
▁3400.0.	-14138
▁3453.0.	-14139
▁374976.	-14140
▁3992.88	-14141
▁4100.0.	-14142
▁Ambrose	-14143
▁Bodhrán	-14144
▁Capitol	-14145
▁Filipin	-14146
▁Friends	-14147
▁Galicia	-14148
▁Inħarel	-14149
▁Ivković	-14150
▁Kennedy	-14151
▁Lammert	-14152
▁Lasalle	-14153
▁Norbert	-14154
▁Riċerka	-14155
▁Shehbaz	-14156
▁Suwalki	-14157
▁Tlestew	-14158
▁Torkija	-14159
▁Turkija	-14160
▁dixerti	-14161
▁immexxa	-14162
▁inħareġ	-14163
▁jgħixix	-14164
▁kkunsid	-14165
▁kompeti	-14166
▁miġbura	-14167
▁prinċip	-14168
▁soċjali	-14169
▁strixxa	-14170
▁tagħmir	-14171
▁taġixxi	-14172
▁tempore	-14173
▁terminu	-14174
▁tnedjat	-14175
▁twaqqfu	-14176
▁xxandir	-14177
-30/05/19	-14178
6,000000.	-14179
Andalusja	-14180
Brittanja	-14181
Göttingen	-14182
Makabansa	-14183
Militarju	-14184
Monastery	-14185
Submarina	-14186
Topklasse	-14187
editaturi	-14188
elettriku	-14189
ellington	-14190
gvernatur	-14191
kalikasan	-14192
kunċerija	-14193
mużikista	-14194
ontrollat	-14195
ppartjenu	-14196
prospetti	-14197
responsab	-14198
teċipanti	-14199
▁45644811	-14200
▁69862200	-14201
▁7877110.	-14202
▁88002539	-14203
▁Academia	-14204
▁Alphonse	-14205
▁Assoċjat	-14206
▁Asuncion	-14207
▁Barbetti	-14208
▁Casillas	-14209
▁Cornwall	-14210
▁Donabate	-14211
▁Etiopjan	-14212
▁Fornitur	-14213
▁Mamorrow	-14214
▁Meringue	-14215
▁Militari	-14216
▁Mindanao	-14217
▁Minkejja	-14218
▁Mmexxija	-14219
▁Musikali	-14220
▁Palacios	-14221
▁Portugiż	-14222
▁Rochdale	-14223
▁Sycamore	-14224
▁Waterloo	-14225
▁akkwista	-14226
▁derivati	-14227
▁dumpling	-14228
▁funzjoni	-14229
▁imkessaħ	-14230
▁introjtu	-14231
▁jagħmelx	-14232
▁kampjuni	-14233
▁karboċċi	-14234
▁kkawżata	-14235
▁kkmandat	-14236
▁komikali	-14237
▁kristall	-14238
▁kristjan	-14239
▁mgħammra	-14240
▁miżżewwa	-14241
▁miżżewwe	-14242
▁originat	-14243
▁ospitata	-14244
▁pecorino	-14245
▁perapsis	-14246
▁popolata	-14247
▁pprovdut	-14248
▁preżenti	-14249
▁sinthpop	-14250
▁spazjali	-14251
▁ssiġenti	-14252
▁tinfissa	-14253
▁tranżiva	-14254
▁vjantaġġ	-14255
Australian	-14256
Britannija	-14257
Finlandiżi	-14258
Vandenberg	-14259
assemblaġġ	-14260
isplosjoni	-14261
isplużjoni	-14262
iżlazzjoni	-14263
kamikotikk	-14264
parazzjoni	-14265
trombonist	-14266
▁07/23/192	-14267
▁1046-8188	-14268
▁16244700,	-14269
▁32024459,	-14270
▁3990.0.0.	-14271
▁Americans	-14272
▁Andalusia	-14273
▁Desteapta	-14274
▁Diviżjoni	-14275
▁Helleniku	-14276
▁Irlandiżi	-14277
▁Khomeriki	-14278
▁MacDonald	-14279
▁Riviżjoni	-14280
▁Singapore	-14281
▁Valentina	-14282
▁chicharon	-14283
▁distretti	-14284
▁jiġġenera	-14285
▁kkonkluda	-14286
▁kopertura	-14287
▁magistrat	-14288
▁pożizzjon	-14289
▁preċediet	-14290
▁propiller	-14291
▁relattiva	-14292
▁reġistrat	-14293
▁striptiċi	-14294
▁tiddiktat	-14295
▁titqassra	-14296
▁Æthelwald	-14297
▁ġudizzjar	-14298
-1913-01-01	-14299
Azerbajġjan	-14300
Ekotoloġija	-14301
Ingilgarija	-14302
Iskrizzjoni	-14303
Okupazzjoni	-14304
ensjonijiet	-14305
gradazzjoni	-14306
leġiżlatura	-14307
professjoni	-14308
Ħelikopters	-14309
▁0025-5858.	-14310
▁0236-5294.	-14311
▁0269-9370.	-14312
▁03/04/1901	-14313
▁0965-2140.	-14314
▁1473-5571.	-14315
▁2887490000	-14316
▁380700000,	-14317
▁560937000.	-14318
▁7715100000	-14319
▁AEthelwald	-14320
▁Aethelwald	-14321
▁Akkademiku	-14322
▁Brutalista	-14323
▁Dipendenza	-14324
▁Favoritner	-14325
▁Industries	-14326
▁Kashubjana	-14327
▁Matematika	-14328
▁Matviyenko	-14329
▁Polderbaan	-14330
▁Presidenza	-14331
▁Volkswagen	-14332
▁distribwit	-14333
▁dixxiplina	-14334
▁iddeżinjat	-14335
▁ikkonferma	-14336
▁ikkulurati	-14337
▁komunement	-14338
▁leġislatur	-14339
▁splussjoni	-14340
▁stilistiku	-14341
-01-01-1959.	-14342
-1920-08-16.	-14343
-1932-07-27.	-14344
-1959-01-01.	-14345
-2014-10-28.	-14346
-374-26131-8	-14347
Revoluzzjoni	-14348
jazzjonijiet	-14349
▁"0002-9327"	-14350
▁01/01/2000.	-14351
▁2006-12-31.	-14352
▁Disponibbli	-14353
▁Hoofdklasse	-14354
▁Parkersburg	-14355
▁Salvadorana	-14356
▁apappassija	-14357
▁arkitettett	-14358
▁jappartjenu	-14359
▁jippreżenta	-14360
▁rreġistrata	-14361
▁timmaniġġja	-14362
▁“0001-8392”	-14363
manifatturata	-14364
oretrovirinae	-14365
▁$211,200000.	-14366
▁$556,300,000	-14367
▁179942000.0.	-14368
▁183309000.0,	-14369
▁8788850000.0	-14370
▁9,833,516.63	-14371
▁Pangasinense	-14372
▁Williamsburg	-14373
▁appappassija	-14374
▁ippubblikati	-14375
▁sottogradati	-14376
▁0-439-92550-9	-14377
▁6700000000003	-14378
▁8788850000.0,	-14379
▁88234300000.0	-14380
▁Makakalikasan	-14381
▁Mathematische	-14382
▁imkristannata	-14383
▁popularizzata	-14384
▁prinċipalment	-14385
▁"0-374-26131-8	-14386
▁"0-439-17684-0	-14387
▁0-670-03380-4,	-14388
▁162164091.8388	-14389
▁kontribuzzjoni	-14390
-1-4165-4253-7”.	-14391
popolazzjonijiet	-14392
tranżazzjonijiet	-14393
▁288749000000.0.	-14394
▁6155910000000.0	-14395
'"	-14396
.;	-14397
/>	-14398
28	-14399
5”	-14400
Aż	-14401
CF	-14402
CQ	-14403
HQ	-14404
IC	-14405
Je	-14406
Os	-14407
PP	-14408
UR	-14409
ZF	-14410
cm	-14411
eż	-14412
mâ	-14413
oq	-14414
si	-14415
tı	-14416
xj	-14417
’4	-14418
’9	-14419
▁<	-14420
▁~	-14421
.),	-14422
032	-14423
090	-14424
123	-14425
199	-14426
200	-14427
226	-14428
260	-14429
294	-14430
370	-14431
467	-14432
58”	-14433
60,	-14434
784	-14435
;”,	-14436
ASB	-14437
Abh	-14438
Ald	-14439
Auc	-14440
Bir	-14441
Cor	-14442
DBS	-14443
Dis	-14444
FSV	-14445
For	-14446
GFC	-14447
HAL	-14448
Hus	-14449
Kub	-14450
Lah	-14451
Mus	-14452
NAA	-14453
NSA	-14454
PAS	-14455
Sat	-14456
Sta	-14457
Suv	-14458
Swi	-14459
Taj	-14460
UPP	-14461
Vol	-14462
Wis	-14463
cut	-14464
daw	-14465
dew	-14466
eik	-14467
esi	-14468
eġġ	-14469
ims	-14470
iru	-14471
irġ	-14472
itu	-14473
jiġ	-14474
kux	-14475
mej	-14476
nny	-14477
odu	-14478
oss	-14479
oze	-14480
pap	-14481
ptă	-14482
pud	-14483
qox	-14484
seg	-14485
taw	-14486
vey	-14487
xin	-14488
yed	-14489
zju	-14490
ċik	-14491
ġib	-14492
ıtı	-14493
żat	-14494
’),	-14495
’12	-14496
’19	-14497
’84	-14498
’94	-14499
gż	-14500
635	-14501
66.	-14502
94.	-14503
98.	-14504
avy	-14505
maġ	-14506
plu	-14507
’21	-14508
▁4/	-14509
▁69	-14510
▁Bi	-14511
▁Et	-14512
▁Fa	-14513
▁Gt	-14514
▁JP	-14515
▁Ja	-14516
▁Kl	-14517
▁MO	-14518
▁PR	-14519
▁Ps	-14520
▁Vj	-14521
▁WI	-14522
▁an	-14523
▁at	-14524
▁ce	-14525
▁gl	-14526
▁ho	-14527
▁ix	-14528
▁na	-14529
▁pf	-14530
▁vv	-14531
▁wh	-14532
▁Şe	-14533
-185	-14534
-22.	-14535
-4-2	-14536
/197	-14537
/33.	-14538
0.0.	-14539
0.74	-14540
1999	-14541
265.	-14542
269-	-14543
3.8.	-14544
349.	-14545
4434	-14546
70.0	-14547
873.	-14548
Asto	-14549
Ball	-14550
Band	-14551
Bass	-14552
Batt	-14553
Birr	-14554
Bolt	-14555
CQAG	-14556
Dist	-14557
Flan	-14558
ISBN	-14559
Jack	-14560
Kanċ	-14561
Korp	-14562
Lond	-14563
Opel	-14564
Qrib	-14565
Ring	-14566
Wolf	-14567
alaj	-14568
andú	-14569
aner	-14570
apti	-14571
ared	-14572
ateg	-14573
awst	-14574
bani	-14575
bigħ	-14576
bred	-14577
buri	-14578
dati	-14579
dert	-14580
diet	-14581
dula	-14582
duta	-14583
edit	-14584
emon	-14585
erte	-14586
esqu	-14587
evin	-14588
ewwi	-14589
ezed	-14590
falt	-14591
form	-14592
ftuħ	-14593
hino	-14594
http	-14595
iche	-14596
iens	-14597
ilas	-14598
ilox	-14599
Mc	-14600
▁7,	-14601
-20,	-14602
Doiz	-14603
Punt	-14604
Test	-14605
fika	-14606
irma	-14607
iten	-14608
iżmu	-14609
jans	-14610
jent	-14611
jiem	-14612
jusa	-14613
kapa	-14614
kaus	-14615
kejl	-14616
kont	-14617
lewż	-14618
maġġ	-14619
mija	-14620
mpja	-14621
mâne	-14622
nesi	-14623
orru	-14624
orġu	-14625
otat	-14626
page	-14627
preż	-14628
punk	-14629
qqad	-14630
quid	-14631
riso	-14632
sajt	-14633
site	-14634
soja	-14635
sors	-14636
sslu	-14637
sħun	-14638
tasi	-14639
tata	-14640
tima	-14641
tira	-14642
tità	-14643
triq	-14644
uage	-14645
udji	-14646
ulki	-14647
ulov	-14648
umin	-14649
wamp	-14650
waħħ	-14651
wiex	-14652
ñoly	-14653
Ġerż	-14654
ġarr	-14655
ħama	-14656
żżel	-14657
’210	-14658
’973	-14659
▁(18	-14660
▁-8,	-14661
▁1.8	-14662
▁121	-14663
▁130	-14664
▁165	-14665
▁2,5	-14666
▁2.0	-14667
▁214	-14668
▁22.	-14669
▁334	-14670
▁362	-14671
▁395	-14672
▁45,	-14673
▁497	-14674
▁524	-14675
▁58.	-14676
▁686	-14677
▁7/2	-14678
▁733	-14679
▁792	-14680
▁925	-14681
▁AUD	-14682
▁Dut	-14683
▁Fis	-14684
▁Fre	-14685
▁Iff	-14686
▁Ill	-14687
▁Lad	-14688
▁Leg	-14689
▁MAr	-14690
▁MBA	-14691
▁Mck	-14692
▁Nur	-14693
▁Oak	-14694
▁Reg	-14695
▁Shu	-14696
▁SqK	-14697
▁Tip	-14698
▁arm	-14699
▁bro	-14700
▁has	-14701
▁idd	-14702
▁inn	-14703
▁jat	-14704
▁jid	-14705
▁jix	-14706
▁maj	-14707
▁mew	-14708
▁sap	-14709
▁sat	-14710
▁sen	-14711
▁soq	-14712
▁tib	-14713
▁top	-14714
▁użu	-14715
▁von	-14716
▁waq	-14717
▁was	-14718
▁Żew	-14719
▁“05	-14720
,000.	-14721
-1929	-14722
-1973	-14723
-1980	-14724
-1993	-14725
/1856	-14726
370”.	-14727
Arabu	-14728
Atene	-14729
Auckl	-14730
Baked	-14731
Banda	-14732
Coupé	-14733
Forzi	-14734
Gżoni	-14735
Hotel	-14736
IColo	-14737
Iswed	-14738
Kruċi	-14739
Kurun	-14740
Logan	-14741
Majst	-14742
Matur	-14743
Melja	-14744
Palas	-14745
Pound	-14746
Press	-14747
Ridge	-14748
Rover	-14749
Santa	-14750
Tamil	-14751
Valur	-14752
Wispa	-14753
alsme	-14754
ambju	-14755
annon	-14756
armun	-14757
arron	-14758
arros	-14759
avven	-14760
bredo	-14761
bronż	-14762
brook	-14763
ceton	-14764
dinar	-14765
dwell	-14766
eball	-14767
emmet	-14768
encia	-14769
entat	-14770
entur	-14771
eroża	-14772
esgħa	-14773
fanti	-14774
finch	-14775
gaard	-14776
gnite	-14777
hinna	-14778
ikati	-14779
irġiż	-14780
isaġġ	-14781
isfor	-14782
itwit	-14783
jiġja	-14784
katur	-14785
kless	-14786
kupat	-14787
lewnd	-14788
liiga	-14789
lista	-14790
matad	-14791
motto	-14792
mujer	-14793
okali	-14794
orius	-14795
paġna	-14796
pluta	-14797
poals	-14798
pudin	-14799
qoxra	-14800
radju	-14801
rawli	-14802
rombu	-14803
rovdu	-14804
silox	-14805
sodda	-14806
stika	-14807
tegra	-14808
titur	-14809
toroq	-14810
tqass	-14811
unior	-14812
uring	-14813
versa	-14814
volvi	-14815
ċeptă	-14816
ġdida	-14817
ġenza	-14818
żjana	-14819
’1913	-14820
’8500	-14821
▁14.2	-14822
▁1411	-14823
▁156.	-14824
▁168)	-14825
▁1773	-14826
▁1853	-14827
▁1855	-14828
▁1873	-14829
▁1921	-14830
▁1941	-14831
▁1958	-14832
▁2003	-14833
▁2939	-14834
▁2988	-14835
▁3090	-14836
▁330.	-14837
▁38.8	-14838
▁470.	-14839
▁5.57	-14840
▁512.	-14841
▁63.8	-14842
▁6573	-14843
▁678.	-14844
▁7202	-14845
▁Aber	-14846
▁Anne	-14847
▁Drew	-14848
▁Erba	-14849
▁Eyed	-14850
▁Hazz	-14851
▁Ibra	-14852
▁Igor	-14853
▁Jama	-14854
▁Juli	-14855
▁KACY	-14856
▁Kull	-14857
▁Leni	-14858
▁Mili	-14859
▁Navy	-14860
▁Oper	-14861
▁Peas	-14862
▁Rico	-14863
▁Sage	-14864
▁Siġġ	-14865
▁Sony	-14866
▁Vitt	-14867
▁alas	-14868
▁also	-14869
▁bank	-14870
▁cook	-14871
▁dras	-14872
▁fażi	-14873
▁full	-14874
▁jgħi	-14875
▁john	-14876
▁kupi	-14877
▁land	-14878
▁liga	-14879
▁lira	-14880
▁modi	-14881
▁nkis	-14882
▁okku	-14883
▁qrib	-14884
▁saru	-14885
▁snin	-14886
▁tali	-14887
▁tara	-14888
▁tiff	-14889
▁tmur	-14890
▁wave	-14891
▁ġazz	-14892
-01-19	-14893
-04-17	-14894
-07-23	-14895
-11/08	-14896
-1933.	-14897
-1958,	-14898
-1961,	-14899
-1961.	-14900
-1964,	-14901
-1969.	-14902
-1971,	-14903
-1983,	-14904
-1988,	-14905
-2003,	-14906
/1857.	-14907
/1983,	-14908
/2005.	-14909
0.0.0.	-14910
0.744.	-14911
AAIDBI	-14912
Albany	-14913
Albert	-14914
Almond	-14915
Collin	-14916
Crafts	-14917
Granet	-14918
Intern	-14919
Iżmien	-14920
Katell	-14921
Klassi	-14922
Krafts	-14923
Lahore	-14924
Latina	-14925
Lutent	-14926
Mattan	-14927
Milied	-14928
Ostine	-14929
Rupija	-14930
Swider	-14931
Tajrol	-14932
Varese	-14933
Vectra	-14934
aleigh	-14935
ammont	-14936
angsta	-14937
aptist	-14938
awstru	-14939
dottor	-14940
entati	-14941
erbaan	-14942
ertura	-14943
esquin	-14944
estend	-14945
ettuce	-14946
farrat	-14947
fassla	-14948
format	-14949
hinoma	-14950
immuna	-14951
impjie	-14952
ispiża	-14953
kaptur	-14954
kliewi	-14955
kunzju	-14956
maġġor	-14957
miżuri	-14958
modern	-14959
monark	-14960
nudles	-14961
onoxxi	-14962
petrol	-14963
poales	-14964
ptures	-14965
rasher	-14966
rative	-14967
ressqa	-14968
rocker	-14969
rupija	-14970
sassam	-14971
siomay	-14972
siġill	-14973
sossis	-14974
tajiet	-14975
tisjir	-14976
togħab	-14977
turing	-14978
wartat	-14979
wasslu	-14980
xjenza	-14981
ġeneri	-14982
ħaddmu	-14983
ħallat	-14984
ħallef	-14985
ħtieġa	-14986
’214.0	-14987
’346.0	-14988
▁"1930	-14989
▁0269-	-14990
▁03/03	-14991
▁04/22	-14992
▁05/05	-14993
▁120.0	-14994
▁12467	-14995
▁1418.	-14996
▁171.0	-14997
▁1776.	-14998
▁179.0	-14999
▁1793.	-15000
▁18.44	-15001
▁184.0	-15002
▁1873.	-15003
▁1918,	-15004
▁1947,	-15005
▁1953,	-15006
▁1968.	-15007
▁1979,	-15008
▁1986,	-15009
▁1988,	-15010
▁2,032	-15011
▁2004-	-15012
▁2013-	-15013
▁23.8.	-15014
▁24.0,	-15015
▁258.0	-15016
▁362.0	-15017
▁37,16	-15018
▁380,7	-15019
▁4000.	-15020
▁55312	-15021
▁597.0	-15022
▁600.0	-15023
▁900.0	-15024
▁94531	-15025
▁ADICE	-15026
▁Agora	-15027
▁Alama	-15028
▁Alley	-15029
▁Anıtı	-15030
▁Avant	-15031
▁Bakou	-15032
▁Balan	-15033
▁Banjo	-15034
▁Batak	-15035
▁Booze	-15036
▁Brita	-15037
▁Bruce	-15038
▁Bunds	-15039
▁Charl	-15040
▁EPSTH	-15041
▁Faroż	-15042
▁Finch	-15043
▁Forth	-15044
▁Green	-15045
▁Halls	-15046
▁Jaish	-15047
▁Javan	-15048
▁Kanad	-15049
▁Kevin	-15050
▁Korea	-15051
▁Kurdi	-15052
▁Magna	-15053
▁Metro	-15054
▁Minna	-15055
▁Pound	-15056
▁Rikan	-15057
▁Ritmu	-15058
▁Servi	-15059
▁Sewwi	-15060
▁Swamp	-15061
▁Texan	-15062
▁Unita	-15063
▁Vilas	-15064
▁Warts	-15065
▁Weder	-15066
▁bakso	-15067
▁based	-15068
▁beton	-15069
▁biċċa	-15070
▁daħeb	-15071
▁defun	-15072
▁emitt	-15073
▁fatti	-15074
▁fosil	-15075
▁fuqha	-15076
▁glade	-15077
▁hojao	-15078
▁inqas	-15079
▁irkup	-15080
▁irrik	-15081
▁issiġ	-15082
▁jeżer	-15083
▁jgħin	-15084
▁jibda	-15085
▁kiesħ	-15086
▁kurdi	-15087
▁kważi	-15088
▁label	-15089
▁malas	-15090
▁mexej	-15091
▁mietu	-15092
▁paner	-15093
▁raġel	-15094
▁reċip	-15095
▁speak	-15096
▁sport	-15097
▁squid	-15098
▁suppa	-15099
▁tadam	-15100
▁tbigħ	-15101
▁uniku	-15102
▁ħalls	-15103
▁ħares	-15104
▁“1923	-15105
-05-20.	-15106
-08-01.	-15107
-09-27.	-15108
-11-02.	-15109
30000.0	-15110
88-2632	-15111
Amharic	-15112
Andrews	-15113
Ankarra	-15114
Antwerp	-15115
Arctech	-15116
Astojdi	-15117
Belgraf	-15118
Central	-15119
Coronet	-15120
Didburg	-15121
Diliman	-15122
Falkons	-15123
Fantasi	-15124
Fiction	-15125
Ganymed	-15126
Gwardja	-15127
Ilocano	-15128
Ispanja	-15129
Ispords	-15130
Jackson	-15131
Kantità	-15132
Kopenja	-15133
Kopenje	-15134
Menasha	-15135
Olympja	-15136
Orbital	-15137
Portour	-15138
Pressja	-15139
Suvulki	-15140
Suwalki	-15141
Veteran	-15142
amboang	-15143
awtoppa	-15144
bodhrán	-15145
eikkaus	-15146
elandja	-15147
emorati	-15148
ermania	-15149
ermanja	-15150
fantina	-15151
ffinali	-15152
gżejjer	-15153
identif	-15154
inistri	-15155
istorji	-15156
itenvel	-15157
kanturi	-15158
karozzi	-15159
kuxejja	-15160
manenti	-15161
matador	-15162
muntati	-15163
nazzjon	-15164
oneiche	-15165
ostbaan	-15166
pjanist	-15167
preżent	-15168
queezed	-15169
timenti	-15170
trattur	-15171
ustriji	-15172
websajt	-15173
’64.008	-15174
▁0.0999	-15175
▁07.14.	-15176
▁07/25.	-15177
▁1,121.	-15178
▁1,873.	-15179
▁11.35.	-15180
▁11/29.	-15181
▁13/31.	-15182
▁15/33.	-15183
▁1533.0	-15184
▁17.28.	-15185
▁18.52,	-15186
▁1800.0	-15187
▁184434	-15188
▁3,310.	-15189
▁3,500.	-15190
▁4,100.	-15191
▁4,349.	-15192
▁877.0.	-15193
▁95040.	-15194
▁Airbus	-15195
▁Buxton	-15196
▁Cannon	-15197
▁Chieti	-15198
▁Filipp	-15199
▁Ijiġja	-15200
▁Junior	-15201
▁Kourou	-15202
▁Kristi	-15203
▁Legacy	-15204
▁MArtin	-15205
▁Mastin	-15206
▁Misaġġ	-15207
▁Nativi	-15208
▁Peters	-15209
▁Regina	-15210
▁Sirjan	-15211
▁Slavey	-15212
▁Tennis	-15213
▁Tinsab	-15214
▁Viñoly	-15215
▁Vjenna	-15216
▁Wakrah	-15217
▁Warner	-15218
▁Warton	-15219
▁Wilkes	-15220
▁alaska	-15221
▁assiżi	-15222
▁assorb	-15223
▁banani	-15224
▁biljun	-15225
▁bħalma	-15226
▁danzza	-15227
▁etnika	-15228
▁fattur	-15229
▁ffirma	-15230
▁għadda	-15231
▁għadha	-15232
▁għamlu	-15233
▁imwiel	-15234
▁imwiet	-15235
▁irtira	-15236
▁jiekol	-15237
▁jġorru	-15238
▁kitbet	-15239
▁kwarti	-15240
▁lottoj	-15241
▁metodu	-15242
▁nstabu	-15243
▁ntuħet	-15244
▁perażi	-15245
▁platti	-15246
▁qabżat	-15247
▁române	-15248
▁sakemm	-15249
▁sandeh	-15250
▁siomay	-15251
▁skopri	-15252
▁sponge	-15253
▁studja	-15254
▁tagħti	-15255
▁tgawdi	-15256
▁titjir	-15257
▁tnieda	-15258
▁vvotat	-15259
▁xjenzi	-15260
▁ħabdem	-15261
▁ħajjin	-15262
-2006-12	-15263
-2009-10	-15264
1-07-03.	-15265
25-5858”	-15266
Atlantha	-15267
Auckland	-15268
Belgrade	-15269
Bilitari	-15270
Binignit	-15271
Brażilji	-15272
Chrysler	-15273
Disinjar	-15274
Doesburg	-15275
Galactic	-15276
Internet	-15277
Iskambju	-15278
Kmandant	-15279
Kontecut	-15280
Kurunell	-15281
Lunchjar	-15282
Mamiffer	-15283
Palastru	-15284
Postriji	-15285
Varsovja	-15286
Warsovja	-15287
amateurs	-15288
aminatur	-15289
ataloniż	-15290
attament	-15291
dertbaan	-15292
djużjoni	-15293
editutur	-15294
hardback	-15295
kapaċità	-15296
konċerna	-15297
meringue	-15298
regolati	-15299
rimestru	-15300
rombjali	-15301
silġenza	-15302
subġenru	-15303
sustanzi	-15304
ġoblanco	-15305
▁102372,	-15306
▁102372.	-15307
▁1219.0.	-15308
▁13017.0	-15309
▁1800.0.	-15310
▁1873.0.	-15311
▁1896-02	-15312
▁2014–15	-15313
▁2194.0.	-15314
▁253260.	-15315
▁2900.0.	-15316
▁3090.0.	-15317
▁39500.0	-15318
▁40.744.	-15319
▁Ashnesi	-15320
▁Baptist	-15321
▁Castell	-15322
[...]
